[PAD]
[UNK]
[CLS]
[SEP]
[MASK]
!
"
#
$
%
&
'
(
)
*
+
,
-
.
/
0
1
2
3
4
5
6
7
8
9
:
;
<
=
>
?
@
A
B
C
D
E
F
G
H
I
J
K
L
M
N
O
P
Q
R
S
T
U
V
W
X
Y
Z
\
^
_
`
a
b
c
d
e
f
g
h
i
j
k
l
m
n
o
p
q
r
s
t
u
v
w
x
y
z
{
|
}
~
¡
¢
£
¤
¥
¦
§
¨
©
ª
«
¬
®
¯
°
±
²
³
´
µ
¶
·
¹
º
»
¼
½
¾
¿
À
Á
Â
Ã
Ä
Å
Æ
Ç
È
É
Ê
Ë
Ì
Í
Î
Ï
Ð
Ñ
Ò
Ó
Ô
Õ
Ö
×
Ø
Ù
Ú
Û
Ü
Ý
Þ
ß
à
á
â
ã
ä
å
æ
ç
è
é
ê
ë
ì
í
î
ï
ð
ñ
ò
ó
ô
õ
ö
÷
ø
ù
ú
û
ü
ý
þ
ÿ
Ā
ā
ă
ą
Ć
ć
ĉ
ċ
Č
č
Ď
ď
Đ
đ
Ē
ē
ĕ
Ė
ė
ę
ě
ĝ
Ğ
ğ
Ġ
ġ
ģ
Ħ
ħ
ĩ
Ī
ī
ĭ
į
İ
ı
Ķ
ķ
ĸ
ĺ
ļ
Ľ
ľ
Ł
ł
ń
ņ
ň
ŋ
Ō
ō
ŏ
Ő
ő
Œ
œ
ŕ
ŗ
Ř
ř
Ś
ś
ŝ
Ş
ş
Š
š
ţ
Ť
ť
ũ
Ū
ū
ŭ
ů
ű
ų
ŵ
ŷ
ź
Ż
ż
Ž
ž
ſ
Ə
ơ
ư
ǎ
ǐ
ǒ
ǔ
ǝ
Ǧ
ǧ
ǫ
ǵ
Ș
ș
Ț
ț
ȟ
ȥ
ȧ
ȯ
ɐ
ɑ
ɔ
ɕ
ɗ
ɘ
ə
ɛ
ɜ
ɡ
ɣ
ɨ
ɪ
ɫ
ɯ
ɰ
ɲ
ɹ
ɾ
ʁ
ʃ
ʉ
ʊ
ʌ
ʎ
ʏ
ʑ
ʒ
ʔ
ʕ
ʦ
ʰ
ʲ
ʷ
ʹ
ʻ
ʼ
ʾ
ʿ
ˀ
ˁ
ˈ
ˌ
ː
ˠ
˥
˦
˧
˨
˩
̀
́
̂
̃
̄
̆
̇
̈
̌
̍
̕
̥
̦
̩
̯
̲
͡
͵
Ά
Α
Β
Γ
Δ
Ε
Ζ
Η
Θ
Ι
Κ
Λ
Μ
Ν
Ξ
Ο
Π
Ρ
Σ
Τ
Υ
Φ
Χ
Ψ
Ω
ά
έ
ή
ί
α
β
γ
δ
ε
ζ
η
θ
ι
κ
λ
μ
ν
ξ
ο
π
ρ
ς
σ
τ
υ
φ
χ
ψ
ω
ϊ
ό
ύ
ώ
ϑ
Ё
І
А
Б
В
Г
Д
Е
Ж
З
И
Й
К
Л
М
Н
О
П
Р
С
Т
У
Ф
Х
Ц
Ч
Ш
Щ
Ъ
Ы
Ь
Э
Ю
Я
а
б
в
г
д
е
ж
з
и
й
к
л
м
н
о
п
р
с
т
у
ф
х
ц
ч
ш
щ
ъ
ы
ь
э
ю
я
ё
є
і
ї
ј
ў
ѣ
ѳ
ң
ү
һ
Ӏ
ә
ӧ
Ө
ө
ա
ե
ի
ն
ր
ְ
ִ
ֵ
ֶ
ַ
ָ
ֹ
ּ
־
ׁ
א
ב
ג
ד
ה
ו
ז
ח
ט
י
ך
כ
ל
ם
מ
ן
נ
ס
ע
פ
ץ
צ
ק
ר
ש
ת
װ
ا
ب
ة
ت
ج
ح
خ
د
ر
ز
س
ش
ص
ط
ع
غ
ف
ق
ك
ل
م
ن
ه
و
ى
ي
َ
ِ
ْ
ی
ܐ
ܒ
ܕ
ܗ
ܘ
ܚ
ܝ
ܠ
ܡ
ܢ
ܪ
ܫ
ܬ
क
ग
ण
त
द
ध
न
ब
म
य
र
ल
व
स
ा
ि
ी
ु
े
्
அ
இ
எ
க
ங
ச
ட
ண
த
ந
ன
ப
ம
ய
ர
ற
ல
ள
ழ
வ
ா
ி
ீ
ு
ெ
ே
ை
ொ
ோ
்
ก
ง
ช
ด
ท
น
พ
ม
ย
ร
ล
ว
อ
ะ
ั
า
ิ
เ
་
།
ཁ
ག
ང
ཅ
ཆ
ད
ན
པ
བ
མ
ཚ
ཟ
འ
ཡ
ར
ལ
ས
ཨ
ི
ུ
ེ
ོ
ྱ
ྲ
ა
ე
ვ
თ
ი
ლ
მ
ო
რ
ს
უ
ც
ለ
ል
ት
ን
አ
ፈ
ḍ
ḏ
ḗ
Ḥ
ḥ
Ḫ
ḫ
Ḳ
ḳ
ḷ
ḻ
ṃ
ṅ
ṇ
ṉ
ṓ
ṛ
ṟ
Ṣ
ṣ
Ṭ
ṭ
ṯ
ẓ
ẞ
ạ
ả
ấ
ầ
ậ
ắ
ẵ
ẹ
ẽ
ế
ề
ễ
ệ
ị
ọ
ố
ồ
ổ
ộ
ớ
ụ
ủ
ứ
ự
ἀ
ἁ
ἄ
Ἀ
ἐ
ἔ
ἡ
ἰ
ἱ
Ἰ
ὀ
ὁ
ὄ
ὐ
ὑ
ὰ
ὲ
ὴ
ὶ
ὸ
ὺ
ᾶ
ῆ
ῖ
ῦ
ῶ
ῷ
‐
‑
‒
–
—
―
‘
’
‚
“
”
„
†
•
…
‰
′
″
‹
›
‿
⁰
₂
€
℔
№
™
⅓
⅔
Ↄ
←
↑
→
↓
↔
↪
⇒
⇔
∅
∈
∑
−
∙
√
∞
∧
∨
∴
∼
≈
≙
≠
≡
≤
≥
⊂
⊆
⊙
⋅
⌀
⌊
⌋
⌥
─
│
▀
▃
▄
█
▏
▕
■
▢
▣
▪
▬
▭
△
◇
◊
○
●
★
☆
☉
♀
♂
♭
⚭
✓
⟨
⟩
、
〈
〉
《
》
き
し
ち
な
の
ん
ア
イ
カ
ス
タ
ッ
テ
ト
ド
マ
リ
ル
レ
ン
ー
一
丁
三
上
丑
丙
东
中
乙
亥
京
人
会
元
公
北
区
午
南
卯
县
合
名
周
和
国
國
土
城
壬
大
天
太
姬
子
学
安
宋
宗
家
寅
尔
山
川
州
己
巳
市
帝
平
庆
庚
德
念
戊
戌
文
新
族
日
明
星
春
朝
木
未
本
李
村
東
林
毛
民
水
永
江
河
治
法
海
清
湖
火
王
生
甲
申
町
癸
的
皇
社
福
自
華
行
西
辛
辰
通
道
郡
酉
金
镇
阳
陽
高
龙
🌑
##a
##r
##d
##p
##e
##l
##n
##i
##v
##s
##b
##o
##t
##h
##k
##f
##z
##g
##u
##w
##y
##m
##ä
##j
##c
##ü
##2
##S
##1
##0
##5
##6
##3
##9
##7
##8
##4
##B
##N
##D
##G
##J
##x
##K
##T
##ö
##о
##в
##г
##р
##д
##і
##к
##а
##é
##E
##Z
##L
##A
##V
##F
##q
##M
##R
##P
##°
##ā
##ß
##Ö
##W
##C
##ō
##O
##ó
##ş
##ò
##I
##H
##č
##±
##ê
##ë
##и
##п
##Y
##š
##ć
##Ü
##æ
##X
##ẓ
##ē
##с
##е
##н
##ь
##л
##ì
##è
##ū
##ṭ
##ṟ
##ṉ
##ַ
##ק
##ְ
##ט
##ִ
##י
##נ
##ָ
##ה
##á
##ž
##ț
##ă
##ð
##ç
##ī
##å
##й
##´
##U
##ο
##γ
##ί
##α
##õ
##έ
##ν
##υ
##ς
##−
##ł
##ス
##ト
##ḍ
##í
##â
##ã
##ñ
##ǫ
##ʊ
##̯
##ů
##ʰ
##ŋ
##ע
##ם
##ṃ
##ś
##ו
##ר
##ʿ
##ι
##δ
##ε
##ύ
##σ
##ל
##ד
##ת
##ı
##ô
##ə
##я
##ú
##́
##ŭ
##ą
##î
##ġ
##ḥ
##ɨ
##ʔ
##à
##˨
##˩
##˧
##ę
##ý
##щ
##т
##ы
##đ
##ě
##ό
##π
##ρ
##б
##ų
##ș
##ṣ
##ř
##²
##ч
##ṇ
##ར
##τ
##ά
##κ
##½
##─
##ὐ
##ώ
##η
##Ä
##ň
##ń
##×
##ɪ
##ố
##Q
##ť
##ц
##у
##ǔ
##ː
##ル
##マ
##の
##θ
##μ
##λ
##¤
##ğ
##ф
##ω
##ʲ
##ɯ
##ъ
##э
##ּ
##þ
##ż
##ʾ
##ɐ
##ˈ
##ץ
##ď
##ʻ
##φ
##ǵ
##ņ
##ῆ
##¹
##м
##ï
##ֵ
##ĩ
##ή
##̄
##ė
##ø
##ш
##ֹ
##ב
##ʑ
##█
##ོ
##ཆ
##མ
##œ
##ǐ
##̀
##х
##ḫ
##א
##ϑ
##ж
##ĕ
##χ
##ʼ
##ζ
##ே
##ல
##ை
##ய
##Ú
##ɕ
##த
##ச
##்
##ི
##ང
##û
##ן
##ё
##ệ
##ṯ
##ḷ
##˥
##ѣ
##Ж
##Л
##ل
##ا
##བ
##თ
##მ
##ო
##ც
##ი
##ɔ
##Α
##Τ
##ǎ
##ù
##ש
##ׁ
##מ
##ֶ
##ب
##ر
##ت
##ه
##Ş
##ʉ
##ѳ
##̇
##←
##ɛ
##ʦ
##▣
##פ
##з
##ि
##ु
##द
##्
##ध
##€
##ח
##ა
##რ
##უ
##ლ
##β
##³
##ṓ
##Ř
##ז
##Э
##В
##ǝ
##ྲ
##ུ
##ས
##™
##ர
##É
##ὴ
##ǧ
##צ
##ṛ
##ξ
##ő
##Ε
##Ι
##Δ
##Ο
##Υ
##ŏ
##ʒ
##ȟ
##◇
##ม
##อ
##ง
##ร
##า
##น
##ס
##º
##¦
##ṅ
##ḳ
##ե
##ն
##ր
##ा
##न
##त
##ʃ
##ி
##ன
##க
##ற
##ắ
##ג
##Ӏ
##き
##ち
##ん
##ļ
##ḗ
##▄
##̈
##Ñ
##Í
##ɑ
##ั
##ก
##Ω
##Β
##ῖ
##し
##な
##ţ
##ĺ
##ʹ
##ķ
##↓
##→
##כ
##Ô
##һ
##ʏ
##ї
##வ
##ள
##̃
##ு
##ῶ
##ெ
##̕
##Θ
##ȧ
##ȯ
##े
##ल
##य
##А
##Р
##ǒ
##ħ
##ế
##ɜ
##ſ
##∙
##س
##ك
##ن
##د
##ي
##ة
##ொ
##ா
##ம
##ю
##व
##स
##क
##ج
##ز
##ʷ
##ف
##ー
##ッ
##ン
##®
##ḏ
##ј
##̆
##ạ
##Č
##ư
##Ț
##ங
##Б
##ག
##ق
##△
##Ū
##İ
##و
##ཅ
##ὸ
##م
##☆
##ட
##Ↄ
##ح
##ع
##ź
##ĝ
##₂
##Ν
##Ρ
##Π
##ơ
##≡
##ў
##ĸ
##̥
##リ
##Ž
##ả
##ド
##テ
##イ
##͡
##ũ
##Ā
##ɣ
##ण
##र
##Н
##З
##И
##Т
##ܬ
##ܝ
##ܐ
##Ø
##∞
##ọ
##⅔
##ண
##▃
##ῦ
##ľ
##ɗ
##ܒ
##ܪ
##Á
##↔
##ự
##ẹ
##Ά
##Μ
##Γ
##ի
##ү
##ት
##ப
##ẽ
##⌥
##ན
##⊂
##Κ
##Λ
##Η
##Σ
##ܚ
##ܫ
##̩
##ˠ
##▪
##ŵ
##ψ
##Œ
##ܕ
##ܗ
##म
##ग
##̂
##ʁ
##ア
##ề
##Ф
##С
##∴
##ÿ
##ْ
##ე
##ἰ
##ĭ
##▢
##Φ
##Š
##ẵ
##̍
##ீ
##▀
##Д
##ɾ
##ա
##ớ
##ű
##ὶ
##غ
##¢
##Ψ
##ᾶ
##ɫ
##ὰ
##Ó
##К
##ἱ
##Ł
##À
##པ
##į
##ܢ
##˦
##ө
##ˁ
##≠
##ش
##Ľ
##ோ
##☉
##ܠ
##ộ
##П
##ว
##ད
##ị
##ŷ
##ى
##ϊ
##ˀ
##ẞ
##ழ
##タ
##ེ
##ɘ
##О
##ŕ
##Ш
##̦
##َ
##ὺ
##ย
##خ
##ủ
##ῷ
##Χ
##ܘ
##ɲ
##ὲ
##ی
##ந
##ἀ
##ब
##ी
##ɹ
##Ḫ
##̌
##ɡ
##¨
##Ê
##ِ
##ط
##♂
##ậ
##װ
##འ
##ʌ
##ȥ
##ģ
##ך
##М
##ܡ
##¥
##©
##ፈ
##ል
##ụ
##ྱ
##ص
##Ã
##¾
##Г
##ʎ
##ʕ
##ấ
##ལ
##ะ
##พ
##ท
##ช
##เ
##ล
##ิ
##ὁ
##ለ
##ს
##̲
##ầ
##≥
##ổ
##ŝ
##★
##ḻ
##Ć
##ң
##Ś
##Ζ
##Đ
##¼
##Ì
##ә
##ཟ
##Å
##У
##Е
##ồ
##ċ
##ӧ
##Ō
##ด
##Ē
##є
##ŗ
##Ð
##ཡ
##Ю
##カ
##Æ
##≈
##ĉ
##ɰ
##⁰
##レ
##Ï
##♭
##µ
##¯
##↑
##ཁ
##⋅
##ἐ
##Ç
##Х
##Я
##ን
##Ө
##⊙
##Õ
##Þ
##Ż
##ვ
##Ь
##Ξ
##È
##♀
##∧
##Ч
##ễ
##Ḥ
##÷
##Ī
##Ò
##●
##ὀ
##Û
##∈
##ˌ
##⅓
##≤
##Â
##◊
##ὑ
##Ý
##ཚ
##▏
##Ë
##Ğ
##ª
##Ы
##Ц
##Ť
##ἁ
##Щ
##¬
##■
##Ħ
##አ
##Ù
##Ḳ
##√
##ứ
##Ъ
##Ė
##Й
##er
##en
##ch
##ei
##ie
##nd
##st
##in
##sch
##on
##ng
##te
##es
der
##an
##ar
##or
##el
##ich
##ur
##al
##it
##ung
und
##at
die
##em
##us
##isch
##as
ein
##hr
##ten
##ig
in
##ter
##ol
##et
##ra
19
##is
##ber
von
##uf
##den
##ge
##il
##ein
##eu
##and
##am
##lich
##ach
##gen
##eit
##ion
##om
##de
##ier
er
##der
St
zu
##ir
##le
des
den
##ik
##au
##ür
##ck
##ro
##ls
##rei
20
Sch
mit
das
Die
im
##uch
##ben
##ischen
##se
##kt
##nt
##eg
ver
ge
##ft
auf
##ahr
##sen
Ver
##ind
##und
##um
##re
##ien
##ah
##icht
##est
##ist
##ann
dem
##ad
##ell
##tsch
##un
als
wur
In
##ff
##ent
##ische
##wei
ist
##ut
##la
für
##sp
##eich
##ern
aus
##he
##iel
Ge
##men
eine
sich
18
##eh
##rie
##ed
an
##ul
##ver
##os
##ungen
##ab
Er
##ation
##ot
Ein
##nter
Jahr
##ri
##eutsch
##ang
##och
bei
##ger
wurde
##urch
##ll
##ischer
200
##eil
auch
be
##op
sein
##oh
##ehr
##im
##igen
##etz
Ka
##ungs
##og
##nder
##ing
##ru
##ran
##ag
##aft
nach
##aus
war
##rü
am
Sp
##end
##ert
so
wir
über
##rä
##ech
##iv
durch
An
##nen
Ar
wer
##ser
Der
201
##är
##ort
##sten
##chen
##ät
##ör
werden
##ug
oder
einer
##00
wird
##ne
Be
##ster
st
unter
nicht
bis
um
##adt
##art
zur
##lie
##pp
sch
vor
##teg
##orie
##ner
##be
ent
##hal
sind
wie
##ige
##stell
##land
zum
##lin
##ön
sie
##lichen
##che
Pro
##schaft
##ic
##ler
Kateg
Al
Kategorie
deutsch
199
Ma
##her
##oll
Ber
##mer
##elt
##eb
##rit
##tel
##all
##bur
ab
es
Aus
##ste
##nde
##ühr
Mit
Ab
##od
##zen
##iert
##ts
##ust
##liche
##erk
##ahl
##ord
Auf
ihr
##orm
Das
hat
einem
17
##ep
##eiter
##ers
##tet
Im
##reich
##id
##uss
Stadt
##ant
Land
##ia
sp
##ass
Mar
##iz
##pf
Or
##lä
##ib
##ess
##hen
198
##gt
##ard
##ob
##ild
##geb
##af
dass
einen
Ch
##enn
##ick
Her
##ap
##ud
##ün
##ill
##burg
Deutsch
Nach
##ub
##ak
197
Kon
##ßen
##eben
##ow
##äng
##keit
15
##ges
Sie
all
16
##atur
##rich
##hl
##ähr
##ok
##alt
##reis
wurden
##atz
Reg
##itz
##berg
Vor
##wa
##ken
Fran
##me
##cht
##ück
##olit
##wie
ander
##tern
IS
##sel
196
Unter
Zeit
##ial
Am
##zeich
##auf
##iker
##gel
Gr
##tes
nur
##eiten
##weise
##ph
##ez
194
##ens
zw
##heit
##bar
##ks
##pt
##BN
##of
ISBN
##ekt
##leich
##enz
##anz
Un
##aten
##eut
Bei
US
Fl
Re
##omp
The
zwei
##ian
un
##ov
195
##nis
##sk
et
##uß
##att
mehr
##alen
##omm
##fol
##per
12
best
##eine
##ktion
193
##ahn
##ast
##av
##ikan
##roß
##ek
So
##hn
##ale
##fl
deutscher
##ichte
##mus
##äl
10
##führ
##ieren
Chr
##hund
vom
##arb
##schie
##ss
al
##änd
##ität
##aben
##ierung
##utz
14
##olog
##ht
Mus
Jahrhund
##bau
eines
noch
Kl
Gem
##fahr
aber
##reu
ang
##eist
Ph
##net
de
##ember
##iger
##qu
##ieler
neu
##stand
##ieder
##gr
##ark
##ierte
Jahrhundert
##arl
Ent
Gesch
##üd
kon
dar
13
gegen
##schl
##tem
##vers
##öl
11
##raf
##eim
##ay
##zeit
##io
##imm
weiter
Ges
##elle
##rat
##als
##ommen
##pl
Schw
##lag
##pr
Dat
##nung
Bund
zwischen
bes
Ro
gen
##ffen
##eln
##ult
##mann
sowie
##amm
##ammen
ste
##eits
##ini
Um
192
Sta
##ath
##lung
##önig
##schen
##wick
kann
##ös
##yst
Geb
##ron
##zu
man
seit
ber
gew
##igkeit
##issen
##kl
##if
##ohn
Bl
##ium
##etzt
##annt
##acht
##ingen
Th
Über
of
##rag
lie
##form
Pl
##ition
##rupp
##äch
Teil
jed
##iet
da
##oren
Kir
##sb
gel
##gesch
##rö
##rach
##assen
Welt
##erd
Datei
##ystem
seiner
##teil
##eld
##rieg
dies
##erikan
##üt
##eter
##usammen
##bst
##ex
191
##off
Bo
##urop
König
##ip
Jahre
##äd
##alls
##ram
##tschaft
##entr
Neu
Bundes
Deutschland
##wend
##orf
Es
##egen
kön
Frie
##rift
##th
##nah
Aug
ges
##wer
Berlin
Bau
waren
Qu
##ehen
amerikan
##mit
dieser
etwa
Br
##ac
##ald
##eid
##ker
##eute
##ater
##ine
##amen
seine
Ant
##iter
Polit
##du
##än
Men
##aupt
Ad
##rau
##ans
##bl
wieder
##haus
##ive
##ilm
##ym
##gem
##ober
hin
##ellen
##rad
##ett
##fer
##werk
##asser
hatte
jedoch
##neh
##ismus
##onder
bet
Gemei
##ohl
##pieler
##ög
##org
Schl
##licher
##stadt
##inn
Jan
##hm
##ße
her
##ew
kl
##iss
##iele
##ock
##äter
##our
diese
##ähl
##zw
II
##ibt
Frank
beg
mini
##nden
##zeu
##els
je
Beg
Gen
Reich
dam
El
sel
##age
##kehr
West
##halten
Jul
##hör
Ober
Leben
Pr
##glie
verb
August
##yp
Jahren
##iden
Uni
##old
##auer
##lage
##elm
bef
soll
##rech
##ionen
##sterreich
Mon
##ährend
190
##rieb
Aut
Ste
##gang
##ys
##ere
können
##bert
##unden
##78
##br
Le
Grund
##eite
##ou
Wir
##ze
##orden
Zu
Ger
##ma
Rech
000
##ierten
##aut
führ
##fen
##ließ
##aften
erst
Hand
##abe
Gl
##riff
Stra
Okt
##ce
Arb
Se
##ke
Mär
##ander
Groß
##pro
Eine
##spiel
##istor
Mai
##vor
##iteratur
##cken
bek
##ost
##tal
##ats
Ex
drei
##ius
##ultur
haben
fol
Dez
Haupt
##weg
Sep
Univers
Nord
Nov
Apr
For
##ffent
Jun
Mün
##bild
jp
##ren
##olle
gibt
##ose
##geben
##zös
##olf
##eister
##ngl
##iff
Fried
Pers
jpg
##stein
##schieden
##uar
Par
##aler
##yn
##ond
189
später
##inz
##amt
##hne
##richt
Bet
##halb
anderen
25
April
##oph
ger
##ationen
##for
Vol
heute
##tt
Christ
##ruck
##wir
Für
Web
##ubl
Oktober
##rom
##man
Einz
##ält
##gend
##üs
Literatur
Ang
Joh
##issenschaft
##stellung
Art
##ate
##hof
Bild
Januar
ersten
##heim
##aden
##setz
##ürger
grö
Komp
##zial
##igt
größ
##ständ
##inden
Dezember
##nte
##zer
21
ihre
##stra
##hem
##ings
Kar
##min
##satz
Johann
Geschichte
30
gehör
##schaften
##oss
##fü
erh
##az
##stellt
Wei
pro
Film
Diese
Ind
März
##tember
Pf
##cke
gem
##öglich
##onen
Verb
##ct
##ational
September
##über
##fang
##ologie
##ina
##akt
##inder
##ite
the
##ott
Juni
##ielt
Part
Ur
##ogen
fran
Juli
##itt
gleich
##ule
All
##fe
Europ
##steller
##ende
##isches
Als
Man
Werk
Kur
##oten
ausge
##orn
Bes
Wil
##such
##igung
##sg
Pol
##ame
##zeichnet
zurück
##dem
amerikanischer
Frei
##abei
groß
Dar
##agen
Politiker
##kreis
##unst
##einen
##mal
##zahl
französ
##halt
188
##grund
Süd
##eren
##häng
##ont
##bt
Schrift
##äm
##indet
November
Hoch
Nieder
Wasser
Kreis
22
##folg
##walt
##lex
##unkt
##len
##ied
Phil
Bed
##amil
##ossen
Form
lang
Bra
##recht
eigen
Sa
978
2003
##nehmen
Friedrich
##ründ
erste
##bach
Ende
##0er
##war
einz
Menschen
##unk
Mitglie
Verlag
Durch
wen
##iser
##inger
Rom
24
##ativ
##alter
seinen
23
alle
##zie
ex
##ndern
zusammen
Band
hier
Hein
##uft
Med
Me
##äh
##annte
Fuß
##echn
##mittel
##eth
100
Gemeinde
La
##bahn
De
keine
##ister
verschieden
Mittel
Ju
bed
##esen
##essen
##hand
##hin
##ölker
selbst
##schn
sehr
ihrer
Rei
Vert
##ragen
##isten
Musik
Landes
##ktur
Schwei
##lekt
Gra
Gegen
dann
seinem
bzw
##aum
##lagen
##rieben
Auch
Feb
##reg
frü
##eum
##räs
bereits
damit
##oge
Krieg
während
Buch
allem
##stoff
besch
##ank
engl
##zug
eben
Febru
Februar
gesch
##talien
##ruppen
Da
##ellschaft
Eis
##unktion
186
##auspieler
187
##gan
beim
##eins
Min
##lau
Em
##änder
Is
##achsen
Son
deutsche
##eitung
geb
##ffentlich
##sw
Ost
##enk
viel
Mo
ins
ar
Zwei
##20
ohne
##arten
##na
##äß
He
2004
##ika
##räsiden
##zt
##gleich
##meister
Best
Kirche
##falls
ihm
##mar
Lin
##feld
26
##öm
##asse
##links
##führt
##ipp
Frau
##ons
31
##äu
Weblinks
Kunst
or
##eile
##aul
wenn
Kultur
Einw
letz
##rache
Bur
##äuf
##ruppe
Hö
##dorf
##wicklung
##keiten
##we
##ramm
##echsel
and
##ations
##raph
At
Karl
##lang
Rh
Hol
Ort
##buch
wel
##lauf
Haus
##inter
##sicht
ben
München
##ator
Sal
ersch
##tete
Proz
##kir
28
bezeichnet
##enden
km
##arr
##wig
statt
Arch
Schauspieler
sondern
stell
##änger
diesem
##dern
Komm
##lei
System
Inter
##raft
deutschen
Fol
Stand
##raum
##ublik
Mann
Dies
##fte
##fach
27
##ände
##helm
##schied
liegt
##angel
Fußb
sei
##mals
rech
Bahn
184
Bas
konnte
##nahme
deren
##ilit
2005
##eht
hoch
nah
##50
##ement
##ünst
##ient
einge
##fur
Bürger
##ritt
##ohner
vier
Sk
Universität
was
Verein
##iste
##verb
Gener
Herz
##yl
Von
##amp
##kon
Mill
Lu
##reten
Fern
##fahren
immer
##ode
##ienst
Hal
Au
Wien
Zusammen
##ha
Beispiel
##völker
dort
Tr
##sst
Ne
Per
##roßen
##son
entsp
##erst
2006
##hält
##spie
Peter
Wilhelm
##fall
Herr
##li
##rsg
##wand
Inst
Kaiser
##alis
##red
##eig
##ondere
##emen
##ograph
Wa
##erdings
kam
Famil
Flug
##ünd
##krieg
Ser
Rep
##kommen
##res
##hard
wicht
Ed
beiden
Seit
29
Di
##ide
##itel
folgen
2007
Bar
Schriftsteller
##wendet
Zahl
reg
entstand
Stud
##annten
re
##bung
Tod
##jekt
2010
##ften
dessen
Ham
New
2008
polit
Einzeln
##ätz
##achweise
##icher
Ben
Natur
Einzelnachweise
##klär
gab
kur
ind
ehem
2009
##ischof
entwick
##punkt
##eiden
Österreich
Weiter
##ore
komm
##ies
Produ
Hrsg
Jahres
Ob
##zeug
andere
Landkreis
bel
Vers
Sh
40
Mich
Rad
Heinrich
Bay
##nisse
2000
##unter
##isk
##oc
##cher
Intern
hö
siehe
##yr
50
2011
teil
##ider
denen
ihren
Fest
##euer
##zir
Mag
Begriff
##führung
##fin
geg
##iere
Fahr
brit
##gebiet
And
##stru
weitere
##tr
fest
##ign
##ppen
181
Hans
##gesetzt
USA
##ächst
Jahrhunderts
##zentr
Tex
Spiel
##umen
##onist
##wohl
Wirtschaft
Kam
##athol
##allspieler
##gabe
Cl
##fass
##elig
##schlossen
verwendet
oft
##ack
##one
##fas
Namen
##ließlich
mus
##iner
##ution
Bel
##gegen
also
##inen
ihn
##gestellt
##ffiz
##ilt
süd
##ade
##ity
Je
Lebens
National
Frankreich
ung
Volks
Ol
Sc
Berg
##trag
##ument
##achen
##hol
Graf
meist
dabei
##unde
##sprü
Insel
John
##utt
185
Ak
Sel
Zw
##nten
Zentr
##hren
##ucht
Alt
##ußer
Bevölker
##spr
Einwohner
2002
##are
##gew
bestimm
Deutschen
Su
##spiels
Rück
worden
##sbes
##riv
183
##ichten
##furt
##öffentlich
##eutung
##igten
Lud
##ograf
Gu
Schul
zahl
##öt
Eng
##äre
frei
2012
Wahl
##rechen
Dem
##reichen
Will
ur
##vol
##opp
##prä
inner
##reuz
Städ
2014
Mitglied
Partei
##ählt
stark
neue
Ko
180
##flä
##get
Paul
Ru
##sta
Mod
Kirchen
Franz
Jose
##sche
gef
##schluss
##ament
verm
schon
##cker
##äft
##vangel
##egt
##scher
erfolg
2013
Grü
1945
##elte
Gew
##zieh
##ka
Luft
##schule
##ütz
heut
##ikt
Ha
##eisten
wo
##rot
viele
##schw
Histor
##zeichnung
jewei
Region
Met
Kalen
##äll
##sbesondere
dah
Kan
Tran
ehemal
verl
##ilitär
Erz
Sitz
##osoph
##alten
gilt
ebenfalls
Alb
##ünf
##spielsweise
österreich
##ure
##ül
Tag
Mal
##ions
Hil
bekannt
##räger
##ix
##esse
##indung
##wert
##scheid
##ork
##anzen
Pap
##irekt
##urm
steht
Kr
##igte
besonder
2015
Ter
##ologe
Organ
beh
Bereich
##gie
schw
##straße
##ums
Lei
neuen
##iges
##örper
voll
2016
##rop
##itzen
Arbeit
##hausen
Entwicklung
##ase
2001
weit
Ra
Neben
##arch
##äus
Staat
Liste
Dan
Wer
##reiche
Har
##rän
genannt
pg
häuf
anderem
neben
Komponist
##fr
bedeu
##schrift
Kap
##ey
Ludwig
##eiß
gest
Gest
Heil
große
##px
##ink
Mitte
Lehr
##ept
##ift
##innen
zun
##gramm
allerdings
Staats
ob
##lichkeit
Bedeutung
##gemein
Mark
Lie
Kn
##jahr
War
##ych
##stellen
##deck
##racht
Rich
##so
##schul
großen
##ae
##emat
Raum
Regel
##uren
Gel
##geschichte
##itu
Ern
2017
Techn
##hnen
Wie
##ingt
kein
Rechts
En
##gesetz
ern
##anten
##heiten
Georg
Wolf
erreich
get
Fr
1990
beispielsweise
zunächst
einige
##ustr
diesen
##lo
##ire
##ox
Verwalt
##sh
##räsident
##str
Dam
##osition
Kalender
##ief
##druck
##schnitt
vert
rund
##apan
##radition
Alex
##istischen
Bern
##co
Con
Funktion
##ari
Herzog
Mot
Bi
##lungen
##ommer
##äten
Mart
##leg
Ho
##ins
verw
##eigen
##ax
besteht
Museum
möglich
##ründet
##nahmen
Brü
III
##deutsch
##istische
##ael
röm
##burger
##ichts
##fluss
##setzung
Stein
##anden
Tem
klein
wegen
Kol
##nete
##eigt
Kinder
Prov
Hier
dieses
Person
##einander
##kung
Staaten
Rhein
General
Co
##schein
##ative
##eitet
bil
##utter
Fußballspieler
sol
unterschied
meisten
##wirtschaft
##ktiv
dazu
Anfang
##ese
sollte
##ikel
##rachen
##ry
##int
##abhäng
##othe
##ene
2018
Max
1999
##wendung
##geh
Pat
##verkehr
Roman
fünf
##ekte
Port
##scht
##sprüng
mehrere
##unft
Car
Gesellschaft
kommt
Comp
##länd
##igent
sogen
Ott
Dom
Eisen
Amer
histor
##ester
##ierungs
##sych
Mor
Betrieb
##pen
Wür
insbesondere
Erst
Ul
Verkehr
nieder
Bü
Daten
##iken
##öff
Frankfurt
##orben
##ise
Siehe
italien
##yd
##lav
##ieg
##dent
Schn
##örder
##teilung
Kat
80
Millionen
Personen
San
hatten
##alität
##schung
##adem
Pal
muss
##gemei
##folge
##oder
Bevölkerung
##frei
Tra
befindet
ca
Platz
Konz
Sport
##vent
##erdem
äl
darauf
Lang
##schrei
##obei
##frie
##ehn
##pfer
Während
##sport
Köl
182
gegenüber
erw
Sohn
Richt
##bel
wobei
##ußerdem
##schutz
2019
Autor
ganz
##omit
##bereich
Kont
##ienen
Sil
erstmals
Thom
hand
Unternehmen
179
Bis
##liches
##iver
##ielle
häufig
##ründe
##los
##minister
##utzt
##ica
erhalten
Europa
Gesetz
##aup
nun
kathol
Don
##ehör
Frauen
Kü
##40
Mü
##DR
seines
##omb
ange
##anst
##bildung
##see
##kte
Titel
45
60
##kirche
lin
führte
abge
Du
##ritten
Schm
Michael
Ton
1998
Inform
##afen
##ordnung
Fernse
##riften
Maler
##ünstler
Kop
##ele
00
##ice
##avon
Burg
Deutsche
Frü
##isation
##eller
Carl
Schweizer
Plan
west
35
##ile
##uchs
##echs
##ette
letzten
##ai
##ue
##kauf
##wort
##uter
##öst
erhielt
Eur
Zug
##ote
##hö
##volution
##30
Den
##ohen
Te
Sozial
##60
##ufen
errich
Bib
##eint
##iam
##äude
komp
##rid
Folge
Grenz
intern
Sprache
##ana
Kal
##wissenschaft
Gebiet
##bet
##iell
##igkeiten
##rim
begann
Dre
Prozent
##altung
Sü
##II
01
##80
Eigen
##hre
32
Got
##eicht
##aur
##west
##isse
1994
##fern
gemeins
Schweiz
##uer
for
Jugend
Elekt
##laus
Des
früher
Wald
CD
##wechsel
besonders
Dabei
##akter
Rot
verst
Fin
##PD
1995
Kommun
##ilder
Hamburg
##jet
Russ
##system
##genommen
##gl
##sent
##immen
##zogen
##okrat
Regierung
Name
daher
##ille
##ichtet
Gruppe
##oster
##zeichen
1991
##licht
##ino
Politik
Bad
Thomas
einzel
Hof
Pa
Gott
##arn
veröffentlich
aufgrund
##ären
Gebie
##zig
##forder
französischer
##nungen
1996
##änge
Fra
##ole
Main
##füg
##iven
##itter
##amer
##aktion
##echt
Span
##gaben
Italien
welche
Bischof
##setzt
finden
Rah
1989
Gleich
Paris
##platz
##atten
blie
##zü
Familie
Fach
1997
##ital
Kor
Ap
##teten
##ong
##sprach
Weltkrieg
##uk
Markt
fast
##örd
Zur
##wahl
Schwar
Sen
Stre
##ias
##ustrie
##ochen
verschiedenen
pol
Erd
Auflage
Wissenschaft
Ener
##ehl
heraus
##gebie
##uttg
Heim
Hen
Rolle
##weis
Gemeinden
##aren
Sol
##hei
##bo
Oper
33
Prä
findet
Tur
##gesamt
ph
Krit
Fall
Relig
Robert
##ith
Beginn
lä
ursprüng
##stre
##ätze
##üssen
davon
Stuttg
##wegung
innerhalb
Zeich
##osten
allen
##riech
##fel
Feld
##10
##indest
Str
Städte
Kran
Go
kurz
##70
##ammlung
Bezir
1992
##bes
Mehr
##tag
##äischen
Alter
##fess
wei
aufge
Recht
Gü
Jo
aller
42
schwer
Klein
spiel
##iens
Ku
##fest
Lond
##stag
##fasst
York
Philosoph
Bud
Wind
Dieser
##herr
Seite
deut
Archite
Dav
1993
##dens
Arbeits
weil
##ache
##fassung
ihrem
Druck
##ven
##lungs
##rauch
Ren
Schiff
Sin
ähn
Kind
Wal
##uten
br
##athemat
##ehmen
Arten
##ichter
außer
Wieder
Hin
##blem
Sachsen
lassen
spez
London
##wind
##chn
Bayern
##ollen
##ca
Kreuz
em
Text
sozial
entst
##rab
führt
##up
Selbst
Sam
kommen
##ruktur
##ve
habe
##sburg
Drei
Straßen
Et
Bru
My
erm
90
##jähr
##iten
##ski
##omat
##üssel
Christian
Stuttgart
Leip
##affen
Martin
elekt
vielen
##esent
Kil
Otto
Einsatz
##kan
##itut
bew
Köln
##wasser
##spiele
##ors
Rahmen
##rück
##arbeit
##har
teilweise
##für
##geord
heutigen
gesam
##weit
##eier
##etten
##oz
Ep
##richtung
##usätz
Sub
##weiter
##isiert
##schlag
##sol
##mon
russ
##iga
##räge
amerikanische
##eck
##eitete
liegen
Eben
Bezeichnung
##enen
##rägt
##peratur
##fläche
Ernst
##ymp
gehört
wür
##immt
##urs
Wort
Artikel
verschiedene
##oben
Typ
##stant
setz
##ja
erg
stehen
##fahrer
exist
##dienst
##ourn
Ta
Res
Maria
Phys
##eils
##welt
Wor
ant
##aterial
##orge
Johannes
Weg
##ara
Freu
##sl
##amens
arb
##best
##inal
Hann
Bon
Gesamt
##leben
##neten
##sprache
Holz
##tler
##allen
eigenen
Schloss
##ames
##adurch
jeweils
Ziel
Chem
Hel
##ationalen
1970
1980
49
Programm
Prinz
Fre
##elten
Meth
moder
36
##ison
Ander
##ome
70
##ike
höher
gr
Theater
As
Stell
##ission
##12
erklär
Fil
leben
##fra
zeit
##ling
konnten
##ikation
Bro
##spro
Ung
gelang
Republik
##omen
##use
Militär
Baden
bestehen
##ographie
Gold
Joseph
bedeuten
Zweiten
Höhe
##ager
##läuf
1987
schn
Lauf
##lech
gegründet
DDR
fand
##rug
Nor
34
##nehmer
Verwaltungs
##izin
Stat
##wiesen
##alz
##kungen
Sänger
europ
##erne
welt
sog
##ute
Tour
##25
Richard
Col
##afür
##les
##bek
Nr
##ationale
angeb
Einzel
lässt
##nahm
##scheiden
weiteren
##film
Mil
##aly
wahr
##fred
##gar
Schauspielerin
Wert
englisch
##line
##liothe
##zeitig
##reußen
Mer
weniger
größten
##stück
Herrschaft
##omin
##fried
einfach
sowohl
Beit
Kraft
Sprach
##erstör
##baut
1988
44
Far
##par
Kriegs
##berger
38
##stelle
##vert
500
##heits
Os
##lingen
Grö
Führ
##uth
1975
##bare
##gehen
39
##ournal
Rud
Wider
##eder
1985
##ifiz
Philipp
##esser
##rang
nörd
178
##reise
##ict
Sommer
fl
##techn
##ließen
Bö
inter
##bei
##ründung
Anton
Schlacht
##hang
end
##wär
##rotz
Kern
Boden
zweiten
zwar
##ächlich
Provinz
Tri
wichtig
Ehren
Andre
##wür
##ward
1972
Zum
Ac
##ikal
##ley
##kant
versuch
Amt
##wald
Macht
1984
Schutz
##sph
##lager
Werke
##organ
1974
##ständig
Gebur
##18
Flä
##port
Straße
Energie
Truppen
ging
##ämpf
gehören
##üsse
See
Stu
Ag
Charl
1986
##lass
##ösung
##edig
Seiten
48
Tor
geht
lange
##iellen
##ret
Ide
eng
Produktion
Vater
eingesetzt
zahlreiche
##reuß
Dienst
##asen
Kloster
##baren
Mutter
Norden
##kten
End
Reichs
SPD
##folgt
##stütz
Preis
Prot
##fahrt
Seine
schließlich
Richtung
Lage
sechs
Zwischen
ihnen
##ätte
Leipzig
37
##ildet
##ham
deutlich
##ymb
Var
einigen
Li
##ennung
89
1933
jähr
ließ
##atein
2020
österreichischer
1969
##ull
On
##hältnis
Euro
##ometer
##11
##achten
Hor
Weitere
Sein
öffent
##rh
1982
Hinter
Winter
versch
Ged
##produ
Jur
Not
Amts
Fluss
##uz
Rein
##gte
hinaus
Brie
William
Leist
Sicher
##gehend
##ED
##üng
##werke
Regie
links
Meter
##ilien
Regen
##fäh
##gruppe
Sied
Män
##äßig
Körper
folgenden
##ime
##isierung
##ros
##ografie
Wahr
Disk
##bte
##steil
Fot
Pra
verbrei
Alexander
##flug
##ött
1979
##was
Künstler
Hermann
##tin
##wehr
Einfluss
1976
Fir
höch
Cor
##liegen
##32
##brü
evangel
Char
##enzen
##uel
1938
Lö
1950
##denk
##weisen
##rik
Königs
##üh
Institut
1983
Zust
##stellungen
##itten
##ologische
1973
Syn
##tels
Meer
ober
dafür
IV
52
Wappen
blieb
##ain
entstanden
Papst
##äum
##immung
##ült
##amb
##dh
zusätz
verbunden
Do
##EC
##erner
##arlament
##ktu
ehemaligen
Beruf
##oden
##temberg
recht
Kant
##pel
bisher
Nation
leb
span
##kel
##anken
Netz
Tal
##wagen
Ing
hochkant
1981
##auen
nahm
1946
Bürgermeister
300
##itäten
musste
##ttemberg
##struktur
##glieder
1968
##ädag
##grö
Dreh
1939
1978
Bu
chr
##aff
Reihe
Trans
stand
##geber
offiz
Red
##ash
Wolfgang
##mee
müssen
##35
##häus
Priv
Bor
##ars
##reiben
damals
per
##geführt
französischen
47
##kraft
Geist
Lou
Pfl
offen
Sow
##ata
alten
Halb
Lü
##etr
##beg
Familien
größte
##15
insgesamt
##ante
##unn
Park
gut
##legen
##ügel
Dort
##ändern
bilden
1960
##ware
Sieg
##elativ
Rö
##seite
somit
##echan
55
1971
gelö
pl
Ir
ich
anges
Pla
britischer
Sim
Außen
zeigt
##eten
Salz
Dok
Journal
denn
Hum
##reter
Hei
##verein
##zeuge
##tum
Air
eigene
Feuer
Teile
##ller
gelegen
Po
##tra
Mos
Wohn
Mathemat
46
blei
Licht
Problem
Struktur
Mitglieder
##polit
Damit
##issenschaften
##bed
doch
##ola
zentr
Tre
üb
##bus
##over
##spieler
##wesen
##etter
Maß
##schinen
Minister
Rest
Berliner
darunter
wirtschaft
griech
selten
Ehe
##ment
##bischof
##reifen
poln
##ürz
gewählt
1977
##34
##ochter
brach
Tür
##ozial
Volk
##gebaut
##usst
##31
Post
##obil
Westf
##achte
##ima
150
##ykl
Verl
##windigkeit
Jean
##haft
italienischer
Ergeb
klass
##folger
We
##ail
##ndenburg
##bruch
##fert
##yer
##da
Gal
Denk
##schließ
direkt
Mess
##schau
entsprechen
Walter
Fernseh
##schließlich
1961
red
##hlen
prä
Gebäude
on
schl
Innen
Osten
##ada
##ustral
Anzahl
##ount
Wein
Ast
University
Süden
Möglich
Vier
Nutz
##rep
fort
##rand
Japan
Träger
Prozess
##eiger
##ema
Tage
##wart
Cal
hervor
##ennen
David
##kn
##ight
Gi
##läss
sogar
Fort
##err
Verwendung
##uther
Verbindung
qu
##indungen
gelöscht
##ical
pers
##anc
Musiker
1967
##onnen
erster
##räsidenten
Evangel
##law
Verm
##haupt
##ründete
Psych
politischen
##füll
wenig
##kam
Ass
Darstellung
##mund
Kampf
hinter
##urz
Studien
handelt
##75
Nä
stellt
Beh
54
##läng
du
##tens
##low
1944
Medien
Schule
Zentrum
##abel
##64
Gar
##que
Gruppen
##je
Sonder
führen
##ierenden
Zür
Heimat
1964
##ton
Außerdem
China
la
##ho
Pop
Les
Stern
Krie
##iegel
Sprachen
Ach
##65
1965
Hu
heiß
59
di
##wiegend
##formen
Präsident
##zentrum
##aupts
##atür
Bus
Standard
##gebung
etwas
75
##äte
##attung
Regierungs
Schwe
CDU
##19
##schiff
England
Westen
Linie
##mo
Untersuch
##bezir
Forsch
##38
öst
Röm
Verfahren
##mb
##arbeiter
##iti
bl
zunehmen
bekannte
##edia
Hom
##fan
rechts
wohl
##atte
entwickelt
64
Nik
Ster
abgel
##kop
##fähr
1966
Tro
##unkte
Mel
##liothek
##preis
entwickelte
##kennt
Pass
Fel
##22
verh
##alsozial
organ
Hilfe
eröff
##ächt
Spr
##reig
##schech
##ierungen
##igur
bie
älte
##lam
Sold
Arn
Württemberg
Abs
Hochschul
Stift
Königreich
##ennfahrer
Gegensatz
##IR
verd
85
##ball
##hnung
175
##anstalt
hohen
##staat
##ches
##olden
erschien
##museum
88
Ereig
Tochter
##istik
##DF
Log
##renz
##prochen
Polen
ho
##ademie
##erin
1900
##14
Industrie
Russland
star
##igit
Tradition
##ace
Vertrag
1963
Test
##mark
1949
Bew
Gottes
Vergleich
##ennt
##ish
##ance
zuvor
##mel
##zi
##dete
wesent
eigent
##grenz
Bahnhof
Albert
##telle
Kurz
errichtet
##39
##etzung
Bildung
##voll
geprä
##nam
##park
##tex
Fürst
##aw
##leist
##itsch
1962
##teilt
##rhein
Braun
verein
##isseur
Anteil
techn
Kolon
##heorie
Verbr
Ven
Ord
##part
65
Geboren
George
krit
jüd
Stamm
mehreren
eher
Tier
Orts
##folgen
Rund
##ane
##mod
##rechend
Dis
##ützen
Offiz
Gro
form
##oy
1956
##ula
Del
Mein
Sand
einzelnen
##gesellschaft
Quellen
Mittelalter
genutzt
erreicht
woll
mög
##ood
mittler
Han
##ologischen
##ymbol
Jac
Press
trat
##chten
##spruch
Wik
##ios
##gest
Bezieh
##acher
##74
cm
Rudolf
James
##insel
##emente
##äs
Buddh
##ativen
Matt
##ko
Tab
##sehen
Armee
Sä
Wol
##glich
Dichter
##komm
##republik
stellte
Norm
Erde
stamm
Motor
##ritann
Bal
nord
##barkeit
##reibt
##iffer
##hung
##di
kamen
Jak
##ec
##osit
wissenschaft
Version
##ätten
Zentral
Fal
Ortsteil
Franc
dan
befinden
Gre
##last
heißt
tradition
##oppel
##tegr
kleine
##66
1948
##älfte
##innt
##gegeben
##24
Josef
##heb
sieben
1952
Besch
Revolution
französische
not
##fäll
##las
##angs
politische
##aat
Benutz
Nicht
1955
Versuch
##kran
Jes
04
Ins
relativ
Olymp
Hit
##ular
##bü
##angen
Reform
jeder
##ES
aut
damal
bar
##gelegt
##ama
nie
Charles
##mung
japan
Viel
##steh
##kunft
Hör
Projekt
Hauptstadt
##igungs
1953
##PG
##ois
Parlament
Jahreswechsel
##37
setzte
Temperatur
zweite
58
zerstör
letzte
##sitzen
App
##itzt
##ösen
Mu
##schriften
to
folgende
##dr
Stück
Alten
Pil
Merk
##16
##verband
##zeichnungen
Religion
##lieder
Zuge
##ritz
##schreibung
Juden
enthält
Mensch
Basis
Computer
Fußball
gek
##altet
##han
lag
zehn
sogenannten
Vereinigten
Früh
##ision
##ierter
zudem
Dieses
Jung
empf
##ingungen
gewesen
1958
zähl
##iat
##arf
Meister
frühen
1940
##azz
Frage
Mad
Brandenburg
Eisenbahn
##ahnen
Glau
gehörte
##bürger
gez
##yc
mm
Modell
ursprünglich
##zeugen
##inner
Material
beide
##ary
##richtungen
Bestand
niederländ
mittel
##gress
Stil
1957
1959
Geld
dadurch
##führer
Mont
vorhand
##36
Nachdem
Sinne
Zürich
05
##ützt
##alog
Einführung
##ford
Mc
Ther
hohe
##kur
Kauf
Flor
##ediglich
1954
##urf
jeweil
Kohl
Wenn
Grab
##okal
militär
##iums
Op
Zusammenhang
Voll
Ländern
ebenso
christ
##ierende
400
##zog
##ona
unabhäng
defin
79
Sing
##verwalt
fr
1951
übert
bildet
##hil
##spekt
##abil
1918
##räfte
Nachfolger
Com
Kron
Besitz
##orte
Vir
reich
Dial
##ritte
Kilometer
##ECT
##idu
##72
gelten
##ates
erfolgte
Namens
Widerstand
##sä
##deten
Dorf
1936
##ymn
acht
##79
Großb
NS
Nacht
bezeich
Kra
Sy
machen
Pflanzen
##iew
##itze
Straf
Spez
hei
##duz
1930
##gemeinde
##win
##aß
Technik
##verfahren
##funktion
1920
Angel
##illa
##ummer
##beck
Sign
Gründung
120
Sowjet
Orig
kleinen
natür
from
1941
##quenz
Bruder
Comm
Kenn
aktu
Länder
Rock
Werner
##antwort
Steuer
Album
Bef
##ican
##ienten
1947
Finanz
##zess
Jer
##izei
Landschaft
preuß
78
##markt
Lau
1943
German
##chte
##68
99
Deutscher
Brand
Brun
##ilian
##üss
men
##oth
typ
##rakt
##spl
stär
Helm
Strom
##erer
##gangen
##leitung
##mbH
Klaus
Rat
##serv
##dam
Hannover
##licherweise
Soft
enthalten
Dres
sogenannte
Heid
Wiener
Gemein
Pe
RED
##arm
##IRECT
Engl
Fischer
Pu
1919
##GB
erfolgt
priv
##lehr
genau
##rechts
Kritik
Marc
##kirchen
indem
##tere
Erfolg
Union
Pfarr
Vog
Entscheid
REDIRECT
09
##ivil
##ppe
##anne
##zuf
Dr
##met
alt
##öll
##28
##ischem
##älle
Preußen
170
Verkehrs
Leg
gegeben
##bs
##hafen
##reffen
##oper
bas
unterst
Farb
Stelle
##erv
##plan
1934
Exp
174
Aufl
##gericht
##funk
##estag
Louis
Val
Position
Zahlen
##egel
##17
##ividu
##ombin
Rau
##ekten
##emb
ged
##eis
##orien
##indestens
Gött
##örm
1925
Mat
Hälfte
##ächs
GmbH
##oret
Spanien
Nähe
##band
betrach
Sonnen
Heiligen
##exik
amerikanischen
##mens
Dyn
Gast
##rael
erhö
##ffekt
Entwick
Autob
Ulrich
##iment
Mik
Kopf
grund
Alle
##inkel
1942
geboren
##zent
160
Gestorben
gleichen
##mat
08
##graf
##inge
##omie
##nach
Zeichen
##33
Tel
par
Beim
##sdorf
##aust
##arbeiten
Ca
at
nachdem
##linie
International
##ux
##erseits
##inc
##eicher
##iedr
Grenze
1937
1929
Verfüg
##stieg
erz
##eing
74
Kas
##üler
##ritannien
##asch
##med
bevor
95
##städ
Schriften
Spieler
oben
Scien
ad
°C
kaum
##arte
##pe
JPG
##stat
Theorie
##ales
Kom
Jakob
Bek
##ielten
gemeinsam
einmal
##union
##raten
##roffen
gesp
sollen
##technik
Besonder
Instr
##test
sollten
##76
Hessen
Uhr
Hir
##eind
Internet
sehen
Mol
##gäng
##fassen
Ich
##otte
##äische
##beh
Wirtschafts
Arm
Vort
Bezirk
##treten
Soldaten
veröffentlicht
Varian
##lands
##gruppen
Profess
staat
land
##onst
Kirch
##afr
AG
##yt
Akademie
Bewegung
##29
##utzen
Ersten
Forschung
beteil
##egte
Theologe
##lichkeiten
##deckt
ak
##arbeitung
##klärung
außerdem
##des
Can
mindestens
Nür
##weig
Thr
dagegen
##agd
belie
le
##immer
Geschäft
kan
Heer
bestimmten
erwäh
##kü
Rum
##xis
##pfl
##iol
Gust
##riffen
##ld
##fassungs
besser
Bir
##ines
Schwarz
##21
##isierte
##yth
Urs
##ric
Inn
##ya
Schön
##sto
##üb
Folgen
erfolgreich
##länder
##fil
1935
norm
Verd
##maß
##setzen
##tlich
Baum
europäischen
##ots
Herk
##eucht
Großen
UN
##emann
Theod
##gn
en
Handels
##ulation
Dir
beträgt
Song
##ehler
##wegen
Brief
keinen
chin
Westfalen
##gy
##orten
weltweit
schwed
##inanz
Bereits
regelm
Ba
Stimmen
Moder
##esien
Kurt
ir
Pfalz
weiterhin
erneut
erk
##örter
##lassen
übern
erhält
##13
Ring
##ymnas
Wett
Unterstütz
einzige
Konfl
Klasse
erweiter
verlie
##kap
1928
elektr
Ferd
schrieb
entspricht
##bewegung
Lib
##pers
geschlossen
##inand
Kab
Niederland
Blut
Verhältnis
wenige
solche
##AS
Karls
Organisation
84
Himm
##flächen
Inhalt
schnell
Sek
##ano
ihres
Sant
lediglich
dir
aufgenommen
68
Hy
würde
wichtige
Inseln
##77
Adolf
##anlagen
1910
machte
##öhn
Stadtteil
##ziehen
starb
##jekte
##agt
Adel
##denten
##62
1932
Historiker
schwar
##ena
Bilder
Erzbischof
EU
Che
Rie
Satz
Vertreter
Ferdinand
produz
##ival
##ext
##va
##gangs
Inner
Dokument
1914
##ij
Reaktion
Reise
##schließend
##OS
Wochen
Streit
Freund
##gemeinen
Bd
Aben
chines
##finition
##ita
##val
##reiten
Forschungs
##erte
Bach
##go
##endet
##hlung
Nationalsozial
##zwischen
##ufe
Überg
Rand
relig
##69
Afr
##gten
##gebiete
Großbritannien
Doll
##ics
Alfred
Frieden
##strecke
Blü
Weiß
mensch
tran
vers
Nürn
##fung
Tau
Aust
##by
Bank
##zeh
verz
Todes
van
Ox
Brit
Länge
##fekt
anderer
##ssystem
Nic
PDF
##umm
##geladen
sah
kultur
Einige
Grie
Unabhäng
##abeth
##abl
##richten
##swahl
vollständig
##blick
verfü
1926
##schlä
Autom
##alismus
##agement
Beispiele
bestand
hal
##name
Rath
verwende
Deutschlands
jüng
##ätzen
Eigenschaften
Ungarn
Weise
168
##andid
##gram
##ürgen
vergleich
früh
Geg
Prinzip
Andreas
##wissenschaftler
Privat
Wechsel
Philosophie
##ress
69
##ront
##haf
Doppel
Ann
Münster
##reisen
Wand
##eien
Vide
##ferenz
##umente
erreichte
Auss
##lecht
danach
Förder
##eilen
deshalb
spielte
entstehen
latein
##zahlen
gleichzeitig
näch
Jazz
beschrieben
Nachbar
##ffe
##mitt
Cap
Dazu
##kra
Unterstützung
##osen
##auptsächlich
##iar
el
##bewer
nahe
Sicht
Verhalten
Größe
##stoffe
Wall
besitzt
Ehr
Gas
Gut
welches
##stär
##euten
Kranken
Stoff
jeweiligen
##71
##ener
Opfer
Französ
##gerichtet
##öd
Demokrat
##linge
##macht
Ausgabe
American
##atik
wollte
Geburt
Ill
Lager
verkauf
##eilt
Möglichkeit
Herkunft
Formen
Maxim
Allerdings
##itte
##ktor
Persön
beginnt
Aufgrund
Viele
Schüler
großer
Ergebnis
##ronen
Dist
##ps
Rang
folgt
verloren
##ua
Zeitraum
##kreuz
Beiträge
Besuch
gesamten
gesamte
##alyse
Arbeiter
##pol
##zeiten
Journalist
Star
öffentlichen
##forschung
##mot
##ney
Software
ehemalige
römischen
Schwer
##bank
weitgehend
Einheit
##73
1924
Medizin
1000
Ker
##alisierung
Kais
##rechte
Hall
##pret
##umb
Charakter
##struktion
Heidel
Verfügung
Wild
##recher
gepl
späteren
##ögen
##lern
##gien
Det
##gemeinschaft
ausschließlich
##istisch
unmittel
erwähnt
dür
##lers
##ume
##udem
Benutzer
Gef
##sträger
bestimmte
Gustav
Heinz
##ón
##ränk
##uhr
finanz
169
##getragen
1927
##teren
##verwaltung
Af
##teile
Ritter
alte
hauptsächlich
Empf
Fritz
##förm
stammen
Silber
Pan
Umwelt
##utlich
katholischen
Soc
1905
02
##DP
##pa
##ake
Sem
Bil
gewann
Zudem
niedr
##oche
Bundestag
hingegen
allein
benöt
fiel
##ower
##arbeitet
##reib
Große
98
94
Glas
britischen
Bayer
benannt
##komp
##rum
Aktiv
Serie
erheb
##text
##akte
##napp
Massen
##ala
1912
seien
umfasst
britische
##ows
##haltung
Donau
##own
notwend
Lor
##ams
Altern
gefunden
Punkt
gl
##urg
prakt
religi
800
##67
600
164
Männer
##zus
##lehrer
##arth
allgemein
Denkmal
geprägt
Müller
Wh
Austral
##musik
Laut
Klass
Miss
##allel
##fon
##igh
Definition
Maschinen
Bla
##namen
##anders
läng
##stände
Dresden
##öpf
sow
##hauer
trotz
Webs
Christoph
##reite
Just
darin
Verwaltung
##row
Handel
zog
Stad
##ommern
##größ
verbreitet
##ington
kanad
Schmid
##nth
##änden
##ziehungs
165
##regierung
##ction
##röm
Publ
##kund
##61
##anlage
äuß
##gesehen
Fer
wider
##einfl
übernahm
Eich
##amin
erreichen
##deutschen
zahlreichen
sowjet
##legung
41
1931
Hab
Bezug
nimmt
##ätter
Gebiete
Prop
Völker
bedeutet
folgte
##staaten
Entsteh
##wen
##tritt
##ieß
##press
Tim
med
##63
Elemente
Zwe
##endorf
wichtigsten
ersetzt
##ständige
##orgung
Sitze
wechsel
Anschluss
1921
stellen
Angriff
historischen
##ory
43
Radio
1922
ermöglich
##zeugt
##indern
Gerhard
eingeführt
##ühm
Karte
##üm
stammt
Sinn
geworden
Krank
##ago
Glauben
##ikanischen
##scheinlich
##bauten
Blick
dient
Hart
außerhalb
##krie
##achst
is
angel
erschienen
##netz
Rec
Fläche
aktiv
##uche
Mond
bestimmt
##leit
##anen
##uc
Anwendung
##sitz
Pier
unbek
vertreten
Wehr
Camp
Ros
Äg
Mac
Studenten
Garten
Nur
##ER
##kunde
##räng
Auftrag
##ouv
82
##erb
Düssel
##hle
##frau
Sach
unver
Ele
##ichtete
Bab
Metall
##seit
##arischen
##äher
png
##agn
erlau
absol
modernen
##ieur
Rel
Saison
No
##wal
Verfassung
##AT
1923
darüber
Elis
##ühren
Informationen
chem
überwiegend
##vest
Güter
Bonn
##ugen
##wurf
opt
Ausdruck
##halts
englischer
##ora
leicht
Erb
##ella
Dipl
##würd
Aufgaben
Gesund
bem
##rif
mittels
Ereignisse
FC
wiederum
Spann
Waffen
Rathaus
ähnlich
Luc
##rist
Hafen
##male
Wirkung
##ässer
Beck
##iber
text
##orgen
Heute
##bew
##autor
dt
##act
Heraus
Element
spielt
Vom
eröffnet
wäre
Stefan
anerk
Abt
Jurist
Neue
Award
1913
##atoren
##irche
brachte
Sum
fert
Bauern
##züge
Strecke
Dollar
Düsseldorf
betrieben
##een
Publik
##schine
##fs
Leit
Ball
größere
vorher
##ituation
Rez
persön
erforder
##zept
Bundesrepublik
hoh
##ändert
Tom
##ätigkeit
dän
##anischen
##chester
Reiches
Bol
World
Kathol
Sauer
##liga
Kosten
##ilosoph
##betrieb
Lot
Gymnas
Umgebung
##inzen
Grundlage
Lo
Turm
Regional
Schweden
##stanz
159
Darm
max
##spart
##irect
##irge
##ckt
51
entsprechend
Öl
##wä
##ädagoge
##uh
Mitarbeiter
bietet
##änn
Jürgen
City
Golden
##imal
Diskuss
Aufbau
##ony
155
zeigen
Islam
##histor
##aters
##vel
##entum
gemacht
Dah
rep
Kurfür
Besatz
Ps
Tit
posit
##eisen
##iente
##lor
##ii
##NA
##liefer
Tages
nördlich
genannten
##assung
zusätzlich
galt
##ählung
##lad
Lit
##achim
##iegen
##mehr
Astron
##zip
Freiheit
Zeitung
Seh
gemäß
geringer
##selben
Neuen
Wirk
##stellte
Mainz
##linien
To
Zeitpunkt
Fund
##ipedia
Jon
Lab
Bernhard
##legt
##gemeine
##afel
##iefer
##kau
Prie
zie
##sätz
##rib
unge
Konrad
Zustand
92
##lieben
damaligen
Autoren
##rick
Fo
##nitz
Pet
zuf
Herrscher
##AP
Städten
##obel
Nahr
Roy
##holz
Kontr
Übersetzung
##geschwindigkeit
##jährigen
##IT
##illen
##unge
Mas
Joachim
Leop
Kard
##za
##sberg
##istenz
##amerika
Nap
Rosen
veröffentlichte
Rob
Verlauf
zunehmend
gebaut
Trotz
grü
##tent
##uff
Ans
1901
Lux
##far
Griechen
Dur
##imen
##weder
##vention
##rennfahrer
Stunden
##äst
Kamer
##hoch
Regisseur
##ico
##bezirk
##ki
tats
##vier
Organis
beeinfl
Chor
Architektur
1911
erklärt
##ücht
##endes
südlich
sub
Clau
##eider
##athl
##öch
Exper
hochgeladen
##fort
min
Sowjetunion
##uck
Zer
##nungs
Partner
##rochen
Il
dargestellt
Science
##rauf
##ernen
SS
Theodor
Szen
weiß
##fasste
Unabhängigkeit
Portug
##entwicklung
##erung
Fürsten
##uropa
vermutlich
gar
hielt
##stantin
##arische
1906
##ional
bald
##ridge
##rechnung
##iller
1908
Wel
entscheiden
Ihre
##garten
Objekt
fanden
149
##sper
##ifik
##riebe
Veröffentlich
##ließt
Av
##ets
##gentin
gehen
Mur
##ange
Schles
##bildet
by
##eimar
Teilen
kompl
Samm
##etzen
Sicherheit
Gemeinschaft
res
Franken
Leon
Polizei
154
##sam
größeren
##gebäude
##brücke
neuer
Quad
Harr
Ära
selben
beschäft
##ehrt
Parteien
##standen
Herbst
Dän
1907
##apt
##ayer
Territ
##reform
Zeitschrift
zeig
Diet
Hoff
##ksam
Verteid
Tiere
Hintergrund
zerstört
Website
##dar
##politik
##untern
ergibt
##ällen
verfüg
Augen
##rol
##famil
Bevölkerungs
##haber
##rak
phys
##ris
##ausch
mon
till
##leiter
##stock
Vorsitzen
Bul
##körper
Ägyp
Wär
Super
##gült
Veränder
Elisabeth
158
Dynast
##ringen
tät
##gänger
römisch
##ölf
spricht
entsteht
##ques
Lieder
Nieders
##räsent
Dek
##scheidet
##eidung
##hi
##üst
gerade
53
62
##exu
mussten
Flughafen
Weimar
Wes
Bücher
Code
##kultur
##ript
Ausbildung
##ähler
##abrik
##schloss
unterscheiden
Hug
##car
##aktor
##geg
Stock
Herstellung
##phen
##rimin
Führung
geführt
Nah
Ist
Bron
##hor
umge
Edu
eind
130
könnte
Linien
Bremen
##ründeten
##bund
##irm
##iguren
##uchte
Tar
Vorder
##aufen
##ba
##born
Wissen
Schlag
##istan
##hagen
erober
Nort
heutige
übertragen
dauer
##nes
1848
##ehrte
laut
weiterer
##irektor
will
entweder
Arbeiten
sonst
Start
##halle
Thema
##kor
##iana
westlichen
Saint
##anzler
Sö
##IN
Att
Geden
1970er
Kos
##án
Denn
ident
##edt
##trem
Eber
##handlungen
Luther
Mio
##inus
56
englischen
##ndete
##drück
Mehrheit
Get
##gewiesen
##spann
internationalen
Beob
1909
Poly
##ehm
Friedens
Henry
Landwirtschaft
Verband
sod
Count
##häuser
Schach
##uchen
##ohnern
##üge
Schriftstellerin
gebildet
Erf
##ausgabe
##möglich
Ebene
1904
Dach
Lim
Kre
ha
Änder
##eud
hinzu
Dram
##kenntnis
unterschiedlichen
setzt
##industrie
Cont
Architekt
Stiftung
Ordnung
Zuf
Bildhauer
##sprung
Original
##ballspieler
##iers
macht
Tat
Anhäng
sprach
##schuss
Dep
Übersetz
##losen
Auswahl
Bür
VII
##uls
Pri
##sprachigen
##rücken
##ründer
##gra
##krit
Mand
##stern
##leger
##prü
Cas
Mail
##ifferenz
Nürnberg
##vertrag
unterschiedliche
Ess
verstär
lok
Klima
##gelöst
Sammlung
übr
##inzip
Verbreitung
##einanders
##will
Heidelberg
Lied
##itzer
##pflicht
Thür
Wikipedia
dienen
Daneben
geist
1917
jährlich
Monate
herr
##kürz
umfassen
neg
Obwohl
##zut
bestät
##ordin
1990er
1980er
geschaffen
Königin
##ienste
jede
1890
##abr
Gru
##üll
##mäßig
Kons
Praxis
##oi
##stehen
##verl
##ektor
unten
völl
##omot
neun
Sängerin
Entstehung
##leb
Jahrzeh
72
Kass
Sig
##läufer
Beschreibung
##kal
Bezirks
mag
bleibt
##koh
Schulen
geben
Leicht
##gas
##orph
Ausnahme
##ura
##strom
##lege
##dessen
arbeitete
##langen
Jagd
##ring
Mannschaft
geschrieben
Braunsch
beob
Abst
##pfel
Nordrhein
Francis
Unternehmer
Präsidenten
Regionen
##dat
zählen
Weltmeister
Menge
##yklus
entlang
Europäischen
vorhanden
zugleich
##spolit
Richter
Nikol
##kennen
Nutzung
abhäng
VI
Dor
##sa
##kampf
sicher
Professor
##por
##apie
##stritten
op
mal
##lowak
##ta
gebracht
domin
Prem
##rate
Kath
durchgeführt
##vis
Basel
Konzept
Abgeord
Erich
Online
übernommen
Top
Spiegel
##fernt
57
##ulen
Automobil
Anna
07
##wärts
##versammlung
Türk
knapp
##lant
stärker
1903
Indien
##werte
Pian
Aufnahme
##gypt
Leopold
entfernt
Gran
benutzt
1960er
Tschech
##präsident
##ichtung
1902
Marie
Git
Mass
Sar
##stätte
##fallen
entgegen
##ifikation
nichts
By
Klav
Flag
##hir
Holstein
Krieges
Fällen
Lipp
##nern
Südwest
Minuten
Dro
##schließen
Daniel
Len
Spezial
Helmut
Öffentlich
##iode
Göttingen
##vin
Marien
unmittelbar
##inos
historische
##öss
angesehen
Bit
##echnet
##ähn
geeig
##rt
kommun
##ban
sodass
##asst
gestellt
##ocken
##ausend
Aktion
##itution
Angaben
##athlet
##wander
##asien
##halte
zusammenge
Herren
##rennt
Mission
psych
##zust
gesellschaft
Rem
Symbol
Jack
##ränkt
Enz
Altstadt
genommen
##view
##lehre
##istischer
Schmidt
##ünft
endgült
##heimer
uns
besitzen
inzwischen
Dynastie
Bre
Bildungs
stattf
Halle
Hund
Betriebs
TV
##ehnt
##frage
##otyp
kor
wesentlich
Grün
Erster
Sonne
Bill
##igungen
Information
##alle
##hte
Ihr
Stahl
dahin
##iedlung
Ordens
zählt
##weite
Vict
Zivil
Funktionen
bleiben
Herbert
Geschäfts
Myth
1899
Höhen
unabhängig
untersuch
##kern
Jesu
Mikro
Israel
Sw
##ücksicht
wenigen
Matth
halten
tritt
Rechte
##onien
Erste
##ständen
Kontakt
##fähigkeit
Weil
##geschrieben
##gor
Mi
obwohl
##lenburg
##iction
##aner
Brem
Tenn
##ces
##kret
miniatur
Archiv
Anwend
ganze
##ständnis
##enter
##gemeinden
wahrscheinlich
##letzt
au
##stens
03
##öder
##ockey
Mult
Bibliothek
06
##orfen
stets
Daher
##any
Darüber
Kommand
Abschnitt
##way
jedem
spielen
##ständigen
Laufe
Kohlen
Viz
Wander
kg
Beziehungen
##ani
Texte
Grenzen
Drehbuch
##rät
##ynam
Landtag
Hohen
Wegen
Arzt
##blatt
Berufs
##kul
##gelassen
gering
lau
Transport
nächsten
##mitteln
##ria
##ré
##ga
Hoh
trägt
Brücke
##zenz
250
Priester
##ior
##irol
##ühle
Krist
nehmen
Flächen
##kat
##ugel
Grad
##chron
##baum
Physik
##messer
Gewalt
##wirkung
##dung
##eun
Nav
Tele
Kro
Wörter
##fiel
##igem
bedeutend
##iop
##serie
größer
forder
##älde
welcher
Lad
Wagen
##horn
110
existieren
Kanal
##frastruktur
Orte
gesehen
jedes
Zukunft
##ögel
##archiv
##schm
rein
tragen
##ais
mar
##hu
Probleme
Wissenschaften
berühm
##thur
regelmäßig
Spiele
Ris
##fangen
zuletzt
Real
##aj
##wertung
bi
##meer
Schnitt
unterschiedlich
##etzungen
Themen
führten
Voraus
##anstaltungen
Prim
Schon
##gebracht
Konstantin
Freiburg
älteste
##rats
##gern
beziehungs
gehörten
Liebe
Frem
Hyp
orient
Chemie
##echnung
Akt
kleiner
##alem
Auseinanders
hergestellt
Stellung
erfüll
##ikaner
Turn
Tempel
ne
Bot
Mem
sv
reduz
##ibliothek
Leitung
##rolle
Dadurch
gehalten
Mars
Letz
Leiter
erbaut
##reng
Hochschule
##ehlen
##afrika
Hard
beziehungsweise
Zus
Qualität
Dieter
##sky
Eduard
##stud
erscheint
1871
##icherung
##staben
##grenze
Himmel
darf
##äss
Schleswig
Thron
##herzog
##äure
##anien
Terr
Albrecht
Kle
1895
Vis
Bert
Bist
Jos
umfang
##eta
##bn
gesprochen
##fälle
##holt
Braunschweig
##ologisch
besondere
##maler
gesetz
1898
Pierre
südlichen
##unternehmen
behand
definiert
Niederlande
##23
##weile
Ident
##stechn
bekannten
Ingen
Diskussion
Häus
Zusammenarbeit
##kont
125
##bern
früheren
Eltern
Mathematiker
##onischen
arch
rot
Friedhof
##ündung
verfügt
langen
##ädagog
##tell
##odox
Situation
Bras
gründete
##einheit
##ängen
betrachtet
##onym
Verbindungen
Spät
1915
offiziell
rad
Kör
PG
##eiben
Ruhr
Lehre
heira
##rig
1916
Digit
##gewicht
##heater
Wag
##preußen
##andlung
einst
##kunst
##nehm
Serv
##lö
##furter
700
##ürk
Nordwest
##rin
##ezu
##grad
##usion
heil
##öne
Prü
##upp
Video
##ci
##ühl
Geburts
Lind
Ägypten
Chron
unser
dritten
Leistung
CS
versuchte
##teilen
hätte
sieht
Quelle
##chmal
Grafen
katholische
del
Hell
##statt
Physiker
Was
tra
Plat
Windows
unterscheidet
Block
Syr
Lehrer
belieb
arab
140
FDP
verwand
Deb
Miner
Gerichts
weib
Antike
öffentlich
1897
Vern
integr
Entscheidung
Erweiter
Py
93
##under
Atom
Fen
Firma
Bünd
Nachrichten
Autobahn
Edition
##jen
145
Lok
##kräfte
##emit
Filme
Untersuchungen
unterstützt
##ügen
##orb
##con
##isierten
Afrika
##iziert
Zeiten
##bahnhof
stud
##pfen
##emark
zwölf
anschließend
Asp
wod
##rd
Methode
Victor
Cent
77
Wellen
wodurch
##wärt
Nationalsozialismus
Gattung
Phase
Göt
##Hz
disk
abger
Nie
##ruf
Misch
Eigent
##cklenburg
Hon
##sweise
österreichische
Grä
##hebung
einzelne
##gramme
##neter
66
svg
##unkten
Spekt
##ehörden
Andere
Eth
Saar
Vogel
Kardinal
##ville
angen
Niedersachsen
Colle
Roh
##gerichts
klassischen
Aufgabe
##ziehung
##anische
Stadtgebiet
Hochschullehrer
Kombin
tschech
##uster
##schicht
Kaisers
Orden
##thodox
Manfred
Klavier
Mön
86
##stedt
verlä
##var
Trieb
##wood
##kas
Europas
Gründer
Geschwindigkeit
##ters
##hilfe
##teils
umstritten
76
Sat
Minder
Bibel
##ool
##reif
erf
daraufhin
Öffentlichkeit
Kub
##figur
##geteilt
Presse
diente
##mäß
Individu
##bie
Diss
##nus
##organisation
##ouverne
Elektro
##gol
nördlichen
##nee
Fak
Angeb
61
Archä
##bungen
##ulf
Erfahr
##gut
Methoden
##reisträger
ka
##ology
1896
##stellten
Alpen
##phan
##27
verkehr
##äger
Später
##bad
Marx
Aqu
Metern
##sätzlich
##punkte
##kow
##region
Eg
Doch
eingesch
Einwohnern
##zone
##zte
Zeu
##länge
komplex
Kommunal
##aktoren
Lösung
griechischen
Maur
Jacob
##kord
Div
Bened
##konom
##achtet
##minist
Els
##zub
befand
##otten
##atell
##umenten
##pft
##steuer
Opp
##ston
lebte
männ
Opt
Karten
##no
##österreich
Entwicklungs
##zustellen
##wor
Konzert
Drit
##bil
Geheim
Darmstadt
völlig
##rauer
port
Ähn
angegeben
Gegenwart
##ieller
Ero
##26
Variante
Bom
##EST
tätig
##seits
1880
##knü
existiert
##aktiv
Fisch
mehrfach
Auflösung
DV
##ral
##tu
bau
##astrop
##straßen
nor
##eiste
##ted
Olden
Stör
Mathematik
##äg
##ischö
Club
Essen
##eiert
##atische
71
##atri
Eck
Masse
Societ
Tüb
teils
Systeme
Milliar
##gehör
Open
##bahnen
Übertrag
leich
char
Fe
##AN
##essel
##verlag
Werte
region
##bef
blau
Meeres
##do
##kamp
##ällt
höchste
##eland
##ji
Aber
Danach
jetzt
Offen
##ellschaften
Farben
##piel
Gewer
Adam
##inent
wor
Persönlichkeiten
Gegner
##oks
Kart
##ils
##begriff
Mak
Sym
jeden
1888
Stellen
Interessen
Aud
##gau
ausgeb
##schulen
Gedenkt
Feder
englische
Kanton
##etische
alles
gewonnen
Produkt
Off
##kriegs
liter
##istin
Koch
ständ
Geographie
##ida
Konzentr
verschiedener
funktion
##zburg
beweg
Las
##arat
##hrop
Gymnasium
81
Tsch
angeboten
##annen
fertig
begrenz
Flugzeug
fal
Dra
##icus
##sson
Tats
148
##col
##adel
Gebieten
Jüd
Barbar
Vul
##wachsen
mein
Infrastruktur
Greg
Rheinland
Initi
##ethe
Mah
Bass
83
sicht
##manischen
Zahn
wid
##hmen
##emburg
##wirkungen
Erinner
Seb
##és
Beide
##anze
Matthias
Naturschutz
Cur
1885
Beweg
bezeichnete
##werken
russischer
Emil
Gründen
##räume
entdeckt
Edward
niederländischer
##genöss
Speicher
Rede
gefähr
jüdischen
##zieht
Alexand
Sehens
Phot
##lär
rück
##wissenschaften
##ziplin
IC
Unterschied
Schreib
##xid
Cro
Einheiten
##mond
##stellungs
##rian
##menge
##ife
Ehem
Tie
##lose
Cat
Internationale
##stab
versucht
block
##empl
östlich
North
Latein
verpf
fehl
##iko
Abend
starke
Royal
##ky
Kommunikation
##sprachen
##gliederung
Leichtathlet
##bas
werde
##reiber
Erober
Alph
Napole
mark
##tliche
Indian
Hitler
mittelalter
zer
##lar
##schte
Bem
##otent
##onie
Rezept
erkennen
##stands
starken
##spiegel
##ümer
##deckung
##gu
##hältnisse
Wettbewer
Statt
##lab
##frist
beteiligt
Gall
##egten
##olge
online
Tol
Ell
Arthur
nahezu
Hex
Zo
128
intens
63
Abschluss
verliehen
1893
Black
Sieben
Mund
##ologen
Verwand
##iforn
##ydro
Dänemark
Anti
Gesprä
Sak
Sm
##air
##aiss
kir
Reihen
Nobel
redirect
belegt
internationale
Orgel
1870
Dauer
as
##ET
Reb
Armen
nutz
1889
##iertes
##ählte
1892
##öse
River
##idae
Zell
Ausstellung
voraus
etabl
Besonders
Blüten
##reut
international
Tu
##artige
PC
Effekt
Instrument
äußer
##stätten
Wiesb
Ke
Mengen
##ifiziert
##gin
blieben
Anlage
Md
Strecken
Insgesamt
Interesse
Oster
nennt
##ährung
Legen
Vari
##sphäre
Maximilian
Hersteller
Brenn
Gau
##ünde
Personal
Opern
##ppel
##produktion
Gedenk
standen
Mecklenburg
Lexik
zeigte
Gebiets
Dör
Mes
Bell
Grand
öffentliche
67
russischen
Holl
Fert
##ava
würden
wand
##wan
##schall
Konflikt
Söhne
zumindest
CEST
Politikerin
Standort
Wiesbaden
Kolle
##eisch
Back
natur
erklärte
ausger
Jed
1894
Bände
Wurz
städ
Australien
ost
##werks
verlor
##gef
Maßnahmen
##its
##atischen
ergän
Frühjahr
Engel
##inde
Arab
gewähr
Noch
Status
Römer
weist
unbekannt
129
Athen
Gelände
##herrschaft
erinn
##lied
Zit
rest
Los
vgl
übrigen
ermöglicht
##van
##oid
##verkehrs
Salzburg
Kön
bringen
Siedlung
Geschlech
Kurfürst
Punkte
Viol
Ly
Leistungs
Bedingungen
gleichnam
Verfassungs
Tagen
Julius
##mitglie
##CO
durchschnitt
besten
Existenz
##äume
##instr
Iran
##mith
1891
system
##jew
Neut
##äden
##iedelt
Christen
Gramm
##ique
Anhalt
##isieren
Arg
Beziehung
##hockey
ältesten
Horst
Woh
##usalem
zuerst
##durch
##eiligung
##ießen
Cast
eigentlich
arbeiten
verurs
Franç
gingen
Sankt
##ikanische
norweg
CO
##uld
Simon
bildete
westlich
Wash
Roten
##führte
##cl
Team
##rifft
Zweck
##archie
Por
Milliarden
##bücher
Gericht
##onisten
Fahrzeug
Mach
Termin
Viet
Einrichtungen
##opul
höheren
solchen
##oe
##other
##gemeind
##ays
##zellen
weder
##krieges
Buddhismus
Nep
Fehler
##ID
Gefahr
Kanada
##gebirge
##uste
ganzen
Blu
Farbe
##achstum
Entfern
##handel
Integr
beschreibt
Magde
Arnold
Rol
##vi
##cy
Gemälde
Camb
Send
eindeut
87
##sbach
Tief
sozialen
Formel
eingestellt
Rod
luther
Systems
AS
türk
Allgemein
Fragen
##rates
Hugo
##sätze
1850
Viertel
##chem
Ban
##programm
##alisiert
Abkürz
##AR
Rundfunk
Imp
zweit
Anmer
außen
##höhe
##pper
##antin
##stheorie
##familie
entsprechenden
##unehmen
##hafte
##forscher
Tourismus
Kontrolle
Frankfurter
King
Wesent
##ders
gener
Michel
christlichen
Vorbild
##geordnet
Zerstör
Hav
bra
Prote
##ibel
##kopf
##besch
135
##let
##iation
Abstand
##alys
##ministerium
Schlüssel
119
vorgesehen
##ours
uner
##alerie
##deutsche
bein
##nissen
Wohl
##cc
##berecht
##öffnung
##lässlich
##ée
Gemeind
##aub
verantwort
##ylon
usw
##anger
verboten
höchsten
##ilde
##anteil
PS
wes
Idee
Dirigent
##ämpfer
Studium
Human
manchmal
##del
österreichischen
Society
Kandid
##IS
Kapital
angenommen
Sab
weiteres
Fiction
##annter
Dortmund
Papier
daraus
Zoll
##itor
Horn
unterschieden
##sm
##mension
Int
##ämpfen
##ächsischen
##äb
Mic
##usch
begonnen
Imm
Arist
Quer
Musikp
schlech
Island
##zy
Englisch
kanadischer
geh
144
vern
##bra
##hedr
Territor
auftreten
Springer
##genossen
##ländischen
##iale
Landkreises
folgender
diver
##alition
##führen
Liber
##spolitik
verpflich
##zell
Wetter
##imme
Flügel
Untersuchung
Chines
900
Sus
Ut
Jerusalem
Ram
##eiteten
##affung
115
Pre
fällt
Gottfried
Erschein
Küsten
Sehenswürd
Klin
##cks
Straß
Tübingen
Box
##wach
##etischen
möglichst
Prag
##auber
##ingu
##ration
##tischen
##indert
Tode
hätten
Insbesondere
gemeinsamen
##ket
Eind
##urn
##AC
##lim
Verz
Studie
Bestandteil
##führten
##sichtlich
Neuzeit
austral
Är
##ips
##gung
Einsch
Figur
Anhänger
Ingenieur
##able
##tement
namens
Sozi
##elles
anders
##laub
tief
##gesprochen
##renzen
##ny
1875
Mexik
traf
östlichen
##sprech
digit
##kar
Europäische
##ivers
##formation
abgeschlossen
Bart
Marine
Ukra
##hardt
Patri
länger
134
Eugen
##ädchen
könne
##idenz
Ansicht
Griechenland
Stan
Auft
Regeln
Hub
##bestand
Win
124
##zul
Gebrauch
Fernsehen
Zyklus
##felder
erwar
##edition
dritte
Kongress
##fels
##aph
Soph
reform
ide
moderne
folgten
##eichen
Klassen
##auern
Innenstadt
##üter
##antas
Sur
##anda
Höch
üblich
Syrien
##gänge
##itäts
Finn
##oß
etc
Interpret
##rachte
##reund
Kolonial
lö
Neustadt
musikal
kleinere
Lös
betrug
verlassen
Brüder
Est
daran
Betriebssystem
elektron
##zuführen
Geburtstag
##ungsver
Luxemburg
Corn
Invest
römische
heiratete
##aux
miteinander
Bos
Schwester
Buchstaben
einheit
1950er
##achtung
Taschen
Stephan
erweitert
übersetzt
post
##laufen
South
Ze
73
##ürzt
Trag
1887
##falt
##icks
##bi
##geschlagen
Rett
Atlant
Krankheit
spätere
Signal
Fäh
1800
Wähler
##eige
allgemeinen
##setzte
Hamburger
Washington
##achbar
Salv
##redit
Tonnen
Kassel
Kathar
Inde
##ussen
##ntag
Diplomat
späten
##arbeitete
##essin
1867
##fran
##schläge
Neur
Oder
tatsächlich
überhaupt
höhere
maß
Jacques
##schleun
##schauer
spanischer
Gesundheit
##mut
##ffel
charakter
derzeit
##richter
Niederlage
Gewicht
Tätigkeit
##agte
100px
Sauerstoff
##AM
##iels
col
verur
##landes
Funk
##hel
älteren
##aissance
##leistung
kennen
##freiheit
##unnel
notwendig
Verkauf
##ffer
##ängt
erstre
##ommerz
##ila
Bruch
Häuf
Reichstag
Grundlagen
Tanz
##TS
Ausgang
Pfer
Blatt
##zeugung
Wit
1884
Historische
Beitrag
##sänger
Vereins
Kammer
dürfen
wachsen
##gs
Blau
nennen
menschlichen
96
japanischer
Karr
Molek
mittlerweile
Unterscheid
verwendete
Ergebnisse
##elli
Pi
##skop
preußischen
##got
##etrie
105
Stich
1849
##witz
##ouverneur
##vo
Anspruch
##klasse
##hauses
##strahl
Alli
Dampf
Patienten
ungefähr
abhängig
139
Eishockey
Grafschaft
Übergang
Mauer
legte
blockiert
##etik
Heide
Behandlung
Hem
Ideen
##sein
besuchte
Toten
bayer
##mord
##äler
Aster
Allgemeinen
Sehenswürdigkeiten
##inst
zumeist
1886
nation
Vielzahl
##daten
medizin
genannte
kreis
vieler
Ethn
Portugal
he
änder
##maschine
jungen
##wes
Ausland
Brow
Halbinsel
rom
Ostpreußen
##gehoben
##aille
Angehör
##etts
1815
Stär
##ördert
Thüringen
##ändler
##züglich
MB
erhoben
Temp
automat
##kreise
##usen
beru
interess
Plä
##ismen
##atter
schloss
##omer
isl
könig
Roll
Weißen
##sburger
Nikolaus
Lov
##oslaw
##partner
##ruhe
Anne
abgesch
Frequenz
Nahrungs
##dauer
Orient
##versorgung
publ
##weiler
##ehörde
Offizier
tro
##spunkt
Metrop
Bündnis
Lexikon
Weihn
##datum
Ursprung
entsprechende
Mechan
Belgien
Anf
Beam
Konstruktion
##ado
##spf
##orea
weite
Gatt
ergeben
philosoph
##laf
Quadrat
Smith
Kindern
stieg
neues
Wagner
##stücke
##rix
##spielen
lebten
zeich
erzeugt
##tschaften
##anzer
Mitgliedern
Ky
Vaters
se
treten
May
abgeb
Music
Elektronen
##igital
##hofen
Magnet
Vietnam
Sebast
Van
Pseud
##material
##imeter
Alte
parallel
Jud
wirtschaftliche
Live
Testament
Forst
Kin
Haut
##bauer
spät
1881
1866
mechan
Staatsb
Nomin
##öglichen
##forderungen
benötigt
keiner
verläuft
künstler
##flex
##amerikan
##kammer
verkauft
##wel
einschließlich
##mannschaft
verk
möglicherweise
1878
benachbar
soziale
Fas
Nag
AR
Weiteren
Schott
Pen
Norwegen
islam
##euk
stra
Urauf
Günter
gute
##anni
Führer
##ötet
polnischer
##sens
1860
##achts
betroffen
ursprünglichen
Oxford
1882
ch
erlaubt
Benedikt
##schiede
Gemeinder
Rückkehr
Waren
ernannt
Schall
freien
Academ
Nummer
Ga
##scha
##innung
wirtschaftlichen
Türkei
Restaur
##ota
##manns
kurze
Koalition
Weber
Sau
##weist
Teilnehmer
Gestalt
Alternativ
Vit
Aufstand
Neck
Pommern
Zeitrechnung
Provinzen
dur
Veranstaltungen
##weich
##EIT
##heira
mathemat
Ax
Apost
109
Werken
Koh
##well
##baus
Na
SP
Lyr
##tend
verhindern
gült
fallen
klar
##mittelt
Gründ
##reicher
Schild
Glück
kaiser
Zun
##tische
eingeb
Phän
Cambridge
Einwohnerzahl
##fession
Express
##ächte
Mang
1876
##ão
inst
Fahrzeuge
Analyse
näm
##ikum
reag
spanischen
##quelle
##etto
Seg
##setzungen
individu
Act
bereit
vorwiegend
Figuren
##chern
Moh
Vergangen
näher
##umer
##räuch
evangelisch
hält
Vorgänger
erle
Koordin
##ses
pr
Orchester
Sonst
trug
Ot
Forder
##liegenden
Würzburg
nämlich
1879
Sav
##ds
Moskau
Rumän
##ly
scheiter
Theologie
Bundesliga
Nicol
##onenten
Nationen
##ordnet
##thiop
Mühl
kB
eingerichtet
##mühle
François
##osa
gemeinsame
richt
Merkmale
##IP
Wärme
138
behaup
Libr
Bekannt
##ämme
Liter
##aven
##stift
##altete
Satell
Und
Brasilien
kosten
##station
##rise
##weiht
Begriffe
festgelegt
Mexiko
Schle
bewir
Sei
Schu
Moderne
anzu
vol
##aun
Weib
118
Häuser
##kin
##rächt
Markgraf
##sex
Münch
erhielten
Feuerwehr
Are
##haben
##onstr
1500
##azin
Staates
Zul
gegründete
theoret
Uraufführung
Lam
Mis
deutschsprachigen
Kreises
##DS
Enter
##fält
##endel
popul
Trier
letzt
##arischer
##rennen
1883
##laven
Cre
Kommission
verwenden
##historiker
wuchs
verg
entwickelten
legen
Chemiker
Front
pass
##iro
##uliert
wirk
enth
##bürgermeister
Drittel
##änz
##fabrik
##ynth
Wasserstoff
Interview
bieten
Gewerk
##könig
##lichem
##sekret
##unsch
part
##ye
überw
Mädchen
##deutschland
Domin
grundsätzlich
Winkel
##ordens
Schritt
Anlagen
Züge
##aria
Ausbau
##zantin
##temperatur
##endete
##orff
belg
Dé
Premier
Konflik
bürger
##rock
Konkur
Mö
##spräsident
Verlags
Exempl
##regisseur
Milch
##unsten
Teilchen
##prozess
Pir
##ader
präsent
hoher
##ero
##gers
##erkennung
Beschäft
Küste
Giov
politisch
Luf
##gesp
Mount
##ologischer
ehemals
speziell
bedeutende
McC
zufolge
Carol
##ichert
zugeordnet
Spe
Großteil
##ikon
Schnell
Venedig
Hü
##reit
produziert
mass
Weltkriegs
##BC
russische
Mun
gespielt
Abkürzung
##maschinen
##atisch
##üste
besetzt
erlang
Micro
Pel
##IC
##bildungs
Römischen
##ichteten
##ocke
italienischen
Pak
1868
1874
gelegentlich
Wen
mod
1861
##geld
kirch
##cul
##opol
sofort
##freie
Mari
Platten
##verbindungen
Asien
Preuß
##aufnahme
Schiffe
##ikas
##strecken
Caes
Pau
Wicht
##ündet
Organisationen
Vo
##blätter
91
Glaubens
Flagge
##viertel
endgültig
aufgelöst
Einen
##itute
##küste
##handlung
Spitze
Erzähl
Herzogtum
##gebieten
grenz
einiger
##imir
##ebene
##owski
Bernd
Krone
##DAP
##okument
##ziger
Objekte
##zur
Morgen
##ohlen
Gedanken
wirken
Haft
Pin
##aker
Aff
##ato
Unternehmens
Vergangenheit
IP
Augsburg
André
##bilder
##eitag
##oment
schwier
Varianten
junge
##erz
Ebenfalls
infolge
##ckel
High
Kün
##offiz
militärischen
Dür
Mig
Walt
##ßig
##sender
##afft
Christus
Erklärung
Bogen
Umfang
verantwortlich
Kö
Bord
Ful
##arre
andererseits
Schwa
Gewerbe
Golf
Sieger
Vorsitzender
##zin
Kapit
##bezeichnung
##fre
104
Oberfläche
Dol
##iod
französisch
##tur
##ikanischer
Knoten
Flucht
Zusatz
Aachen
##ingung
nöt
Festung
ko
##maßen
Dietrich
beginnen
gezeigt
Genau
##kehrt
##alin
Bob
vari
##platte
##osph
##VP
Mittler
Sec
Fotograf
gesetzt
Vereinigung
Strukturen
angelegt
Besatzungs
##cus
Karriere
##jor
##reihe
##litz
##nther
Schneider
Zimmer
##app
##aku
zentrale
Bier
Handballspieler
Bewohner
Heb
Magdeburg
OS
##fällen
wissenschaftlichen
Lem
Nar
Elektron
Center
Witt
##renn
Amerika
endet
Vel
Leo
##stad
1864
Station
Erkran
zurückge
##zens
meistens
Bühnen
Kennzeichen
1872
##karten
##ump
Ehrenbürger
Aur
##musiker
letzter
Regensburg
Hop
##entin
Pianist
##iffen
##zunehmen
##geschicht
##ypen
97
##swissenschaft
##arisch
wichtigen
##sver
Museen
Mary
Möglichkeiten
bin
Spir
Dialekt
Balt
Zent
manchen
Porträt
Terror
ermöglichen
##wähnung
##stu
Kölner
Fle
Ray
nutzen
##sprachige
##kohol
Wo
##orbenen
ag
##ère
##bogen
Emp
##wege
getrennt
##inium
##ütt
##unkel
Internationalen
konzentr
1873
zug
orthodox
Merc
Fünf
##oral
##halter
##ländern
Aussage
##iziner
jüdische
Null
##karte
Ehefrau
##ried
##geblich
1877
Größen
##winkel
Had
hierbei
##plätze
freie
##liedert
Abd
##apel
sprechen
##räg
besetz
Tennis
nachgewiesen
gewinnen
spezielle
##sab
##vorg
##MS
Ursprüng
Adels
##arts
1806
##nchen
##tz
erheblich
heim
Bahnstrecke
Schaus
Bezeichnungen
##kosten
Hey
oberen
Veröffentlichung
##ugh
##liste
Master
mir
Kamp
##cu
##rüst
technischen
##after
##stil
Stimm
Meyer
Religions
Festival
Pas
wichtigste
Veg
##bibliothek
Monat
##ilber
Siedlungs
##ras
Wesentlichen
##größe
##herren
Geistlicher
wichtiger
Hilfs
##inett
demokrat
##spur
Komplex
repräsent
##aufhin
berücksicht
Antonio
Benz
##lösung
Renaissance
Amtszeit
bekam
Dennoch
KZ
schrift
##linger
1865
versehen
##platten
bestätigt
Anmerkungen
Ruf
##ww
golden
veränder
Kohlenstoff
portug
Graph
erscheinen
God
##ín
##skirche
Kult
Tisch
##owitsch
Villa
##zn
##anischer
anerkannt
Entwurf
##schauspieler
##ird
Schluss
Ministerpräsident
##mitglied
Ebenso
polnischen
Krei
114
##ific
Handbuch
Hotel
Goethe
Fass
##sprechend
Musikpädagoge
Freie
1840
406
katholischer
Veränderungen
##aud
beeinflusst
Dick
##äufer
Wahlen
Samuel
nannte
Meinung
einzigen
##mes
Geräte
Green
th
##urer
schwedischer
portugies
Sir
Alf
verwendeten
##ringer
Sicherheits
##spannung
Fakult
dennoch
Claud
##ahren
bildeten
Santa
Giovanni
Reformation
##schlüsse
Belager
##reibung
Auton
Dann
Griech
Aufstieg
Oscar
Mir
##artigen
##stoß
##mess
##analyse
##laden
Vermögen
##demokrat
weg
##mauer
Modelle
##orum
Prototyp
##anzig
##waffen
Kupfer
endete
##haften
zuständig
##ätt
##ns
##istr
##out
Has
line
##unnen
trans
Ja
sexu
##einheiten
urkund
##modell
weisen
Pfarrer
##sinn
##bür
Kalk
##ska
Ken
Universitäten
Zellen
nahmen
##gab
##ela
italienische
##alb
Chic
##völkerung
Sebastian
erb
schweren
Besucher
Babylon
Durchmesser
Heft
UK
Fenster
anhand
##ktive
Takt
##aya
Felix
natürlichen
Krimin
##dner
Handlung
Vie
Neb
Verantwort
##ista
##fahrts
##erten
##straf
Förderung
##strahlung
könnten
##äfer
Laur
1869
##ksamkeit
Gang
Rav
##stufe
##teilungen
Auto
##kol
Flüss
##öhnlich
##eutet
Frucht
Abteilung
chinesischen
physikal
Od
Planeten
Ev
Links
##ographische
DB
Demokratie
weshalb
umgeben
##werten
Motiv
Siegfried
sech
##spir
unterstütz
Justiz
ausgestat
##motor
Sl
allgemeine
Hild
com
ja
##zehn
##én
##zeichnis
Vereinigte
##ementen
Gleichzeitig
##abt
Single
gleichnamigen
sinn
verstanden
einerseits
##agne
##ätzt
beschlossen
Jesus
Fraktion
umben
##mittelalter
##tret
stabil
##scheinlichkeit
traditionellen
##hoff
Lebensmittel
dre
Seen
Europe
Tabelle
Mei
Landschafts
www
##cen
Company
Dissert
Franzosen
Kul
##jan
Orten
##baute
##ektar
angest
##mir
##mechan
konserv
Kapitel
Paz
##üch
leh
History
##FA
Bericht
geplant
##tums
##ometr
##ords
Imper
erstes
##gard
ISO
behandelt
##ages
Absch
Indust
##aar
##zern
##führungen
NSDAP
##sprozess
Synth
Digitalis
##lehnung
1862
Opposition
Mobil
##macher
Henri
##oin
##läub
offizielle
diskut
Oze
##ierend
José
Anwendungen
pf
ter
Lew
##tor
Tok
sh
Drehbuchautor
Math
kommerz
Wege
Ron
##bein
ausgezeichnet
Renn
##emin
Aufent
Mineral
##heil
Studio
Prof
Basket
Eroberung
ther
##ić
##zel
##erien
Pader
symbol
Jh
Gregor
##vorsitzen
Schwarzen
Gouverneur
##mas
##mag
##onische
ägypt
verändert
Zugang
wissenschaftliche
##schlesien
Gh
##jährige
erhöht
sin
Anerkennung
Beat
kontin
Bapt
##urb
Law
berichtet
##zustand
Kombination
##stattung
##ehls
##örung
Barock
##ulpt
Champ
erforderlich
Könige
nationalen
herausgegeben
log
Kathedr
Szene
##oni
Offizielle
Last
##euch
##fahrzeug
geringen
##maßnahmen
Bam
##hers
##flügel
Glob
##rücke
##bevölkerung
argentin
Row
kehrte
##stes
ausgel
##otop
##soft
sorg
Kob
Ök
##volle
Produkte
##vas
evangelischer
Verlust
Kie
Verw
##örg
Betracht
gelegenen
##kanal
Gesang
##ador
##weil
Rohr
##empf
##waff
aufgebaut
##reiter
Neubau
##abet
##fries
zeitgenöss
Bör
gra
##hart
##ählen
##quenzen
CSU
##orient
##auftrag
spezif
##oberfläche
Bah
bezieht
Astronom
##ensystem
Bran
##orgt
##wirk
##ödie
angew
##ütte
Löwen
Lat
Flücht
Ersatz
##ianischen
Ral
Geschichts
Rup
Aussagen
beschäftigt
1863
Mrd
Pots
lat
##äumen
historisch
Behörden
Liv
##ét
##ova
militärische
##ärten
Grünen
Kapelle
Informations
zentralen
Suche
##itur
Sturm
Klim
gebunden
errichtete
Pic
Monaten
Komment
Äl
##streit
Leistungen
fehlen
unteren
##ählten
##ileg
auszu
verstärkt
hund
Schwerpunkt
##ía
landwirtschaft
Tirol
##eyer
Sender
##eigung
Klang
Sekt
##spar
Mittele
Komposition
Handwerk
Weiterhin
CH
Rollen
##roh
gleiche
bevorzug
##lieferung
Samen
Äthiop
Design
##stechnik
Bundesver
Erfinder
Platt
Logo
County
##ugoslaw
Entfernung
Hierbei
Nass
##ütter
Zir
gegründeten
Konf
##stoffen
Jüng
##krä
##entwick
Bundesstaat
Brücken
##lowakei
ehemaliger
##überg
##euter
kontr
vermu
Ziele
##era
Schäd
Agen
##dichte
Eingang
Programmier
##range
frem
XI
##eitungs
##opäd
Kunden
##ira
seitdem
Boot
##arkt
Lorenz
zugäng
108
##rans
unterhalb
Auffassung
##ennzeichnet
Detail
Liga
Generation
##ural
##immungen
##säss
Kond
rechten
##ländische
##präsidenten
künst
gekommen
Fa
Vil
met
##heben
antiken
##ML
Eröffnung
##det
säm
kleineren
Fremd
##rägen
wollen
Oberbürgermeister
Verbesser
##iki
Gewässer
##gliedert
##ycl
##opf
Paar
Publikum
##bindung
kurzen
Museums
##NG
##illon
Expedition
Pion
##schafts
##liegt
##folgung
hum
##oter
AT
Tax
##utzung
hör
##angriff
beider
abzu
##iologie
linken
1830
Biele
##eise
##ardo
##leihung
kontroll
Rak
##schild
##lassung
##amik
##steine
Chin
Fassung
liber
Abhäng
##ee
##hold
##mün
##eton
##ertal
Wende
##rauen
##konstruktion
Erg
entdeck
Zucker
Lieb
Straßenbahn
Wahrheit
bekanntesten
Francisco
Grim
##lieb
Parallel
##losigkeit
Vorstellung
How
vergeben
zweier
##üttel
##wegs
##resse
bestimmen
##schlüssel
##schnitte
##städte
Gab
##ipl
##ieger
##sende
##unt
##grenzung
leg
##eide
eigenes
##eo
stat
Anders
##achse
##bacher
Ursache
##anspruch
##ängnis
Leb
Wiederauf
Ten
Markus
##oma
##ehrten
##ello
begannen
off
altern
ster
Christentum
##leistungen
Ufer
schwarz
Stol
Verf
Wesen
kW
reicht
Academy
geringe
##lärung
Sul
##mittlung
bislang
getötet
mittleren
Lee
##heiratet
Mord
##ito
##andt
bot
##usk
erziel
Töch
##ausstellung
Trennung
Architekten
##möglichkeiten
##rief
Befrei
offiziellen
Verg
Ehemal
##SS
##weiger
##bereiche
##säure
##wäl
##isen
##pass
Synchron
Amb
Etwa
Böhmen
House
solcher
Barbara
Subst
Asch
Exil
Mediziner
tun
##schirm
##alte
##ption
Petr
Mittelmeer
sowjetischen
tau
Gör
hom
Deutsches
##ghan
bestehenden
##itus
##heoret
Katastrop
##partement
Dikt
##ege
anlässlich
Weltkrieges
europäische
Cr
##zählung
stimm
Napoleon
Leiden
##itts
##oto
##wies
gemessen
##systeme
lebt
BGB
Pie
##ido
##ammern
##verbindung
##position
elf
Parad
##meth
##aris
Erkenntnis
##ards
##riz
##owa
##ietz
##literatur
Geschichten
Nationalpark
prote
##ndorf
Hamm
Serien
ähnliche
Bod
##äfte
##ides
zusätzliche
##darsteller
Dissertation
Direkt
##esheim
Lein
Denken
##fähig
hours
##gi
Zwangs
Schauspiel
Seel
##ici
##kirch
Sed
Arts
schott
##geschehen
Allgemeine
Konzer
##gefü
beherr
##reichend
##ave
Strateg
bras
ziehen
##ämpfe
Ank
Margar
Besetzung
Oldenburg
Abbildung
Sterne
##ialen
##euert
Lis
Bundesk
##roph
Unterricht
##ners
Chicago
Verleger
entfern
XII
##hall
Namensgeber
Entdeckung
##oppelt
schließen
konst
Weser
##ati
großes
Fehl
##schel
Kugel
##fangs
Äm
Schö
Bereichen
##artet
Ped
Wass
##änen
##barer
angep
Pariser
Bayerischen
Net
Ok
jahr
##jektiv
Muster
Bast
dat
Übersicht
Kräfte
Kennt
Schicht
israel
Unterschiede
Group
Hagen
##opt
##sprüche
France
Cla
##not
ließen
Juan
org
Wach
sc
##nehmung
verbindet
extrem
Gespräch
##uell
##EN
trocken
##bten
##undes
Operation
##idd
Sklaven
einfache
##bedingungen
darstellen
Thor
angeschlossen
Dun
Sz
##ammer
##vereinigung
##äste
Barr
Adler
Fortsch
Bruno
Bulgar
##ér
##mol
Ukraine
Zwer
Schalt
rek
Anat
Kontinent
##sekretär
erfolgen
Premierminister
Hau
Rap
##äp
Netzwerk
Bakter
##graben
Baur
##schten
südlicher
do
Auszeichnungen
Neckar
Briefe
umbenannt
You
##bereitung
##oiden
Metz
Karlsruhe
Französischen
erinnert
Lar
ungew
voneinander
Kooper
##zwungen
##jekten
##gestaltung
darstellt
bisherigen
Schau
setzen
Virgin
##rel
Quell
Foot
Götter
SC
Publiz
Weimarer
Gn
Index
brasilian
It
UA
eigentlichen
DNA
Gö
##yan
Wissenschaftler
scheint
Seleuk
Hektar
körper
Schum
##rank
eindeutig
Meg
##emens
expl
Langen
Rolf
##pommern
##grab
Argentin
ausgeführt
##ori
vorkommen
Rainer
private
Harry
Übersetzer
##ischöfe
Boch
Glieder
Haltung
Kem
##grä
Fleisch
1803
Günther
Residenz
Produzent
Kel
Management
Protest
Verteidigung
Initiative
staatlichen
##esten
unterb
Abgeordneten
##einst
##gener
verbess
Gedichte
Bett
Zusätz
Linux
Dal
Konstanz
Eberhard
##rein
##lings
Binnen
Eint
Änderung
Films
Franzisk
##mont
##ometrie
prim
natürliche
Kiel
bezogen
räum
##denkmal
##version
Knochen
Roland
Sens
##EG
##ones
##farben
DF
##fahrens
1858
studierte
Nordosten
inneren
##sz
##endo
besonderen
Europä
Erweiterung
Rumänien
Paderborn
Ret
Suhr
Senat
technische
maximal
##leiten
##vater
con
##öz
Verteilung
Rostock
##yk
verurteilt
##BM
Reinhard
Life
Gebir
Ganz
Zar
##leicht
Lübeck
##weiten
Programme
Server
Höchst
##indungs
entwickeln
Deshalb
##regel
Woche
Wunsch
Dub
Vi
günst
##freien
##aga
##iktor
Pred
gleicher
Witten
##schnitten
##jahren
privaten
##PS
##verhältnis
Christi
Hahn
Prinzessin
Ts
##dy
Institute
mich
Fro
religiösen
Höhepunkt
elektrische
Fantas
##merk
Jones
verlang
##angeb
beendet
##verteilung
Einrichtung
Acker
Big
##bat
praktisch
womit
Alltag
beschränkt
Basil
Niederlanden
##ysik
möglichen
Si
vir
Siz
Grafik
Firmen
Gegenstand
Spielen
Evangelische
##oir
##arbon
##übert
aktuellen
Vorteil
japanischen
##ssel
Komponisten
qual
##lein
##gesetzten
erkenn
##olen
Krankenhaus
Sun
Wood
ausgeprä
veran
1859
Vik
##gerät
Tageb
Haupts
Gesetze
##kom
##aka
Henn
##idische
Passag
Zufl
Pferde
##mosphäre
##turm
##uelle
Kathedrale
konk
forderte
verab
##heber
##preisträger
zweiter
Erdbe
##aken
##holm
Conc
##zusetzen
DM
finn
Bauer
MHz
##eiche
##artikel
with
##grü
##roskop
aufgestellt
Anst
1813
damalige
##ous
Hill
##omos
Herrschafts
##jenigen
hängt
Amster
##cal
Großherzog
zusammengefasst
Bein
Pest
1851
akzept
DS
ord
verfasste
Spitzen
##beam
Rev
##mand
##ufer
##ameter
##irv
Kaiserreich
Bald
##oxid
##ylinder
Botan
protestant
Line
##imp
Bielefeld
römischer
##seitig
durchaus
Nordamerika
Einzug
verlegt
##mitglieder
##splatz
##hyd
##led
Gil
##ärt
##ordet
Ech
Synag
Inf
##verbände
##produzent
##odes
##gebiets
Angebot
##vertreter
##besitz
Hanse
sur
ethn
interpret
##itim
##herstellung
Gemeins
katholisch
guten
##pap
##iern
Verschw
beste
##sprechen
Anth
Elbe
Universitäts
Earl
##leitet
##sied
1856
BR
##äglich
hierfür
##icherheit
bestehende
Dokumentation
Gründungs
##steile
start
Vulkan
Irak
Ross
##ärm
Sound
Lippe
organisiert
1930er
Adl
color
dün
##atus
Telefon
Krä
schuf
##bold
##kunden
##abilität
stattfinden
Versionen
Erzb
##rüstung
Gert
##iot
Schrö
unbe
begrenzt
Normal
Olympischen
##pflanzen
Töchter
##ju
Sprecher
wirkt
konstru
Qual
Stammes
staatliche
##iqu
regul
industr
Expl
Bester
Wahrscheinlichkeit
##bal
Erfolge
##ves
##mor
##itation
##sbed
Trainer
elektrischen
il
##ickt
Fahrt
Ress
##asp
##ault
##systems
ursprüngliche
##brand
##onn
Format
gro
##avor
##legte
ermordet
Fab
schwei
Auswirkungen
bedeutendsten
Mut
##rugen
üblicherweise
##spartei
langsam
reduziert
##arett
Rezeption
##pat
##olph
Direktor
Reichen
regelmäß
##uktion
Maschine
Freizeit
##elev
Irland
Bistum
Digital
Einer
##ifizierung
##öger
##eibe
Spitz
Vinc
##iae
##östlich
Pfarrkirche
Belagerung
lit
einfachen
untersucht
Bibli
Aufklärung
Mongol
Falle
Jüdischer
schwere
maxim
letztlich
##die
##ioden
1857
##post
1818
Temperaturen
Long
Zwar
Bereiche
Brunnen
##ergie
Saal
Auseinandersetzungen
Jäger
##dis
Hoffmann
Sn
##fuß
1200
##waren
Sonntag
##uor
##urt
##emie
Bestimmung
Neg
Messe
Skulpt
mögliche
lautet
sichtbar
Segel
Verständnis
Serb
Moritz
Rab
anfangs
Gitarr
##inten
Scott
Jahrzehnten
bestanden
Assoc
##ged
halb
MS
Moll
Planung
mehrerer
gezogen
ausgebaut
##swald
Organist
beher
BM
##ehrung
Bedarf
Ferner
Kau
##ogramm
Spuren
1814
Filmregisseur
selbständ
Gewinn
getragen
Amerikaner
Train
preußischer
Breite
tot
##waffe
Differenz
##zugs
Mannheim
Now
innen
1854
##geräte
Lange
Außer
Reh
Rettungs
##sth
1852
Katharina
Us
##dehnung
##weichen
Fär
Marg
gesichert
Übertragung
hundert
Bio
##fragen
angehör
Yo
##manuel
Mittelpunkt
Dia
##berechnung
Stimme
Niederschlag
##sheim
##St
1810
verließ
##oven
##rath
##äle
##ando
betrieb
Time
##äfen
Alum
Urteil
Département
Steu
Beste
komplett
Gelegen
Aktivitäten
ausführ
##ops
##itis
gebräuch
Identität
##partei
steigen
Darstellungen
Eff
zeitweise
prom
##hes
Nachfolge
DVD
Künste
Jörg
dokument
Verdienst
umfasste
##ence
Gefü
Roger
Monte
Repräsent
Säug
Summe
positiv
##99
##ationaler
Forscher
1855
erweiterte
Zerstörung
1846
##getreten
Bibliothe
Service
Bewusst
##gg
Attent
Ereignis
Autorennfahrer
##mäler
##andin
Kreisstadt
heft
Begründer
Zuschauer
ausgew
Digitalisat
##cel
erl
Industr
##kus
##ünder
Verhandlungen
Chef
##raham
Errichtung
##zeitung
##wirken
Fernsehserie
traditionell
Riesen
aufgehoben
##osh
Reichsk
Durchschnitt
Bismar
eröffnete
Intel
Vorstellungen
##azität
Herausgeber
Südwesten
Division
Rub
Abente
United
klassische
Elect
rum
##odie
##flüsse
Gesetzes
geeignet
##ging
##bezogen
##gebra
geblieben
Wachstum
Weihnachts
##ernte
Bres
eigener
Hauses
Labor
Sult
##einrichtungen
##eidet
Reiter
station
Erzählung
direkte
##atiker
##aftet
##isc
##spez
Wör
Abgrenzung
Freder
##pal
##oul
ältere
##ätzung
gekennzeichnet
##misch
Zusätzlich
Somit
##ränkischen
benachbarten
Harald
verschw
##ragung
Änderungen
Weibchen
niedriger
Phasen
Datum
Artik
Palast
Veröffentlichungen
##olo
##olith
Cra
Oft
##ete
Einkommen
Fell
Gerd
rh
Rücken
Religionen
sk
ansäss
##klus
Vögel
##ienz
bewusst
polnische
Naz
Friedrichs
Bundeswehr
fertiggestellt
Mailand
Weltmeisterschaft
##riss
##auch
##TC
##bringen
Krim
Past
1816
Suhrkamp
leitet
te
glau
Edel
Kun
vielfach
Lizenz
Loch
##gorith
Tieren
##icken
##iveau
##bildungen
ausgestattet
südwest
Titan
Flotte
eigenständige
politischer
##griff
Perspekt
##AL
##steigen
##unken
Beweis
Heeres
Anz
gelegene
Oli
Johnson
Geistes
Sib
traten
##versicherung
Ausgaben
Blas
Marburg
##astung
Konstantinop
Nordwesten
Stab
Annahme
##ometern
Produktions
gereg
3000
Ath
machten
anschließen
##teles
Kaliforn
Erwachsen
##anstaltung
##ämpfung
##folgenden
Maus
##marke
Amsterdam
Head
Fakultät
Brot
##onne
Umsetzung
##höfe
##uier
Schiffs
Sexu
##onte
1847
##OM
amt
Clemens
Gestaltung
Som
löste
Fred
nationale
##ili
begründet
Prozesse
Leucht
##une
evangelischen
##field
##nab
befind
Funde
Verk
Pferd
verstehen
##zügen
##OR
##ecks
Laus
##emm
##hersteller
350
verteilt
Origin
British
Verbrauch
##ativer
Pädagoge
spanische
mittelalterlichen
##BS
Antrieb
Aktu
Nu
##ioxid
aufgeführt
Wird
##ians
##quellen
##teilte
gemein
Frances
Kredit
Linden
##asi
offenen
Wirkungs
feier
Zweit
Fla
##una
Quanten
##paar
##ächer
stellten
Teuf
Motorrad
Kh
##cz
Princ
Pont
üblichen
Gegend
Weis
Moz
##estern
##zenten
Evolution
##ual
##ieden
##emar
Refer
Unterscheidung
##embran
Aspekte
Holly
Wart
##cia
Kast
Kontext
##vog
##bor
##rohr
Ansatz
Schuld
##schrau
##rater
Seele
##stärke
East
got
##ław
##henden
Typen
Panzer
##dom
syn
##auten
##tschiff
Eingemeind
##ogn
Filmen
##russ
##wo
Raketen
trainer
##blemat
VIII
##fahrzeuge
Republ
handelte
Geschlechts
##elekt
##ßt
##irvana
Versuche
abgelehnt
##eutn
##ensis
##schiffe
##zwei
ru
##revolution
Versorgung
##angehör
##mos
Ehrendo
##osop
Psychologie
Chinesischer
College
##dition
inform
##quart
##kurs
##este
##mente
##zeichnen
##gehende
##feuer
##okoll
Hyper
Nick
angek
Ens
Südosten
verfügen
Keller
Heilige
verpflichtet
Frag
schreiben
Stadtrat
##atal
jur
##pla
Interpretation
##bro
##schlagen
##90
unterteilt
Abraham
Jens
##BA
##yklopäd
Kreise
##vögel
##estell
Duis
dänischer
Centr
flä
lebenden
##lowen
ums
##ünfte
##alisierte
Gabr
mächt
##ender
##arz
Rose
zieht
Lob
Blüte
Nam
Schwein
Rote
Buddhas
Schwier
Blätter
Urban
Mode
frühere
glob
Gesundheits
White
Hung
Erwer
##liefert
Zusammensetzung
Ye
##IA
##etisch
##CC
Hay
##itiv
##phase
struktur
##rachten
Lokal
##zähl
Benj
vertrieben
Automobilrennfahrer
##öderation
heiligen
wiederholt
lokalen
##verse
##rodu
Stärke
ausdrück
Nahrung
Lichten
transport
Chal
##hler
vergröß
##sentwicklung
Hirsch
Illustr
zugelassen
Freien
##arzt
##rüm
Abkommen
Eid
Zauber
Inse
Dass
nationalsozial
Oliver
Vand
Anlass
##ms
Gedenktafel
##atorium
basiert
Legende
ausgetragen
verteid
kritisiert
Territorium
anderes
##igkeits
Südafrika
##größte
##auert
Marken
jem
##wein
Patent
chemischen
Satelliten
dro
##esch
Aufnahmen
Neuse
101
Jedoch
Aar
Infekt
Komponenten
Zunächst
zugunsten
lateinischen
Kulturen
Kommunalwahl
##zo
##ritts
Buddhistische
gezählt
Tauf
Hess
##ukle
zogen
##resp
Claude
Konkurrenz
##000
##skar
##bleiben
1845
Frankreichs
Tot
##ährungs
##geschäft
vielfält
rumän
san
##mie
##ürf
nordwest
Bomben
Faust
##luft
wert
weißen
Dichte
Jord
verheiratet
Kleine
Stadion
Auseinandersetzung
jener
mel
##ów
##block
Fu
Kaufmann
##AF
##raucht
##verhalten
##sbild
Systematik
Alkohol
Grüne
Innerhalb
Cam
Graz
##iefert
Blues
IT
national
schließt
XV
Begriffsk
##lach
##rey
##ession
Staffel
Technische
ass
bezüglich
Jeder
##oli
BS
Java
Ehrendoktor
SV
1842
Hed
Handeln
1844
angeblich
Galerie
Piet
mo
Äqu
##ury
1817
Leu
##vir
Epis
mot
Kalendern
Wehrmacht
Lag
##marsch
Stämme
##ctor
Feier
schreibt
1835
Amph
##fordert
##bezirke
Erinnerung
Day
School
##hochschule
Nassau
Dorn
##okraten
Theorien
1843
Siedlungen
abgeleitet
Aktien
täglich
Diesel
1837
Materialien
##ittel
##lieger
besaß
##räsidentschaft
Paläst
Brust
Uwe
bewegen
eigentliche
##metr
##andte
##etor
Berechnung
Technologie
##höhung
Az
Cour
Ner
Ortschaft
Münchner
Million
verbreitete
stattdessen
##schuld
##achter
größtenteils
Disziplin
ff
##klar
##horst
##ärer
christliche
kulturelle
Microsoft
Faktor
##vard
##ordnungen
Vorläufer
Roth
Klosters
Brown
Traum
beziehen
Vat
zugehör
Versch
##izierte
speziellen
Tunnel
##knüpf
##ubil
Bauwerke
Männchen
ann
##ohnt
##erei
##igste
Stick
##öhm
veranst
entschieden
Adams
Schmel
erklären
mittlere
Carr
neut
treffen
##förder
##uan
Institutionen
Umlauf
Wah
Vorpommern
##weisung
engag
Schottland
Kristall
Zen
##agnet
verbesser
verblieben
Bürgerkrieg
Halte
unterstützen
Französisch
Schicks
##skon
oftmals
##gebietes
Dreißig
Mitteleuropa
##raut
Schaden
##ütten
##ätestens
ergänzt
##asste
erzeugen
##uchten
verletzt
##yle
Ki
kar
Arzn
Kär
##rast
schützen
##gesellschaften
Hauptbahnhof
Ems
##yll
Anforderungen
Blei
isol
Vereine
Play
reichen
Mythologie
Aden
Model
##AD
##ahrt
Jahrt
Periode
Regelung
##aktionen
Comic
Nationalsozialisten
Damen
Besatzung
Mé
exper
CP
verläng
zweimal
Wester
Experiment
##ächsische
##reuth
##aturen
äußeren
erstreckt
##44
##spitze
Biographie
Cass
Aufsicht
Bernard
Therapie
japanische
Erzählungen
##icke
befest
Kamera
##mü
Tan
Tay
##ötz
Konzep
Faktoren
Jar
evangelische
offenbar
Nörd
Wlad
unterschiedlicher
Wettbewerb
##worfen
##igsten
Nachweis
kn
##schnitts
Zustimmung
wechselte
NAT
##öten
tschechischer
Gesicht
##steiger
##becken
1920er
oberhalb
Bronz
geriet
Foto
Doug
Ausdehnung
##athan
##harmon
liegenden
##ummern
Kla
Om
ök
Schne
übernehmen
##bul
##bergen
Gene
schaffen
bringt
Drama
Statistik
Spannung
Erfahrungen
DIN
eins
Quart
##kenntnisse
Lothar
##haut
##AG
Kritiker
grenzt
##eihe
Reisen
Benjamin
Lith
Uran
##leute
wollten
Hus
##iano
Hass
##tert
##lös
Stufe
Münzen
aktuelle
tatsäch
Freis
nomin
int
überliefert
Flüsse
starben
518
Kell
Vas
ört
einzu
##wertet
Out
##urgie
##aki
Punkten
##bit
Schnee
##bers
entschied
Parin
Breiten
##gewalt
##agon
Alternative
##EL
hinein
Fast
ökonom
genauer
Kurs
##udes
Brig
Marcus
Linz
Lehn
##speicher
chemische
##pern
##masse
##ize
Kabinett
##stron
Alfons
Pod
##ni
sagte
##arren
##zwald
1832
Befehl
Verordnung
Gabriel
Gir
Za
blo
##tau
##reide
##ütze
Verteidigungs
##lenz
Angeles
Bundeskanzler
##pir
Risiko
##agert
Zeug
##nacht
Volumen
Lüne
grundlegen
##rängt
Tun
Burgen
diskutiert
Berge
Stadtteile
schlug
Industri
Kalifornien
trifft
Schienen
##ohnen
Chile
vermeiden
Kohle
Rats
##räumen
Advent
Kroat
##webe
Entscheidungen
byzantin
Such
Strahl
Städtepartner
Parinirvana
Schichten
Gesam
Sekund
rei
##plement
Öff
##wandelt
griechische
Stücke
Orch
##greg
prop
##lsen
1831
Barth
frühe
Hinweis
kontinuier
Ämter
Jena
##runde
##olz
Becker
Zeitalter
Vereinten
Alternativberechnung
##eutnant
Gon
Pul
bib
##sprecher
Saale
Positionen
religiöse
Ara
mex
##iefe
Handlungs
##verarbeitung
##illes
Acht
##artig
Theat
##änderung
Familienname
##landschaft
Mater
##utzte
Oberflächen
Ursprünglich
Football
##ablen
Beton
##hauptstadt
##wid
##AB
Weltgeschehen
Rechen
erreichten
Spec
##format
Pflege
##pflanz
##oo
##gebir
1853
Harz
bezeichnen
Spektrum
##frequenz
Hilde
##stem
##beweg
Auge
##ombard
untergebracht
Künst
Yor
##bay
farb
mult
Anschließend
##kamer
Erwin
Show
Evangelisch
ES
Gefang
##akes
ausgeschlossen
##gehalt
Dritten
Persönlichkeit
Veränderung
Rowohl
Abhängigkeit
##swahlen
Hollywood
Vent
##obahn
Cha
Aluminium
Häft
Neuseeland
stet
##iefen
##sprinzip
Instrumente
Tet
##otter
##osex
##gesetzes
Brüssel
Führungs
Church
Radrennfahrer
##eman
1820
Andrew
##ächtnis
menschliche
##kil
Gehir
innere
##medizin
beobachtet
Vorm
gelegt
Eigenschaft
##ESCO
them
Konferenz
##egenheiten
spielten
Olympia
Koll
Chlor
Unfall
##brücken
Eishockeyspieler
Ty
eingel
##eda
##ücken
##alerweise
vielleicht
Katholiken
##wanderung
Gib
Link
oper
erfüllt
##oda
##nummer
##inu
beschloss
##grenzen
Übersetzt
220
##zentren
errichten
##obile
Enc
Hochschulen
##izit
lehnte
Integration
UNESCO
kulturellen
##cer
Leib
Ford
##wall
##ague
Cornel
##uellen
##anke
Manche
Metal
Bremer
Konstantinopel
Benn
##hten
Leer
Association
traditionelle
sep
##mögen
##legungen
Apoll
Love
##kette
Schatten
Hügel
Schließlich
##ahme
Siegel
Jugoslaw
##chtenstein
Beteiligung
sign
##mach
##sey
Münz
Paulus
Algorith
##handels
Synagoge
##ieten
##umpf
Schlei
Khan
##decken
##vertret
Grundschule
##yen
Verhältnisse
Arbeitsk
1821
Argentinien
Bat
Sammel
##bron
Stoffe
lauf
##elemente
##ehend
Brut
häufiger
##wesenheit
result
Beobacht
Fuchs
Mindest
Power
##räum
heb
##ther
##wahr
aufweisen
##ulierung
1801
erobert
HT
Umfeld
##eutete
##ministrat
beruht
Robin
##freund
##48
beschreiben
ST
##edy
arabischen
##ems
##ausschuss
##ähren
Spanische
Erdbeben
##änner
Sendung
Lenn
##telligen
##wappen
Hydro
##sendung
Malerei
Columb
Mythos
Agr
##stö
##ilden
Bamberg
##enner
##ilen
zugänglich
Diff
Oskar
Nachkommen
Strahlung
Präsidentschaft
##rete
##owo
Bildern
Gemeinderat
Virginia
erfor
angeg
Überblick
su
##anie
Bundesregierung
Drachen
##ehren
1809
bedingt
heißen
##splan
id
##iental
##anna
217
##icherungs
Fälle
les
Ei
##otential
val
Willen
Krise
##uay
##bergt
Beschluss
Antrag
intensiv
Caesar
Kolonie
##ommel
1812
##einde
einger
##decker
##estra
archä
Cott
böhm
##händler
hinsichtlich
Zweig
Rio
übersch
Thail
##kapelle
Ni
##usste
##parks
Abtei
XX
Geschicht
Geschlecht
1819
os
##gasse
##ähne
##ures
gewisse
Pres
Daraufhin
Acc
Austausch
Dsch
##schäd
Vorgehen
Freunde
Kolonien
Foss
hell
##gru
Mosche
Hinzu
Gefängnis
Natri
Wäl
Gipfel
direkten
Oxid
Claus
Lett
##onia
vielmehr
##fanter
Bin
SW
##einer
Fulda
Ressour
##izismus
##anner
Schwäb
gesellschaftlichen
Nan
leitete
##verständnis
Absol
Neumann
Stephen
##ators
Konzil
##jähriger
kombin
1825
bemerk
baute
Sizilien
Bang
Engagement
##sprechung
Finnland
cir
##direktor
##lichung
##entz
##lässig
stärk
fung
absolv
Impuls
##arin
Fotos
seltener
Wupp
##urp
Nachkriegs
Diplom
Taschenbuch
Sinfon
erkennbar
##reift
Hildesheim
Begriffsklärung
Ud
##ranten
unterstützte
##hend
demnach
##owitz
##ymmetr
1808
##häusern
##alm
Wilson
gegebenen
Koblenz
Hals
Kino
wirkte
Arbeitgeber
Nun
##theorie
betreffen
Voraussetzungen
Lord
hel
mg
##KW
vorhandenen
geregelt
##kw
##ormen
Erwähnung
derselben
Potsdam
##loch
##ommun
Märchen
##bour
##etti
##hou
Strand
versteht
##förmig
##dre
hieß
orig
Tschechien
Penn
rasch
Wiesen
Sternen
kol
Streitkräfte
NATO
##ares
Dec
Ursachen
vergleichsweise
Wirklichkeit
Jahrzehnte
öff
##tischer
##anth
Inneren
samm
##adi
##echte
1838
1834
Anordnung
Rowohlt
##jo
##aurus
Kurfürsten
ungarischer
Bergbau
Schwaben
no
serb
Jeff
Romane
Briten
##miral
Fabrik
Tob
##manische
Lav
ausreichend
Alp
dortigen
##friedhof
##leistungs
Mete
freiwill
veröffentlichten
##üstet
Reihenfolge
Erhebung
##wiegen
1802
Plural
Kost
##ku
##gestellten
zugrund
##osophen
SED
manche
beschäd
identisch
Hexen
aufzu
Ersch
Österreichs
##ject
integriert
##tim
##franken
##schenden
lateinisch
scheiterte
Anim
##ensburg
Sper
##fürst
optim
##hringen
überra
beruf
Heinrichs
Forschungen
Bakterien
##iac
älter
schweizer
Beu
##front
##ünden
##SV
Spur
Regierungsbezirk
Hypoth
One
ibn
Texten
norwegischer
Hind
Oste
##ism
##ekul
Christop
erwähn
Lern
##agramm
Süß
Englischen
Wörterbuch
maßgeblich
##andinav
Streich
Osnab
Voraussetzung
DR
##kreisen
##isationen
Polar
Begriffs
Ari
##lösen
##sbruck
1841
Chronik
Bühne
Afghan
Gründe
##code
##jahre
Letzter
beinhal
##sabgeord
##bericht
##ikations
Alben
##antik
Marke
Bauten
##erto
sofern
Calc
Asteroiden
##brück
##kons
Politische
persönlichen
kurzer
Dokumente
Här
Chir
State
zählte
##ario
Inhalts
Konst
##gemeinschaften
Datenbank
sterben
jung
##ohnte
schneller
##ential
Elementen
Südost
##eger
102
getroffen
Höl
Leh
htt
##pfalz
Umgang
##ographischen
##produkt
korre
Sultan
lernte
Stunde
gezwungen
gefert
typische
entdeckte
Griff
##noten
##ray
Arag
verf
Gefähr
Schaf
Konzern
Sciences
Ärzte
Tän
Ortsteile
Norbert
##mete
Kupf
##fällt
Kindheit
Wend
Reflex
111
Magn
mö
##welle
Angst
Verbot
Wahrnehmung
First
##orges
##ransport
##ülle
Litauen
berühmte
##anes
Glocken
Hipp
Kim
har
Space
Gedicht
Madrid
NR
##orp
Ostsee
Verantwortung
Bismarck
gestaltet
Analog
Ortschaften
##spruchs
Gleichung
Haup
magnet
urkundlich
vierten
##eme
rechte
Old
Guten
Gei
bundes
##äne
1600
Conrad
Hubert
Down
Sud
Propag
##ozi
Pläne
##inischen
Frühl
Hinweise
Dokumentar
##gh
##riet
##skämpfer
Manuel
weiße
MdB
Viktor
künft
##lichten
##attet
##iler
Achse
Bekannte
Ketten
urauf
Bernstein
Helden
Innsbruck
Mönch
Kandidaten
##fir
##inth
Leipziger
750
##edes
bedeutenden
mol
##gebrauch
##ingenieur
Litt
chinesische
##echer
Cop
Korn
Evangelischen
##inseln
##pil
Entwicklungen
schwedische
Rus
##meier
Aussicht
ausgede
Volkszählung
jüngeren
WM
##illing
Jahrhunderte
schwarzen
Pent
##anwalt
##etrieben
##oine
##hy
##verlauf
Konserv
jene
##rip
Becken
1700
Gotth
Treffen
Mittelalters
genaue
##leitungen
Wurzel
Märt
##lange
Class
1807
nötig
Meist
##bergs
Bundesstraße
niederländischen
Bindung
Cup
Tatsache
Bemerk
##mäh
Vorles
Übernahme
betreibt
Seleukidische
##raktion
Liebes
Dialog
Records
##imente
##reste
vorüber
Systemen
##rest
##rieden
##ags
##icum
##zeichnete
Epoche
argentinischer
Ale
Gol
Tru
##nik
##ikern
##uts
##rone
##itionen
Bucht
##stuhl
##wende
beschrieb
Instituts
Reste
##gon
Bergen
##zene
Gebirge
Reserv
Rönt
##äpst
Ign
##45
Marsch
Nest
Tang
hor
##ofern
Universal
umfangreiche
##ants
verhindert
Parlaments
Verbesserung
Fließ
Books
Analy
gewissen
##management
fielen
##greifen
Anthrop
##sonsten
##flugzeug
Phänomen
Gallen
Hob
moral
##ieber
Handlungen
##yrer
festen
Sache
Schmer
Absatz
##äuden
##staates
Falken
Mohamm
##kör
##zesse
##ehrter
Lokomot
Konzentration
roten
Chi
aufgegeben
##alteten
Einteilung
alter
australischer
##rikt
##orts
Bundesarchiv
##boden
ständig
diverse
Hyd
##eichert
##ungsmittel
umgesetzt
mehrmals
Media
Statue
IBM
##ordnen
berücksichtigt
eig
Überlieferung
Volksrepublik
Gegründet
falsch
##künft
berufen
art
Jungen
Rib
##uen
##prov
breit
##ough
##IM
Cham
##ident
240
##sturm
##eps
Kantons
Duisburg
##üsten
##ckte
##förmige
verfügbar
##rollen
Georges
Teilnahme
Def
1839
Krankheiten
Szenen
Zone
lagen
still
legt
begründete
Sophie
Gor
Augustus
##projekt
##würfe
Syl
Schützen
##esto
Maße
##ritter
##geschoss
Magazin
Dü
##emer
##barung
anger
Wahlkreis
Kabarett
DJ
Runde
Night
event
Bands
1829
besetzten
##gesetzte
müsse
vermutet
Weltraum
Manager
1811
äußerst
Vok
befür
ergab
##bayern
Batt
gu
pal
##brunn
negativ
Thailand
fließt
##öte
##irbt
aufgeteilt
##entums
##OC
##ierbar
##ianische
Deck
Campus
##ypt
##anntes
These
typischen
verfügte
Ablauf
Bewegungen
Wid
dynam
##alk
##felde
##läufig
##izont
##romagnet
Sekret
erlebte
Up
einfluss
##senz
##here
Harmon
Rennen
Schlaf
Begründung
##brunnen
Herrn
1798
Schlos
Hochzeit
1836
Rapper
##hammer
Publizist
länd
vorang
eingeweiht
vollständige
arbeitet
Welle
Einwander
Zahlreiche
abgelöst
grün
##mär
##echten
Berat
Monarchie
##fristig
##ischt
dipl
umgewandelt
Sprech
Grav
Fahrrad
##emble
Gattungen
Douglas
Born
Cos
Ionen
##gestellte
setzten
Veget
Erfurt
##fahrten
Essay
Fantasy
Ferr
##nieder
##oen
einzig
##archite
##echtigkeit
afr
unbed
##bury
Teilung
##übung
##berge
Anfangs
René
##bedarf
lokale
Lake
Hammer
Kroatien
##gegangen
##enzel
Schwert
liefer
Williams
##konz
##wörter
##schu
##pflege
Antwort
1805
Prakt
##funktionen
Symb
gaben
##uns
gelb
Burgund
Lé
##ali
steigt
hierzu
install
Bischöfe
##kers
geschätzt
##gehenden
brachten
Pant
##lement
##ause
##orgungs
wesentliche
Bochum
##kenn
##icz
Wirken
jährigen
##kommt
Nobelpreisträger
erlangte
##ár
##denken
Sche
Ammon
genü
##schreiber
Cru
Eu
Leser
erhältlich
Breis
Grupp
##ding
erstellt
Pflicht
sämtliche
Gitarrist
rel
##gast
##ulden
Zusammenschluss
KG
##elta
gemeint
##lu
##oide
gelangen
Männern
Molekü
Größ
##ildeten
##omo
Ali
Konzerte
Jim
Pow
##prüfung
Riv
Projekte
##auft
Südamerika
##rede
Ausführung
##manen
Täter
ren
##beu
##fehler
##ulierte
##teln
angrenzen
Schreibweise
##strafe
breiten
Blue
erwarb
Eindruck
Abenteuer
Vorkommen
##inea
##rauben
beschrän
##gangssprach
Anwendungs
Röntgen
Feind
##anus
Einkauf
schlecht
Vorlage
##blemen
Diöz
Häufig
Brauer
tiefer
##schlacht
1833
Venus
Dörfer
##spflicht
103
eingegliedert
dienten
##ania
Spreng
##akten
angepasst
She
##orter
##osse
1804
##zelt
Grafiker
Victoria
Insekten
Zens
kennt
Verstär
Ausbr
Lev
Carlos
Textil
Mündung
##alde
Amate
Medaille
Trink
Demonstr
Nutzen
Atmosphäre
##förmigen
strateg
Atem
##fz
Gerät
##ression
Gläub
Lüb
Abweich
Isol
Patrick
Katastrophen
Boston
befanden
Logik
##cle
##streifen
entstandenen
Well
##itas
##verbot
brei
##retern
ausgesprochen
akadem
Stalin
Mini
Pad
##schwitz
1793
Apothe
bekommen
Commun
##edo
nutzte
BIP
##uv
##yse
Brutt
Rail
Florenz
Gemeinsam
Sto
Trin
AB
##reue
##ansion
errichteten
EG
Allein
automatisch
But
trop
Eric
##lerin
Zweite
Hert
Drogen
##ammlungen
##gangenen
##ografische
##eiermark
wasser
##öster
Wandel
Beispielsweise
Turb
##beginn
Ozean
zugeschrieben
Eintrag
schein
Andrea
##verlust
abgerissen
Sex
##MA
Bulgarien
vorbei
Leder
##behalten
übernimmt
Erzbist
senk
##selbe
##quis
##ränkungen
1826
1789
Nerv
geändert
##ianer
##ierender
angesiedelt
Fähigkeiten
##olis
##ährt
begleitet
Urheber
Harn
abgerufen
verursacht
450
Hat
Infl
##edel
##echselt
##sprodu
Verbreitungs
vergleichbar
360
##ringt
##igner
##isemit
erworben
Dinge
##ianischer
Synd
##respond
##lob
##tele
##olt
bedro
Kunststoff
Biografie
##vertreten
nächste
Verhaltens
Sympt
durchschnittlich
Kooperation
##enhagen
##omorph
Magnus
Aristo
kap
##forderung
##yb
##ieu
##ömm
Dokumentarfilm
Preisträger
Apple
##yclop
Wunder
reine
##bart
Enzyklopäd
Francesco
##gendes
DN
Worm
zukünft
Infanter
Urkunde
Kriterien
Jackson
##varian
##ündeten
Lyriker
beherbergt
uraufgeführt
vorgenommen
##otto
Freundschaft
##sprungs
1822
##aceae
mangel
Haar
Autorin
##uver
Palä
längere
##TV
gedruck
Arme
Niederösterreich
Erfahrung
Bä
##wider
##bereit
Tyr
Parks
Anderson
ID
##räft
schm
##läuter
Vogt
Telek
ng
##anmar
Kategorien
##ibus
##esearch
Humbold
Nominierung
Noten
##vollen
Schöne
Vizep
Minderheit
ferner
Amaz
##akteur
Fels
##nischen
Ström
##merksamkeit
Allen
##dimension
Taylor
Tenden
##ologien
##motoren
Vordergrund
Genf
Seeh
Forum
Baron
stehenden
##irn
Verleihung
Volker
##alesischer
Songs
##ättern
Blumen
##hain
beobachten
Indianer
##önen
##stufen
Auszeichnung
ermöglichte
AD
gefördert
chinesischer
Ew
ausgesetzt
genug
453
##ädagogik
Verschieden
##finale
Coburg
Hohenz
Myanmar
schwedischen
fuchs
##vid
1824
Wurzeln
Mau
leist
##obe
Liechtenstein
städtischen
##institut
Pav
##faktor
Pius
##bf
##eto
##abst
##ördern
Umständen
##club
##lehn
##ibil
Königreichs
sowjetische
Baureihe
Cab
Saarb
sied
##meyer
Kompeten
Flora
schwarze
verbinden
Hauptdarsteller
änderte
legend
Young
Relativ
##etscher
Schal
Trocken
Lig
OR
##work
ermittelt
verfolgt
Einstellung
Judent
geschlagen
sen
auseinander
nachweis
Philosophen
##ippen
Botaniker
Meteor
wären
League
Grabst
##chor
##schreiben
1828
Privileg
Adeliger
Gliederung
Osnabrück
##aro
##meter
Salvia
Schreiben
Erziehung
stirbt
Akadem
##italien
##dienste
5000
Felsen
ausgest
Texas
##urst
schön
230
kompon
bayerischen
ehren
führenden
Fotografie
IX
##illy
##autobahn
Venez
Cir
##grammen
Eva
Jen
Holoc
Busch
wirklich
##adbach
Isa
##lé
Gemark
##qualität
Gesellschaften
Weiterentwicklung
##isp
Rekord
Extrem
angebracht
Lösch
Tib
Tast
Ausnahmen
Bauwerk
Säuget
##seh
##onds
Daraus
##unterricht
Sonstiges
Lewis
Natrium
540
Vorschlag
##stimmen
Überleben
Völ
slaw
versuchten
##itiert
Ausgleich
##skrit
Jahrtausend
miss
ol
##hofer
ep
##swert
Ruder
Nürnberger
##yg
beant
##instrument
beit
künd
rote
##ollern
geöff
durchsetzen
##hende
Touristen
Sind
anf
übergeben
112
Himmels
##walde
Konzentrations
Gießen
##ulgar
Kriegsge
regionale
Dog
Oh
hab
##kes
gegenwärt
Force
Sekunden
##raben
Geh
##gessen
Zugehör
Bronze
Verbrechen
Carlo
Reaktionen
Dreißigjährigen
Wladimir
A3
##86
Aufmerksamkeit
Filmschauspieler
##regeln
Fut
att
##ragende
einher
##lade
allmäh
Eigentum
Thal
Erreg
Ulm
Dame
##95
einzelner
Ehemalige
bezeichneten
##nimmt
##onom
##räte
##schieht
Kriege
männlichen
Audio
populär
kro
Neapel
##läuferin
Tiefe
##aster
inhalt
Flugzeuge
belegte
positive
Tam
Öffent
Anbau
Realität
Angabe
Heck
benannte
Rauch
Besonderheit
##ierer
verringer
##dorff
gewinnt
bekannteste
##eting
bedient
Popul
##hnt
##omputer
Fähigkeit
Wat
Still
##haltungs
##jahres
aktive
##vereine
Stet
kub
##iom
##kandid
##200
empir
##ehle
##ört
Betriebe
Diagn
beteiligten
##sterben
nunmehr
Marcel
Landrat
##ettbewer
Holocaust
Dil
Zin
gött
Begeg
Altar
Siedler
Bent
müs
##atom
europä
Tore
Alan
Motoren
Public
##bieter
regionalen
Walther
frag
##rohung
Sax
westliche
##lins
##mack
Soll
##gal
gelingt
Raj
gesund
betont
Hack
Jag
DE
ZDF
##aal
##sbest
1799
##reiches
##ächse
Linke
entstandene
festgestellt
flüss
##cript
verfasst
##hlt
Finger
Mid
Nad
##ichen
##ruder
##atze
Freiwill
Dev
Staatspräsident
1823
preußische
Abstamm
Minden
falls
verschoben
Pyram
bewegt
##mächt
##wandlung
Turnier
Lust
tem
##bels
##alp
##mengen
##formationen
##gemäß
Ursprungs
##gelt
##älter
##elmäß
##EE
Erwart
Chromos
geschützt
Fertig
silber
Phosph
Hause
lösen
Book
Vikram
Ré
stren
##zeuger
##iuse
##ränkung
erfüllen
Kabel
##ione
prof
bestimmter
1827
Dialekte
##elf
beendete
##iform
##char
gefolgt
##regen
entlassen
##shut
Prüf
Nau
Lebe
Zugriff
##ifizierte
Beur
abgegeben
Sprachraum
Körpers
http
Feucht
bedeutender
irgend
verwandt
##brief
##äuren
Sambat
4000
vorder
Rhyth
indischen
Königsberg
gründeten
##igi
##geht
Sowohl
Ergänz
Wiederaufbau
fahren
##bilden
Breslau
##yter
##osis
wiederhol
Pilot
##berts
aufeinander
##rannt
muslim
spezial
geschieht
ans
registr
häufigsten
##zung
##reuung
Ital
reiste
##örungen
Bundesminister
##ampen
Finale
Nepalesischer
Giuse
Abbau
##fassten
Akten
Messung
Gent
russisch
Ressourcen
Staub
Schenk
##inderte
Solche
läuft
Zentimeter
##arke
##prinzip
Krieger
Columbia
EC
dep
sa
wies
Phon
Fahrer
illeg
Kontakte
Bauf
##US
##ithm
##bauen
##klassen
Zugleich
griechisch
Dau
Milit
Ausstellungs
liefert
Ruhe
wahrgenommen
Philippe
Jas
##85
Petersburg
Plast
geplanten
ven
##flekt
##UNG
Worten
##spezif
Rü
zivil
absolute
Vieh
##rod
daß
Portal
##akete
Cross
##ziel
Abwehr
##iak
Hochwasser
Katalog
Country
Ruprecht
est
kauf
Schäden
Erforschung
##ible
Bedürf
European
Cle
Cann
lib
leisten
##opfer
##hai
1794
dürfte
##jewitsch
Cit
##phil
zurückzuführen
griechischer
##iw
##inte
Wales
Aer
Eier
mis
reinen
eingetragen
##arta
Ausstellungen
##itee
Schröder
Banken
##ef
##atsch
Stationen
Aussprache
Siemens
##strukturen
Außenminister
Central
##po
##git
Landkreise
##gelände
##füllt
Popular
Übergangs
Cons
trugen
nachhalt
##ERL
Erfindung
Siegen
##sum
##irchen
##verzeichnis
verbrachte
durfte
AP
Zelle
##pert
##uma
##aks
##änderungen
fortan
niederländische
Goldenen
Christopher
##ünften
Parameter
Mehrere
##organisationen
umgekehrt
Lingu
anstelle
Woi
##armee
gefangen
Berichte
angez
erschienenen
Fusion
##zweig
##ikalen
Neuer
Kopenhagen
Marktplatz
##wachung
##ores
Enterpr
Borg
Drag
ill
erfahren
Charlotte
##bungs
Erik
##geschichten
wirtschaftlich
Vernunft
##onstru
##itischen
##schwung
erkannte
Straßburg
Satur
##kins
##schiebung
revolution
Äthiopischer
Kilometern
Bade
mater
210
Reinbek
Vill
##cil
##ichtlich
##weilen
ähnlichen
##uhren
Schaff
##ienne
moderner
Bär
##ti
##mische
##ices
Landgraf
Joe
Fett
Trauer
##FC
Reformen
##werden
Verwandtschaft
##agan
Nachlass
##iffern
Ves
##wellen
Pionier
Aristoteles
##äuber
##alo
Kalif
Wolken
Siam
top
##tain
##TA
angem
Großkreuz
##iegt
Schöpf
Ludwigs
Argument
##bah
##ölz
Forderungen
Jubil
Research
Weich
ed
##klass
Hierzu
Street
Fähr
Hamil
Holland
##deutscher
##fällig
Woiw
##nutzung
##yon
##utung
##sbet
Fachwerk
Lösungen
##amerikanischen
los
univers
##ehlshaber
Feu
##vern
##behörde
##ène
##eiler
##erson
##etta
##otenz
Katzen
##sphase
Meisterschaft
Prüfung
Beatles
Kfz
Lil
##olischen
plan
Alliierten
Giuseppe
Fron
IN
##bene
Schlesien
value
##ami
anzut
Neues
Informatik
Zeichner
Zwecke
Getreide
Normen
kanadische
Genaues
bibl
##pack
##mutter
##marken
erfolgreichen
##ribut
Iwan
##verd
Adresse
hingerichtet
Grundstück
##beteiligung
##aton
untereinander
Umbau
Goldene
Ull
##breite
##räder
##familien
##ов
schlossen
Obst
##ändigkeit
Vorteile
Moderator
belgischer
##ui
##yten
##ree
##burgh
##ücke
gewalt
Warschau
##züg
Tschechos
Honor
Autonomie
Lüneburg
Four
Kok
SA
##has
Stufen
Schwimm
berechnet
##rechtlich
Hilf
Ortes
darum
Reis
Good
zusätzlichen
Äußer
##atra
Export
ausgewiesen
Schwarzwald
Hl
Schwarze
lebens
hol
##euchten
stil
bestehend
persönlich
##teau
stre
Umsatz
3D
einheim
Regime
##ossa
Läng
Pos
Staatsbürger
Pomp
Ausbildungs
wandte
Allianz
##omon
##formel
Luftwaffe
weibliche
Dien
##apeut
##euerung
Regelungen
verbundenen
offene
hinweg
Niederschlesien
Eb
##ngeb
##läs
exter
##klärt
Herzogin
Küche
Kühn
##inne
Bosn
Angehörige
passen
##kr
1792
Bush
Phr
##beruf
vorherr
Oberst
Peru
aktiven
Gur
##schwer
Diam
Spielfilm
##läufe
Key
Festland
120px
AM
hrsg
##antrieb
##lan
##gier
Erbe
Bewegungs
Lungen
##immel
geleitet
Barb
##ogene
Schatz
Pok
##arter
##lines
Cy
Nit
cond
##korea
Trek
##illerie
##bewegungen
Mans
##bundes
##ynamik
Dopp
GB
Gord
Ric
Auftreten
##afeln
Habsburger
Ältere
Fan
##amtes
##einträcht
Homo
bessere
Tennisspieler
Künstlern
Sende
ukra
##mächte
vorgestellt
Kongo
Hinsicht
Befreiung
Schwierigkeiten
Jugoslawien
Pokal
##ulin
Ermord
Zeitungen
##utzten
##ämmen
Landeskirche
##handelt
sorgte
Materie
Intens
Intelligen
umgebaut
Ausbruch
Weinbau
natürlich
Lothringen
Gruyter
##eler
Inhalte
Befest
Wissenschaftliche
landes
Erscheinungs
sagen
##heitlich
##älte
Luis
Techniken
breite
Synthese
##bec
Grau
Slaw
##ries
##ogle
Register
##bauung
##real
##istisches
##sbeg
Luftfahrt
sahen
ARD
##klusive
Sad
förder
schen
##WG
##spark
bewaff
gewid
##schreibungen
RE
##aute
##weiß
normalerweise
Leinwand
##bronn
##übt
unterhält
AC
Bedeut
Chemnitz
kaiserlichen
Hohenzollern
Kent
Schiller
##ignal
Deleg
Humboldt
##glei
streng
weiblichen
offens
Preise
117
##herrn
bevorzugt
##vertretung
Cer
WEIT
gefl
Invas
##ungszeit
##ordneten
enge
Olympias
diplomat
Sher
##bu
Habsburg
Übersetzungen
brauch
bauen
Durchführung
gelangte
Sektion
Petrus
##ERLEIT
WEITERLEIT
##igtes
##warf
##edonien
##verk
##gerechnet
Kriegsende
Bischofs
aktuell
Hoffnung
WEITERLEITUNG
Dafür
ev
##schichten
Untert
Blitz
##bstoff
Great
dänischen
##spartner
Bog
Cant
fikt
##stellers
499
Galax
eingeschränkt
##sängerin
Leute
São
##writ
##amo
##inderung
1797
daneben
Bachel
Ermordung
seither
##liegende
Konflikte
##rische
##amente
fehlt
##hon
##zucht
##würde
Kommando
Heyne
ausdrücklich
##isl
Schmal
##unen
##gebnisse
##planung
Keramik
Zugehörigkeit
Kä
##äudes
##eira
##ince
##rite
Konse
kont
literarischen
af
##fäl
##start
Axel
##pus
##ettet
##isto
Western
Biograph
1790
##lagerung
Oct
leiten
är
##ads
##ennetz
Geschw
Pfar
##ancen
Fürstentum
##euchtung
##kritiker
Coll
Deg
##ausen
1750
hinten
Forderung
Exemplare
Explos
Sac
##gefähr
Verfolgung
##tsam
Breit
Julian
Römischer
unserer
differenz
Speyer
erhaltene
Pseudonym
Dag
Sid
##ikale
Aussch
Kontroll
##atio
##rup
Oliv
erfolgreiche
Punk
##stuf
##verhältnisse
Einflüsse
Schwerin
zusammenhäng
Auer
Agrar
Tai
Vektor
##hamm
##éd
##etal
##raxis
beschleun
Anten
106
KPD
erzeug
##flüss
Steiner
Heirat
Ausgangs
##marschall
welchem
real
Willi
Bewusstsein
Ever
effekt
abs
Plas
Malerin
##farbe
Sop
##88
##oria
Hag
##ameister
zahlreicher
##schafter
herum
Oberösterreich
Beteil
Dess
Loc
besiedelt
mitunter
Jahrhunderten
##quote
Engine
Donald
königlichen
kämpf
##put
##kind
überall
##ives
##enzeit
##onanz
Sturz
Major
Mario
##auflage
Supp
Tabellen
Expansion
##drückt
##arium
Neun
Mühle
Dank
gewün
Dreieck
Gift
Tower
Steiermark
##spräsidenten
Modern
Ernährung
persönliche
Orth
verstorbenen
Immun
##steig
##ektes
geteilt
Biologie
Hur
##usp
Willy
Stickstoff
Pot
##verordnung
Jede
Liefer
Wiedervereinigung
Elef
Lebewesen
Myst
##ming
Kriminal
Feiert
##ämm
##holungs
besonderer
normalen
Krebs
Serbien
Saarbrücken
##wenden
erleich
Abb
##komplex
##gerichtshof
Kanzler
Reit
Bundesstaaten
##elson
Gesellschafts
##knoten
widmete
Lech
Mannschaften
Enterprise
Haf
Lock
Nachdruck
##ampe
Minderheiten
Afghanistan
Party
##wuchs
##onna
StGB
Volkes
##tre
##olische
Gedächtnis
MP
weiten
##hut
##analy
##üre
##produkte
fach
gedre
Cell
Oran
unterstellt
##aktisch
Valentin
Strö
107
bedeutete
Tum
##ih
erfasst
startete
Semin
##album
Scham
##ements
zeigten
Hardware
dunkel
Institution
Spring
Autobi
orthodoxen
##übertragung
Erleb
Mühlen
##boot
##städten
Ahm
Fres
tour
##eistung
Rücktritt
Feldzug
Deut
Hallen
##ausende
##oppen
##disziplin
Dark
##dach
##einkommen
Moschee
Lip
##94
##ausgaben
Tarif
Angl
##izon
ernst
Corpor
Dramatiker
Störungen
Wy
##maurer
Distanz
##stehenden
##vorsitzender
##cast
inspir
Wissenschafts
Stockholm
Soziologie
Lan
kelt
##nommen
##bom
##kov
zuge
##bens
##spreis
##akademie
##seln
großem
Andererseits
geprägten
Tuch
Musical
Besiedlung
##sperre
Tank
Russischen
Kupferst
Pac
Rüst
##bö
##zonen
##anol
vorgeschlagen
##altar
Bauch
wiederher
##rechten
Darin
Doktor
Menschheit
zugrunde
Mohammed
##tirol
stellvertreten
Korre
Reduktion
erzählt
Strategie
Esp
Id
##ental
##kraftwerk
Commod
Dichtung
Malt
Ohne
##awa
##anisch
##ochem
##rud
##onente
Listen
Oden
Tafel
lesen
Franco
erkannt
Sah
Zwick
Streifen
spätestens
##oderator
erhaltenen
Türken
Widerstandskämpfer
Schult
Rechner
realisiert
Schmuck
erbaute
Flach
Karol
Arbeitnehmer
Unser
##älz
Plant
##ützte
Kindes
dauerhaft
Bow
Laden
##worten
##etsch
##umph
Gerechtigkeit
Strahlen
Barcel
angeordnet
Planet
Rosa
Schicksal
Huss
##XX
##aufnahmen
Zeichnungen
Ried
po
Abitur
Antarkt
##räsid
Platon
Nobelpreis
Neutr
Städtepartnerschaften
##figuren
##utin
Wink
##ev
##ßer
##abschnitt
Sprung
Laub
Atlantik
Ay
Fü
Geografie
Found
Lands
##füllung
Fac
Verbindungs
##östlichen
##ifizieren
Mr
dich
##versuch
Baumeister
Darsteller
Stellvertreter
kritische
geplante
Publikationen
islamischen
suchen
Arc
unend
Lebensraum
Weit
Matthäus
erhöhte
Reclam
Hamilton
Woiwod
##feier
unklar
Leber
Jup
Angelegenheiten
Teles
Wohnung
Angehörigen
Roch
##55
##ulus
Peters
Panor
Kondens
##orial
denk
##gerufen
gefeiert
423
stammte
##ilosophie
human
##iy
##enkt
##andal
##üren
Ablehnung
Fau
zentral
Kärnten
Font
umgangssprach
##izität
Konj
Vorname
Zeitschriften
Werkzeug
##schef
Substanz
##ASA
##punkten
##seg
Inschrift
##skrieg
Aktivität
XIV
Dienste
Pt
##psych
abstra
entsprach
Trib
##ès
Poliz
standard
jeweilige
##offizier
Mul
dank
richtete
##VA
Individuen
##borg
##spital
Seeb
Kreu
Lub
Zig
##vereins
Großer
##heer
Sperr
vorber
Rhod
Früchte
Westfäl
Santi
leichter
Cost
mündet
ro
##haven
##fle
analog
##imo
Philip
Griechische
Bac
GR
aufgel
begeg
Alth
##kloster
##geschlecht
Esch
Zeilen
##oa
Plut
Gotha
Ehrungen
Vorfahren
Luise
Magd
1795
Control
Apostel
laufen
exp
Ek
Trei
Fundament
Beamten
Nich
##frem
verbreiteten
##reck
kleines
##person
Prinzipien
flie
ser
Plätze
##denkmäler
entscheidend
Breisgau
##abteilung
Eink
täg
##brech
##esis
liegende
Traditionen
Gehirn
320
Hyb
##studien
Cher
Tät
Stütz
Nachfrage
##führungs
besiegt
Turk
Statthalter
##rages
##izierten
Matrix
angewendet
##sloh
Lac
##oms
Einwohnerentwicklung
##fläch
##SSR
##jektive
America
##stimm
##rauchs
unvoll
wesentlichen
Bun
##ragt
##obi
Ansichten
FA
Niger
##ells
##ids
Davis
##eiern
##iche
zurückzu
Budap
Ausländer
##itels
EN
##alia
nacht
Hörspiel
virtu
bo
Platte
Boeing
Tony
quad
Bachelor
galten
##lexikon
Fans
##gebnis
##shafen
ICE
Alphabet
Zehn
##98
##still
States
Tromp
zahlen
##ländischer
Finanzierung
Dim
Jähr
Sha
wählen
##iebt
##iness
##ründen
Sour
Silv
Katholische
Hundert
Kanz
##lig
##büttel
##ersdorf
##quer
Betroffen
Oblast
Französische
Symp
##log
##raphen
Verfahrens
Augustin
##knüpft
Kartoff
Game
IM
##ifer
verkaufte
##mäßige
beinhaltet
##ahlen
Auftritt
Jansson
Urkunden
ausgestellt
Method
##affte
Songwrit
Märtyrer
##gehalten
Antoine
##inae
Neuf
Verluste
erhebliche
##otherapie
Anthony
Mozart
CC
Monument
Webseite
Mold
Alice
Prophe
##malerei
neutr
kom
Queen
keines
Sozialdemokrat
Gottlieb
äußere
650
Bäume
vis
##venz
sichern
Erhöhung
##sprogramm
Todesdatum
Trotzdem
datiert
Vorgang
##zahlt
Präfekt
Nikola
dänische
schwierig
Teufel
##BB
##olstadt
sport
280
##ituationen
Schwefel
Vielfalt
Kenntnis
Bären
DOS
GG
Gros
SF
Sok
berech
Bruck
Bull
Kaiserin
Langu
Broad
Basketball
brasilianischer
Nas
##meld
##schend
Geometrie
##ändig
langer
Morph
Transformation
negative
Korea
Nom
##ning
##ás
##ophon
Medium
Zweiter
Werden
Beobachtung
restlichen
##archen
##issionen
Bayreuth
schwach
Duke
##städter
##ladung
beschäftigte
eint
##islav
##uropäischen
Fortsetzung
Havel
Brock
erhöhen
umfassende
markiert
Gemäß
Admiral
Kalium
Onkel
Ministerpräsidenten
Card
Hang
Heiden
Minn
Peg
Einstein
##zwe
1791
Empfänger
Bug
gäng
205
Sprachgebrauch
Gitarre
paar
##finanz
Büchern
Variet
Of
##ürtel
Standards
Bundestagswahl
enthielt
historischer
Demokratische
Erkenntnisse
gebraucht
Nationalversammlung
Staatsmann
##ässern
Barcelona
Gis
##zimmer
Marco
festgel
Bodensee
Römische
Hend
##ness
##inens
##ross
überarbeitete
organisierte
Tatsächlich
Stattdessen
##schrauber
Trop
beur
Rekonstruktion
##ianus
##ymne
Akte
vollkommen
finanziellen
##initi
Böhm
Astronomie
DFB
Brä
Mie
dek
Mischung
solle
##DA
Julia
unabhängige
Sv
griff
##aver
##hum
##verständ
Marok
Boy
freier
##bestimmung
versuchen
Ideal
##schlägen
Squ
##anschau
##atischer
Schlä
Maz
##standes
OH
ändern
##atius
Meißen
Encyclop
bulgar
##quert
beheim
##wissenschaftliche
Solid
Wichtige
Hohl
Jenn
Messer
##izen
##eib
##ofen
##fenster
langs
1796
##schließung
Zufluss
##oro
Aller
Merkmal
##lebens
Bundesverfassungs
Industrialisierung
Abstammung
Skir
##inische
Verfilm
Botschaft
Geiger
Greif
##viel
##siedlung
Schwed
Adress
Moor
Heiliger
##längerung
produzierte
prinzip
Verfasser
Dage
##VG
Durchbruch
Werbung
Londoner
Rumpf
Wissens
erzielte
##akespe
ener
Schein
gebe
##spaltung
##stande
Überlegungen
Baut
##olley
jährige
technisch
Differ
Feh
kat
##wurz
Sinfonie
RT
Referenz
##mitte
##rechtliche
sowjetischer
Navig
berühmten
Maurice
Mangel
Inc
Dateien
Alters
geschlossenen
Nebel
päpst
##indel
Einnahmen
##dik
##passung
Bevölkerungsentwicklung
Öst
Magen
Taunus
##ächten
Kühl
schwerer
Vertrags
##gesetze
Piper
Nukle
Water
Route
gewöhnlich
typisch
##seitige
Territorien
sächsischen
Schwanz
Verbände
Enzyklopädie
##effiz
##can
Ruh
##stamm
##ahe
Shakespe
##ehmigung
veranlas
Algorithmus
Zinn
##mi
beachten
##rägern
Fat
Tw
Zie
##ürzen
geometr
Atlas
##gemeindet
Reim
Bekenntnis
Berücksicht
Enkel
gelangt
##iatischen
komplexen
Ausgangspunkt
Nicolas
meth
##tschafter
abweichen
##ifter
##regionen
Atari
nördliche
Eins
Modus
Konsum
äußerte
Einkaufs
ma
##hau
##feind
##unks
Stadtmauer
Ordnungs
Gräfin
##oßen
##periode
gg
##landern
Sier
##brechen
Schaum
##ope
Bewertung
Manusk
Ostfries
vertrat
hohem
##PN
##oskop
Relief
Kuba
Kommentar
Caf
Hot
Leich
Rast
##lik
##yo
##plätzen
ausgebildet
##ellt
Landest
Komödie
##zutage
Pack
##oba
Betreiber
260
##gewächse
Melan
825
Seil
Slowakei
sem
##roll
Österreichischen
Notwend
Patriarch
Erwachsenen
DC
##usse
##lack
engeren
Lyrik
Road
##zentrale
Lebensweise
Boris
##angebot
allmählich
mut
überprü
##ensive
##ränkische
Violin
Lyn
inf
##asso
##windigkeiten
Angriffe
Gütersloh
##kugel
##ues
##ahmen
##ansicht
empfangen
kirchlichen
Däm
Rassen
##eng
Veranstaltung
##tschule
Konson
##glas
Awards
##strö
soweit
##stellern
generell
##ilf
Stauf
##lepp
Ark
urbe
Wolfen
hind
Kaffe
Prom
Steve
Pilger
Syd
##anon
begünst
Johan
##staats
##nehmern
literarische
Erscheinung
Ras
##lave
Ähnlich
Little
Cou
Dion
##idsch
besied
Freimaurer
interpretiert
Infolge
zwingen
##ündigung
##verwaltungs
verzichtet
Zeugen
##laubnis
Kinos
##PO
##stationen
Vorbereitung
Fries
Edmund
##ühungen
condita
dauert
Kalten
Vertretern
Bahnhofs
wählte
initi
ausgerichtet
bezog
##schreiten
gefertigt
Tänzer
Tak
Eliz
Palm
Koptischer
Brat
Reu
Michail
Krypt
Spannungen
Laser
Sor
##endung
##geschäfte
##fache
Report
##öhnliche
suchte
##ezeit
113
besucht
Limburg
Ethik
Buk
##wendungen
Auguste
Freiherr
rechtlichen
bisherige
gesellschaftliche
litau
SR
##scheibe
ansonsten
116
##gewinnung
Junge
Übertragungs
##vermögen
Bock
Ausrichtung
##rechtlichen
gestorben
##austausch
Pazifik
beseit
##zweck
##steinen
Auschwitz
Felder
##krank
Strafe
Perspektive
Pfarrei
Mall
Woll
##ect
Mitteln
##holung
Redaktion
Putsch
Effekte
Gam
##alam
verfolg
Erkrankungen
STS
##hielt
Strei
neueren
gelesen
Franklin
##wirtschafts
Erdöl
Protokoll
##korde
##strahlt
Sonstige
Way
erlassen
Steiger
Airbus
erfunden
550
Dö
MA
##einsatz
##ologin
Ernest
Regierungszeit
rekonstru
##muster
##entheorie
##verbund
lateinische
Ansätze
verkehren
Diktatur
Boh
Moment
hielten
##rem
Geologie
Speich
1300
Christine
belegen
shift
##ape
Konstru
##aco
Johanna
##größen
##dampf
Affäre
Steuern
Tote
Folgezeit
dauerte
##uri
Psycho
Gemeindeg
Flüssigkeit
Arzneim
eingemeindet
##iene
Untergang
konzip
Skel
Festungs
Vortrag
Tschechoslowakei
Mov
Town
jeg
##rund
##termin
beigesetzt
##epage
##wirt
Serg
Raumfahrt
Muhamm
Pek
geweiht
Entsprechend
Höhlen
Technischen
##verfassung
Amtes
Hut
Ti
Beeth
##älsch
Polyn
geschah
Palais
verhaftet
Verbraucher
Din
Story
Weiße
##ildert
Birken
beeinflussen
Details
Jü
##irus
verlei
##ehens
gewählten
Grimm
Low
Ritu
##banken
##christ
Schiffen
Aufschwung
##kreises
Konsul
erwarten
##ichtungs
betreiben
außerorden
sagt
Seitdem
Thüringer
Substanzen
kürz
##ente
##kriege
Lucas
Brian
wissen
Ronald
Non
won
überliefer
Bereit
Muskel
konvention
Data
Europameister
Versammlung
Guts
bürgerlichen
Carolina
##nitten
##theater
##strich
Herder
Fok
##rischen
##lohn
##olem
Verpflicht
##absicht
##illo
127
##ämpft
Transp
Miller
seiten
Maj
##klam
Bestimmungen
Sky
dokumentiert
aust
##ière
##itive
einfacher
Olympiasieger
löst
Ausstattung
Gegenstände
internationaler
kritisch
formal
Libretto
Verschiedene
Ash
Gebäuden
123
profession
Wittenberg
dram
##uler
Immer
##reicht
##ekut
Dresdner
Kru
Ziffern
abgebaut
befasst
Werbe
Dirk
##ristall
digitale
möchte
Syndrom
relev
Impf
##ickte
vermehrt
Gleichgewicht
Judentum
Ries
fried
##uda
##verbrauch
##kritik
AL
MW
##vari
##esh
ausreichen
##ruhen
Mannes
##sabgeordneter
Ask
Kalt
desselben
Aufwand
##kehren
Erzherzog
AN
verarbeitet
Rückzug
Berücksichtigung
Bag
Chap
##abend
Elb
Emig
Moore
##anat
zueinander
verkl
##stete
Untergrund
stehende
Antonius
digitalen
beschädigt
Bahnen
Wis
##ifest
Plot
##rechter
beding
Lincol
Moral
Aufenthalt
Infanterie
pri
##mischen
##üse
Eingriff
Bearbeitung
Zurück
Etym
Säulen
Ralf
Steg
Währungs
##54
##wahlen
Sicherung
Journalisten
circa
Dagegen
##to
##schwei
Florian
Hände
##lime
Büch
Kronpr
etabliert
modern
Beobachtungen
Räume
Ziegel
##bell
inklusive
Bour
privat
Wuppertal
Häu
Ihm
Lahn
##otograf
Einnahme
vornehm
Kleidung
Motive
##kilometer
GS
NY
verweiger
Polymer
restaur
nutzt
Color
Attentat
RS
##kos
Image
Nachricht
Isotop
gegliedert
Metropolit
kritisierte
typischer
Innov
Einzugs
Verschwörung
Beute
##ürme
unternahm
##ührt
##okomot
Vorschriften
Jura
Verdienste
Kreisen
Klar
bekannter
betrachten
Byz
Ensemble
##verg
Mitbeg
spir
Medik
Filter
Steuerung
Ursula
##instrumente
##rennte
Hong
Vokal
Gleit
Burk
erzielt
##bewusst
zufäll
verbesserte
experimen
var
1780
##össer
##enkirche
Studies
Planck
##fertigung
bedroht
Mög
wör
##box
Verarbeitung
übernahmen
##ohnten
##ymph
Radar
##wissenschaftlichen
##fertigt
herrscht
##rode
Verst
Erbfolge
Zylinder
##pan
##then
##journal
Profil
##kommun
präsentiert
Gy
Liss
##durchschnitt
durften
Fluor
##problem
##längen
##öpfe
musikalischen
Santiago
##ktionen
##ammelt
##schende
Free
Erinnerungen
Ala
##genz
Skis
angesichts
Innere
##gäu
##uba
südliche
hören
Adenauer
vierte
Ankunft
Bohr
##hänge
elektromagnet
niemals
##studium
Grammatik
Laurent
ägyptischen
nationalsozialistischen
iran
ries
Wilhelms
##bereichen
Subjekt
Pedro
anzutreffen
BBC
Falls
##mauern
##athon
##ysteme
Pfad
feste
Personenn
finanzielle
Tiefen
##ausbildung
Nordost
##alisieren
Kler
wa
##reihen
##rica
Zentrale
Neutronen
Kriegsgefang
ersetzen
aufweist
##fangenschaft
Eigentümer
herk
mont
##don
##eher
##ovo
Chris
Dienstleistungen
empfunden
erfuhr
sinnvoll
Lohn
fördern
##eur
##sis
##osp
##TP
225
##itar
Arena
##richtet
nochmals
##gleichung
ungarischen
##geordnete
Howard
Calcium
leistungs
Behörde
##lace
Kaval
genehm
Montag
Müll
Protein
plötz
Abgeordneter
Kandidat
Bibliotheken
Elefanten
##äße
##elung
erkennt
versetzt
nachfolgenden
Anteile
jüdischer
Erkrankung
Scher
##abilit
wonach
##ernt
verfassungs
Gras
unger
Google
##steiner
Spannungs
Jupiter
Budapest
Wiel
##elen
Jahrbuch
Abu
Denis
LP
Wund
##aufgaben
122
##kleidung
gründet
##otischen
270
##kommission
##bühne
nominiert
ausgedehn
##mil
##igter
Burschen
übliche
geöffnet
Davon
Protag
berichtete
Operationen
gedacht
##gängen
Bistums
Saarland
Orientierung
Orthodox
##ennungs
Folgende
Zwerg
Sorten
##ardin
##pton
Cic
m³
##mik
deutsches
Lande
lebend
Hypothese
Must
Over
sek
##anas
##ité
Muslime
Angestell
höchst
Preußischen
GE
Membran
##aik
##ieb
##schlei
##roman
eingest
##amerikas
Russlands
erinnern
Vin
fühl
##ortiert
lief
Haushalts
Lukas
##ynthese
Kette
##echter
gesamt
Buchen
Jugendliche
##festival
1788
Homepage
Verknüpf
##erenzen
regional
Beobachter
abgeschafft
UdSSR
Häm
##iede
##imes
unmöglich
##innend
Ohr
töd
Schwestern
dicht
##öser
vermeint
Gross
trotzdem
Dorothe
MdL
Kod
richtet
##ussten
Spar
##izieren
radio
Mix
Magaz
##ingst
Abbildungen
Hohe
001
bewirkt
McCart
Anführer
##önung
Vertrau
Plänen
gültigen
NRW
Teils
ra
##ungsort
wichtiges
##amentlich
Brandt
Koordinaten
BAS
##indlich
liefern
gescheiter
Kirchengemeinde
##heide
Laufzeit
vorübergehend
NASA
##lagt
Cook
Worte
Lenin
##ibilität
Fertigstellung
Mike
##pekt
##behörden
verwirk
##geworfen
Ultra
##kauft
Bestandteile
abgebrochen
Sof
##griffen
##äub
##agin
Mitarbeitern
##zubauen
Fasch
##laut
##krise
##uddh
Alexandria
gehei
Spl
Berater
##trainer
Balkan
##medaille
niedrigen
gefährdet
Stanley
Bridge
##ulo
Antik
Flusses
Times
##stehende
verbessern
##nische
Gehäus
##ulture
einzeln
##ülern
Widerspruch
maximale
veranstaltet
Worms
venez
Cad
NG
##häu
##frü
##enthal
durchgesetzt
1400
Laien
teilnehmen
Wortes
Dest
Let
Pand
##ON
eingeteilt
Regiment
132
Mohr
Früher
Ebenen
vereinigt
Margaret
Econ
Ont
cont
##ск
weiterentwick
Monats
Rechtsanwalt
Ökonom
##oger
Schäfer
Prost
##sbahn
armen
Newton
Hartmann
##leitungs
##vogel
anfäng
##ogenen
Virus
Journalistin
Konzepte
BW
Eif
##ildete
##otrop
Handball
Ji
Lex
kos
Untersuchungs
verbessert
EP
##stetten
##angaben
Klöster
größerer
##shö
##ror
Bundesland
Prince
dist
gerne
synth
Benediktiner
verlaufen
Ple
SG
##schaltung
##arma
erkran
Erklär
##werfen
##konomie
bedeutendste
##basis
durchschnittliche
Betrachtung
##arden
Norder
chil
##vre
##galerie
##OL
##sko
Weiden
erheblichen
CO2
Saturn
Fun
##vall
Erm
##rüsen
keinem
Frühe
Bezirke
Eichen
Leichtathletin
örtlichen
##esia
##igl
orientierte
Mönchen
männliche
Wassert
Dio
##groß
##alth
Bedrohung
##äuse
Kennedy
Slowen
##wettbewer
##erve
##besitzer
Piloten
Harrison
Infektion
##oman
erschlossen
##reaktion
##ingrad
selber
Ladung
##aller
engen
##verbandes
Primär
Sibir
Aspekt
##pum
##reb
Insol
Alois
Höhle
gewidmet
Paten
##bod
Spiels
ausgegeben
kleinste
##förderung
Mex
Tiger
rief
vorgegeben
Rezens
##ändige
##nglück
Menschenrechte
##cio
##rebungen
##ebt
Südtirol
Generationen
Richtungen
##gängig
türkischer
medizinischen
Flüchtlinge
Plattform
Foundation
aben
##sorge
Marin
##höfen
Hitlers
Halt
Kot
##84
Stimmung
Stadtzentrum
verband
Herrsch
##weisungen
Arbeitslosen
##ruguay
medizinische
Tokio
##güter
##itat
eingebaut
aufnehmen
March
##orenen
Versorgungs
Substant
Reinhold
verlängert
##onts
Fur
WDR
##zeichneten
Level
verwaltet
1787
unabhängigen
##filme
garant
Woiwodschaft
ap
Schied
##auso
Bourb
zeitlich
Ion
##sches
Reden
zeitgenössischen
Adolph
##medien
eventuell
Muhammad
Wenzel
feind
##bares
126
Artillerie
##vey
##rob
aufw
Armin
stieß
##lies
##skrise
Dimension
reflekt
Historisches
##polizei
angrenzenden
Mitbegründer
durchge
##physik
##ätzungen
person
positiven
Verbands
Mül
SM
meine
Handschrift
richtig
primär
Did
Eh
graf
##2O
ausgelöst
sonstige
ÖVP
##elland
Münze
kündigte
Ahr
analys
##räglich
Soldat
Partnerschaft
Sech
##ström
##ierendes
Nordsee
Solar
orientiert
Call
Cock
GN
##utern
Typs
Louise
Weiler
##wesens
Pyth
##ols
##quent
Entdecker
Flugplatz
Erstmals
Aktionen
##beamter
HD
münd
##zien
##gattung
##eranz
##achs
##aue
Zeichnung
Besitzer
Vizek
verbliebenen
From
Zentren
##ektoren
137
Klinik
##jäger
##olin
143
rechtliche
elektronischen
VW
fein
##itch
Problemen
##fähige
##seitigen
ehrenamt
Lap
della
deswegen
verste
Verh
Verlängerung
##gewässer
Sachver
fordert
Year
525
##gent
Steine
##rio
##opath
##lagern
##zentrums
Haw
Herzogs
Kollegen
Basilika
jemand
Arzneimittel
Triv
dopp
Botschafter
Reichweite
Heilig
Teleg
##adelph
Boxer
Global
##freu
##fix
Mantel
welchen
Jugendlichen
Buck
Curt
Passagier
##äule
Inzwischen
##elsberg
Gletscher
germanischen
##ariat
Elektrol
Hirn
Cav
##wissen
Aussehen
Marschall
geraten
Sammlungen
demokratischen
Dob
NO
Nat
bild
li
##ressen
##lasten
##ranken
Absicht
121
##zeitlichen
Bundesrat
Bundesländern
Straft
##messung
Frederick
Föderation
Ry
##bett
##wohn
Stoß
Vertret
Schulden
handeln
Vitamin
Gordon
##häfen
##itische
dieselbe
##rov
Gefahren
Graben
Längen
Reut
##ückt
Soj
arg
Gäste
Rade
##farb
##igo
##ützer
##bleiter
Kapazität
Gärten
Schaffung
beauf
##ways
Triumph
SPÖ
770
Brad
Heu
Sob
##belt
##versuche
##rückt
Löwe
Jochen
Pur
##äder
##läser
##onto
Gemeindegebiet
Teams
zeitweil
philosophischen
Skulptur
##bourg
Händler
Ansprüche
abgesehen
Bruce
Bonap
Abschaffung
Flandern
##kolle
Anreg
Anstieg
Grön
Eingemeindung
McCartney
Nil
##gibt
abget
Kanad
Sportler
##ifikationen
Vorsitzenden
##quartier
##dichter
##lechter
Caspar
##atet
##zeiger
##veranstaltungen
vorn
##prot
beliebt
Sigis
Geburtsdatum
##wün
##schew
##rott
##inghausen
##beschreibung
Isab
Pakistan
Kreistag
Tagebuch
Propaganda
Emanuel
##achel
##alender
linke
##ozän
zunehmende
##mechanik
Schädel
##methode
Sich
##gro
##isser
##ield
##abkommen
##ständigkeit
Wolfram
Phänom
quadrat
Hg
##sgruppe
Hofmann
identifiziert
Commodore
##lock
##istent
1770
##icker
Umwandlung
Social
Häftlinge
##alien
Alles
##ipper
Heiz
Archäologie
lutherischer
ändert
Hels
fuhr
vul
##zon
##rake
##gerichte
##antike
Multipl
chilen
Deutung
GP
Fußgänger
Fahrzeugen
gefär
Wolff
Experten
Büro
##löser
stetig
hebrä
EM
dunk
Ausgrab
##enna
##ypern
Edgar
##ürzte
herkömm
Oswald
fund
##bünd
##haufen
##eiro
Stru
untersch
Aufführung
##werben
##zahlung
südafr
##streck
Kernstadt
verlief
angewiesen
Gottesdienst
sorgen
##üben
##denz
Theoret
Gemeinschaften
helfen
##ephal
Konvent
##ove
komment
erfolgten
Gemarkung
Skirenn
Insolvenz
133
Leibn
Bekämpfung
mechanische
fließen
##57
##IL
##reuen
Oberbef
##profess
chron
Boliv
##architektur
Brauerei
Direct
buddh
##star
##igan
##räts
Blum
führende
##laufenden
Salzburger
Teleskop
Gaz
Erzeugung
1776
mehrheitlich
##major
Gluc
Donner
Rog
Frisch
Fernsehm
Sternbild
##etaill
Kapitän
Stau
Geograph
Business
##rängen
Welter
Essays
Basketballspieler
Originalt
##shausen
Oberliga
##swesen
verstarb
befindlichen
Danzig
Male
umliegenden
##rönt
##alisierten
Turner
Pflanze
Bayerische
##pion
##erbe
steuer
Oberschlesien
Kunsthistoriker
Pascal
Zünd
quer
Schlager
##plung
ungek
frucht
Tastatur
Lincoln
detaill
##vanc
verbleiben
Guy
Empfeh
elektronische
themat
profit
gedreht
Under
Welten
na
##hab
##wör
anhalten
Lehren
1785
##jenige
gebräuchlich
##ble
Entscheidungs
Symph
Symbole
Ausbreitung
Pall
pat
Nachteil
##ights
Claudius
Sten
astron
##iva
##ansas
##programme
##dorfer
Bürgern
##kohle
zeichnet
veränderte
fact
jens
##einrichtung
Anbieter
##skript
Zuordnung
indigen
Metropol
FF
TU
Filmproduzent
Philologe
Dai
Kanten
Hinblick
Marokko
Hun
##zelle
##erium
##chi
##ekter
Pfei
##verteid
Sabine
##RS
##ologisches
Zuvor
württemberg
Islamischer
Margare
Sechs
##beln
##sthal
Vorstand
##älen
schnelle
1786
Motorradrennfahrer
##ankt
Studios
Hawa
451
Kiss
Mamm
##kular
##anwal
##volumen
##III
Agnes
Lyon
Lediglich
##stal
##ständiger
Allgemeines
Pfor
Saf
##phe
Anlehnung
Dienstleistungs
Keim
kür
##orchester
Anpassung
abges
Millimeter
##wandel
##frucht
Kilogramm
mittelalterliche
Loh
nachweisen
##atorische
##bestimm
Instrumenten
Baus
Light
Path
desto
namentlich
##vort
##tiere
20px
aufgeb
vorne
Ausd
Implement
Singular
längeren
lutherischen
Artikeln
Episode
Notwendigkeit
Elizabeth
DL
##sthe
zustande
Philadelph
Held
Laz
##hls
erobern
vornehmlich
Bie
Dahl
##tennis
##verläss
##owina
##skraft
Universum
beliebte
Jedes
goldenen
Gelegenheit
Source
##ionale
##ätigung
##genossenschaft
Schumacher
Henning
Zut
##rigen
##esa
##reen
gelöst
Asyl
##mäßigen
method
Batter
##emon
zugewiesen
##lapp
##ories
Stadtverwaltung
Rout
##brem
##inente
auton
Codex
Realschule
Geschlechter
##methoden
Frö
Zink
myth
sank
##äck
Stadtbahn
Weing
##fassungen
Coun
Nachbargemeinden
Leibniz
Note
##sem
Oriental
##eldet
Grundstein
Wahlbeteiligung
besseren
städtische
angewandt
Oranien
Zucht
tausend
##EP
##chlor
##laver
##essing
Brom
Kreisgebiet
teilt
Freitag
davor
##itären
Strat
Mayer
131
##ankungen
Zweifel
Edin
Kraftwerk
1784
Californ
Besonderheiten
Nachkriegszeit
einander
Diego
Beach
Hauptrolle
obere
Kastilien
Special
anal
##ivität
konkur
Perser
Perioden
Rückseite
##achstums
Niveau
oxid
preis
Jahrestag
flächen
##üg
##uropas
##blü
Lieben
Virtu
keinerlei
transportiert
Schmelz
##malen
##astet
##teilten
##politischen
Justin
Gewerkschaft
physikalischen
Söl
guter
##kischen
Schwie
Bundespräsident
Katal
Signale
Schachspieler
Egon
Mechanik
Pastor
330
Vermittlung
##serklärung
zwanzig
Strauss
Romans
Russell
Mythen
Leonhard
komplexe
Skulpturen
##palast
Pietro
Cart
Shin
##arien
Anwesenheit
ew
##iem
##reitet
Marion
einziger
Beleg
##ziehungen
kritischen
Jazzmusiker
Kad
nächst
Weih
##eigenschaften
Tabak
##öhnlichen
Lady
Bott
##eia
Alger
Ausrüstung
Amiga
Solo
gesetzlichen
diversen
künstlerischen
bill
141
vollständigen
östliche
Kaspar
Maschinenbau
Ralph
ausgelegt
Arte
entworfen
angeh
existierte
musikalische
Propheten
Bak
Pia
geklärt
##tscheid
straf
eth
##ocument
Guill
Kelly
Invasion
Camer
Händ
##send
Automat
umgangssprachlich
comp
##rac
Schema
Charts
Verbund
notwendige
Debatte
XIII
Job
doppelt
Niedergang
geschicht
##ylvan
##board
Vincent
##künstler
##gott
gerecht
benutzen
Belege
Mittels
prägte
vereinbar
lieferte
MC
Pyr
##59
##42
##isi
gewal
Spanischen
Eta
vereinzelt
negativen
Games
##53
##störungen
Grem
dis
##krö
betrifft
Luzern
Staatliche
trafen
##ärtner
Kämpfe
##chtes
1772
Skandinav
Österreichische
Hörfunk
protestantischen
Cu
überwiegen
unterzeichnet
entf
Belastung
Rechtswissenschaftler
sekund
Num
Zeitungs
146
##steuerung
ac
hl
ju
Arnd
1775
##ated
Sohnes
Cel
Gos
##geist
##rez
##zeitschrift
Trend
Naturpark
Empire
Öffnung
##gründung
Schuss
Verzeichnis
Erhard
zwangs
herang
Modul
Organe
Differential
Bé
##rain
##auscht
##etzte
##becker
Revol
Observ
Magdalen
kop
##aßen
##männ
derart
Einleitung
Konvention
Medici
##atorischen
##uverän
Nei
##läne
Sozialismus
##fähigen
gründen
Nikolai
850
##kämpfe
##fter
Beschleun
##zeitlich
Korru
Rechtsprechung
erfordert
##emonie
konse
Verträge
solches
##iegelt
notwendigen
geringere
Jahn
KP
##nau
##ński
##enten
schlä
Umland
Vorlesungen
Bj
FR
Heg
List
##FS
##apur
Vorsitz
Wirtschaftsw
##politiker
Fix
Hbf
Ran
##rict
gelungen
umfangreichen
Armenischer
wörtlich
NH
Sehr
##vision
##100
##gezogen
erwies
##index
Aufhebung
Blind
Philharmon
Moos
##loser
Zürcher
erlauben
##rufen
##ungser
Straßenverkehr
Galler
gesetzlich
Vandalismus
Pend
##endem
##ritor
##leisten
##uela
##saal
Jesuiten
Gabrie
Rott
TH
Work
effiz
Ernte
##imum
##nennung
Opera
Physikal
##status
Nähr
app
inne
vorgeschrieben
##skap
Karne
Penns
##öge
Mast
folgend
##stadion
Dunkel
Ruth
Sagen
##ahls
Chip
Gegenüber
zentriert
Jungfrau
mathematischen
Sekundär
Och
versp
Auslands
Stewart
##schneiden
##riebenen
geschw
Gelb
Fernsehfilm
Klassifikation
##heoretiker
FS
Hep
##rea
##liebe
Entdeck
Überreste
Lebensjahr
Result
Helligkeit
Bemühungen
unterbrochen
##isierungs
##beziehung
Ausschuss
##ussia
Landshut
Brett
Steck
Drucker
Vizepräsident
Six
Ausprä
Bundesautobahn
##konferenz
Wiki
##pression
bestätigte
Yorker
Sigismund
Nadel
##äer
Schad
##ulieren
##wickelt
##eignet
Naturwissenschaften
Disc
Aufsichts
Krü
##ssitz
##büchern
IR
Sara
Stände
Abschnitte
##inderten
1783
Pé
kal
zweites
##bildern
Porsche
Library
harmon
Philadelphia
Gamb
##massen
##EB
##esie
Schülern
verknüpft
Orb
Adal
Unix
##rence
Germany
BV
Gitter
##griech
##81
##otische
scharf
1763
geladen
Demnach
80px
abgehalten
Stuart
schottischer
##stabe
##ichtes
##rait
zuzu
Schar
1100
seitens
Rut
##undet
Sever
Polens
Russisch
##systemen
Legisl
jüngere
entscheidende
Ou
##angabe
##izid
##ächter
##höhle
##kommand
##darstellung
##russland
Keine
UV
##ush
Karib
Dete
Gewinnung
ernannte
schnellen
reichte
##pez
##mans
Scheiben
Probe
##iani
Promot
Gaul
PL
Posit
ruh
Erziehungs
Gerade
Lehrbuch
Schlosses
leer
Horm
##tschutz
##sbrauch
teilte
Engels
Homburg
Istan
FP
##arer
verändern
Spin
##register
Haushalt
##loster
Spanier
wahren
486
platz
Raub
Dessau
1740
dreimal
spanisch
Prior
Centre
Edinburgh
Zypern
woh
Grundsatz
Halbleiter
starker
Haber
Abstimmung
Butter
Kai
##lässt
Akk
blut
Mainzer
Champions
foss
kräft
##computer
##IV
##ople
alli
##rafen
Böden
kürzer
Stal
##edon
Anc
##ibr
programm
404
Kommunikations
Gerichtshof
Freising
europäischer
Damm
##stel
##orption
diejenigen
Ansehen
Vorgänge
Generalmajor
militärisch
gehabt
##gger
Gehalt
##allgemein
Reiche
##frar
abgebildet
Zimmermann
##izontal
Heut
bearbeitet
Berger
verliert
Konsonanten
Vic
nm
##ades
Ungleich
origin
Corporation
Stabilität
prägen
erzielen
Apollo
##verstär
organis
##hafter
Demokratischen
Fremden
ländlichen
Fair
##kür
ablehn
##rator
010
Gemeinschafts
BMW
Jordan
Gamm
hess
##wil
##rade
##istet
##ungsverfahren
polnisch
Florida
534
Gie
Meilen
Chula
Vorstands
Repar
verbundene
1648
korrig
kontinuierlich
Skispr
Ziegen
##achus
Order
##fleisch
Schulter
Mitglieds
betroffenen
annäher
Sage
dritt
##hebt
##etzten
beginnend
##ündigt
astronom
##hessen
Schließ
Vorjahr
Generalsekretär
rechtlich
##dioxid
##velt
##faktoren
##steins
Amerikanischen
versorgt
##papier
Konzentrationslager
Bosnien
Rennfahrer
##olas
Pfund
erreichbar
1782
Seelen
Chen
##flag
arbeiteten
gegebenenfalls
Flav
Nationale
##vide
##icium
##okol
Prinzen
Letztere
Jüngere
Flieger
##ahne
Project
besaßen
Abgeordnete
Alpha
fonts
my
##egg
Zeitgenossen
492
verschwand
reagieren
verglichen
Sopran
Mä
wächst
##pu
##bald
##ohr
##reff
##ody
##flut
Fortpflanz
Iron
##auss
lebende
Briefwechsel
Ehemann
beheimatet
Wur
wohnte
##hütte
##fisch
##usa
gepf
Kavaller
SL
Scheiter
##ipel
##ippi
Airlines
Homosex
wissenschaftlich
Elsass
Total
Anden
Iren
Pig
leiste
Romantik
Anfänge
motiv
VC
fü
##rungen
##eitel
##andten
Deren
##iza
Hauptmann
##warte
Guer
##organe
Anschlussstelle
Naturschutzgebiet
einheitliche
Begegnung
Nelson
warum
Bewer
Reck
Vertrieb
Freud
fontsize
Vf
mak
##yte
Artem
voran
##herine
Weiss
verlieren
##blematisch
Öffentliche
lokal
samt
##nit
##GH
unterird
Geschäfte
Install
Autorität
##uffix
Hauptsitz
Revision
##oon
##kore
Auslegung
Aufzeichnungen
Rechtsch
Perl
##sprodukt
##ainer
##ungsweise
erschossen
Schulz
Krem
quant
geborene
element
##labor
##ilie
Unruhen
##felden
Kaserne
520
Posten
litt
##fell
verstand
Algebra
Genre
Pfeil
poly
Osmanischen
Stanis
reagiert
Fernsehmoderator
440
##alist
##euern
##andro
bewertet
schar
1777
Vorgeschichte
##ezogen
Teilweise
Senator
Energien
Kaiserslau
beinahe
Coc
Klagen
##fische
##schub
##denberg
##ilog
Landung
andauer
solange
##linghausen
Garnis
SD
Sven
##aps
That
Mitgliedschaft
Heilbronn
Philippinen
Römisches
Göttin
Ballett
##velop
Elektronik
##gefügt
Popularität
fern
##89
##xy
##anter
eingenommen
Tasten
vorhandene
kommunistischen
behauptet
Pennsylvan
Lug
##element
genauso
Engländer
##rangen
Iris
Messungen
##personen
MM
Sass
Thre
pfl
##rien
##inum
##ipend
Cous
##modelle
Antioch
##kräften
grundlegende
verringert
Fame
Währung
##anbau
##embl
255
Kolum
Mosel
980
Augsburger
##zieher
Tageszeitung
Repräsentanten
Delta
GHz
Schmitt
136
##ützten
Charlie
Lebzeiten
Seiden
Betrag
Mey
Prädik
Altenburg
Army
Witwe
Emer
Rug
##ík
Spielt
1650
##fallenen
Kommunisten
kunst
##stunden
##alus
##itions
deutliche
Vorsitzende
##ündete
##ivals
Karik
##sucht
Verwaltungsgemeinschaft
Modernis
Office
senkrecht
jen
leiden
ul
Produzenten
Kreuzzug
plus
zunehmenden
Passau
autor
##gefunden
##sbedingungen
absolvierte
Händen
Stor
##rebs
Abfall
Kontro
Erdgas
##römischen
##wälder
Amazon
Wolfenbüttel
420
##äbe
##jord
##arra
##rahmen
Eintritt
vorzu
Beschäftigung
Sulz
631
Ey
Sund
gefordert
##ological
Altphil
##flugzeuge
##funktionär
Iranischer
propag
##amts
Schub
untere
##beziehungen
Umwel
Komponistin
Bilanz
Namib
Rüd
##ohle
überregion
##ization
Marketing
höherer
Berufung
Point
Wohnhaus
PR
haupt
##rium
Ausmaß
##gelegen
256
##haar
1781
Klassiker
Schlagzeuger
Nickel
klin
##lot
##einfluss
bedeckt
##antast
##tags
Huber
künstlerische
spezifische
angemessen
##ites
##beit
Flensburg
##overn
Jules
##brüche
##politische
jenseits
Cond
##fa
##richen
##ske
##ronik
Quant
##buchautor
Versicherungs
Hain
nordöstlich
absolut
Claudia
Tätigkeiten
up
##ains
##ipt
verhäng
Walk
Potential
##UN
konstant
Bedeuten
##ländisch
stammende
Tischtennis
ggf
Gän
Rektor
Wetz
Schell
Verur
Prosa
152
##ović
Technology
##garde
Irr
Fürstbischof
Wallfahrts
Schnittstelle
Lak
Berechn
Naturforscher
Stuhl
Ministerium
enorm
Fortschritt
Protestanten
##firma
IA
##schäden
Vorhaben
betragen
Weste
##agentur
Buches
##äuer
446
aufwend
Konfession
##ipe
gesagt
Behaupt
Zerfall
Sigmar
Gulden
##ästen
##ering
aufmer
Inhaber
neur
##berechtigten
Diesen
##abon
width
metall
Gonz
##laverei
Gram
##rog
##ärung
ents
##setzten
Niederrhein
Biom
präz
Nutzer
Common
Sakarat
Schieds
Zeile
ret
vermittelt
##führende
Berlins
Selten
##cover
gezielt
##ümm
Verbreitungsgebiet
Istanbul
Eder
##relig
##uge
überd
##fahrzeugen
Raumschiff
phil
Corps
Zustände
Schubert
Odys
hellen
##arius
Aufteilung
beträcht
Exekut
596
verdrängt
Ersterwähnung
Porzell
Opel
SN
##zusammen
geschickt
benutzte
##monat
Jonathan
##gleis
FI
fer
##open
Geschmack
Transl
Altertum
leichte
Gedenkstätte
romant
Hansestadt
Originaltitel
Kaiserslautern
##gründe
Planungen
##ylen
##ān
##imb
spekt
Kleinen
Neuauflage
##strateg
gestaltete
##onyme
separ
Etymologie
Mort
Rasse
potent
ausb
Wars
Einzelnen
Glaube
Entwickler
##kasus
Fertigung
stärksten
Sekretär
argument
UE
fix
##hydro
##öck
##ändigen
Gebet
Bond
Junkers
Vertreibung
Rain
##ktiven
Rotation
Epik
gespeichert
staatlich
Denkmalschutz
Ferien
Schumann
eingestuft
Nak
Watt
##eux
Alm
1774
Elfen
Komprom
Sitzung
österreichisch
##oyen
Experimente
worauf
Gern
Wallen
verschl
seinerzeit
regierte
##üllt
türkischen
##wachs
afrikanischen
Ib
Mam
Nietz
Pix
Raf
erwir
Eines
schritt
Auflagen
Bret
Ski
angebaut
angestre
Lübbe
GT
##dan
##mt
##my
##elbe
##ungszeichen
##idem
##ämter
Raff
offensichtlich
##isa
##geräten
##standort
##wortet
vernichten
Gard
Hür
Speise
Landschaften
167
herab
Archive
formuliert
##öchent
Marianne
explizit
Gun
Xen
Zwie
dez
gliedert
##täg
Skal
Samstag
Resonanz
Ingolstadt
fränkischen
##arab
##sterb
Römisch
normale
benötigen
##tümer
##fuhr
mithilfe
Roose
##ourt
Geräten
Außenpolitik
angegriffen
Sf
SI
net
##ielte
##herapie
Vereinigtes
Perform
Wapp
Rosenberg
eroberten
Archäologe
ausgerüstet
Symptome
Crow
##ija
##onc
alph
herbei
Strauß
2500
sozialer
##tragt
Annäher
Dritte
##apost
Vorarl
##astra
Shar
Tendenz
me
2021
Erk
abgesetzt
##ständischen
Renten
republ
schlechten
Erzbistum
##ktoren
##raums
##schiedet
indirekt
##book
##eindruck
430
Lenk
Tul
Vaku
lock
##rucken
Begleit
erfolglos
##höch
##aktivität
verabschiedet
Bänden
##bem
##verfolgung
Boule
##fügt
kurzzeitig
##rangig
Illust
##nisch
anzus
Halbjahr
Palästina
SO
Wüsten
##41
##arität
Veranstalt
##arbeits
##ypoth
Johannis
##ktivität
Wohnungs
Stadtteilen
schlechte
Intelligenz
EK
Sans
vergangenen
überleben
##erkran
##ommt
Death
##utta
Prozessor
##ribution
nationaler
Besatzungszone
südwestlich
Ebert
Lehen
##reiz
##spunkte
gerechnet
Komponente
gehörenden
##ignon
Bonif
Prager
Herausgegeben
minim
Bekanntheit
Korrektur
beauftragt
##DE
Vorwort
Bundesministerium
Rechnung
##dienstkreuz
endlich
Population
organisierten
Clin
##run
##itativ
Marmor
##ickel
142
Scient
vollzogen
Oss
##sektor
verkü
vors
Marathon
##ibald
exakt
Radi
anerkannte
Fang
Gm
Lütt
fünften
##zyklus
##orus
##eilung
Kunsts
Malay
Staatsober
Osteuropa
Frühling
prinzipiell
380
Ecke
Rass
##cock
##gendorf
Bedingung
Kraus
Expon
Anhängern
Echt
zus
##rose
Chop
Umkehr
Anger
##ühte
Navy
sexuelle
##inischer
Ernennung
einziges
italienisch
Synode
verlieh
Wittgen
Görlitz
Roosevelt
##vens
##atum
vormals
befreit
Besondere
Gelehrten
ROM
##49
##struppen
##reife
Schwanger
##brett
##splätze
412
Hunde
TC
Zech
deutschsprachige
besicht
Gegenzug
sinkt
CN
ER
Klage
MD
Ästh
##com
Altes
Atome
erhöhten
Hist
Krö
Sachen
zeu
##gium
Gemüse
Papstes
beteiligte
Training
Häupt
##rent
##klin
##teneg
##derm
Einheits
eigenständigen
##dienstes
weltweiten
##gestalt
Häusern
Beethoven
##decke
Verehrung
Anarch
##flöte
Plus
Extra
##itees
Ideologie
Susanne
Gilbert
Songwriter
Pennsylvania
Cin
ET
Volley
freund
##mers
##konzept
##geschichtliche
nordwestlich
Linn
##anschluss
Wassers
Menschenrechts
235
Sklaverei
Offiziere
Vegetation
Bahr
Gelt
HR
Kein
faktisch
kost
##oko
Nachbarn
Piraten
Erwerb
California
Hers
tat
##cs
Berkel
Gleis
Saiten
Interp
antike
Frey
Sandstein
Waffenstill
Adliger
Til
sitzen
##ør
##stei
geheim
##fasern
Frist
religiös
Wälder
Ptolem
Ding
Hinden
heter
##gewer
##deaux
##gebunden
Chol
Waffe
Hospital
entstamm
Trock
zerstörte
Optim
Mountain
Kemp
340
Bolog
gänz
merk
##HO
Chance
##flotte
##älern
##ipher
Bildschirm
Antiqu
##swissenschaftler
Nummern
Phen
##rett
##wich
Kate
##adeus
gestartet
Diskussionen
Beschäftigten
##cuador
Vatikan
Home
##pul
##sturz
##gens
Aufklär
Genossen
Elster
213
##orno
klassischer
Wärm
Gedenken
Zwickau
Bonaparte
eis
##pie
Schlangen
##imon
##agel
Indiz
sozialistischen
flach
Pfalzgraf
Verwandten
Illustration
Ehre
LS
minder
##fär
##aume
1760
vollendet
##lausitz
Wiederherstellung
regelmäßigen
BI
Ri
enden
##din
##asa
##indlichkeit
dement
##ertum
Auswärt
##enswert
Südkorea
Gräber
regelmäßige
Mog
bricht
fahr
gal
##kab
##ngleich
Gefangenschaft
gerichtet
Ruine
##mittlungs
umfassenden
Kiefer
Töne
##spol
vorerst
##ally
benannten
Luigi
Constant
definierte
Wechselwirkung
heilige
Moleküle
CR
Überwachung
Jane
Perg
Warn
Zufalls
Peking
eingesetzten
Erben
Bundesländer
##issar
Sees
Shang
##rut
##gärten
##ieben
##zeichner
##ension
Student
Sokrates
Econom
##jektiven
Cover
zweitgrößte
erwartet
Mercedes
Wüste
überführt
Nordafrika
##geordneten
Legitim
##pool
##ça
##örde
Konfess
##teilungs
Kolumb
Spanisch
Brook
geschlossene
Wr
##otam
1758
Sekunde
Massachus
Großherzogtum
Diakon
##bnis
##schatz
zumal
##plant
##laufende
stattfindet
Jänner
NT
##aug
##obilien
Fürth
Grande
Ostse
Tournee
jährliche
Borussia
Besitzungen
unmittelbarer
Gand
Vest
sens
erwiesen
Kairo
Vorfeld
##ksh
##ouri
Lutz
Nix
##nest
ausländischen
##attform
##achtal
Bosch
##forsch
Folter
Gestein
Böh
##ischöf
Wohngeb
annähernd
Nomen
Tiber
Zert
wander
##tage
Objekten
Amtssprache
praktischen
Hartmut
unverändert
grünen
Network
##gebur
##ugger
stör
gemisch
ausgestrahlt
besetzte
Baptiste
Hak
Iber
Lep
##orischen
##umin
##ektion
Großstadt
Nationalrat
Einwohnerzahlen
Gelehrter
wohlhaben
individuellen
Wu
kämpfen
syr
##zier
##inhaber
##atin
Unterarten
##qual
Bundesamt
##werder
Hauptort
vertritt
kompat
CDs
jährlichen
etablierte
Isaac
##aillen
##abwehr
1778
Clark
##energie
Organisations
Referend
Ägypt
Wirksamkeit
ähnelt
eroberte
Erweiterungen
gültig
schlägt
Jimm
##nges
unters
##cture
Generall
442
Ausgrabungen
aufmerksam
##bruder
beeinträcht
##oklet
##schießen
gewachsen
##steher
Rande
Relativität
Hindenburg
Kür
Ny
tiefen
##zahn
##ikus
Blanken
behielt
erlaubte
Mundart
Trinkwasser
Glied
##mangel
##orische
Spenden
ungarische
##betriebe
##ifizierten
Kompositionen
Hz
Zaren
##IX
verständ
gearbeitet
##lay
Instanz
weitaus
Soziale
Programms
Beitritt
##äumt
organischen
wissenschaftlicher
Fox
Label
RB
##ál
gefallen
Formulierung
Kopie
##worth
Logistik
Schlagzeug
Differenzen
Dak
las
##43
##oker
##ragenden
Reliqu
##kowski
befestigt
Gehäuse
schlagen
Produkten
Arno
zählten
Byzantin
theoretischen
Aufenthalts
ansässig
Rinder
Samt
Wöl
ausländische
##urcht
156
Kanon
Organismen
herrschte
Sigmund
physikalische
CA
##damer
überlegen
Klammern
Adrian
Shō
Kolben
##moor
Rebell
Lambert
variiert
Altphilologe
prü
parlament
##alben
Ausw
Boote
##arry
Werten
Soziologe
Massachusetts
Fracht
##alla
##lebt
ihrerseits
147
Bilden
Spiritu
Europäer
Ester
Hi
Run
##typ
##mold
##ingh
Nachwuchs
Regierungen
bester
##ondens
##ätzte
vermieden
##fürsten
Vermögens
Hybrid
Jew
##neu
##enos
##iles
Stro
310
Base
Mehrzahl
##jährlich
Hanns
##house
Tetra
Bind
rez
Gewebe
Radsport
südöstlich
##portal
Krakau
6000
##abriken
reformierten
Luftschiff
Cornelius
Shakespeare
Futter
Stadtbezirk
Herak
Frieder
Benennung
Bundesverdienstkreuz
Heine
##gungen
##но
##opter
Fußballspielerin
Nutzungs
Terminal
konkrete
Eingemeindungen
Malta
Lissabon
Ibn
Kall
##goten
begangen
##endeten
Landesregierung
Rothen
Gesamtheit
Wahrzeichen
Spätantike
konservativen
CPU
Rhythmus
Astr
Weid
##yla
##ask
Stars
alleine
Richtlinien
Joy
Fischerei
verlangt
Verdienstordens
vergrößert
Fauna
Fein
##schin
##alon
##aktische
Luftangriff
Bordeaux
Ortsteilen
irischer
##onymus
##abstimmung
herangezogen
Rät
Rac
##versen
nachzu
##odor
Aminos
Zahlungs
##wertige
fortsch
Verletzungen
##ishing
geistigen
zugehörigen
Flex
Opf
##jektes
##izip
Werks
eigens
##stücken
jüngerer
Beamter
ORF
480
Behr
Keil
Kämpfen
Wern
##igere
Quint
woraufhin
Intellekt
Lausanne
Dün
Töt
Valen
##szeit
##thal
##zan
Souverän
Brahm
außergew
##rus
##iertem
Gleichungen
Frequenzen
Künstlerin
Handwerker
akzeptiert
bad
sim
Staus
##roy
verp
Spark
Arsen
Alk
##burn
Karp
##okratie
Mosk
geringeren
Mathias
stationiert
anschließenden
##zeigersinn
##ña
##ication
1779
Châ
Quarz
Westpreußen
ungen
ähnlicher
gekrönt
Legion
Eleon
Liturgie
Napoleons
unbedingt
installiert
Pum
Riga
Sätze
zir
##von
invest
beanspruch
Herford
##riebene
##fährt
Gebietsreform
Verkaufs
mathematische
Hebrä
Set
##etischer
Schah
Darwin
##imetern
industriellen
Wies
mobil
##usten
##amann
##idad
Lebenser
gleichzeit
Werkstatt
Embr
Skiz
290
emot
##auenburg
Nachteile
unsere
braucht
Nahrungsmittel
##stiftung
konkreten
Mönchengl
kult
##aire
Befür
##sproblem
Melod
##sons
##üht
##schir
analy
Landgericht
Dioklet
abgek
arabische
Störung
##übergang
Hä
Hasen
##facht
ergaben
##univers
Herzen
Charlotten
521
niemand
Fassade
##auftragte
Alltags
Nerven
##stemperatur
nachweisbar
Eifel
Lernen
##ampf
stein
172
Europap
##verbänden
Eisenbah
Verwaltungsgliederung
Singles
Heidelberger
benötigte
Dessen
Prad
Udo
Zykl
##vik
##itum
Ableitung
Darunter
Näher
Leichtathletik
Council
famil
hart
beabsicht
##sgrad
##legten
Dokumenten
gewannen
Paket
tatsächlichen
Atel
##ogl
Aless
212
Isra
##beton
Merse
Achsen
Lauter
Autobahnen
Mississ
Kenntnisse
##pionier
Gült
sorgt
##dingen
##cha
Ansbach
Abzug
157
##hauser
Nova
215
Guido
##ship
enger
archite
Uhren
Schen
Schir
1767
verzichten
monat
Zister
fotograf
hy
ohn
##wachstum
##stahl
##adé
##opotam
##bezeichnungen
1768
153
Review
McD
##pflanze
zusammengeschlossen
kirchliche
portugiesischer
##initiative
Kessel
Streu
Erhaltung
1773
beruh
gewährt
Lawrence
ehr
greift
##mö
Gehör
unterliegen
heran
Turin
Toronto
optischen
Mittlerweile
##münster
kombiniert
dom
##nütz
##jer
##stage
##sees
##reichs
spont
gegenseitig
Add
Baseb
teilen
vereinfach
Stoffwechsel
praktische
Massaker
Spektral
Gespräche
##seiten
##täu
##ualität
Unterbrech
Que
Feldherr
Empfang
Börsen
Costa
Cord
Hold
Strich
##mensch
##erkloster
##oka
Genfer
Parag
##ography
##ografischen
Widerstands
##ivalent
##kraut
einheitlichen
Gefangenen
registriert
##felt
##ór
##elin
##raht
##oheit
Emmer
Büste
Verletzung
Sammler
Leonard
##guinea
Margarete
konkurr
Füll
fährt
##preise
##itäre
Spalt
Rechten
gebildeten
##arriere
verzichtete
Bruttoin
Dionys
gänzlich
Aven
Cz
Rí
##nist
schäd
Mons
##key
Metaph
Hinrichtung
Wettkampf
Gefäß
dominiert
Pazif
##mühlen
Strömungen
Präfektur
Gabriele
##hew
##verleihung
schien
gewählte
Sequenz
gebrochen
Mitgliedstaaten
##hältnismäßig
grundle
##alysis
kreisfreie
##kameras
Malayalam
Eph
Ora
##busch
erlangen
heutzutage
##sprachiger
District
Lucius
Molekül
Asteroid
Gewerkschaften
##vorgang
Mongolei
Mör
Mob
##oste
##él
Bebauung
Unterfamilie
##hundert
Handschriften
regiert
Rückgang
##bezirks
Dachau
Llo
Zügen
##cont
##ichs
unreg
##issin
##kult
##äche
Stone
176
##sbuch
Brigit
##aktive
Barn
Inszen
zerstörten
wachsenden
ausgeprägt
Dop
Kore
Tir
##sicherheit
##jagd
Bundespräsidenten
##former
Kors
747
Wochenende
finanziell
Hubschrauber
eingeleitet
tropischen
Bruttoinland
Singer
flex
##stone
##achtete
vorgel
Mais
##tempel
Gebäudes
##ständiges
extra
Militärs
Internationales
##culus
Jg
Treu
##herz
Gren
Autos
inszen
Clara
##kteur
höchstens
Amateur
##umme
anbie
Überw
Regionall
Behand
##spektrum
Uhrzeigersinn
entscheidenden
##möglichkeit
##ädagogin
kaufte
##lse
##verantwort
Quecks
Salon
Modellen
##filter
Theatre
Sydney
##itative
erd
Beau
Abstieg
AfD
##arbonat
##angehörige
Analysen
Toy
krie
Schla
verstorben
Senats
betrachtete
produzieren
entstehenden
verstärkte
geeigneten
Utop
behauptete
rhein
Fri
RA
1771
##ovon
Tribus
Portugies
Aurel
Brigitte
VS
##erober
##arum
##tschen
Anhang
151
Neumarkt
Landeshauptstadt
##weltmeister
Säure
Kampagne
Wörtern
Moldau
Porn
##alli
Seek
Werkes
Erstes
stammten
glück
vernichtet
Tobias
Antarktis
Artemis
Gund
Poll
vg
##uro
##atlas
##tschl
anstatt
Erlangen
sozi
begraben
Steven
Calvin
Schönheit
Weltmeisterschaften
Tos
wöchent
##trop
##xe
##onium
Airport
##schifffahrt
Toleranz
systematische
Chinas
feierte
Slowenien
Fische
Rhe
##gaden
##cin
Unic
##anka
add
nein
unt
##ndeten
Administrat
##demokraten
##konzentr
Serge
Helium
##städt
##rennten
tatsächliche
Venezuela
KS
##aaten
##xi
##onesien
Kindergarten
Kuppel
Reserve
Angela
##nachläss
##stärk
Raymond
genügend
Panorama
Messen
Meier
Mendel
Russen
ästh
##ube
demonstr
Anschlag
##eistert
Standorte
Kommunen
Treppen
unbekannten
erwähnten
Lloyd
Nem
slowen
##92
##oleum
Schätzungen
Geod
##veröffentlich
Theologen
besagt
Umgangs
Staff
##rachter
Hauptwerk
rect
##kaiser
Final
##wärmung
Wohnungen
geprägte
förderte
Sint
trag
##sätzen
##matt
##ähe
##öpfer
Vergröß
##issions
erhob
Maßnahme
##katalog
Honig
Gedenkstein
australische
Färö
Jam
echte
##eir
Mao
Orlé
begl
Begleiter
Walden
erfolgreichsten
Zulassung
Mongolen
Mant
##dien
##gründ
##ingischen
Minute
##jährig
##metall
Privilegien
##klid
Beta
Kommune
Melodie
Sinnes
philosophische
Telekommun
ausgestorben
Crit
SE
tier
Starr
Realismus
##immern
Vertrauen
geschehen
Wahlrecht
##othek
Blockade
Bibliographie
Geschwister
Sojus
Cod
Woch
##istern
163
##sbibliothek
bekommt
##voller
##frieden
Operette
Ähnlichkeit
erwähnte
relative
Hütten
Maul
##anteile
Grundwasser
##ouc
Buchstabe
Studierenden
Harold
Hotels
##eigert
Schweinfurt
Ment
Orange
##messe
verließen
Weizen
Kurve
Kontinu
definieren
##kapital
##agor
##grundlage
##gleichen
Schulze
Maßstab
akust
wechseln
Premiere
Todestag
##gründen
Robinson
Schmerz
Jülich
Euler
Viv
slowak
##wol
zulässig
##rost
Chans
##aufwand
##leichen
Schwimmer
##werde
Herzöge
erneuten
##portiert
zeichnete
voller
Genauigkeit
Generalleutnant
Hes
Most
Rick
##sub
##fot
##ussion
##hlau
Kirk
ausgehend
insofern
sonstigen
Mönchengladbach
Motto
TS
Zonen
##keln
##96
##hra
##gefahr
##echts
1769
1940er
Detle
verlässt
Kavallerie
TR
##ook
##indien
##rant
Proc
Siege
Addition
betonte
Strang
Schifffahrt
wahre
Germanen
beschriebenen
Triebwagen
Komplexität
promov
Hunger
gesundheit
RNA
töten
##roth
Spen
Verbrennung
blauen
finnischer
##penden
##ukt
Grunde
finanziert
Gebirgs
Blütezeit
##roduktion
Orléans
Kies
neb
##ugeln
Abschied
gesungen
News
Tests
schlechter
Passagiere
##sil
##anal
Abstra
##gebend
##ähnen
Kulturgeschichte
##itterung
Odenwald
Bologna
IU
Vlad
volle
##atro
Schind
Einigung
##reichste
Them
Norman
Benutzung
Bundestages
Prix
dünn
erlitt
Lennon
Pam
Wachstums
dritter
##slos
Erheb
##ängel
angl
Schwab
##bricht
heutiger
Italiens
Bruders
##IF
##reichsten
##ippe
Einschränkungen
Tibet
Dy
messen
211
Hits
Taufe
##édé
Verfilmung
##zienser
Ce
Sockel
Entz
Blo
##höhen
##schmid
Area
legitim
Olympiade
Zisterzienser
DA
##gäste
##oga
Vermutung
elektrisch
Estland
mechanischen
wovon
##olet
##heft
166
def
Planungs
Finanzen
##iatrie
Risik
verkehrt
XVI
##flagge
##back
##kod
##gesetzbuch
Goeth
##arbeitungs
Posen
jüngste
Smart
Programmiersprache
Action
EL
Tig
lernen
Infrar
##eille
ordent
Armut
grüne
zeitgenössische
alternativ
Explosion
Quecksilber
Crist
##machen
##mission
wirksam
schied
Genus
##feder
Rates
Fachhochschule
476
Austria
nutzten
Zeppel
##widerstand
Cé
##tät
vergessen
##otz
##hallen
##ibir
besieg
Blan
##renten
Period
Immobilien
Salvador
kreisfreien
facto
digital
tr
##entag
vorliegen
Aufsätze
177
Verbündeten
Kontra
Versuchs
systematisch
theoretisch
Ostfriesland
##velopment
Föder
irak
##87
##chtet
##esp
##roit
##liedern
##ignale
Englische
hohes
betreffenden
Dorothea
Diana
Xaver
erreg
##endigung
##quin
Genehmigung
##übernahme
verschär
Container
Voc
fehler
##erzeugung
##armen
##eget
Chan
Nev
Cooper
Definitionen
##agnost
byzantinischen
Bamb
Räumen
##bin
##ather
##serien
##ührung
##amenten
Roma
Comics
Komiker
Variablen
Age
##PC
##head
1765
befördert
Indonesien
Ruinen
folgendermaßen
Seu
Yam
##üß
##styp
##benennung
##gesang
Wilfried
##ozyten
period
##figuration
Anfängen
Gebirg
Eug
Gumm
Kitz
Treib
Zier
##passen
##gis
##amme
##recken
demselben
Aussterben
##flüge
Elite
Emot
letztere
Kreuzung
Signatur
berücksichtigen
Republikaner
Bann
Pank
##ächen
##schützen
##ents
Programmen
##lagte
falsche
norwegische
##orientierte
Language
Carb
Ét
##hib
##gewebe
##aufstand
angetrieben
besuchen
##ographien
Silben
Vernichtung
Draht
Möbel
##chtesgaden
370
Gate
Räum
Sark
##jur
##schi
##schaffen
##iktion
Arbeitslosigkeit
Galil
Häufigkeit
Qualifikation
siedelten
Fehlen
retten
##aer
##parlament
##träger
##47
##ellow
##imer
Berchtesgaden
1525
Musikwissenschaftler
Bibl
gesetzliche
individuelle
behaupten
verteidigen
Ohio
Mississippi
Pun
##urkunde
##ürft
202
verehrt
##ordnete
##ynast
Hanau
Kō
Pog
Schaffen
unzur
Monopol
Wirkungen
Gerichte
Johnny
Guard
##schließt
##knecht
Strafrecht
Barthol
Konflikten
jahrel
##gebirges
stillgelegt
##elmäßige
Lt
##berichte
##ierbare
Abbe
Thesen
Zuschau
eigenem
Zahlung
Typische
1755
Verknüpfung
##fus
##wi
##jon
##gert
1730
##gesprä
Flu
1250
ausgedrückt
Gegenteil
Rhetor
##gewachsen
Disney
Ansiedlung
Enzym
Ravens
assozi
heid
1762
Phara
Durchschnitts
Graham
Rohstoff
unerwün
laufenden
Bourbon
Kep
Rent
##drücken
##hungen
##fo
Erstellung
##skirchen
etliche
Manchester
Interaktion
reduzieren
scien
##konzert
Beurteilung
Kit
Lars
##01
##schiffen
Einsied
##endt
Kleist
Standes
##technologie
Klassik
Interviews
Häfen
Kund
Vision
##ehin
##osaurus
Eingliederung
##agas
162
##skl
indischer
Hanser
##fielen
Geheimnis
typischerweise
spiritu
570
Raben
Tausend
bat
##KE
##inas
Gegeben
Regisse
Bedien
Magnes
Verzicht
Sexual
Ole
Sik
Wendel
##nummern
##ürt
Erlaubnis
##ungsgesetz
##link
Sea
einzus
letztes
Belg
Reichsstadt
Missionar
regulären
Episoden
Bagd
Deh
Lun
##asmus
Erlass
Thé
Traun
Lamb
trennen
##brachte
einsetz
##reien
##zenen
##werfer
gerufen
Regent
Dynam
Meh
Teich
Tram
##blättern
prov
Carter
geringfüg
konzentriert
Befreiungs
Fossilien
Bundesverfassungsgericht
Tön
VR
Wick
deuten
##glichen
##gymnas
Schol
##ahlin
##imedia
Musée
Wirbel
größter
Kalin
##feste
Statist
unmittelbaren
stattfand
Jimmy
beenden
übereinst
232
freigegeben
Haag
##agerten
Leonardo
BL
Geister
Hud
Piz
zitiert
##bock
##xx
Georgen
##eilchen
161
##untersuch
Sarah
Qualitäts
Prediger
Zensus
Sigmaringen
415
Host
Pag
##andert
verlager
##ystems
herunter
Programmierung
##wartung
meinte
liberalen
Dich
Kiew
Pon
mer
##seins
zuständigen
unterliegt
Antwer
Raim
Koran
administrat
Gedenktag
eu
##äften
##itär
##augen
Verben
Marl
##ssohn
Literaturwissenschaftler
##marine
##hail
Beliebt
erwachsen
Synonym
ausgeliefert
Völkern
Eil
Tell
##schritt
##ehmer
Beendigung
##ändischen
##radio
238
##boote
1756
Paradies
mexikanischer
Rezension
Core
Tac
##nov
##kok
derartige
Client
Einzelstück
Diözese
Igel
sucht
##östen
überlassen
schaffte
##schaftliche
Abel
231
Strals
urkundliche
Ziels
##acken
##iques
##sc
##zum
##schär
klim
Globe
Edit
westfäl
Korrespond
##ulfat
aggress
korrekt
Jubiläum
verfolgte
Geis
Him
echten
##tm
ausgesch
Vorwurf
Grundsätzlich
Herzeg
Kantone
stammenden
beliebig
Handballspielerin
Kaukasus
Abweichungen
DG
##wn
##HS
erläuter
##impf
Ehrenmitglied
Dreharbeiten
Stadium
##müller
Erscheinen
Korruption
Israels
515
865
Ian
Panz
Sg
film
symmetr
gewisser
Reichsg
Elf
Parteitag
Einzelne
komplette
geeignete
Browser
beruhen
##iba
##iane
##ikanten
Folk
Freunden
Proteine
1701
Wellenlänge
PA
##villa
##arus
annehmen
##ablo
##sprozesse
öffentlicher
massiven
Strömung
Bolivien
Buff
MG
##listen
##hatt
Stipend
zugesprochen
##ega
entscheidet
Aufstellung
Lieber
blaue
Wettbewerbs
Kulm
##chtete
##igny
Conn
Gottheit
Liqu
christlicher
Ruhrgebiet
landwirtschaftlichen
Schwangerschaft
Hip
wün
Erholungs
Herman
indir
Radius
Organismus
##rosion
Wed
##iph
##hügel
##zit
aufbew
##ographen
##ardt
Überzeugung
Oberbayern
##bachs
realen
##zeugnisse
seltenen
Ortsnamen
Valley
Mönche
Legenden
Trit
Vanden
##46
##ahrung
##steck
Flüssen
Daim
Demokraten
##kranz
irre
Kevin
##provinz
Kompetenz
Arndt
Bata
Femin
Rig
Schacht
Berühm
Friede
##eidungs
Grundriss
##steinzeit
218
Gebietes
existierten
##portional
##denkmale
zunehmender
Kameras
Bevölkerungsdichte
marsch
Zitat
Wittels
Anzeige
gedruckt
abgekürzt
Aich
Suf
Situationen
##vet
##klave
##wertes
##vorkommen
Erdoberfläche
Zustands
Billy
Kinof
Franziskaner
Harb
Letter
umso
Unterk
##manager
Wille
Skil
politisches
Joan
Verwaltungssitz
HTML
##verkusen
Erlebnis
Bombard
Lenz
Nieren
Yu
sang
Datent
scheinbar
Zub
gift
##ücher
##inken
##ieri
Schilder
Eröff
Ansel
##aufbau
##leiden
anthrop
1745
drehte
Gefühl
slawischen
Civil
IG
IL
Mauern
co
grau
pH
##gitter
##ühen
Storm
gehandelt
##ellmeister
Diagramm
Hieronymus
Captain
Detroit
Arabischen
gewährleisten
##direkt
Anker
##ová
##aktik
Emir
##präsenz
Paulo
Helena
Briefmarke
##magazin
berechnen
Dum
hil
##rung
##hälfte
##folia
Übereinst
Weltkultur
##ouver
##ämmer
Roms
##ATA
publiziert
repräsentiert
Taiwan
FM
UR
##rike
##zylinder
verhältnismäßig
aufzunehmen
##ochten
Landsberg
Leverkusen
Gerald
##rome
222
Basen
Römern
##eingang
verkaufen
bayerische
sexuellen
##ledge
##kandidaten
Sierra
##disk
##verkauf
##örn
Stadtbild
##uble
##inius
dazugehör
abgest
##kranken
##azzo
Befehls
##ministers
##büro
Disziplinen
Hawaii
Cob
##schwar
##agten
Derzeit
Großes
##reserv
Staatssekretär
Schmetter
365
Merkel
UNO
niedrig
Bruttoinlandsprodukt
Bitte
Garden
##folgende
##paare
Byzanz
FD
##asing
verweist
Beachtung
provis
Transkript
Innenminister
Gruben
Körner
bloß
olymp
Lach
Mind
sat
##ioren
##wohner
##rekord
##iftet
Antisemit
Grundgesetz
Zwang
Pauli
Elektriz
Chefred
kostenlos
Landschaftsschutz
##varianten
Wün
##atlant
##ahnd
##ferenzen
##feldt
Altona
##metrie
direkter
kommerziell
junger
ungeklär
Karibik
Muss
Mörder
SB
UT
kolle
##iebte
##stimme
##arbeiteten
Museo
Feste
##load
spezifischen
Brecht
##onierung
inc
1766
1680
Unterhaltungs
##enza
Soul
216
Musikproduzent
##schriftsteller
Vermess
Kleve
experimentell
Nenn
Say
##iè
##tende
##igr
ersetzte
##imil
##anton
Landau
Sonn
Scot
Vielmehr
Elektrotechnik
Gauß
Feinde
Parl
Wahn
Zähne
hoff
##yme
##UM
##äuser
Carn
Rotter
Treff
Vermutlich
Jersey
absoluten
Savoyen
##chlorid
Apfel
Lagen
Sektor
Schritte
Inschriften
##anthrop
Vorgäng
Gemisch
##klen
Manuf
Nationalmannschaft
Meinungs
beliebige
Ellip
##roskopie
Oberbefehlshaber
Algerien
Ringe
##jak
##ating
##ntax
verlegte
Spor
##ölbe
##ynes
nieders
Stuttgarter
Diskurs
Jerem
Relation
##verletzung
Tenor
isoliert
Berkeley
Kürz
Via
mik
mac
verzeichnet
unterworfen
Monteneg
Anges
Werkzeuge
Historisch
kommenden
benötigten
##sextrem
nam
##latt
##stätt
##ettel
Stö
scheinen
Österreicher
##ränken
Damas
Germania
##ächsischer
portugiesischen
kontrolliert
Katastrophe
keineswegs
Einzugsgebiet
Stabil
##segel
Herm
##ammelte
Christentums
Gesetzgebung
Präsent
##verträge
Ereignissen
fehlenden
Fragment
Nein
Teut
##eff
Brenner
257
506
Sumpf
Testaments
Äthiopien
entfernten
befindliche
Rüdiger
Porzellan
Kolumbien
ohnehin
930
Fren
Meine
binden
doi
##finder
##chow
Jahrgang
Umstand
Monarch
##mittelte
Buchdruck
Rheins
Kriegsverb
Zoo
Markgrafen
ungewöhnlich
bit
Einfach
Trenn
reellen
Magist
Resol
Osmanen
persischen
Adelige
sichtbaren
koordin
goldene
kommerziellen
Konföderation
Buß
##hus
203
unterlag
unterhalten
Univ
##ekü
Bauweise
Flugzeugt
Malays
##ouvern
optische
##wortete
##artett
Slawen
Magazine
CT
Iser
##günst
inhaft
##roc
vermitteln
Mitt
Enri
Richtlinie
öffnen
Rin
Seinen
##äußer
##veranstaltung
Bevor
##blut
Glad
längste
Miguel
GNU
FPÖ
wohin
Ficus
Mahl
seg
##wache
##eiss
Alas
Aufsatz
1764
berecht
Augusta
##prozesse
Kontrast
Acadé
McL
999
Ambros
Ferrari
DD
Spaltung
1720
Karin
##hängen
Warschauer
Vielfach
Geschäftsführer
Spätmittelalter
müsste
##onis
erteilt
Schieß
##uli
##ipol
##mitten
##strand
Zusammenbruch
Conne
antisemit
Folgenden
massiv
komponierte
Reuter
gros
Anspiel
Unterst
Schloß
##lohe
1757
Gitarren
leichten
Instrumental
Kapitalismus
Restaurant
410
Wurf
weichen
##igma
##ürmen
gep
173
##acional
ebenda
Ruhm
##ashi
forderten
taucht
Inflation
Café
weiterentwickelt
ign
##bären
Schlange
##orth
Chl
Amal
Gesell
Holger
indische
Harvard
People
freiwillig
dun
ehe
erhebt
Schuh
##älzer
Bestrebungen
plante
anerkannten
Diagnose
Karikatur
Mek
obl
##euder
##senergie
Thomp
herzustellen
##ctions
Deep
Eisenach
angeführt
gedeutet
Castle
Namibia
EA
##rasse
##unfall
##apo
Graphen
Bürgerschaft
##inois
Kronen
##kräft
Hildegard
Bienen
Mahn
##rige
##effer
Grun
diesmal
vorherigen
Hond
##pin
befahren
Maas
##oke
##pres
Monro
Albanien
Wohnsitz
Falk
Hitch
##lebten
ergänzen
##grün
Pyramide
konzipiert
Jap
Kann
Lj
mong
rahmen
##nn
##eith
Alc
##izer
##skrie
##gewinn
Acet
biologischen
Naturschutzgebiete
äußersten
Gemeindet
orthodoxe
531
Midd
Eingangs
##ivile
Reichsst
221
Moon
##inki
##strasse
##lagerungen
Parker
Viren
Objektiv
Mittelmeerraum
Zins
##asten
208
##ingham
Progress
Abteilungen
Child
Roß
Königlich
##kongress
Berner
Laufbahn
Aires
Aquar
fehlende
demokratische
Electric
älterer
BA
Ler
Kaf
Spand
##perrt
##ious
##haltige
Herzogtums
Else
Aschaffen
horizontal
Sylv
##ailles
##arme
verhalten
##senkirchen
Proph
##ssicherheit
Auth
##gebenden
gegner
Kuh
Preußens
Innern
##kontrolle
Violine
Areal
theoretische
Skelett
Unglück
fälsch
##uin
##wässer
##ökonom
##ucher
Pharma
##ramme
Brent
Pflichten
Luck
Erzähler
##senthal
Regentschaft
Protestant
Kapp
##iblen
algebra
Schlösser
Buenos
1753
Gattin
engagierte
Ecken
Rakete
##funks
einsch
Aufkommen
1550
##avier
berichten
Formeln
ungünst
Weinheim
##leistet
Risiken
kaiserliche
eingebunden
Imperial
Demonstration
akademischen
Fokus
CIA
File
Gad
Jr
non
nom
##berat
##odon
Gemahlin
Roberts
##ewald
Elm
Schnabel
Briefen
Grant
Baptist
alternative
Swe
##zten
Import
Historischen
quasi
1754
nennens
königliche
UEFA
Bagdad
Govern
tri
##chter
##informationen
erwerben
##sebene
durchgehend
##konfl
Arbeitsgemeinschaft
##128
formulierte
Cottbus
##charakter
kontro
Vizekönig
Dall
##gründer
##jar
Scheibe
Freistaat
Formation
Türme
romanischen
##gefühl
Brigade
Adalbert
Regionalliga
AF
Sardin
live
##jou
erheben
171
Chancen
##aci
Großvater
333
Meiningen
Perspektiven
PK
Stel
##namens
##EM
##raul
##ande
denselben
Sieges
##oku
Qué
parteil
Betroffenen
Minnes
##professor
schrittweise
Académie
Cemb
Ivan
Titels
##neum
##big
##ZB
wirks
Flo
##ütung
##ränke
basierte
Jonas
Dörfern
gewährleistet
globalen
Trau
##xte
Neuere
Neus
##traten
fremd
Giac
Rend
##niveau
##arisches
##erti
Abbas
Kreislauf
wenngleich
Prozessen
402
Hugen
türkische
zeichnen
Flecken
Picasso
##anthus
##anwaltschaft
Annäherung
NDR
äqu
##schieben
##mannschaften
##gemälde
##btissin
Braunk
##nade
Redakteur
Missions
Rettung
Quadratkilometer
##zwecken
ye
##isma
Auswertung
##schlüssen
Filmfest
##gleichungen
rechter
Nationalmuseum
Biber
##aios
Fallschirm
Dave
##ühner
empfohlen
Depart
Investitionen
maßgeb
Manga
Snow
Lettland
Reflexion
grundlegend
##zew
Schil
##ktop
##renzung
menschlicher
Dietz
interessiert
angezeigt
Phänomene
##ieht
##schke
Schreiber
##kton
Anbindung
##ympt
kurs
Audi
Lösungs
unendlich
Vakuum
Blech
gern
##bauf
##tl
##lappen
sche
##geleitet
Oberhausen
245
Kanals
erneute
421
produzierten
schriftlich
Synchronsprecher
##merkmale
860
HS
Rational
Ziffer
Erfüllung
1660
hervorg
Generals
Künstlers
Puls
Armstron
Capit
Kapitulation
Anatomie
ausführlich
meint
imper
gesammelt
##vorstand
##vorstellungen
##strahlen
Prozessoren
Auftritte
reformierte
Lorenzo
##impuls
Gravitation
misst
Navigation
Kronprinz
Antwerpen
sä
##funden
Spion
##plitu
##aktischen
##yrill
Thronfolger
Humanist
Gutenberg
Skispringer
BB
Gond
Kamm
Kegel
viert
##tier
sicherte
##otenzial
##aea
Schwarzer
Busse
geltenden
Streitigkeiten
Erreger
HP
##stich
##elitz
Ausschluss
Giorg
endgültige
Individuum
landwirtschaftliche
Umweltschutz
Wittgenstein
Relativitätstheorie
Brech
Lum
sil
##lug
##hoheit
##fonds
##ós
##einhalb
Begriffen
Metro
linker
Christiane
obersten
Befehle
Schönberg
Harris
überraschend
wählt
##aine
##gingen
##tschatz
Spart
##orene
Eiszeit
##iefern
bewohnt
390
weitesten
territor
Omn
Ignaz
His
sal
##schar
##ely
##assten
##asiens
##verfahrens
##essa
##lagten
Thai
##ifikations
weitest
Gaius
Sediment
Wirkungsgrad
Encyclopedia
Lüttich
460
Ikon
Klingen
hyd
##lat
##kels
##ettern
Abwesenheit
Unterdrück
Kletter
Volume
Indik
Pfingst
Senioren
##politisch
Missouri
##imenten
Elfenbein
Nietzsche
Bäumen
Präsid
Rügen
Suffix
##kombin
##91
##aniden
impl
##bearbeitung
##nette
##regor
gestiegen
illustr
Äußerungen
Kompromiss
Cran
Nid
null
##eli
##ikte
##rama
Neuguinea
##abhängig
Notation
Volltext
Kosmos
übrig
überschritten
Herzegowina
##bant
1640
steu
##ocol
Kambod
##springer
325
1759
##berechtigt
Bronzezeit
Treibstoff
Jeh
Lese
Tap
numer
##nobel
##UR
##stall
##stitel
Schwan
rechnen
Series
Budget
Wikinger
geistlichen
Event
Ecuador
Mehl
achten
##ason
##vorschriften
Jeanne
Albums
Seefahrer
##haftigkeit
Giul
verdeut
Publikation
Marshall
Meeresspiegel
Offenbach
verursachen
Dragon
Hesse
PP
Stark
Erläuter
##angels
1735
##ronomie
Großfürst
312
##eigern
##acker
erneuer
wirtschaftlicher
künstliche
Urbanus
CM
Fire
KB
Stall
204
##antritt
Sonde
Genres
Lebenswerk
Bonner
Reinhardt
##wender
zeitweilig
Bartholom
Fitz
Olaf
ʿA
##dlich
##hs
##kreu
##IE
##berufen
##erts
entzogen
##ministration
Bomber
##jiang
beschränkte
##variante
##digt
##zeigen
##stämm
##oler
##adin
##eichern
Erika
vorkommt
Aufruf
Rost
Umbenennung
Monika
##fraktion
1752
basieren
Allee
Besuchern
Atelier
ED
Gig
Nasen
Zeh
##enturm
##abile
Erhalt
abwechsel
##röhre
Hauptartikel
gegangen
Zoologe
Tragödie
dementsprechend
fäh
##fres
##cup
aufrecht
##verw
umgest
Umzug
Bauarbeiten
Wolfsburg
Mehrfach
Psychotherapie
enthaltenen
Verhältnissen
lutherische
brandenburg
Satellit
Princeton
Thompson
Niz
nannten
##arag
Erreichen
vorbehalten
Ausfall
Plätzen
produ
Warm
898
##fähre
##lastung
Olympische
##lieferungen
Luxus
subsp
paläst
Schaffhausen
Metropolitan
##zessen
##itiven
##etzer
##standard
Ulrike
aufgegriffen
sozialdemokrat
Transfer
Detmold
Rebellen
Lichtenberg
Colorado
Schließung
Wul
XML
tiefe
##ор
##tenberg
##ocht
Deriv
Abriss
226
Werder
erneuert
##ichterstattung
Horizont
Disketten
Röhr
##hoeck
##hilfen
##kulatur
Speer
Ästhetik
Gültigkeit
derer
Integ
gewerb
festgehalten
Morris
internen
Gedenktage
intensive
ausgewählt
SWR
Lokomotiven
hauptamt
Meld
NW
Wang
fassen
##king
##igraph
##etin
durchzusetzen
##probe
Linsen
früherer
Kupp
##hafens
Zeugnis
us
gehörende
ausgegangen
Willem
vereinbart
Grabmal
##fektion
Leitungs
Petra
geistige
##urnier
Barry
Gertrud
rumänischer
it
krank
##bib
##52
##schalt
##emünde
Stier
geform
auftritt
Unmittel
Übers
geschm
Romanen
##belastung
Waldeck
Männ
##ancy
Appl
Madonna
Afrikas
Toulo
##speriode
kommunalen
##allee
fremden
##machung
Fortpflanzung
Natür
Sap
Seid
teuer
##zheim
##Sch
##erie
##ietet
##tremen
Freed
liturg
Steigerung
Bonifatius
Infrarot
Bant
Má
##proben
Filmpreis
##zahlungen
##buchstaben
Standorten
Flugzeugen
Henne
Jury
##brandenburg
böhmischen
Schwäbisch
fliehen
Toulouse
AH
Amen
Sort
##OP
##raub
vertrag
anspruchs
##nez
##ardi
##philosophie
##aktiven
ehemaliges
Balken
stimmte
grob
Fragmente
Möglicherweise
Sibirien
Tens
##ecke
Geschwindigkeiten
Weltanschau
Bestände
Nationalparks
behalten
Würde
Araber
Lehmann
##tlichen
##fal
##oshi
vorliegt
##werfung
236
Clar
Belast
##schuldung
verwechsel
##wirtschaftliche
##aurier
Notre
fortgesetzt
Ellen
##mitgliedern
verlangte
Zeppelin
rahmenlos
##national
Schirm
Beschlüsse
vorrangig
Russische
Publishing
Clubs
Zunahme
Nob
Pay
Pict
##kinder
Mack
Vorgaben
Klett
betreut
verbrannt
##ränkte
nebeneinander
##lechts
erhöh
Distrikt
orientierten
gültige
Täufer
##56
##ists
##riester
entz
gegeneinander
Versicher
Rapp
Selbstmord
Professoren
einheitlich
Dublin
vulkan
Degen
vort
##eber
##iu
##ilo
Kay
##befest
Alam
Neuausgabe
242
Zusammenhänge
Kanäle
Damals
Alberto
Delph
Verdacht
Landtagswahl
Einschätzung
nachträglich
Ruhest
Goethes
Stralsund
Esel
##UT
##scheiben
Stämmen
##lac
Ausb
María
##fahrung
##ografien
Funktions
Sanierung
##ometen
oberste
Boles
etablieren
verschwunden
Octav
630
Mähren
Rid
##aste
##inis
Anlässlich
Regimes
zurückgeführt
228
Flughäfen
##anstalten
1748
left
Navarra
Anstalt
Metropolregion
Vandenhoeck
Kri
Ohren
##brie
Erica
beibehalten
##iai
##ennamen
Bauart
Allgäu
Shutt
Krönung
Knight
##scheinungen
Amerikan
Myster
kanadischen
unterstützten
kommerzielle
NBA
sach
##gehr
Stifter
geführten
geographischen
Stadtkirche
unbew
Erstausgabe
Matri
Pianistin
Ingenie
##wirtschaftslehre
Illustrator
Unt
lux
##sohn
##gestell
1632
Flut
Georgia
Autors
weltlichen
Böhlau
frz
Verzöger
Weihnachten
Sympath
Isabella
ignor
##RNA
##atives
##unterschied
##caster
übertrug
Vorträge
untersuchte
##chemie
Glücks
Weihbischof
Aschaffenburg
Armstrong
Hindern
Moss
stürzte
##skosten
##ersteh
##bestände
halben
Jesuit
Memorial
Angebote
##gehörigkeit
funktioniert
##geschichtlichen
sinken
Längs
Vertretung
fundament
Pädagogik
Voy
dichte
krieg
##peter
##uit
##öhr
geprü
##aba
schickte
darstellte
Brill
##aldo
##ylind
Supr
entsprechender
##mehrheit
Catherine
Nagel
künstlich
OP
Rok
Senk
fusion
##sim
Strop
##lebte
##angenen
Augustinus
Glocke
theologischen
Volkswagen
gestalten
Porträts
Spaniens
Energ
Methan
hinzugefügt
beliebigen
ansässigen
Erscheinungsbild
Fru
##krater
##zill
##58
Steig
##eds
Stadtrecht
##ilding
224
Rudi
Dokt
Göttinger
stärkste
Río
GPS
Nept
tu
##hub
Stief
##ohnung
##ungsgeschichte
Bey
##wiese
kannte
254
##minton
Partie
Wahlkampf
Knei
Gelsenkirchen
Schweizerische
Helene
Amtsgericht
gemäßigten
Stoffen
zivilen
530
Sag
d4
##hüter
##ketten
##97
##schmel
207
##esters
##serba
Flur
gesucht
##gegenüber
Volksabstimmung
dahinter
Jüdische
Kontinental
Stettin
Rams
Üb
##craft
##51
##ismat
neuere
Adressen
Bestehen
Patient
458
Africa
endgültigen
selbständige
Vall
##NE
##tsche
##menten
##idel
Antib
##yphen
Heart
Gewissen
grundsätz
Arabien
Zeus
Léon
muslimischen
regen
##hein
##Data
##gerte
##quet
Torp
##haftung
##texte
1741
##stoßen
Engelbert
Chromosom
##ilogie
512
FB
Hig
Kum
Lichts
##bis
##brochen
##kamen
##achteten
Königsw
##nahen
Salomon
Zentrums
normal
Tausch
ständigen
institution
Hedwig
morgen
tib
##phasen
##bruchs
233
Gegenden
Wahlgang
Libert
1751
technischer
berühmt
benachbarte
Cree
Wichtig
konzentrierte
Ah
Sitten
can
##kämpfen
##eitigung
entfallen
Plünder
Novelle
##rechtler
Badminton
##üllen
kooper
Aktuelle
restauriert
Magdalena
Wright
Galer
Jans
Zach
##worf
##beschluss
##zeitliche
Reichtum
##handwerk
Reiz
eingezogen
Muttersprache
Baumw
erweiterten
Eintracht
Plastik
vorbereitet
unzureich
Hitchcock
Lys
Liver
##mien
inoffiz
vereint
gebaute
Einladung
entwarf
1728
251
problem
Werkstoff
Gesamtfläche
Kramer
##ümern
physi
gotischen
knü
festgelegten
krieger
##serbaidsch
dringen
##otes
##ziele
##cole
Schär
Vereinen
Fernando
##wasserstoff
modernis
##würfen
Materials
##behandlung
##sparteien
industrielle
Electron
Frühlings
eignet
Hunnen
Jay
##itius
Verschlüssel
Eingabe
##hnungen
begrü
Oberpfalz
##ceae
Wilde
Dance
Himmelfahrt
publizierte
israelischer
Kompetenzen
müssten
870
CL
Veter
kenn
##brä
warf
1530
1620
Adjektiv
verborgen
##atory
##spielerin
verzöger
Nachbarschaft
Baby
Beamte
##messungen
Lithium
Mose
##fers
##äa
##uffer
Einordnung
##ský
ausgehenden
##faser
Patron
stärkere
Apotheker
Kometen
auth
##pfarr
##igeren
Braut
Edith
Versailles
Shell
Budd
Bayerns
erwähnen
##öpfen
Potsdamer
Lisa
##gräber
Bremerhaven
Sudan
##semester
pflanz
Ble
Cort
Kämpfer
Miet
hölz
m²
##ple
##ibert
##bäume
##kische
##antes
##rap
Schiefer
Unterschrift
Pharm
Emden
orth
Ulmer
##glomer
Physi
Speed
israelische
Retro
Court
Wieland
925
Bram
Dj
Nol
Nibel
##tour
##heid
##schach
Geschehen
Weide
Development
dorthin
aufgefasst
##alogie
neuse
##ädagogische
Magnetfeld
Köhler
synchron
Militä
Cum
bitte
##ра
##odiert
##mail
Filmem
dortige
##ographisch
Gesetzen
##harz
Hase
Kehl
Wing
##ede
##yri
##KA
geordnet
Stadtver
Mede
rec
Spielzeit
Korps
Epochen
veränderten
Kabarettist
distanz
Wetzlar
Québec
Wels
##set
##information
Geest
Abwasser
##idi
1450
Umgeb
##äusch
regel
Goeb
Wallis
geschaffenen
Kommandant
##gespielt
Beinamen
gegenwärtig
Boulevard
neuseel
Mett
drast
##mündung
##äums
imm
##indliche
Stadtgliederung
Internationaler
Sanskrit
Sportarten
Präfix
##streben
Syntax
Freundes
##kompeten
Deport
Heidegger
Skandinavien
Veranstaltungs
völker
Äbtissin
##guss
206
##seus
##ayr
Steffen
##essee
Gary
8000
Byte
##sendungen
Mech
Nin
Pann
VEB
ta
wolle
##öffent
vergeblich
überzeugt
sprachen
##ronom
Indiens
Erneuerung
##busse
548
Bevölkerungszahl
Wohlstand
informiert
Wahls
Staatsbürgerschaft
Brockhaus
Bark
##mud
##eihen
Spree
unterwegs
Bundesstraßen
Isar
Spielern
##bereichs
niedrige
Sergei
zufällig
Konfessionen
Heils
##äen
##FL
##Cl
##schmer
##uta
ausget
Sieb
genauen
Angek
Kraftstoff
wachsende
Prototypen
Ullstein
Performance
Pkw
drit
##oud
##engt
erfährt
1714
Umge
Sack
Skala
Nationalh
Gute
Ingrid
Softwar
Independen
erlebt
körperliche
Beratung
Zuschauern
Use
##effekt
besiegen
Umstände
##gebende
Decken
bedarf
Short
Kanonen
##wertigen
##shagen
##schutzes
Theaterstück
895
Hunt
##othy
Rausch
Bundestags
##kriegen
##sternis
Anregung
palästinens
##öcke
##andel
##spraxis
##icon
##odell
Gron
Entlassung
Elias
ausgeglichen
Brauch
Intervall
Röhren
Arnim
##üsselt
Komitee
Illinois
Granit
##okomotiven
Baker
Banner
Lass
bab
brü
##bran
##ád
##olta
zuläss
1713
##rechner
bemühte
norwegischen
Cruz
Seminar
Bien
CV
Eus
Hid
Mens
Torf
##öhnung
Stapel
entnommen
Vorort
##flüssen
Linken
Zwölf
Oslo
Kasachst
##gottes
portugiesische
juristischen
zwingend
Iul
Lessing
lös
##osphäre
##mis
##cos
##isionen
##rok
1618
##flossen
##führenden
##ächern
##ctic
Dead
Private
##fertigen
Stere
Dichterin
1743
##kamera
Protagonisten
Ausdrücke
##gewerbe
Rotterdam
DH
new
richten
##hip
erinner
ermitteln
##reflex
##spuren
Erl
spiegel
zwang
##ändische
##geschritten
begab
##ited
vermark
Constantin
Domkap
Bunt
Essig
Debüt
##instrumenten
##positionen
Soundtra
angekündigt
AV
Asche
Beatri
1761
Schwing
Weltbild
##mantel
Halber
Norweg
Rudolph
basierend
schriftliche
Pulver
Behauptung
Guss
Rim
pra
wik
##93
bekl
wenigstens
Zentralasien
1688
Güterverkehr
##ästhes
Berthold
Gerichtsbarkeit
##gipfel
Bauform
Konsequenzen
Krüger
jenen
zit
##zim
##asis
gefahren
Einhaltung
durchzuführen
##idemie
##skreis
##haushalt
Lade
##eigh
Fasern
renomm
950
Hone
Leine
Potenz
wh
##nad
##sfeld
##inhalt
einsetzen
Erwärmung
Theory
##zeitungen
Andr
##kasten
Warum
Verbrennungs
##mensionen
##risiko
Götz
volks
##olithikum
Dig
Karth
Perk
Tomm
##gü
gefüllt
auss
Theaters
unweit
Entschäd
Manhatt
Intervention
Edwin
bedeuts
Compiler
Mosaik
Attrib
Kreb
grundlegenden
Beteiligten
Malaysia
##nischer
##vektor
##rogen
##anzip
Gewässern
Teatro
bewahren
Mandat
einheimischen
Beliebtheit
Hitze
Taten
##viert
##elementen
##ogne
##epl
Klub
Board
Portrait
Typus
zerstören
EUR
verfügten
##ähnliche
braun
richtigen
linear
Sardinien
##achi
##omaten
##icip
Maier
##wirkt
einzuf
Akzept
Guide
608
Friedensvertrag
Fließgewässer
##czy
Schro
zurzeit
Ausübung
##bildner
Bestimm
eingeschlossen
Provinzial
Homer
Migration
Mittleren
##patron
ökonomischen
Gill
Kelten
Tas
##slaw
##bürgen
##udent
Anschau
Domain
beeinflusste
erlangt
entfernte
biblischen
Charlottenburg
CET
Morgan
rass
versen
verfilm
##server
262
Klosterkirche
erschienene
definierten
Expression
Färbung
Orchestra
Westeuropa
ABC
ETC
cor
implement
##ogo
unterrichtet
Proben
##erkraft
##antie
##swalde
275
Rupp
##beispiel
Peer
landwirtschaftlich
gleichermaßen
##jugend
Earth
NET
##ellung
##echen
Regio
Transform
Arnsberg
Briefmarken
##lernen
Fakten
Rüstungs
##älzischen
RTL
639
RFC
Sart
jetz
##mühl
##äßen
##iehlt
##ities
starten
##okolle
239
Ostern
Basler
Drehm
zentraler
aktualisierte
Sauerland
Collection
jedenfalls
Säugetiere
##früchte
Mendelssohn
Who
legten
anne
##verbr
Alkal
Westp
Darauf
##örderung
Freude
gelangten
mittelhoch
Kaufleute
Digitale
Börse
Artikels
Multiplikation
Ausprägung
Fliegen
Ket
RAF
dei
gas
auffäll
1738
betät
Medaillen
Lack
oriental
Philipps
Talent
Dietmar
##zubringen
Variationen
Territorial
Exemplaren
Tiroler
Kartoffel
Greifswald
Cicero
Promotion
640
Zieg
test
treiben
via
##leten
Schrein
Verschiebung
1724
Freilicht
regelt
vermuten
kleinsten
##mosph
Revolutionär
Tennessee
Mesopotam
ethnischen
Ergänzung
Glucose
Söldner
Gallery
Shanghai
OT
übte
##jana
##arismus
##ammelten
kommend
Therm
Birk
allgemeiner
Sophia
##amerikanische
Erwartungen
Karel
Buchgesellschaft
Kunstgeschichte
##ffizienz
Kennzeichnung
##kapazität
kulturell
Whit
Eichstätt
Kardin
herrschenden
belgischen
Verpflichtung
Waffenstillstand
880
Bf
Bess
Fed
Mend
Nab
##éon
##strei
##räbnis
1715
ausgeübt
Georgien
802
Silene
Gutachten
##bewohner
##bilanz
Villen
deutet
##lesen
##titel
##typen
##jas
##ка
##andra
Mitwirkung
##gesagt
Unterart
anget
##ifte
León
Designer
Collins
Reformator
militärischer
1742
bemüht
Proteste
angehören
genehmigt
470
AA
Lkw
Ute
breiter
opp
##hd
##funde
##ен
Stumm
vorgeworfen
##bling
##issa
Gladbach
Paras
253
fester
Dream
Produktionen
Sendungen
charakterisiert
Höchstgeschwindigkeit
Schöpfung
RC
Sez
ps
##sted
Verfolg
##eburg
Quar
Adapt
großfläch
##istenten
##sprüchen
vertrau
Helgol
interne
staatlicher
Justus
richtige
##apparat
Kreide
schottischen
Scheitern
BC
hängen
##arier
auft
##weide
##ulierten
##hals
Projekten
Grass
Manip
227
##inenten
Silicium
##feldern
Kreuzes
zeitgleich
Netze
seltene
christlich
##zufrieden
elektrischer
MiG
Restaurants
Oxidation
Chromosomen
vorderen
Varietäten
##bewusstsein
935
Enden
##useum
##einigt
209
##adung
##vergenz
##schaftlichen
##kehrte
Luftf
Videos
Oldenbourg
Brennstoff
Caroline
Kohlenstoffdioxid
Echo
heftigen
Antennen
Mallor
Mülheim
Antisemitismus
Sas
sorb
##stüm
##ahverkehr
Geoff
Geologe
##ride
##attungen
Phill
Kurven
zusammengesetzt
Buchholz
Rhön
Universitätsbibliothek
Vereinbarung
Gewichts
Matthew
##historische
beherrscht
ordnete
thematisiert
Monroe
Hern
User
Vá
##tafel
##isions
##andie
Abbruch
##objekt
##ophys
betrachteten
##testament
##kalk
Hölle
horizont
wiederhergestellt
Manuskript
030
halt
##reifer
##reden
##idian
##antrag
Katalys
Dynamik
Bulle
Barbarossa
Einschränkung
bewaffneten
Kepler
680
Có
dick
##einnahmen
##ehnte
schul
Ausflug
##elsdorf
##main
241
##konst
##gewichts
Merkur
Dorfes
Blasonierung
Befestigungs
Helsinki
Installation
Merseburg
DT
##nig
##krebs
ereig
Veran
##ehaus
##endorff
##presse
Persien
entspringt
Geldern
Würfel
Säkular
beschäftigen
Optik
Metzler
Reichskanzler
erforscht
Westfälischen
Pö
Two
##reifung
veraltet
##ruh
##äres
1630
Regelmäßige
##reute
214
##shire
Domen
002
Renate
##läufigen
längsten
Ilmen
islamische
Mobiltele
Außerhalb
##spolizei
Moskauer
aufbewahrt
Lauenburg
Ming
Pit
fliegen
##hron
##schaftlich
##län
##skont
##enko
Tepp
Desktop
Bedeutungs
Sulzbach
Fis
Gian
Haust
Rhin
Zelt
fre
weich
##rint
##fischen
Schale
nachts
##astik
Monaco
Zusammenfassung
##scheinend
##gehung
455
##organismen
1744
Geburtshaus
Tolk
mächtigen
Härte
täglichen
Vergrößerung
Gale
Lod
Pom
gregor
##pot
##ping
##mischer
##gebildet
Gleichheit
##zehnte
dtv
Söhnen
Maximilians
zurückgezogen
Strahlungs
Lebenserwartung
Fieber
Mick
RF
SH
jun
##stätigkeit
##ruine
1733
##richtete
sogenannter
Elektrom
herausragende
falschen
göttlichen
Vorarlberg
Isen
Lehm
Nationalen
einbezogen
##ktiver
##abstand
##skammer
genutzten
Kompanie
Marktes
Branchen
beseitigt
040
Deter
Epp
Frid
Nerd
Obr
Pablo
Uruguay
##ril
##nord
##schütz
Aufersteh
##kong
Arbeitsplatz
Brühl
Solingen
462
Denkmäler
Prozesses
##spektive
##komponist
gewordenen
Nahverkehr
Jahrzehnt
Anmerkung
konservative
Synthes
Weichsel
Knapp
##terg
##dere
##ingern
1734
Chang
Flash
Neujahr
späterer
Willens
Sitzverteilung
Fernsehsender
religiöser
Multip
lineare
verabschie
Bibliotheks
Chaos
Nibelungen
Beine
##rement
##findung
##xt
##urteil
##verz
##tellekt
1722
Bou
219
Lasten
Fahrten
Ludwigshafen
428
hervorgegangen
1683
##betriebs
Gelegentlich
gutes
Pokals
Eugène
Daimler
Boll
Nymp
gramm
##osch
inneh
##otin
überzeugen
##izz
##thoch
Manchmal
Sozialdemokraten
Projekts
Empfangs
Katholischen
##wähnungen
##fristige
##vorsitzenden
##stheorien
020
830
Rall
balt
##ving
##enburg
##ading
Herod
Umstellung
Langstrecken
Flusssystem
organische
1689
Kosovo
Siebenbürgen
Aragón
##meldung
Berechnungen
BP
Hort
Krater
Your
##phr
##ierbaren
##umfang
schles
mancher
Emma
Erfolgs
unbekannte
gehoben
Empir
Äquator
Jefferson
Gotthard
Alaska
If
Zag
##éra
erstellen
##reben
anzunehmen
##uläre
bezeugt
ISS
##aufsicht
##aca
Sho
Rücksicht
Kleinasien
1685
##ristal
Zivilisten
Anklage
##gregation
Freiwillige
Bedeutende
weitestgehend
Mobile
Nichts
Teu
##kä
##yram
zut
verfolgen
georg
Bertels
Mitarbeit
Flammen
genutzte
##projekte
Betrieben
Seither
Beleuchtung
Streck
Preises
Unterscheidungszeichen
verkürzt
bürgerliche
Tiberius
940
Enten
Lay
harten
morph
##genes
Verse
Großraum
Indiana
Durchsetzung
geschäft
Arbeitsplätze
variieren
Hilfsmittel
##regelung
besiedelten
##öffentlichen
Heter
Nathan
Veit
jugoslaw
kin
lett
##mingen
##card
##−1
##ungl
geographische
1520
Amadeus
USS
Grundschulen
##otti
Wasch
Natural
Knaben
Const
Achim
erforderlichen
geringem
Agent
Railway
Hegel
Mächte
Yang
jap
sy
##szene
Spalten
seitlich
Qued
Klassische
Liedern
Viola
Klagenfurt
Rache
doppel
##eiht
mitten
vernachläss
Analysis
##röhren
Nordhausen
##ondo
german
Volt
Bildnis
244
Warte
Geburten
Tauber
reagierte
Lufth
Unterrichts
##feuerwehr
Battle
##ground
Staatsoberhaupt
einzusetzen
PM
sitzt
##igon
##berater
##rüse
##ikerin
Fly
##baumeister
Stade
Blättern
Teilnehmern
##ansa
##ämie
nahen
##alisation
Krisen
Brück
Regierungschef
##emittel
Option
überwinden
Verlagsgesellschaft
##mischung
Amphib
Souveränität
760
AK
Leichen
diff
pre
##kru
##mak
verfassten
auftau
##ripp
##beere
1721
bestattet
Bundesstaates
##wendungs
Partikel
##leihen
##utton
3500
Gottlob
Sommerspiele
Kurzfilm
Libanon
verlorenen
Kubik
Khmer
Oxidations
Gläubigen
720
Fag
Letzt
Pick
WW
Wats
bir
##tisch
##enne
##isz
Schlachten
Begleitung
Glanz
Wasserkraft
Bandbreite
südöstlichen
Gesetzgeber
Düsseldorfer
Bibliothekar
Saudi
Linguistik
Bedeutungen
Untertanen
Reutlingen
Rugby
Referendum
Bitter
Fetts
Kansas
Neil
pu
ritu
sec
##bon
##ikeln
Schilling
verteilen
1580
folglich
Kirchengemeinden
frühesten
entstehende
Ballungs
untersuchen
linearen
sechsten
Access
nachhaltig
##fränkischen
##mahl
##cing
##rainer
##einführung
Stirn
##ärmer
##barungen
Theo
##reuer
Thess
lieben
Stevens
Straub
Manifest
##sstruktur
Gesteins
Heiligt
Paare
##schlags
Eigentums
Mariä
##münzen
Neutralität
Unicode
Japans
Bindungen
Oberg
Zorn
##QL
beweisen
##anto
##schwemm
Provence
Duden
Tee
Waldemar
##begriffe
habsburg
Naumann
Raimund
Lör
##anu
Scha
bekamen
237
##ozo
##ozent
Chemische
Kohlhammer
Titus
Annex
Motivation
südwestlichen
Authent
MR
##einden
Schuster
Einwei
##öniz
1670
Revier
angels
Hochhaus
gesteuert
elektro
Kriegen
##iatische
##psychologie
NGC
Laf
Lymph
Wi
##fG
1717
30px
Weiz
247
Bahnhöfe
426
##technische
375
Singapur
##spannungs
Landwirtschafts
Konzeption
passiert
total
juristische
archäologischen
Gruppierungen
erzeugte
Engineering
Manhattan
Hockey
Kei
Nash
Popp
zerb
Cho
berief
Magie
weitreichen
Alexandre
##frank
Industrieller
Community
inhaltlich
Bautzen
Guillaume
Reliquien
Hudson
verwechseln
##GA
##artement
##beer
Abhandlungen
1723
##mittler
gestattet
bewirken
Balthas
Ökos
Programmiersprachen
künstlichen
archäologische
Shaw
herkömmlichen
nap
##amorph
##rox
ausgenommen
genetische
Überprüfung
Heiner
Erstflug
Kleiner
offener
English
lautete
##osphat
Secur
Schöpfer
super
Hauptsch
Tyrann
##dimensionalen
929
Biss
Britann
Katze
Lon
Lärm
wendet
##darm
##ithe
gefasst
##ransp
Ausschnitt
Abfluss
Gelder
Volkspartei
##bezirken
erfolgreichste
##schmutzung
anschließende
##emarie
##sbildung
Schmalspur
BASIC
Unterdrückung
Fem
Furt
Kred
##sor
##uras
243
Zweites
##rikte
Canal
angelegten
meiner
Verwandte
##play
Bangkok
veranlasste
nebst
Quedlin
Bde
Hütte
KV
Put
singen
##männer
Anal
1710
##auflösung
##acy
Silver
Marienkirche
Platin
Mechanismus
Mobilfunk
konstruiert
Nicholas
##effizienten
Ik
Sorte
Trie
1519
Niederländischen
Islands
Dider
ungleich
Place
150px
Kabin
##zusatz
##ringern
biologische
DVB
ägyptische
Zeugnisse
##krankheit
Mexico
ETCS
Singen
Watten
pan
##order
##alische
##ensatz
##astas
konkret
234
Bisher
##hauptmann
1746
##berechtigung
Aurich
Weisheit
Rassismus
Eschen
Gag
Kna
Tarn
Mitch
##erklärung
Chart
1635
##alente
##flu
Esc
klare
##konzern
Kindert
##ification
Chinesen
drohte
Süßwasser
Südostasien
leistete
775
ME
go
##ök
##OT
gebauten
Erschließung
Maya
##gren
Thun
Seer
229
##trennung
Wolga
Austin
Afric
Dritter
Alessandro
Magnesium
560
Cec
Gay
Neigung
Schrauben
##gebet
Chore
Phoen
gewer
##gangene
258
Gütern
hinteren
Wenige
Download
Erbfolgekrieg
Sé
Tah
##isst
##istoren
##imin
Stadtrechte
##ifa
Branden
Fluggesellschaft
zeitliche
Fußballtrainer
1707
##bewerber
Kameramann
Dekret
##wesend
Missbrauch
entdeckten
Illustrationen
##spezifische
Recklinghausen
Plin
ell
##mile
##x1
##eug
##ules
Ert
Spre
Aufnahm
1736
1610
begleiten
Edison
Lebensmitteln
##rypt
##läufige
##bekämpfung
Avant
##faltigkeit
Taxon
Niederschlags
Impulse
Zensur
Faschismus
Belle
Faden
Gunsten
LC
Ökonomie
##wild
##abelle
beigetragen
seinerseits
##ptions
##übersetzung
Democ
Metalle
ähnliches
Wortschatz
Gefecht
Offensive
ausgerufen
israelischen
Balthasar
Fib
NE
Pist
Räuber
Tox
##df
##norm
##metz
##ether
schuld
Kling
##oldaten
306
Stuck
899
Vermeidung
Achille
Gallien
Faser
##waffnung
Verstärkung
verklein
Modernisierung
##gymnasium
annekt
Biel
Bend
##sammlung
##zud
Stir
Verschl
##ichtungen
Genesis
Filmmusik
Textes
Hierarchie
##ventionen
Kriterium
flachen
Frühgeschichte
Bankier
marx
Griechisch
##rümm
Cotta
Einwanderer
Populationen
Gud
fünfte
##kupp
intellekt
##lehen
##route
##weitern
##imus
unternommen
abgew
Weltwirtschaft
##bringung
problematisch
darauffolgenden
Mountains
##wettbewerb
Heller
MI
Sorge
##elb
##eltern
##ausgleich
Progn
##obte
##werkes
Geruch
##sgruppen
Festlegung
Henriet
Zeichent
weltweite
Poesie
respekt
Mandate
##euchtet
konstitu
Teufels
überlieferten
Bertelsmann
Lamp
bos
##face
##ilia
Erasmus
1732
darzustellen
Filmografie
Skript
schwarzer
##ödien
Medizinische
resid
Castro
Utrecht
ethnische
sammeln
Schaumburg
gefärbt
##reffend
Clinton
Affen
Jó
Krupp
Nations
fär
hob
##äuß
durchführen
Vorrang
Michigan
Personenverkehr
floh
Halbfinale
gespalten
##kühlung
Bettina
Wäldern
Winkler
päpstlichen
##video
Rij
Witz
##note
##iöse
##moder
##iren
geschl
##pfe
##pferd
249
Atomen
Bereitschaft
##journalist
Substantiv
Dmit
Käfer
Lesen
kinder
##fungen
##egal
aufzubauen
Ertrag
Aufsehen
Landkreisen
zwischenzeitlich
252
##haltigen
264
Roberto
Selbstverwaltung
Buslinien
##liederung
Ergebnissen
Rupert
ATP
künftig
plötzlich
Gase
Ratten
Ware
##öre
##olien
Intend
1540
##ctus
theologische
##öpfung
##verluste
Zwangsarbeiter
##roduction
magnetischen
Bedürfnisse
Tropen
Sächsische
Wisc
if
##leuten
##vie
##ktes
##onald
##irs
1727
##abetes
Südlich
##atorisch
Kras
Mittell
##chnik
593
Konkurrenten
glaubte
Betonung
NPD
µm
##bd
##ák
##rage
##ulationen
2000er
##beschleun
1737
##icki
Bloch
Gera
Heuss
##onsin
reale
Nebenfluss
Kuhn
Windkraft
McG
1747
Angriffs
##verletzungen
Services
gleichnamige
Magdeburger
osmanischen
Powiat
Rajon
Freiwilligen
Erhebungen
##schmidt
Eulen
Rä
ele
##euchte
Abständen
##afrik
Norddeutschland
stattgefunden
Herrmann
verschollen
Garc
Makedonien
##wahrscheinlich
ärzt
keltischen
mutmaß
612
SK
Torn
Tragen
##sommer
##bruck
##ées
##ří
Steinen
##reaktionen
Mitter
1435
Grundsätze
305
246
Interess
Irm
Humor
Inno
##kulturen
Schallplatten
Garnison
Fächer
Lion
With
##aman
##oton
Richtungs
##afrikanischen
Sachs
Offenbarung
charakteristische
Jenseits
Eröffnungs
Ariz
Toren
förm
##scheide
Alleg
Auslöser
##ouard
Christliche
405
Motors
Korb
##sprachig
##kurve
umfassend
geschaffene
Himmelsk
behandeln
##molzen
Dillingen
Ltd
Gärtner
##punk
##ej
##lia
verzeichnen
Sph
Abgaben
langjährigen
Dampfl
Bayerischer
##betriebnahme
Kalkstein
Ökologie
Chopin
Córd
AW
Sene
Tei
thr
##wurst
##erven
Schütz
Vergabe
##restr
Sprü
Steppen
Wirbelt
Betten
Hochstift
Burgt
##sportler
Poet
Auftrieb
scheiterten
Telekom
911
Sang
cal
##ivision
##iao
Vorschläge
##ovas
##bauern
Märkte
##sychologie
Renault
hervorgehoben
##rängte
Bezirksamt
präsentierte
Hisp
##menschen
Arter
Auszug
1560
Schleim
Hauptquartier
Christina
bedroh
Luk
##sprüfung
Suizid
##ministeriums
weswegen
##komitee
Hertz
tempor
Kaffee
Grönland
##intens
##schuh
##rond
Geographische
anatom
##ogon
##läufen
10−
Rousse
##ammler
Glyc
##konstru
##eignung
##ackt
Term
Generalg
Italienischen
kurzfristig
zeitlichen
Herkunfts
betriebene
##samkeit
Kommandeur
Argumente
umgebenden
Bemerkung
verwirklicht
Kaliningrad
Effizienz
ut
##spat
Advanc
Dean
Trasse
britisch
Schifffahrts
verkauften
Schleuse
Gefährdung
Käse
Hussein
Leichnam
Nim
Einheim
Volta
##ankung
Guang
Sünden
498
Diensten
Implementierung
Inszenierung
Huf
Pes
meinen
##enken
##störung
1729
##ofür
Entwürfe
Oberk
Print
entwickel
feststellen
Notfall
1705
Zwecken
gefährlich
Flederm
##relation
Alain
Ces
Säm
kHz
##vat
##bereiter
##aho
##spunkten
##ochemie
Aufführungen
langfristig
Rheing
Standpunkt
Dimensionen
Kreta
Zentralbank
1749
Weißrussland
##geburt
879
FL
Gom
More
ZK
glaub
1634
1667
Neuhaus
265
Luftbild
##abhängige
##rheinischen
niederländisch
Arbeiterbewegung
Chefredakteur
##asiatischen
##laster
nacheinander
Weisen
Haushalte
Sprachwissenschaft
jederzeit
Distribution
Trainings
Hauptdarstellerin
verleiht
Freedom
Tont
car
gi
##bär
##gow
##mayer
##št
##iege
##arsteller
##deuropa
##ingo
##ndez
Schweine
Westküste
Andy
Präsenz
##ivalenz
Mathilde
Autobiografie
Rasen
Zim
##yz
##mast
##def
##osin
Königlichen
Braucht
##legion
Paw
Paolo
erklärten
individuell
Nigeria
##fotografie
Kasachstan
Rüssel
##lett
##ößt
Stadtwappen
Chur
Gebrauchs
befreien
Monarchen
großzüg
##rechtlerin
##äufe
##kommando
Madagas
Hirten
Sichtweise
##grade
etablierten
gotische
begleitete
CF
Goten
kreu
##wang
veröffentlichen
##ulator
Einblick
durchquert
1570
geliefert
##blau
Sevilla
248
##fassade
schwäb
Rechtswissenschaft
Sozialwissenschaften
Austritt
Klee
Alexandra
Opernsängerin
Princip
engagiert
Irene
Wisconsin
##woch
##DI
##ierbarkeit
##verschiebung
1712
1719
Herald
Unterhaltung
##oux
Staatsanwaltschaft
hinterlassen
atom
Memoir
Century
charakteristischen
Verbesserungen
Hindu
Resultat
Stausee
evolution
##K32
##In
zuständige
##weihe
amtliche
##aufkommen
Neuburg
Landeskirchen
Bests
indoger
Festivals
##eigenschaft
gemeinsames
deutlicher
Agric
Treffer
Kaufkraft
##tentwicklung
Platons
Baptisten
Chirurg
überprüft
Goebbels
Münd
Oppen
##wetter
##mlich
verringern
Vergessen
##obt
Bauzeit
Recher
Freiberg
##feldzug
Schmiede
Kommunistischen
Pilz
Laute
Elements
Zahnrad
Schleusen
Fotografien
kämpfte
gepflegt
##afrikas
278
Gog
son
Émile
##zert
##stunde
##orgel
eingetreten
##eti
erweitern
Schrei
##rament
Oberlauf
Suk
Gewinner
Malte
angesprochen
Creek
belgische
Ravensburg
Henriette
Cyc
Deich
Diction
Frit
Winden
greifen
##dischen
##samt
##jin
##TR
Gep
1725
##öthen
Prägung
Endung
Todesstrafe
Ausdrucks
Querschnitt
Dominikaner
##magnet
glauben
gemeinnütz
Deggendorf
##strategie
Resolution
Läufer
Toll
Wim
ital
##bier
##wände
##lehnt
##artz
1350
Kaiserzeit
Raster
Simone
Gymnasien
Judith
Pauls
Kampff
411
Dei
NL
Nig
Tub
nütz
##streich
ert
Inkraft
auslösen
dasselbe
Soest
Bode
Seels
##halbkugel
##ylogen
Rotten
Walker
Moses
Verdau
##ssysteme
Erwachsene
Ammoniak
Intensität
untersagt
Liquid
##iesen
Inland
Erlen
##apolis
Konkord
##zeichens
proportional
Trilogie
Ottos
Trade
Feldmarschall
Plac
##kundliche
Hugh
Preußische
fungierte
Tänzerin
Duch
brechen
thail
##lauer
Anliegen
##mersdorf
Auskunft
Abhandlung
##eistet
konf
Friesen
##schnell
ungarisch
Schweizerischen
##ielles
##filmen
jüngsten
unmittelbare
##katastrop
Zitate
Geschichtsschreibung
Konzerten
Kräften
Letzteres
Demonstrationen
Cow
Fink
NN
Nien
Sitzen
Trauben
hydro
##GS
##över
##ients
bezahlt
##ungslos
##liner
Immanuel
Vorzeichen
Reeder
beraten
besonderes
getreten
##agerte
##technischen
Protonen
890
527
hinterließ
Dialekten
Britische
Kultus
Pyramiden
Shuttle
Keith
Numer
##flieger
Erw
bez
Pfand
langem
Höll
Volkszähl
Gestapo
arbeits
Galile
Nicola
What
unveränder
Exemplar
räumliche
erlitten
eignen
Kempten
Eleonore
Montenegro
oblig
Buddha
Ziegler
Okl
UC
dichter
##dt
##käfer
denken
##ändischer
##versionen
Genua
##anstalter
335
Waller
Freundin
##motiv
TomK32
train
jemals
Umgekehrt
RW
RAM
Wurm
Zungen
potenz
##cum
Ermittlung
absch
Vorstadt
##anzahl
Muslim
gesicher
gebrauch
orts
Heerführer
ökonomische
Hongkong
jugend
Nacional
##bot
##gekommen
geführte
##illi
##leichung
##malige
407
Hansen
Litau
Dekan
selbständigen
##schwerpunkt
Ili
Ted
zivile
##83
##CH
##allele
besetzen
Festschrift
Historischer
##fernsehen
Senatoren
angebunden
startet
Alternativen
Mauritius
liberale
Reims
Übereinstimmung
ku
##sand
##tätigkeit
##faden
##steht
##schüler
eingeladen
##iliens
verarbeiten
Verpack
sieg
##ennig
Konsens
Unterlagen
Datierung
##deckte
##giene
Zwangsarbeit
deportiert
Pixel
Friederike
Córdoba
DP
Fj
Gug
Pink
Side
##äqu
##rosen
verank
bestellt
gesendet
Bande
Trommel
Bergisch
Hills
##festigkeit
##angehörigen
##konzentration
Lic
Valer
##storf
##ansprüche
##itations
##hed
Vorhand
Skandal
Franzose
vollen
Raumso
Frame
Präz
Freuden
dürften
Dennis
meldete
##bereitungen
externe
Kentuck
Kanzel
##skoje
Watson
932
Düng
Zunge
fas
kore
ziel
##bner
##iri
Gezeiten
##uston
Orbit
unbeg
##schles
##uropäische
##unterschiede
##gewehr
Motiven
##parteien
wechselnden
beginnenden
zugehörige
Animation
Konstante
Strömungs
holte
mess
##the
##ël
Kader
##0000
Berichterstattung
##iance
##aktur
##hinter
Neuss
Lebensdauer
##wertungs
verworfen
Carsten
Rotations
490
Kurzgeschichten
##kühl
Grube
begrenzte
Kurfürstentum
##vić
australischen
Ethnie
Sexualität
##istoire
Camil
Deuter
Kälte
Vig
Yellow
##VV
##eius
erfassen
Amar
herstellen
##max
gebildete
Bestätigung
Gesteine
Lübecker
Englands
Castell
##medium
##ijk
Summen
zurückgeht
Hungers
Plantagen
authent
Vanc
##lus
##tlicher
Berichten
Ausführungen
Rover
prot
Serben
Dreiecks
untersuchten
Ethanol
Triebwerk
Koordinat
##vogt
##wurzel
parteilos
Vau
kehrt
##iater
##dek
##netes
##sseite
##utzend
Westdeutschland
##volk
Gelehrte
Duo
##modus
Lateinamerika
Entertain
Ursprünge
Absolut
Pacific
Hugenotten
Loy
roter
##ortes
##gehren
##ombe
##lehnen
Anjou
Beschreibungen
##pfei
1675
Amplitu
Obersten
Betreuung
Sony
bestimmtes
Nebendarsteller
Säule
reiche
Secret
Erzbistums
Kupferstich
gescheitert
Angesichts
##eros
ausüben
##rädern
##haltes
wiedergegeben
223
Medal
268
##gegenstände
Silbe
Type
447
Jerry
einstigen
Gnaden
räumlich
vielfältige
Diagnost
Alab
Purp
Tut
Weine
##bab
##isters
##tschaf
##vergleich
schafft
##ollt
##ubstanz
Realisierung
Musikern
Landesmuseum
Weiterbildung
Brüdern
Volkst
Schriftenreihe
##unternehmer
Nahe
Rohstoffe
bauten
massive
##übergreifen
böhmischer
Abweichung
begünstigt
Neiße
DK
Vag
##lyn
verweisen
schöne
##rucks
kompens
Hannes
Heimatstadt
wesentlicher
Reichstags
schriftlichen
abend
Bundesverdienstkreuzes
Lörrach
Mür
viol
##aqu
##korn
##gio
##TE
verwiesen
##imore
##exper
Laura
Datenschutz
Italienisch
Aggress
##ühler
Innenraum
Normandie
durchschnittlichen
##blematik
renov
##verständlich
Liverpool
928
Rind
femin
##posten
##ochrom
##eilten
Kong
##owsk
##aufent
Überfall
bedienen
Reifen
Hansa
Knie
englischsprachigen
##sphilosophie
Diskografie
Panama
7000
verwandten
Nazi
Kommunalwahlen
Empfehlung
Skilang
GA
Salt
bäuer
##finden
Anwesen
##beob
##stellbar
Ausgew
##erkon
Vornamen
alban
##zucker
gesperrt
Graub
285
##ility
Trik
Peripher
Ernährungs
##produkten
Louvre
##hochschulen
nordwestlichen
##widrig
bundesweit
Miniatur
Tendenzen
Innovation
anzusehen
938
Pipp
##kle
##zz
Kasten
bisweilen
unn
##folgend
althoch
anged
Thie
Themat
Oberlausitz
Archae
Radweg
Titeln
Colum
##melde
Übergabe
Verteidiger
Sattel
##ielseit
denkmal
Bül
Later
##biner
Anweisung
##yman
##ference
Glock
Seew
niedergeschlagen
Farm
privater
Landtags
ständige
Tatsachen
##sbegriff
Violinist
zuzuordnen
Celle
Cache
Fact
Pech
fil
##atem
##names
##sat
##inchen
##arben
##ehel
##objekte
Ameisen
##phys
Bundesgerichtshof
Besser
Riemann
Vorderseite
Tad
griffen
kre
wofür
##sorten
##tat
##cla
##team
bewiesen
##ungsrecht
##duktion
Urlau
Niederschläge
Olig
##eigenen
##weiterung
existierenden
##sprojekt
##valu
bestätigen
verursachte
Evans
Gefühle
Nördlich
Westphal
Dmitri
Bomb
Flie
Kick
Led
Riet
##nie
aufs
aufkommen
abschließen
##eph
Umkreis
271
##eight
##schwester
Evangelium
##drungen
praktiziert
monument
postum
Arizona
AE
Eiff
Jetzt
dein
##DL
##anfang
alljährlich
##erda
Küchen
Paste
##color
Frost
Universitätsstadt
Wartburg
Valencia
Zeichentrick
Zähl
kogn
##situation
##kalender
##abschnitte
##läuft
Janeiro
Holmes
Clan
##schwanz
Stifts
Austrag
1690
Letzte
Arabische
Kriminalität
Paläont
Gisela
Gandhi
Umgangssprache
Heiß
Jama
Maut
lehrte
walis
Schor
##ersatz
Vorlagen
Gemäl
Bauhaus
gleichmäßig
##iftung
Funktionsweise
Dorfkirche
##wäss
Mikroskop
Kohlenhyd
Interpretationen
##zweige
Kriegsgefangenen
Pforzheim
gewalts
510
Fay
##drüsen
##pädagogik
##schle
geehrt
Ausstrahlung
Imam
1619
##skomm
Rechnungs
Pascha
425
erfolgreicher
Individual
Larven
Brothers
synonym
hindurch
##shöhe
Neptun
936
MTV
euch
trennte
##amar
zugerechnet
übergab
##blei
Beseitigung
Terra
fortgeschritten
Kurzgeschichte
Doris
verwandte
Winfried
protestantische
vorangeg
Jenny
Europameisterschaft
##nähe
##offen
##HW
##oslav
##rüder
##eke
kontra
Athl
##konvention
häufige
Alexanders
##affenheit
484
Dienstgrad
Zivilisation
Haltepunkt
rechteck
García
Sächsischen
WS
##bol
##teste
##ikers
ausländischer
beauftragte
Bauteile
##strang
erschwert
##yrus
Generalstab
Doms
Helen
Puerto
Erzbischofs
##genössische
##teleskop
stellvertretender
Lufthansa
Esk
Hod
##lis
##hütten
##falen
##enberg
##atmosphäre
##ibal
1524
Siede
Flotten
Blanc
Reichsb
ungeb
weitem
fluss
Halbwert
##würdig
Mittlere
##münze
örtliche
beitragen
Wayne
Homosexualität
Rätsel
Innozenz
Inkrafttreten
Belt
Dunk
Ewald
myst
##woche
##itime
##spitzen
##abbau
Betreiben
Perry
Sportverein
Präpar
Achter
1697
Stärkung
verkündet
Hildebrand
##ripte
Abbey
Phoenix
Oklah
Gürtel
##feiert
Vorherrschaft
##bauweise
Neukirchen
Zuständigkeit
Record
Bolschew
studieren
Stellenwert
Reichenbach
Rebellion
Cux
Fuss
Lichter
Qing
fließ
##ühlen
##ados
ausges
##erkirche
1726
Monster
##ältigen
##brüchen
884
##grenzt
optisch
Luthers
Kollektiv
erzeugten
inspiriert
Freg
Käufer
Wann
bist
fördert
##theoretiker
##iton
Schimmel
##verhandlungen
##ingte
##rane
##ausstellungen
deutschland
gelebt
Wilden
313
Statuen
kontinent
entfernen
Volleyball
cl
patri
sächsische
1739
15px
1625
##ophag
##setzungs
266
Haff
Merian
Sprachwissenschaftler
Psychiatrie
Heimatmuseum
Melch
längst
Habilit
arabischer
##beamten
langsamer
Galileo
Fichten
Mist
Natal
Vamp
gall
##yph
intra
##lez
durchgängig
umzu
Zeitgeschichte
##ianismus
##iose
Neffen
Dix
Hilbert
Miles
eröffneten
Meisterschaften
##ähnlichen
Toledo
Protesten
Hendrik
Coup
##freunde
810
Hog
##áz
##ulose
##pfte
Gesichts
##zugehörigkeit
Fahrplan
Heiliges
Warburg
ermor
Insulin
Canada
angelegte
Katholizismus
willkür
Dicke
##bezogene
Schwäbischen
absorb
dunkle
Damaskus
##kathol
##CN
##igne
Verab
beeindruck
Administration
Schleier
eingeführte
Andalus
Sudeten
Psychologe
formale
Dichters
1709
halbe
Telef
Marxismus
##biologie
Paula
Explor
multipl
Psychoanalyse
Whe
fin
übersetzte
##itta
Minen
Kommunismus
Epos
Finanzminister
Armenien
Eidgenossenschaft
Vokale
##bereitschaft
Polizisten
Einweihung
Comb
fasste
nad
##kondens
##schne
##spanne
##ragten
##ourg
303
Zweibrücken
Magic
südkore
Würd
356
##preises
Zitad
BRD
revolutionären
Konjunkt
abgetrennt
verkündete
##pulver
Naum
##bass
##oj
##zungen
##ications
Marqu
##vorsteher
gerieten
Kunsthalle
Historien
Hoft
Wissenschaftlern
Reiner
Fürstent
Puppen
adapt
Jünger
##merkmal
Usurp
Mausoleum
Tunesien
##skapelle
Befürwor
dunklen
Soundtrack
Rallye
##pend
##schema
Ink
Alemann
##ature
Angola
Haare
Jugendstil
deutlichen
##arbeitungen
##techniken
Transit
Appenz
Befug
##kontroll
Flaschen
erleichtert
Dinos
Fichte
gif
kaufen
ras
trin
##yi
##enke
##aland
Scholl
Oberschicht
##schneider
Haller
Flughafens
Terz
##athlon
Samtgemeinde
Ephes
abwechselnd
Jel
Mum
##osynthese
Stadtgeschichte
bestraft
geleistet
Renov
Subs
Committe
1704
versorgen
Wesel
Kenia
grav
Titanic
kultiv
Equ
##pos
anim
Mitteilungen
spiegelt
##gebühren
Chann
##formung
Begräbnis
Genitiv
Wirtschaftswissenschaftler
Diskrimin
642
radikal
trockenen
Schauplatz
amtlichen
##märkte
Grabstätte
ausgedehnte
Domenico
Entertainment
Nancy
entschloss
1711
Unterzeichnung
##atti
##ssatz
##glied
Christlich
301
Induktion
Wasserversorgung
##fallenden
401
##ilton
##ropie
345
Proton
nordöstlichen
##ucle
ziemlich
##kontinent
Zirkus
Denkens
Franziska
Lokomotive
##milch
Prädikat
Prophet
Unmittelbar
wann
##eau
##Te
##indlichen
Spalte
stabile
##izite
alp
Schriftzeichen
Rept
letztendlich
Jakobus
##ajor
Kombinationen
rückte
Mühlhausen
Hüg
Fasten
steigenden
Bemerkungen
Bentheim
externen
gewünschten
Rafael
Nixon
Spencer
Gegebenheiten
satir
Bestseller
Cul
Sina
Vektoren
Wals
ok
tö
##arg
einges
##ilfe
2022
Anwalt
berg
##acc
Drey
Physiologie
##kopplung
##BSD
##aldehyd
tödlich
alliierten
Kentucky
Gers
cap
e4
##fi
##anschlag
Einsätze
##ausstattung
Spätestens
1679
Entgegen
Norddeutschen
Bildes
Urteils
Fahrgast
Inselgruppe
422
Reduz
Schwefels
##ölln
Second
##gräfin
chilenischer
Kambodscha
GL
Igor
his
pp
##fliegen
##82
##annung
sieb
1665
Sports
Kleinstadt
Böse
##gegner
Dramatur
geistliche
Cels
EW
Giro
Sri
Sno
Wessel
boten
dB
tur
Éd
##egon
Chrys
##profil
Vertrages
Moers
Salzw
Luz
Akkorde
395
Ehepaar
Stiftskirche
Canter
Parallelen
globale
spezialisiert
Diogenes
Exekutive
Bartholomäus
Codes
Dement
Kassen
Luch
metr
out
##pläne
##hoven
##imet
sobald
Sais
ernähren
chemisch
Napol
##kolonie
Vögeln
Futur
##einflussung
hilft
Madagaskar
610
RM
pa
##dal
Scheidung
Pole
261
351
Spruch
Santo
Flaggen
Ähnliche
Rehabilit
##sbetriebe
Bratislav
Tacitus
HSV
Lah
MO
document
##ngrö
##irr
verhält
##riden
##odont
1718
unbesch
Hauptstraße
Konzils
##monaten
Merkmalen
Kosm
Grammy
Europäischer
saniert
beschleunigt
Beschleunigung
Halberstadt
Akzeptanz
Vancouver
828
Tup
graph
kna
vs
##nend
##ст
##oris
Vermarkt
Abgabe
Ents
##geschnitten
verbündeten
Münchener
Bergmann
Beiträgen
organisieren
vereinfacht
Säuren
jegliche
Klerus
Iserlohn
Spandau
Mallorca
Bingen
C64
Iod
Kehr
Kid
Pegel
Pump
serv
##klang
##übte
##aré
##amas
Versen
##ims
student
1672
##queren
##hängt
Gelenk
Korpor
Kernel
##knochen
Garde
Louisiana
Verbandes
Restauration
Predigt
FIFA
Nase
Rust
WHO
orange
##dn
##tenden
##ilis
Schalen
Inspir
entfällt
##wied
gesonder
Handwerks
##regional
Diabetes
Dual
spezieller
Gesamtbevölkerung
Goldmann
894
landete
Lorentz
Zerstörungen
populären
symbolisiert
Sensor
Meyers
Helgoland
Lund
baut
##SI
##seek
nachvoll
stadt
##zenden
1716
##enzahl
USPD
Requ
Monitor
Schweiß
Volkshochschule
schwachen
Montreal
Blaue
Tempo
Industrieb
körperlichen
Ventil
Sezession
kandid
##ao
##cas
##cts
Inbetriebnahme
Einbau
Anpass
##iav
##swege
Brüg
westlicher
existent
Andersen
590
##kontakt
Burgenland
Feiertag
Holding
Behandlungs
inhaftiert
Cis
Fahne
Larry
Wut
we
##rufe
##kum
##O4
##ер
zugeteilt
##ärzte
##amment
##ified
Thy
##hörnchen
##ophil
hierarch
##schnitz
272
##holen
Maxwell
emigr
Pflanz
Weißer
##zutreten
korrespond
Symmetrie
systematischen
Tempels
Forstwirtschaft
Munition
Benzin
##stöße
strengen
Ahmad
Pfadfinder
Ontario
##kröten
Galilei
Trupp
gold
rau
##ueller
##mill
##schwa
##schale
##ckten
##grat
##iedler
Kunstwerke
Warren
##lassungen
Türen
Kenneth
Befehlshaber
vergleichbare
Ballon
zufrieden
dauerhafte
Geschwindigkeits
begrenzten
auftretenden
Praktiken
Sassaniden
Oklahoma
Herne
Leid
Treue
sendet
##kisch
errech
Schaltung
Gefolg
stei
##bleib
Afrik
weißer
Naher
herrschen
Schnittstellen
Nepal
Düren
nötigen
##abtei
Euch
Ett
Rank
##glau
erbauten
steigern
Obere
276
Schnitz
332
##legenheit
identifizieren
Hoheits
Segment
Pelz
kostete
Hasel
ägyptischer
bevorzugte
Antriebs
Größte
##embles
939
Aram
Wrest
lim
##aats
Anläs
begründeten
Wiedergabe
Zielen
Campbell
bayerischer
fungiert
Größere
Broadway
Häuptling
765
Cyan
rob
##trieb
##anks
##istry
##ausenden
Nachwort
Wiese
kleinerer
004
Kurzform
Tschern
Rotenburg
Quantenmechanik
##verteidigung
alphabet
Schindler
Plinius
Bok
Favor
GER
Xi
##rassen
##AV
##inform
anscheinend
Abfolge
##pfad
##aufgabe
##gelehrter
befasste
Scale
Werft
Frédé
bildenden
Simulation
Gegnern
Murr
Zukunfts
geringfügig
Bard
EF
Word
Xin
pour
einnehmen
##omet
warm
Anwender
1526
1621
altes
begründen
##automat
Angriffen
Bestes
##langer
Gewohn
Know
Katast
würd
Methyl
Kritikern
Absturz
konzentrieren
##strafen
erleichtern
Physikalische
Bretagne
Quedlinburg
BE
Dritt
Dutzend
Jorge
andern
mi
##gürtel
##Script
inkl
Schräg
Verden
##tschuk
abt
1521
Quin
##forum
Niederländer
Eisenzeit
Suite
Raumes
Palma
##betrag
Kritiken
Passagen
Feldern
formell
1609
Tauch
Kaiserk
1598
Nahen
Limes
unsicher
Landtagsabgeordneter
sichtbare
eindeutige
selbständig
Modells
diplomatischen
indigenen
Ochsen
geprüft
verfilmt
378
Klä
Katz
Pert
##fließen
##undent
Einerseits
Spons
##beauftrag
##icy
abgetragen
decken
##ophonist
zurückkehren
benutzten
Kapellmeister
Italiener
##gotische
Dalmat
magnetische
Geisel
##kandidat
Streik
##christlichen
geheimen
Aub
Azte
Lanz
öfter
##dok
##hüll
##xd
##cho
##testen
Scharf
mitge
Verschluss
##ulu
Stadtplan
Roter
##acter
Neon
klassiz
formalen
Theresia
1656
integrierte
Schmerzen
Wallenstein
924
Ahl
Fi
Tach
##ân
##anum
##anga
##ören
Abspaltung
##geborenen
##alsystem
Oberhaupt
##brenner
Gerü
Junior
Partizip
##oney
Heimatforscher
Roboter
##üchter
Leuchtturm
ablehnte
Korrespondenz
Giacomo
Alabama
835
Ril
bsp
lehnt
##arder
##omi
erlo
##seen
verlangen
##epte
1638
##atta
##attle
wiederauf
304
Landesbibliothek
Gray
flog
Paradox
schweizerischer
Cert
Carbon
C128
Menn
Tannen
punkt
##hülle
##genau
##ulations
##abschluss
##ungssystem
überarbeitet
umgerechnet
schildert
##idor
1628
gesunken
wiederkehr
##manent
##ogenese
Eiskunst
Salix
Computern
Helfer
Britischen
Vernichtungs
Kommunalpolitiker
intensiver
ausgeprägte
betriebs
Jubiläums
##universität
Kammern
anwesend
1676
Volkskammer
Hosen
Palazzo
Löw
möglicher
1699
dominierten
Atlantis
Aaron
IEE
Vita
här
iron
##arest
instr
##olini
##aha
##abol
##ranke
stimmen
stiegen
schmal
Grig
##ocker
##maligen
Martha
Generalfeld
Politikwissenschaftler
Protocol
Thermod
Publikums
Casino
gewonnenen
Bewusstseins
Westerwald
wöchentlich
sciences
erläutert
Transkription
Omnibus
Hymne
Og
Sulf
##ин
Schokol
geschieden
1622
1637
Boots
Neffe
Freit
Steinmetz
Etabl
1590
günstigen
Algorithmen
Chiang
angeregt
zukünftigen
##äußert
wohnen
##ägypt
##erton
wirkten
gelbe
Bundespost
Building
##historischen
##befehl
Imperium
jahrhund
heftig
experiment
##ästhesie
Shen
einsetzte
erließ
Stroh
##spricht
Einstieg
##rupt
überein
hinreichend
Oberlandes
Urin
Metap
Studiengänge
##studio
Dürer
Stolper
kämpften
##vielfalt
Entdeckungen
##branche
Committee
jahrhunderte
875
Ci
Dod
Tunn
kristall
ruft
##oft
##nge
##cki
unüber
##ynode
Angreifer
Besied
antreten
##ikalien
Educ
Kolleg
Investition
Differenzierung
vielfältigen
ökologischen
Diözes
fiktiven
Cinn
Ekl
Gat
Gouverne
Uh
Zitt
##faltung
##zanne
Staud
##weih
Gewand
gerettet
288
Versand
Bergland
Demonst
Technologien
##druckt
Apache
plat
natürlicher
jahrzehnte
##ertoire
Neuerungen
doppelte
Karneval
Komit
Lus
mb
Übr
##differenz
##mium
##alistischen
##ellan
##ensk
##anzt
Angels
revid
europa
Cola
lateinischer
reduzierte
AMD
Fond
Garn
Kipp
Tann
Zak
##grau
##steigt
dieselben
gekauft
Erh
##otor
übers
Anweisungen
schönen
Berührung
späte
1631
1661
besuchten
Zuck
Nationalbibliothek
starkes
##betreiber
334
##wärme
hervorgerufen
Murray
Violonc
Bedürfnis
Wappens
##frankreich
Security
IEEE
Writ
milit
##ähm
##HP
Schemat
200px
##tett
##ographischer
Congress
Bewohnern
Computerspiel
Maximum
Avignon
Dramen
Michelangel
##braun
Beratungs
Medikamente
Batterie
Verurteilung
Echtzeit
Filmemacher
Determin
820
LIN
##kana
##uman
##sperr
##okles
##ändes
##quel
Schwere
##zuhalten
##ouis
Hochland
##sstelle
Jahresende
belastet
Langob
Machtübernahme
Endspiel
Pilze
Lutherische
##intendo
materiellen
Square
riesigen
Skirennläuferin
##befestigung
416
Lid
Nintendo
Orang
kalten
##alan
Ald
Orle
##tempor
Westgoten
##wirtschaftlichen
##inta
##wahlrecht
brut
##gorod
Göttern
asiatischen
public
Fourier
fühlte
866
Brau
##su
##kristall
##deb
Inquis
ausnahm
abgeben
1572
Schwankungen
##wendbar
Schuldner
Juristen
Ordin
autobi
Muschel
Brems
Variation
beinhalten
##ringerung
Schönen
Lancaster
Angestellten
922
Cun
Hech
Jin
SMS
TSV
##signal
##him
##anfall
Erden
berührt
##hören
##olds
##sgründen
Südoste
geboten
Basic
Würz
Tora
Classic
hessischen
Sämtliche
Rag
##ód
Alarm
##hunde
##iftete
Brabant
Romeo
Reif
bescheiden
Fahrbahn
schwache
gestrichen
Carac
##orsam
Bird
Völkerrecht
Marseille
Substrat
Diktator
Aktiengesellschaft
Diplomaten
Zitadelle
GM
TM
Tes
Tart
Weichen
##sbr
verblieb
gleichgesetzt
Sainte
##rive
##oxy
Waldes
Operations
1559
kommunistische
männlicher
Betriebssysteme
Pieter
Göpp
##elektronik
kapital
Kreuzer
Skirennläufer
Biomasse
Überwindung
Mesopotamien
Fé
Gó
Hühner
##bist
##carbonat
##geheim
##genannten
##ikat
[...]
