[PAD]
[UNK]
[CLS]
[SEP]
[MASK]
!
"
#
$
%
&
'
(
)
*
+
,
-
.
/
0
1
2
3
4
5
6
7
8
9
:
;
=
>
?
@
A
B
C
D
E
F
G
H
I
J
K
L
M
N
O
P
Q
R
S
T
U
V
W
X
Y
Z
[
\
]
^
_
`
a
b
c
d
e
f
g
h
i
j
k
l
m
n
o
p
q
r
s
t
u
v
w
x
y
z
{
|
}
~
¡
¢
£
¤
¥
§
¨
©
«
¬
®
°
±
²
³
´
µ
·
¸
¹
º
»
¼
½
¾
¿
À
Á
Â
Ä
Å
Æ
Ç
È
É
Í
Î
Ð
Ñ
Ó
Ö
×
Ø
Ú
Ü
Þ
ß
à
á
â
ã
ä
å
æ
ç
è
é
ê
ë
ì
í
î
ï
ð
ñ
ò
ó
ô
õ
ö
÷
ø
ù
ú
û
ü
ý
þ
ÿ
Ā
ā
Ă
ă
Ą
ą
Ć
ć
Č
č
Ď
Đ
đ
ē
ė
ę
ě
ğ
ġ
Ħ
ħ
ĩ
ī
ĭ
İ
ı
Ĺ
ĺ
Ľ
ľ
Ł
ł
Ń
ń
ņ
ň
ŋ
Ō
ō
ŏ
ő
Œ
œ
ŕ
Ř
ř
Ś
ś
Ş
ş
Š
š
Ţ
ţ
Ť
ť
ũ
ū
ŭ
Ů
ů
ű
ŵ
ŷ
Ź
ź
Ż
ż
Ž
ž
ſ
ƒ
ơ
ư
ǎ
ǐ
ǒ
ǔ
ǫ
Ș
ș
ț
ɑ
ɔ
ə
ɛ
ɪ
ʃ
ʊ
ʔ
ʕ
ʰ
ʷ
ʻ
ʼ
ʾ
ʿ
ˇ
ˈ
ː
˘
˚
˛
˝
́
̲
Α
Β
Γ
Δ
Ε
Η
Θ
Ι
Κ
Λ
Μ
Ν
Ο
Π
Ρ
Σ
Τ
Υ
Φ
Χ
Ψ
Ω
ά
έ
ή
ί
α
β
γ
δ
ε
ζ
η
θ
ι
κ
λ
μ
ν
ξ
ο
π
ρ
ς
σ
τ
υ
φ
χ
ψ
ω
ό
ύ
ώ
А
Б
В
Г
Д
Е
З
И
К
Л
М
Н
О
П
Р
С
Т
У
Ф
Х
Ш
Я
а
б
в
г
д
е
ж
з
и
й
к
л
м
н
о
п
р
с
т
у
ф
х
ц
ч
ш
щ
ъ
ы
ь
э
ю
я
ё
і
ј
ћ
ա
ե
ի
ն
ո
ր
ւ
ְ
ִ
ֵ
ַ
ָ
ֹ
ּ
א
ב
ג
ד
ה
ו
ז
ח
ט
י
ך
כ
ל
ם
מ
ן
נ
ס
ע
פ
צ
ק
ר
ש
ת
آ
أ
إ
ا
ب
ة
ت
ث
ج
ح
خ
د
ذ
ر
ز
س
ش
ص
ض
ط
ع
غ
ف
ق
ك
ل
م
ن
ه
و
ى
ي
َ
ُ
ِ
ّ
ْ
پ
ک
گ
ہ
ی
ं
अ
आ
इ
उ
ए
क
ख
ग
च
ज
ट
ठ
ड
ण
त
थ
द
ध
न
प
फ
ब
भ
म
य
र
ल
व
श
ष
स
ह
़
ा
ि
ी
ु
ू
ृ
े
ै
ो
ौ
्
।
॥
ক
জ
ত
দ
ন
প
ব
ম
য
র
ল
শ
স
়
া
ি
ী
ু
ে
ো
্
ਰ
ਸ
ਾ
ਿ
ા
க
ச
ட
ண
த
ந
ன
ப
ம
ய
ர
ற
ல
ள
வ
ா
ி
ு
ை
்
ం
క
త
న
మ
ర
ల
వ
ా
ి
ు
్
ಂ
ಕ
ತ
ನ
ಮ
ಯ
ರ
ವ
ಸ
ಾ
ಿ
ು
ೆ
್
ം
ക
ട
ത
ന
പ
മ
ര
ല
ാ
ി
ു
്
්
ි
ก
ข
ค
ง
จ
ช
ณ
ด
ต
ถ
ท
ธ
น
บ
ป
ผ
พ
ภ
ม
ย
ร
ล
ว
ศ
ษ
ส
ห
อ
ะ
ั
า
ำ
ิ
ี
ื
ุ
ู
เ
แ
โ
ไ
่
้
์
າ
་
ა
ი
រ
្
ḍ
Ḥ
ḥ
ḳ
ḷ
ṃ
ṅ
ṇ
ṛ
Ṣ
ṣ
Ṭ
ṭ
ẓ
ạ
ả
ấ
ầ
ẩ
ậ
ắ
ằ
ẵ
ẹ
ế
ề
ễ
ệ
ị
ọ
ố
ồ
ổ
ỗ
ộ
ớ
ờ
ợ
ụ
ủ
ứ
ữ
ỳ
ỹ
ἀ
ἄ
Ἀ
ἐ
ὶ
ῆ
ῖ
ῦ
ῶ
‐
‑
–
—
―
‘
’
“
”
„
†
‡
•
…
‰
′
″
⁄
₤
€
₱
₹
ℓ
№
™
⅓
⅔
→
∂
∆
∇
∈
−
∗
√
∞
∧
∨
≈
≠
≡
≤
≥
⊂
⊕
⊗
⋅
█
■
★
♥
♦
♭
♯
⟨
⟩
、
。
《
》
い
う
お
か
き
く
し
た
と
な
に
の
ま
ら
り
る
ん
ア
イ
ク
シ
ス
タ
チ
ッ
ト
ド
マ
ラ
リ
ル
ロ
ン
・
ー
一
三
上
下
不
世
中
主
之
九
事
二
五
京
人
仁
会
你
侯
信
元
光
八
公
劉
化
北
十
华
南
原
古
台
史
司
合
周
和
四
国
國
土
地
城
士
大
天
太
女
子
字
学
學
安
宗
家
寶
將
小
山
川
州
市
帝
師
平
年
建
式
張
德
心
志
愛
成
我
手
拳
政
教
文
新
方
日
明
星
春
時
書
會
月
有
木
本
李
東
林
梅
楊
正
武
民
水
永
江
河
法
海
清
港
漢
無
玉
王
生
田
白
百
的
皇
真
石
社
神
福
空
立
經
羅
美
義
自
花
英
茶
華
行
街
西
記
語
路
軍
通
道
部
都
金
長
門
阿
限
院
陳
陽
集
青
音
風
香
馬
高
黃
黄
龍
가
고
국
기
김
다
대
도
리
사
서
성
수
스
시
아
원
의
이
자
장
정
주
지
하
한
ﬁ
ﬂ
（
）
，
～
##E
##P
##I
##o
##g
##f
##i
##h
##t
##n
##m
##e
##a
##u
##l
##r
##s
##c
##d
##O
##1
##0
##w
##k
##p
##y
##z
##j
##W
##D
##C
##B
##L
##V
##G
##A
##H
##R
##v
##b
##x
##S
##2
##ā
##9
##5
##ś
##8
##7
##6
##á
##é
##ü
##3
##M
##T
##F
##ó
##ר
##ה
##N
##q
##â
##ō
##ł
##र
##्
##ण
##ा
##ल
##о
##ј
##ν
##ω
##σ
##ό
##ς
##а
##л
##е
##X
##ī
##K
##м
##4
##ṣ
##ά
##τ
##ο
##š
##н
##г
##ä
##Š
##U
##ē
##κ
##Z
##°
##이
##J
##Ä
##ø
##వ
##ి
##త
##ड
##य
##ù
##ि
##म
##द
##स
##ं
##ی
##گ
##р
##п
##у
##с
##ë
##ấ
##Y
##û
##à
##ổ
##ス
##ラ
##ン
##ト
##в
##к
##и
##ь
##ц
##ă
##ž
##ć
##Q
##ǎ
##ú
##å
##ö
##한
##ç
##ń
##ਿ
##ਸ
##ṭ
##İ
##í
##ǔ
##č
##ב
##ת
##đ
##¥
##щ
##ě
##ḷ
##ร
##ะ
##ท
##ี
##่
##น
##ั
##ง
##ไ
##ช
##ย
##ุ
##ม
##พ
##ล
##ñ
##è
##™
##ş
##ί
##μ
##ı
##ो
##व
##े
##ι
##Ă
##ع
##م
##ا
##ر
##ū
##도
##ß
##ð
##ത
##ി
##ക
##്
##ാ
##ő
##ɪ
##ə
##⋅
##ن
##د
##¤
##б
##т
##성
##ï
##ా
##ర
##ం
##Ş
##ğ
##ė
##æ
##ル
##д
##ч
##й
##스
##ρ
##ु
##ध
##उ
##ṅ
##ũ
##ύ
##ζ
##α
##λ
##→
##ț
##ל
##ד
##א
##ɛ
##ে
##শ
##ী
##ḥ
##प
##क
##ष
##त
##Η
##Ρ
##ʿ
##ę
##ô
##س
##я
##ˈ
##ŋ
##Π
##Ε
##Β
##Α
##Λ
##Ν
##ſ
##ћ
##Δ
##া
##ť
##ُ
##ْ
##ي
##แ
##า
##บ
##ก
##์
##ป
##ด
##ξ
##Â
##ε
##˛
##ọ
##Ł
##ठ
##न
##ِ
##ل
##َ
##ّ
##ف
##ò
##ź
##Î
##ы
##ш
##η
##φ
##ه
##ê
##시
##Å
##ณ
##ส
##ว
##ห
##ิ
##ん
##ì
##ா
##வ
##ட
##ை
##ǐ
##ص
##ю
##́
##ন
##্
##দ
##র
##ῦ
##ṛ
##π
##್
##ವ
##ರ
##ಾ
##ಂ
##ý
##ತ
##ೆ
##−
##¸
##ą
##ŕ
##˘
##´
##Ą
##Ť
##ˇ
##ै
##і
##ː
##χ
##י
##¨
##้
##อ
##ื
##õ
##θ
##Č
##ব
##ু
##জ
##़
##υ
##ῖ
##δ
##έ
##ब
##ज
##ک
##ã
##ớ
##ו
##ן
##⊕
##ল
##ি
##ক
##×
##β
##з
##К
##ల
##్
##ụ
##ம
##்
##ப
##ு
##נ
##И
##פ
##ř
##아
##ग
##ी
##γ
##و
##ت
##ى
##भ
##ب
##ạ
##る
##โ
##ค
##เ
##ー
##¾
##ж
##ต
##ू
##ز
##ਰ
##כ
##ು
##ג
##ك
##Ś
##ผ
##ข
##ס
##ા
##ņ
##ﬂ
##ַ
##ษ
##ำ
##ș
##మ
##ʊ
##イ
##ʻ
##ਾ
##च
##श
##È
##정
##ج
##ة
##ằ
##ḳ
##ħ
##ש
##ק
##க
##ய
##ʔ
##Ĺ
##ṇ
##ク
##ض
##ɔ
##®
##ح
##ह
##ौ
##ट
##ח
##ắ
##り
##Ι
##Σ
##³
##ḍ
##ق
##จ
##Τ
##Ο
##Γ
##ῶ
##প
##î
##ृ
##ŭ
##ச
##기
##가
##ή
##ʰ
##ţ
##º
##צ
##ň
##מ
##ಸ
##ನ
##ภ
##ู
##ธ
##ʼ
##ё
##리
##지
##ṃ
##ɑ
##Ü
##に
##と
##ẓ
##þ
##マ
##の
##な
##う
##ĩ
##ศ
##ề
##ர
##В
##М
##С
##ʾ
##Ž
##Ż
##ം
##Ω
##ண
##∞
##Ó
##క
##న
##த
##ள
##थ
##ロ
##ְ
##ֹ
##ּ
##ி
##О
##Н
##Ö
##ư
##ợ
##À
##ǒ
##ಿ
##ன
##ъ
##х
##ż
##ﬁ
##シ
##ッ
##²
##ע
##É
##ִ
##˝
##ʷ
##ф
##ম
##ם
##주
##ش
##タ
##고
##ġ
##غ
##̲
##أ
##대
##ಕ
##ಮ
##Ź
##서
##½
##Ш
##リ
##ア
##ط
##장
##ễ
##ָ
##ῆ
##ի
##ո
##ւ
##ல
##ற
##Р
##Л
##ख
##э
##Μ
##خ
##Ř
##œ
##ந
##າ
##ถ
##ậ
##Æ
##Е
##П
##У
##Б
##А
##ψ
##З
##Т
##Я
##ա
##ր
##ե
##រ
##ა
##ი
##¹
##ơ
##ʃ
##য
##়
##ര
##ỗ
##ị
##Ď
##ữ
##ല
##ĺ
##ט
##স
##ত
##ố
##ů
##Κ
##ű
##し
##Đ
##˚
##い
##국
##의
##ứ
##≡
##ہ
##ờ
##Г
##ు
##ো
##ẩ
##ŏ
##た
##ĭ
##ľ
##く
##ὶ
##チ
##ώ
##ි
##き
##ả
##Ń
##수
##ए
##ന
##Ć
##ʕ
##Θ
##ẹ
##ǫ
##Ç
##ế
##µ
##ド
##√
##ֵ
##ു
##්
##¢
##្
##ذ
##원
##इ
##다
##ộ
##©
##ಯ
##ז
##≠
##Ľ
##사
##Ψ
##Υ
##⅓
##Ō
##ն
##¬
##ỳ
##Á
##자
##★
##±
##പ
##ủ
##ồ
##ث
##Д
##∗
##ệ
##ま
##か
##Φ
##～
##ら
##€
##ŷ
##Í
##ട
##മ
##Ñ
##ỹ
##आ
##ך
##£
##ầ
##♭
##¼
##إ
##お
##Ø
##Χ
##∈
##하
##÷
##پ
##फ
##آ
##⁄
##≈
##Ů
##ÿ
##Ф
##Х
##Ú
##≥
##ŵ
##♯
##अ
##ℓ
##♥
##∆
##김
##⊂
##≤
##ƒ
##ẵ
##∨
##♦
##Ṭ
##Ā
##ἐ
##Ţ
##█
##Ħ
##∂
##ἀ
##∧
##Ð
##₤
##Þ
##∇
##₹
##⅔
##Ḥ
##Ṣ
##⊗
##he
##er
the
##in
##on
##ed
##nd
##at
##es
##or
##en
##ar
##an
##al
of
in
##it
##is
##ing
and
##as
##ic
##ion
to
##re
##ro
##ou
##el
##ent
##il
##ec
##om
##st
th
##am
##ol
##et
##ac
##ur
The
##ad
##le
##ly
for
##iv
##ir
##ation
is
on
##ot
was
##ig
##id
##ter
as
##ow
##ut
##im
##em
##ith
st
be
##ay
##ers
with
##ul
##ts
##ch
##ce
al
##us
re
that
con
by
wh
##ver
an
##her
19
##os
pro
##and
##ag
##um
##ain
##th
##av
20
##ist
at
##ess
##ct
##od
##est
com
##ri
or
##rom
In
##op
##ab
su
##ap
from
##un
are
##if
##ies
##ect
##oc
##ear
##ate
##ity
de
ex
##ud
his
##ill
##ew
he
##pp
##ich
##ak
##ld
##se
##igh
##all
##ive
##art
##ard
##ort
ch
##ated
##ial
##ment
##ere
##ber
##ian
se
pl
it
which
200
##ore
##gh
##ia
were
##ant
##ong
##qu
tr
##ost
##ge
##ame
##our
##ical
##rou
sh
sp
##ov
not
##ell
##ther
##nt
St
##ip
##so
pr
##ave
##ary
##ine
Ch
##og
##ast
##ack
le
##ions
comp
##ust
##pt
also
inc
##ord
has
##ous
##ure
##cc
##per
##ome
cont
##ish
##du
whe
##ub
had
##ff
us
##iz
rec
##ans
int
their
res
##ight
##ue
##ra
fir
##end
have
en
cl
Th
##mer
##act
##ual
##ork
ad
ar
##ign
##age
##ations
##rit
##ie
##ould
##ence
##ass
rel
first
but
##mp
He
##ry
##fter
##ok
##ire
##ater
##ition
##ide
##ru
un
ab
man
its
app
##oll
this
all
##orm
one
##out
##ang
##ice
##ime
per
##own
It
##ance
other
##wo
##ond
##fer
##ib
##ult
201
##lud
##ound
##ory
year
her
##ely
part
##ach
been
ser
bec
Un
who
Al
##ep
dis
##hed
ag
##ree
##over
includ
##ents
can
##amp
##00
##ates
##able
##ace
##ile
##ced
##ens
sc
##ik
##tern
##uring
they
##ail
##ors
##erm
##ark
two
##ric
rep
##eas
##ount
##ational
##ade
##ough
play
up
##wn
##les
##ey
##inal
out
199
##ction
des
ev
##lic
over
##vel
comm
##nder
after
##ited
##ite
more
##ever
##aw
##ng
##are
##ces
##ember
On
into
##ind
time
form
##ose
##oin
new
##form
##land
off
##we
Ar
##ons
pre
##oy
work
##ild
att
##old
cons
such
##ied
18
##ob
##ress
used
sy
##ood
produ
exp
most
would
ind
kn
##ock
As
##ious
This
##rough
##aus
imp
when
##urn
##ath
te
##ft
##ular
we
##orn
##ings
##iss
##eg
only
##ev
him
bet
##gan
##one
reg
act
##orld
##res
she
##reat
##oth
under
bas
##ward
than
##ake
##rop
##ool
sec
##hn
Fr
cent
##eral
acc
##rib
##ick
##ted
Mar
inter
##ilm
some
##te
##ram
##eld
dec
sub
##any
them
##ank
198
Amer
fl
Com
##ved
so
Americ
New
##hip
ear
##ivers
##ook
gen
##ween
##olog
do
num
##ug
where
##oun
again
##io
##ten
##round
##ities
fe
ass
there
##ollow
Sp
el
##ement
##ific
ac
##ating
##ron
between
call
during
##ics
years
through
##ays
Sh
##ince
##red
pol
##ex
rem
##stem
pe
##owever
many
##ower
##ve
mod
##ism
film
inv
lar
##ix
def
made
##ters
##aj
##ase
about
##ann
pub
##velop
##ily
##yp
##overn
char
stud
##roup
##ife
ret
am
gr
##ines
mov
##ision
Ind
me
spec
releas
197
bu
bl
##ah
known
##als
end
##ished
##hy
loc
##fore
supp
An
##ict
pos
##hes
then
##ral
##ason
pres
may
##chool
##eb
dif
##ative
trans
##ery
##anc
well
found
being
follow
three
will
later
##ike
car
##iet
qu
##ually
##hen
prov
##uc
co
##led
pop
system
##ause
mon
##other
##ures
##outh
##let
##ection
use
##ury
##ution
develop
add
##ather
set
no
United
##ected
##ered
inst
mus
Le
##az
including
met
##its
Con
##tain
second
show
##ently
##air
team
##man
##au
##0s
##orth
dist
##ally
##ople
both
196
appear
##att
air
##ames
For
called
##ern
##ise
##ists
these
##up
sign
high
sur
##ros
##elf
##emb
number
record
while
Se
var
br
##aid
lead
own
count
became
par
main
##ized
##ived
##ole
##iew
group
##ins
against
eff
##ier
At
##bum
##irect
Jo
##inn
fam
##els
##rap
##overnment
cap
any
##oot
American
sing
10
##ically
##ton
dep
##erson
##ale
four
sever
##pen
ob
##ility
##rol
##uch
orig
##ren
oper
##ident
##ash
She
writ
sm
go
##imes
ne
##way
col
album
Eng
back
Pro
ext
serv
##ars
inf
##ible
differ
sim
##ange
##der
##ful
##ield
before
##row
min
art
series
est
Cl
##ek
long
##ially
people
##ting
Sc
Is
season
##sp
000
cre
##und
prog
design
##cept
perform
##ax
After
same
##ues
aut
##iversity
ph
Wh
feat
disc
bro
bel
##ets
rece
##enc
##ajor
##ives
resp
Brit
im
song
id
##aking
term
However
##ty
game
##ject
Col
several
dr
##ional
contin
released
##ural
##ient
##ments
name
##lished
States
world
##ouse
early
direct
##urr
Tr
Bl
##ium
government
based
15
Eu
##lish
##ects
conc
hist
17
##ull
Germ
##ices
##ntil
##ants
##ccess
mat
med
##uss
##ured
##ink
typ
partic
World
could
school
##osed
War
They
life
often
Pr
##son
##ained
ann
##vent
##iver
const
charac
##ruct
##ages
occ
##enn
##ober
war
Ad
rev
##ina
##ains
12
##cess
each
##though
##con
##erv
since
until
194
state
poin
##illion
De
##ird
195
like
because
##ology
##ll
run
str
major
did
##iam
Comm
requ
sl
##ided
gu
Europ
There
public
Car
16
mar
2010
power
John
##ired
music
##orts
##my
##pl
##ised
offic
##eng
##ued
##ital
##ph
##ley
program
##echn
small
Europe
mark
you
start
##ox
open
original
##pr
##rist
##amed
if
##ble
##ternational
success
band
organ
##ane
pass
##une
2011
care
century
vers
##ross
Pl
##ove
child
support
class
began
det
consid
Ph
ref
incre
final
eng
ever
##ians
##ert
##ute
ent
allow
2009
Or
now
US
city
red
general
2008
Aust
Br
return
May
different
av
##ai
##ract
##aim
2012
law
University
soc
head
##gest
##ries
day
coll
##ulation
##ograp
##omet
conf
area
##ode
##aced
trad
##oad
##urch
Can
All
person
very
fin
##iving
##aving
stand
##ission
equ
following
near
##por
include
around
##ene
even
##min
##gy
large
##ret
British
##par
cr
2007
##ior
said
result
desc
11
book
##ively
##ilit
hel
common
control
##ended
##embers
##oman
along
##ined
##ister
##ling
elect
old
examp
##ately
though
##ried
##ides
##oci
Be
hand
##ified
##iven
played
##ball
commun
Ex
build
land
prot
##oss
down
##aining
Ju
due
##ague
##af
##iod
spe
##get
##ody
##ording
tit
##ature
##itions
appro
##inc
##port
Christ
hum
##duc
##med
##ience
##iqu
##ner
still
ins
##tle
##ights
Dec
family
National
complet
cor
rest
Re
adv
arr
His
tel
##ival
##wards
lit
Jan
##ke
company
##ont
single
##atic
process
Mus
those
leg
##angu
million
##ization
dem
2006
place
members
em
poss
fact
South
ep
former
##ences
much
last
##ks
York
##raft
King
13
##oard
polit
##hor
level
born
cour
##ony
home
14
193
##ilar
##ven
character
##omen
##han
##ration
within
estab
Nov
bus
Gr
##hem
techn
opp
period
prof
left
sol
Sept
Aug
won
Man
##ged
El
##arm
emp
val
Cent
curr
II
crit
bre
import
##lex
##ator
pat
These
##ilt
When
present
##ger
water
##ison
September
##iness
August
event
##conom
##uary
line
##aly
North
exper
just
Am
##ats
Par
##akes
another
popular
Ge
##ency
##ench
using
what
##ored
refer
Oct
##lu
##earch
addition
##sc
iss
took
##reen
##apan
##ula
join
##ption
Air
report
June
March
example
##ize
##by
death
camp
Af
##ext
##omin
Japan
During
div
national
langu
help
make
fun
##alth
Gen
##work
##ness
local
Su
order
##ense
##iety
top
named
October
non
July
among
##yl
##rodu
##app
cult
vis
describ
claim
Austral
Pol
January
five
role
##ges
##ances
sk
however
Apr
##ards
deb
Canad
real
##ales
##ipp
Gu
April
del
career
belie
way
six
Bro
##resent
##vers
prom
country
prev
##ves
##loy
short
fre
##augh
led
##lor
rad
English
third
One
attack
##ata
##ple
##rem
##ott
stat
manag
repl
increas
prop
beg
##urs
##riend
Bar
need
similar
Ear
invol
##evision
By
##read
November
##yn
aff
December
held
##ms
##ese
chang
become
##ilitary
City
##hest
tem
included
Cal
Har
few
French
2005
po
late
##ords
##idd
30
produc
month
German
##rict
ed
great
announ
##ning
week
##inning
##lege
2013
every
turn
##urther
##aster
##ring
##rew
kill
received
25
##uted
compet
best
history
##ne
given
Mc
And
version
Ed
##co
##ham
##ler
Rep
##ublic
less
production
##alf
various
##line
star
without
##irc
hig
town
came
ele
ant
Ab
Ass
effect
##side
##ories
econom
fac
##cl
Will
Some
192
Pres
##ared
gl
sold
produced
particular
beh
Min
post
take
lim
##ampions
Char
##ument
development
Hist
##aff
West
##attle
view
built
sit
##ones
children
field
port
usually
somet
epis
should
comb
tradition
Sy
##epend
considered
init
cover
does
##alk
##ying
activ
We
Rec
##eter
Acc
100
influ
##ivid
mag
Sw
Feb
##formation
caus
avail
##ither
School
With
author
club
foot
men
introdu
##stit
attem
##ruary
February
point
pract
##estern
although
##sh
Russ
represent
Comp
##ention
list
##ung
##less
ident
side
special
##lear
##hic
##etwork
Sec
service
##hys
engine
##ination
##ead
important
prim
previous
Afric
indust
expl
##aken
having
##hod
published
cer
##aun
Co
##eal
cond
##ched
military
games
Ang
India
##ably
##ee
##acy
##yle
##ape
##ruction
television
enter
Her
191
##mit
political
##day
times
##omb
population
Cor
##ividual
case
young
business
human
2004
father
win
available
right
##ogn
lab
see
vide
##ases
dev
##oon
##iber
tri
body
##osp
##aul
tot
tw
must
modern
age
next
State
announced
##amb
appeared
member
find
##olution
offer
exist
educ
Des
##sequ
developed
Lond
##ising
sw
##uck
test
##eration
social
grow
market
low
Geor
##ran
invest
good
European
host
women
Other
mult
sent
##ote
my
London
friend
ter
##oyal
sug
Act
##ows
Dav
individual
vol
##ering
track
Dr
##ops
##ief
created
went
##ached
written
En
official
##ney
proble
##avy
Med
##lin
##ches
story
started
language
full
relations
making
associ
##ivil
established
signific
title
mater
read
##rug
Phil
press
areas
##self
##itive
International
##rote
21
Part
free
conn
##omp
While
son
##ability
Ser
struct
Indian
never
League
located
America
##ampionship
further
international
##aces
house
##ental
sour
ke
circ
dest
cost
President
According
##oom
proper
##ront
fail
model
light
position
half
##dom
others
General
Although
##int
##ush
mot
total
days
##ological
profess
formula
##BC
get
wrote
##ells
##idence
release
##used
qual
hear
hold
You
##rated
##ential
##ways
how
24
countries
##ounc
sum
##bs
employ
continued
Res
strong
##reet
##ana
##uk
##ream
History
moved
##craft
##iol
enc
relig
seen
##ef
broad
England
Mal
separ
2003
##idge
##istic
##ements
histor
material
##ators
##raw
round
Mon
building
ve
##ots
independ
William
either
##ck
rul
himself
states
north
##ech
bar
player
##ification
region
##ino
##ensive
anim
##ris
method
##ps
No
Roman
significant
To
##ours
defe
redu
##umb
video
##uel
##ara
East
Park
treat
students
##uf
##lands
Per
##ests
2000
largest
pain
High
##pite
##ades
eas
##aged
##atter
TV
reported
##ae
##iles
##ope
phys
impro
station
arg
let
##urg
suff
arch
priv
rock
22
Me
##adem
successful
##iation
super
##spec
##isc
lost
attempt
Jew
50
recogn
deg
##fic
Ag
interest
ship
systems
information
described
network
Sm
fund
La
groups
Pe
##most
species
sex
south
San
##duct
hy
##ography
##ouncil
##ware
live
##yc
died
toget
together
##vir
##hib
range
##atch
mer
##hern
France
episode
sound
mean
forces
##adu
surv
Em
Mich
black
ground
vict
rather
style
##oo
UK
##irl
agre
##ecut
##na
##ani
sel
Army
mother
##ett
##jects
2002
Sch
Reg
sometimes
match
Gl
2001
mid
rank
##ius
pur
taken
##utes
##anted
##ique
##here
##elling
ord
aircraft
##alt
##artment
##aves
##thern
Qu
trav
##sy
award
##reg
current
##imately
##ule
command
standard
put
meas
fire
project
Count
research
recorded
Canada
frequ
generally
##minist
fall
nat
##orthern
Hol
23
##ask
nov
##uter
##aying
##aign
##iting
College
plan
##ending
meet
performance
possible
##viron
laun
##oid
##tt
tour
##ilities
Red
formed
Australia
Mor
earl
pot
party
type
followed
able
If
##chie
once
##specially
##ha
data
introduced
House
##outhern
front
##ald
##ama
wid
working
works
Republic
Pal
##cial
Cup
becom
services
##cent
know
returned
##aper
away
pri
fem
change
study
brother
##iddle
features
##ocr
especially
##iforn
months
served
Many
throughout
mass
Port
entire
##ergy
commer
##ership
foc
Californ
hit
##ille
function
China
polic
Ac
##ming
obs
##enced
God
##ression
across
Germany
##omm
##ressed
##erous
##inese
Black
##lement
##aps
site
Christian
##oice
##hel
Cour
##ington
California
##ederal
points
look
particip
football
##itor
featured
##anish
##ality
designed
But
sym
##cast
ren
##ills
aud
Soc
applic
ten
Since
stated
##for
From
eventually
##olic
upon
access
gave
Chinese
Japanese
community
hard
certain
##ateg
cop
##sel
inj
far
least
##eth
songs
performed
force
##ufact
di
River
doc
playing
##elt
##lam
##face
tre
##ss
##ference
##arily
##ma
neg
Church
provide
white
ste
accept
events
##ned
key
above
contrib
##iding
contract
##ective
squ
cast
##oph
relationship
##itar
regular
##ster
Dep
ra
Union
Te
respons
##imate
fight
Jack
decl
26
stri
##incip
consist
itself
##ults
higher
##ford
almost
40
nec
Ne
bi
dam
indic
cal
food
190
##ands
hon
Most
##ze
pred
campaign
bank
##vironment
##ky
Sim
lower
Paul
determ
regard
##ourn
My
##cer
28
##go
David
James
##ael
means
##osition
##ought
Ant
viol
der
health
##ector
instead
##iers
##hers
civil
Mo
Pat
##ico
##iction
signed
road
players
Fir
education
tax
fav
##ceed
lear
mem
##oted
achie
parts
acqu
aver
27
leading
Rober
action
##ament
required
##utions
##rought
thus
Rich
related
traditional
energy
past
critic
distrib
radio
##atory
##ems
norm
speed
lik
##etic
worked
Sov
capital
##gr
manufact
##view
provided
cut
##ude
##urity
##ari
loss
##uture
Ber
space
##off
ball
cross
eight
Do
##field
Fl
1999
Soviet
Met
rout
currently
##oles
##rown
stage
Art
suggest
rights
originally
review
saw
shows
compan
##iec
joined
involved
discover
includes
##pts
vill
court
wife
##urb
mix
##apt
close
Super
except
Mag
##abor
##ena
che
occur
##lim
##reek
replaced
imm
George
night
##hing
too
##roy
##ased
##aries
pay
##men
##ror
rail
##ving
##aughter
added
Que
word
##medi
quest
Val
##anding
gener
Bel
Off
president
##ites
opened
fr
self
##itch
dou
goal
clos
miss
specific
founded
maintain
central
Great
vehic
##ength
situ
##wood
Lou
outside
ap
fig
mount
phot
##gen
Cont
police
product
##sych
creat
little
married
##ternal
analy
capt
Div
reve
link
deal
##aching
industry
##ounter
##ayed
##ustom
Sing
cases
Court
##lt
Je
##ibility
App
##rick
Associ
killed
allowed
##ficult
movement
films
##ground
##aur
tex
brought
Dem
First
pers
subsequ
Early
contr
Mad
Hall
gun
come
anc
Rev
##echan
Western
##aut
according
displ
difficult
Angel
Sam
seven
##ica
remained
##rael
theory
terms
Mex
increased
1998
cur
conv
##atin
concern
##board
ask
office
natural
##leg
require
commercial
cou
##rian
ide
189
Stud
Kingdom
##ume
break
media
##ump
##ago
debut
hom
economic
##ections
commit
whose
Party
king
princip
training
##onst
Israel
abs
private
Sen
complex
Award
famous
react
construction
##ested
Championship
Council
rate
conduct
##ids
##bert
wind
appoin
29
##me
##arter
##oor
assist
culture
uses
teams
Tur
cred
Cong
bo
##ript
soft
adop
reb
Mart
approx
Bill
reached
instit
##acing
lo
size
ill
##eign
den
##val
##que
##eleb
referred
particularly
hous
##ores
exc
purp
##het
##ises
multip
associated
##usp
##azine
##ellow
##eph
Cath
##ij
##ecutive
tar
##irth
Mark
schools
prob
thought
##annel
clear
money
disp
decided
characters
Bra
Ital
percent
Cap
Royal
keep
##usion
Emp
##unic
et
##bers
Spanish
##odes
##asons
future
##bor
temper
artic
##aker
changes
administ
opt
novel
##ension
##ya
##asion
sem
behind
Tel
Mac
##rial
Arab
Gold
Bu
##udd
limited
soon
constit
500
plann
remov
liter
##ili
west
arm
companies
caused
evidence
base
##rest
##ulated
themsel
stop
beginning
themselves
length
better
Group
via
##ify
##edy
Street
##ients
1997
environment
Sl
Law
lack
Africa
##aint
dom
financ
##lied
##itz
Robert
31
##sis
cause
personal
respect
Trans
##isl
##arch
Franc
##istan
##ready
big
Jos
##now
structure
##isk
always
average
bene
##gin
##atives
prevent
religious
Ir
1996
Mod
value
##back
##aled
increase
Pri
##hi
might
Kore
Michael
##anded
trib
earlier
##iff
Mer
subject
##iment
professional
emer
##irt
Bec
army
##eum
##ols
Russian
placed
Kar
custom
battle
##oses
##CA
jud
changed
sat
Gre
insp
trade
##ander
tro
forms
##ened
Wash
east
##ban
move
Rock
practice
Best
Australian
##uments
dig
block
source
Music
Bo
shown
##tee
Hen
quick
##osing
already
ur
occup
completed
##oul
living
mechan
sil
Company
concept
##ux
##onse
mach
territ
saf
transfer
room
legal
race
larger
##ayer
gre
independent
##liam
##ibr
longer
##unt
taking
##itect
give
##uit
integ
meaning
investig
Serv
center
Greek
Day
##estival
##stitute
distin
units
recent
board
##atively
winning
Alex
##ift
problems
##hood
wide
Washington
writing
purch
##vert
movie
emb
Not
Central
Star
Frank
esc
##riage
daughter
celeb
Nor
necess
##ires
##igned
primary
##yr
director
travel
##liament
Inter
##ronic
Center
White
increasing
origin
gradu
susp
today
##head
rap
##agon
typically
gold
log
##ease
1995
believed
altern
account
feature
products
##owers
Rad
hor
document
eth
majority
188
underst
##ston
##ida
Cr
pen
establish
ended
Association
##ees
Two
186
cat
##order
degree
claimed
foreign
below
##izing
oil
sch
##ki
drug
influence
towards
highest
##lying
types
transl
Tom
anti
##asc
African
##50
ge
plant
appearance
##isions
whether
Thom
fourth
Canadian
interview
cell
##rate
##mar
girl
names
consider
##unk
Another
Green
surface
##reme
##ournal
scient
Sal
threat
1994
election
Flor
BC
issue
##airs
##anch
operations
sequ
Don
response
##amer
create
Italian
effects
nuc
Tex
mur
Dist
results
focus
blood
commonly
cit
So
Im
Go
Los
programs
decision
amount
##to
complete
##aval
Mary
##rect
##ging
whom
##pper
Just
policy
books
voc
numbers
instr
Minister
##com
additional
date
destroy
love
univers
dram
island
conditions
weap
variety
piec
##arian
Miss
immedi
##berg
##oke
park
domin
reason
Charles
Grand
lines
previously
directed
Under
prison
estim
##ingu
prior
psych
text
levels
church
##rovers
done
Vir
league
##van
##imum
##put
##NA
issues
transport
Later
##elled
fif
produce
management
Peter
##ospital
Sun
##be
County
technology
##mitted
pressure
##ria
consum
numerous
##erve
birth
cities
hours
object
guitar
Louis
1992
approximately
##adium
draw
##rain
##ios
##astern
going
##ped
mostly
Ham
forced
words
##gn
status
Division
finished
ens
running
problem
Island
minor
Congress
discuss
##change
enough
nar
defin
60
Follow
female
187
Bay
Government
##ties
ey
That
Islam
Ter
makes
Catholic
Cons
studies
##ortun
##umn
shot
1980s
organization
gas
Scott
active
unit
phil
##hold
behav
Aut
separate
Film
friends
district
##rel
autom
govern
models
##erved
Year
directly
1993
##ulf
Earth
km
prem
section
Club
noted
##oms
##antic
Rob
offered
coast
remains
##cy
job
sens
Kh
scored
##den
##oys
rule
bur
##ograph
college
wall
poor
detail
1990
##ession
Mount
##bon
Jewish
##oring
Ben
Pet
##idents
financial
Force
Del
1991
Mr
nature
owned
##atre
bomb
broadcast
screen
Despite
##ctions
laws
Following
appears
ess
ang
##icro
chem
##ented
Dis
Richard
Over
colon
Muslim
Atl
elements
Rel
Academ
subst
summer
woman
Tor
growth
remain
think
computer
##porary
continu
##ounts
quarter
Second
##ecting
##olf
opening
takes
Bur
studio
leader
Empire
musical
##aches
##uries
heavy
obtain
hot
promot
##irit
Thomas
##lymp
highly
##ply
fle
##ctor
Bank
grand
##ables
course
widely
##ym
launched
architect
Smith
experience
##iences
##pped
Also
Olymp
Records
attract
news
communic
construct
Road
treatment
##ams
Department
asp
likely
provides
student
##ends
symb
##mission
##obal
Che
##istry
activities
Ire
Wil
nearly
idea
Old
lived
intell
##rid
university
surround
face
Vict
Britain
Chic
hyd
##iled
medical
accomp
Ireland
##istics
##ledge
ability
federal
society
nomin
our
rat
told
box
physical
##AS
op
passed
##inary
##ada
##ulations
Pak
##ys
Texas
carry
Camp
##och
##ishing
weeks
Angeles
science
elected
unc
defeated
southern
Lit
##of
Pre
1970s
sett
##ault
schol
##olk
actually
troops
color
whole
competition
Paris
Inc
prepar
kind
magazine
##uth
supported
1990s
##iance
Stev
Turk
Italy
prec
proposed
pack
becoming
##ka
citiz
potential
neigh
Oper
##rief
##iant
failed
Up
##ville
##agn
refl
smaller
##ety
division
coach
shar
cand
pick
##utch
Mu
appointed
mention
location
dro
asked
Their
yet
bring
contains
capac
quality
question
initially
Spec
northern
Latin
##aging
turned
lic
Big
recording
##use
pil
1989
##mark
Wind
resist
counter
got
property
##ously
saying
awarded
##itation
multiple
incor
philos
ver
##astic
Henry
controvers
Mont
##imin
Du
##ider
##rupt
quickly
conflic
languages
##gypt
Ma
Institute
##nel
##vention
benef
##hab
##che
##bit
##uge
secret
Egypt
Swed
35
despite
ut
##ein
marriage
victory
##eed
therefore
finally
software
wood
##itors
Both
chall
implement
##ero
mainly
##band
Gar
farm
cells
comment
Commission
share
Awards
Kn
##reng
##down
##ona
Def
##burg
##ici
##ini
##icient
##onents
19th
interp
##acts
label
##bour
Mel
##ender
Chicago
er
##itude
Ev
##ny
Mah
basis
Pac
sen
##nam
Francis
carried
primarily
Virgin
##izations
metal
sports
webs
##stitution
Brown
##ala
security
ult
##obile
nation
sea
##II
Fre
promin
##eder
simply
electric
initial
##wide
step
greater
operation
true
wear
sal
dead
needed
##ano
categ
river
und
recently
Class
##overs
bound
Battle
legisl
inn
##illed
allows
Life
plays
##ivity
##ycle
Hot
32
defined
##BA
demonst
issued
##ternet
Sub
##ether
mission
##anced
##ription
##ipment
era
##aught
western
Ap
install
Leg
Mexico
feel
middle
##enth
ancient
Final
entered
##gar
Democr
versions
Bet
centre
Because
tank
intended
80
runs
risk
Jim
staff
concent
spent
streng
parents
##za
tourn
plans
More
20th
chief
scale
billion
Sat
buildings
minutes
##zil
leaving
artists
##izes
##ait
BBC
path
goals
Hum
individuals
latter
cle
1988
continue
##iest
Game
Cast
Asia
positive
singer
Mil
Av
##orial
##thing
1960s
card
##edic
Sant
Direct
responsible
##gely
##poration
revealed
Jer
scene
coin
System
Lu
wanted
##ully
shoot
Russia
##resp
compared
diss
##edd
Bh
mor
approach
Show
heav
Commun
activity
cultural
##undred
Foot
brief
##isation
presented
annual
settle
image
confir
##onic
mess
##war
largely
target
Sum
Victor
remaining
##cend
##err
Lord
Spain
Hill
Techn
Tw
fit
male
Out
helped
attended
##oint
##FL
##ricult
Rail
##akers
Str
Bi
##lies
##BS
paper
raised
adopted
##iable
adj
1986
##cher
##eds
##imb
starting
condition
Irish
deep
vot
fuel
##like
USA
##inner
weight
Int
Brazil
code
Mot
arrang
distinct
claims
Sil
heart
1987
double
##thlet
actor
magn
Academy
##asts
##uff
normal
spread
train
content
##lo
manager
stations
##iated
sources
##irection
discovered
Bus
nine
leave
overall
Secret
expected
collection
comes
plat
pattern
touch
Educ
newsp
Northern
sexual
##oes
Play
McC
Jud
##ady
##urt
Portug
inside
##estic
Tod
##ura
equipment
academ
prin
closed
max
300
How
batt
##cel
##vement
measure
III
Book
Bob
Love
resulting
##lit
##add
##TV
ox
##ken
letter
championship
methods
artist
consists
hop
##hester
resour
Eastern
##FA
contain
##ette
##ta
conver
Fin
serious
voice
score
##ansion
flight
##jected
sales
Times
Sk
CD
Arch
disease
##zz
Commit
Bow
1985
##enge
Er
##peror
Scot
Florida
Carol
Sar
giving
##ota
Prot
thous
lif
##tainment
##aily
Sol
Navy
fort
attention
fix
##ressive
slow
cars
##ims
##sw
##ervation
184
Top
Squ
##amin
36
##tr
Mass
composed
Den
Chief
exhib
Budd
meeting
compar
News
older
##encies
##rison
knowledge
Zeal
reform
Sur
village
article
presence
avoid
cho
prote
##has
campus
Ann
estimated
candid
##ounds
subsequently
operating
##ican
bit
historical
Haw
Series
applied
purpose
##onent
relatively
selected
analysis
##embly
##ules
appar
Pan
Philipp
divided
##oma
##ipped
calc
producer
##rative
fast
sister
##gend
drum
thr
Queen
185
recover
##mon
capacity
etc
1984
45
crew
contem
##aud
flu
Us
Zealand
rules
favor
##anda
Martin
chart
##rier
reduced
##ita
##very
Found
soldiers
Ol
1980
peak
##illa
agreed
##osis
##aph
har
Iran
here
rot
seek
removed
##uty
Society
##abb
mm
assum
Prof
immediately
pun
becomes
Dutch
People
passeng
Each
##itan
##ado
hundred
##ils
Add
frequently
writer
hyp
Sever
##ips
Post
##de
90
Southern
liber
##ilies
says
rapid
ships
hus
collabor
records
direction
##orter
green
blue
Committee
necessary
accepted
industrial
suggested
sense
notable
flow
Dev
nuclear
District
##icted
covered
address
lay
motor
peace
##respond
Fort
officers
temperature
Middle
Lee
drive
depart
##ola
mis
##ibrary
##rd
ordered
##osen
extended
##azz
Viet
contact
##ali
officially
70
Mill
citizens
##igr
Sir
##arters
fans
route
Vol
memory
pan
Public
acquired
enem
Bas
Ke
##aded
reach
charge
journal
effective
##ancy
bad
##iminal
dial
##iger
say
Person
economy
dyn
##ipl
efforts
channel
Service
opportun
agreement
lives
du
simple
##ao
distribution
##ube
Liber
repe
##rical
##enty
damage
##teen
##ighter
critical
Hy
regions
generation
distance
roles
Wood
1982
##VD
dog
stock
Enter
planned
allowing
labor
unique
native
animals
##ibly
##oe
ran
website
ly
Coll
moving
basic
Ira
workers
##ati
##well
1983
##iques
spirit
Sea
portr
declared
Bre
mind
Radio
##olved
attacks
things
##odies
mol
probably
##oud
subs
completely
Festival
situation
Football
##hol
##ype
occurred
Dar
tend
##nic
##andon
##yan
##bre
##unicip
interact
Work
impact
mom
correspond
##road
growing
Fam
resulted
albums
Penn
Education
traff
fell
encour
something
##AT
quant
##enes
Tem
stars
##west
seem
edition
flag
managed
stories
##aters
philosop
Lake
gives
wing
projects
Pakistan
advant
leaders
1979
Ott
vehicle
Pacific
pict
acting
represented
Orig
Joseph
Parliament
titled
paid
search
incorpor
compos
Time
##ridge
Cat
application
Jes
episodes
Di
Columb
slight
murder
##inet
##itled
##onn
excl
Young
Georg
Museum
gained
serve
##igan
Develop
operated
##edom
##igence
Iraq
Inf
##iring
combined
Board
applications
##alog
Dou
Jews
dark
dim
places
Prog
##imal
Four
fully
tournament
uns
##aith
33
respectively
Tour
tal
Thus
##cean
183
##ache
husband
purs
##gl
Ram
platform
root
felt
follows
Broad
instrument
effort
##har
sn
matter
Gal
grew
believe
##light
Tri
Const
##ulate
Of
earth
##uls
withd
Far
dance
forward
##itt
##ifying
1981
featuring
plants
families
showed
Prime
powerful
price
vehicles
##mas
creation
cerem
Saint
commission
receive
##ien
refers
reference
Ro
Prince
Blue
Mat
border
mut
tracks
Sup
partn
organizations
amb
administration
identified
Exp
facilities
Carl
##aped
Back
Good
Pers
Care
trial
eastern
1970
Max
listed
##itable
Prov
Long
samp
perman
Mos
poet
offers
Raj
##gent
##orning
kept
territory
Three
materials
Pop
Open
##fect
bul
ir
existing
##writ
hydro
ways
Kenn
1975
firm
Ob
hour
##etball
##AC
Govern
online
##ening
1972
hospital
machine
Conf
acid
suffered
overs
##ining
cart
recomm
recognized
constant
weapons
##unction
respond
##ears
roll
scholars
Federal
want
patients
decre
##kins
supply
##rics
Social
load
Men
conclud
actress
##ifically
##isms
boy
teac
Song
cod
figure
upper
Luc
##iced
Hung
god
##ras
hands
advert
inform
Rome
dedic
enj
houses
deliv
##rugg
Tam
contrast
##ashion
income
poll
virt
fifth
tried
walk
providing
rise
literature
##ersey
user
destroyed
1974
regional
Tim
senior
1976
safety
officer
yard
mixed
digital
1978
talk
Matt
prominent
bird
pal
mentioned
Night
ranked
extrem
global
urban
##ampion
Cro
DVD
authority
Bab
Americans
Civil
behavior
Several
hap
##AR
corn
##agement
belief
##ias
1968
conducted
meant
exec
Major
Jones
UN
Elect
cru
controlled
split
reports
seg
disapp
rear
earned
##miss
seasons
Hon
chair
Research
alle
##iform
store
##load
CE
vote
negative
Town
joint
coming
Jackson
arrived
domestic
pet
equal
chemical
functions
syn
users
Land
parties
1973
gar
conflict
##omy
##orship
Virginia
protection
send
##wan
solo
marked
alongside
##haps
suc
##isters
derived
stra
don
Det
AD
attempts
appearances
##met
##asty
Step
Naz
camer
opposed
defeat
depend
your
##ropri
##hens
Special
Like
Further
internal
##stein
1971
Hel
1969
agricult
spect
400
pair
Win
Sund
##awn
##acement
fighting
exchange
belong
Before
il
strugg
brand
##erc
tells
sle
sites
launch
fair
Jul
##oper
centuries
entitled
powers
wild
element
1967
Wall
squad
device
Oh
Team
speech
beat
Johnson
actions
signal
1977
Bost
communities
emphas
##acter
##perial
alternative
seat
attend
constructed
Ray
actual
fish
##uan
Williams
##yt
##ading
combat
officials
##ker
##ordin
cert
##resh
yards
Mem
causes
Corporation
spons
attrib
Profess
##inger
tun
Scotland
Bul
headqu
occasion
Common
Internet
##heast
##iate
Univers
format
ple
prefer
##house
achieved
master
expansion
rang
province
refused
##20
connected
influenced
standards
captured
##ava
sun
figures
##kn
reduce
##bur
Van
succeed
##ensus
##iations
##ella
tow
##IA
phase
medic
religion
resources
needs
Test
scientific
##SA
Conn
Fe
##rey
##lers
constitution
conce
34
defense
synt
Development
brain
creating
38
Today
##ishes
##arden
##iot
feed
Boston
Form
chap
##lines
starred
theme
Science
audience
adapt
##aine
factors
strength
Wal
agg
Child
Even
Ste
sport
expanded
bal
Arts
attempted
Stan
goes
inspired
techniques
##more
values
burn
leadership
continues
pra
##lywood
sac
bass
Though
Korea
##rawn
selling
guest
##hemat
reasons
75
extra
Power
##entially
correct
ax
vary
Conference
convers
equival
Fox
ethnic
rob
express
matches
Econom
worldwide
ice
Charl
Valley
cry
honor
alone
##iat
limit
confirmed
symbol
ring
reaction
abandon
comedy
Wales
Among
failure
##iano
subsequent
bott
Network
##enue
volume
coup
Revolution
##urance
exam
draft
##itness
Inst
harm
leaves
indu
vac
argued
pros
swe
aim
Att
concert
quite
sets
Rom
piece
##bed
##ographic
##ua
##hat
##istered
Health
tree
theor
som
Jac
##FC
royal
happen
formal
##mond
##wise
engines
heat
critics
injury
crime
floor
##isher
##aya
choice
dropped
studied
titles
##inem
distingu
##ping
Airport
easily
##mad
Kong
maximum
Francisco
##ishop
formation
criminal
bill
feet
Ca
##la
Ver
table
Little
Ep
page
bey
##ador
##rees
positions
animal
Personal
examples
determined
Prem
authorities
advanced
dang
expressed
Are
##right
couple
hun
accident
sides
traffic
##ato
##rot
doub
arms
beyond
Edward
mill
railway
Jeff
##gg
hair
independence
##ensity
Cle
exclus
37
Ill
straight
acts
occurs
Office
nearby
Bang
spok
Supreme
organized
enjoy
executive
proced
##igration
##antry
humans
##CC
1950s
##erse
##ga
Ford
schem
identity
begins
unable
##igation
street
background
Mir
drink
vent
compl
drama
##ruit
lot
1965
sell
##uration
Est
Crit
fashion
opposition
##apers
cancer
Az
institutions
granted
Windows
towns
chosen
display
bridge
##ario
rac
column
exact
Histor
specifically
Secretary
##uing
Games
devices
learning
existence
Senate
containing
Organ
Police
##adel
molec
##illy
script
serving
begin
##aka
editor
properties
semi
1945
Boy
developing
bow
Ros
negot
181
##EC
##can
pit
youth
core
setting
##atures
slightly
bask
Through
classes
academic
##chers
Imp
la
challeng
Hong
rival
minute
##mir
##igen
phen
alleged
Ash
hosted
grad
NFL
hol
1966
advantage
Way
bear
Joe
spring
Dan
formerly
branch
Cross
##ager
Loc
rough
copies
Card
twice
write
Korean
Mid
accur
requires
##set
wheel
rain
notes
spot
##iy
bands
iron
amp
Sports
losing
dedicated
Due
ideas
costs
##inder
municip
producing
inhab
##rm
doing
Governor
shape
180
speaking
Theatre
##uses
carbon
##RA
glass
Fer
Ak
##vis
Mur
Emperor
Sand
1964
causing
##ca
##zy
##uting
difference
descend
objects
##iday
Jesus
Foundation
proved
Rog
incident
fil
Ell
surrounding
extensive
Ven
fellow
singles
experim
00
visit
Nat
hab
Nations
web
newspaper
elimin
ast
##rog
##unior
newly
calls
Water
##stream
combination
##SP
##eman
Asian
bud
Corps
bond
Lar
contemporary
##known
Lim
motion
Human
Polish
revolution
PC
Addition
Hu
owner
Constitution
liqu
##alls
resistance
##nes
Stand
##iana
performances
Christmas
definition
Wild
Mov
##ih
Engine
trop
doll
##rations
sty
Line
temple
##amber
Mas
ori
##ician
regarded
performing
protect
##AF
mel
clubs
##icks
rates
tail
legend
wor
demand
Career
##rong
Bell
Cub
favour
neighbor
##aks
structures
wealth
emot
fields
moment
##ervative
sched
airport
improved
Justice
output
Modern
heavily
##alu
onto
Coast
shared
secondary
vocal
notably
##bury
toward
consequ
proceed
residents
##ila
broke
observ
steel
##vest
square
Mike
gather
Norm
fear
Program
factor
possess
extremely
Dani
##heless
coal
End
winter
younger
popularity
engineering
renamed
##MA
instance
manufactur
statement
##ns
Tre
Ur
Band
Islamic
Bern
regarding
cool
##hesis
Cult
ending
##cement
twenty
cas
differences
gain
##win
opin
What
Home
shop
##OS
Bor
aid
tim
42
beaut
conference
##acks
##oster
vir
letters
Lab
##ockey
##ancing
vess
Albert
elections
ones
classical
purchased
Women
violence
##room
aired
Sev
Treat
substant
Hear
Jon
really
##chest
door
observed
Micro
Head
Alexander
See
##osite
##cious
scoring
corpor
council
Channel
Arm
Buddh
##rad
alt
rein
Indust
##time
illeg
##isf
1960
##aved
greatest
Hor
typical
##iser
contained
Death
Gall
Doctor
flat
environmental
##restling
Atlantic
Pu
stre
##rim
Girl
somew
Live
Id
awards
union
##hew
Rod
perhaps
Golden
agent
reviews
daily
Field
Stadium
##ectors
##uled
architecture
sevent
pul
##ID
Media
touchdown
solution
importance
48
##osure
retired
Argent
Carolina
##SC
strateg
lin
Web
attacked
trying
components
affected
nor
##omer
##avel
horse
employed
Democratic
##ructure
chain
sought
64
stadium
##ylvan
##ja
Belg
##rine
holds
Chris
##play
transferred
##ologies
Week
restaur
1963
##umin
portion
approved
Tay
##apore
Tony
technical
Curr
Once
Var
mountain
##icial
solid
wave
circum
items
climate
DNA
rare
obtained
Ba
##amm
arts
dry
enfor
Lew
Guard
44
nominated
Columbia
Family
stay
hers
transform
decades
assigned
starring
Sel
skin
convent
introduction
##ropol
significantly
fat
##ocked
##ederation
##ensions
experi
htt
fixed
pilot
interpret
Steve
clean
doct
##rowd
equivalent
defend
armed
##utation
happ
ultimately
arrested
Khan
describes
entirely
morning
unknown
##oof
Kr
fiction
bodies
41
1st
Os
##rome
##mes
Pen
enemy
##inity
Nether
sail
##era
colle
Billboard
alco
##een
buy
##enses
conqu
athlet
faith
diam
possibly
Clark
Manc
elev
##kin
repeated
lat
Singapore
musc
Dun
150
plot
permanent
politics
Ken
progress
##lets
##awa
##iro
heard
sust
watch
Cop
oldest
folk
1962
advoc
##rows
##aven
improve
height
uniform
##asy
propos
http
Portugues
designs
successfully
49
parall
##orters
##cing
relative
##illing
context
clin
Ly
Director
##isted
Bowl
appeal
frequency
partner
182
silver
premi
views
holding
MP
##va
wa
fram
ruled
ca
promoted
Only
depending
try
earliest
headquarters
##rich
cycle
reign
drop
technique
Portuguese
multi
Business
cab
Bol
why
##ela
##ione
thir
paint
stone
Jersey
graph
deploy
opposite
##aming
##iants
##ko
nick
Scottish
connection
##ivals
supporting
Its
fleet
appropri
nothing
Cas
Eliz
Poland
Ha
orders
contest
closely
##book
Bat
##aling
Hin
##fully
Vietnam
Lo
##onia
unf
##esh
planning
settlement
Centre
##ylvania
rich
##ón
images
ends
sequence
pieces
Then
##wh
Jean
Malays
therap
locations
reality
exerc
pron
electronic
Indones
##roc
requirements
##come
determine
Ah
##eness
jur
Ari
inher
myth
herself
miles
Sher
basketball
##ez
museum
bor
Master
Light
Georgia
##ieties
Chap
##iny
emerg
##onym
##bo
IS
Ball
##prise
seems
##agan
escape
minister
AM
degrees
operate
##hetic
##gu
fought
answ
39
ign
##cription
visual
neut
##atically
synd
looking
finds
Netherlands
department
Television
surg
resc
##orders
captain
##ece
democr
facility
Die
eye
processes
Brother
##ocks
fresh
capable
illust
sector
stating
recognition
Fire
Republican
scenes
##ić
##abeth
##icide
stream
Entertainment
##burgh
2nd
FI
##sen
##onto
employees
AC
maintained
mist
##ranch
Administ
programming
thousands
EP
severe
bought
invasion
##orage
Dam
mort
purposes
poly
47
philosophy
Sweden
adult
##ushed
##hips
##otic
Sa
guard
founder
Berlin
##shire
Let
testing
##gor
##apes
##thur
winner
cy
Hollywood
markets
ancest
55
standing
Disney
Hit
##oration
Tal
Roll
Nick
Free
guns
Uk
investment
##anned
##ansas
Tar
##ima
freedom
protein
Captain
##rates
brothers
Bru
NH
##ogue
Hun
nations
1961
normally
18th
Corn
diagn
##rete
note
visited
Base
budget
##rix
##adelph
Ohio
##anning
##vin
##eck
##fl
driver
stores
increasingly
Dyn
focused
mode
receiving
contributed
43
worth
##odox
179
Ox
##10
##gers
faced
terror
subsid
##duction
trees
storm
##gests
Duke
killing
##ses
AT
institution
##stone
Andrew
narrow
SS
Fore
Now
Bad
weather
##akh
mathemat
funds
getting
Manchester
file
65
islands
occupied
Philadelph
suggests
1944
trust
lyrics
task
Polit
Po
resear
##iders
kick
52
occas
Bal
Assembly
##inces
##erts
##urches
Olympic
san
alter
upd
##iling
##ennis
investigation
##ifications
Kir
resemb
Michigan
tor
Camb
principal
##itzer
request
Jr
describe
settled
designated
util
kingdom
entry
Main
##iciency
policies
serves
##ora
##ji
shortly
Brook
Philadelphia
##eline
goods
intelligence
Li
Holy
##ye
##ilding
decade
micro
##usc
breed
##elve
##licit
Palest
ec
##idden
IV
reading
assess
Ret
##wa
batter
##lig
cloth
useful
Hal
cold
Six
rejected
fan
##ricket
flood
communication
unp
aspects
apart
witness
Han
Mic
writers
mobile
skills
survey
teaching
##iary
credit
mic
evolution
Kent
Taylor
Independ
Islands
isol
Such
charges
sympt
Toronto
sand
##anes
Afgh
estate
expression
eld
seats
parliament
cris
Disc
##mph
opportunity
nob
resident
weak
Les
##eget
option
trains
check
restrict
##orted
Short
##IS
involving
colour
##roll
Kim
Hay
selection
1948
Ukrain
Philippines
sale
shall
##ogen
Sunday
otherwise
converted
##eless
##uro
##eason
Fair
singing
criticism
##mosp
##rance
absor
cook
NBA
crowd
##weight
medium
Penns
##rin
##while
1941
ban
##rons
Gh
##itage
forest
Original
Order
festival
ABC
Nap
divers
##IC
adap
controversy
Gra
##MS
concluded
##inson
taught
Serb
##enant
wound
Supp
Dub
Security
remark
600
details
leads
promote
drawn
##ingly
Marsh
rural
##oir
##rif
##cop
##enz
ster
##ipe
kil
manner
##icians
1959
##ira
Nic
charged
purchase
lands
1956
accompan
bottom
mand
reaching
egg
Fle
##ception
shut
turb
##osl
##action
##ami
strike
##adesh
Pennsylvania
##eller
##iac
##anta
thick
Project
DC
trail
Kel
personnel
linked
##ocol
measures
exception
association
Syd
##eased
Mexican
rif
Harv
1958
51
biggest
scheduled
instruct
passing
franch
achieve
Tai
retire
Command
message
somewhat
Marc
Victoria
Summer
##fort
tests
##rum
understanding
publication
##throp
1940
##iful
returning
##vious
##standing
Hindu
Wilson
46
programme
Transport
1942
accused
Greg
phr
replace
net
##ibl
Ok
dipl
weapon
##thodox
household
prohib
stress
experiment
##antly
practices
Space
1939
criticized
Station
##aug
consisting
theatre
Sem
Israeli
Davis
phenomen
champion
##umber
ceremony
chance
Lady
##PS
Real
Ten
debate
Circ
patient
##soft
##ilation
Technology
Unlike
Harry
##arn
##uts
fired
yellow
Age
##zen
##orney
ble
zone
modified
benefit
vo
Afghan
huge
##pool
Hard
county
parallel
##water
pure
##ww
##obe
Tra
##urring
##laim
##LA
playoff
external
classic
##etts
##rast
Son
ensure
calling
ratio
legislation
abandoned
Vill
committed
retail
bind
van
Elizabeth
##box
Rem
Stone
voted
##ega
Ali
Eth
##born
##osa
trip
comic
fict
concerns
Lewis
housing
Pur
3rd
experienced
##apped
Bush
hall
terminal
transmission
Press
finish
save
##lusion
##TA
Stephen
category
gang
rom
advent
camera
walls
candidate
1950
1957
plane
Every
Rang
1947
##ulpt
crisis
strate
girls
strategy
broken
##aints
Init
raid
##achus
##oral
courts
wides
accounts
##unte
coordin
distributed
Pope
evalu
##mb
atmosp
interests
explor
Walk
Turkish
Minn
documents
driving
electron
divor
Daniel
installed
##omic
##rie
painting
explos
Color
##under
##DA
##pton
##uties
Swedish
effectively
affili
rar
Barb
documentary
www
##ricts
participated
Greece
Sydney
Wars
frame
controversial
##track
showing
immigr
instruments
seconds
recept
universities
Hind
Brad
whereas
##fall
greatly
questions
funding
##iva
juris
sixth
unus
##umes
dates
consisted
Lin
storage
transition
governor
crown
##ieval
Mand
##ugby
##aked
prepared
eyes
WW
auth
stim
##usal
perfect
liquid
Sab
##ikh
promotion
##andom
Aff
Lt
loan
drugs
##mann
CO
##ologist
advance
offices
Colon
Cz
attached
Roy
consecutive
Management
von
satell
##ruption
Bon
sed
Tok
Hospital
bed
Ast
proport
Sri
Hou
supposed
ment
Anton
Ministry
##pread
commander
Mean
##ourney
Microsoft
Typ
##sey
educational
Ron
Lev
covers
veget
Between
Upon
##aga
##ropolitan
Stat
Mun
Ut
vert
CBS
establishment
Design
principle
Additionally
Dig
tact
increases
##ader
trained
Alf
Shar
administrative
##ulty
##alty
shell
Railway
Hell
Ka
literary
AP
Premier
rapidly
Never
explained
switch
kid
sons
##char
##aser
considerable
gets
##heim
doctor
Spring
characteristics
phone
mental
Balt
Pit
graduated
roughly
driven
teacher
##apping
##ois
treated
Vis
Rh
spiritual
##real
##ture
mil
banks
consult
cards
committee
edge
##ruck
Bir
extent
input
opinion
excess
53
hero
##asing
Santa
revol
bab
nickn
publish
library
nom
illegal
tools
Arthur
anything
1943
movements
NBC
dismiss
Brian
colonial
innov
wire
##ba
chose
##TC
CP
delivered
##yer
capture
fine
picture
circuit
##vements
##urd
mounted
Massachus
minimum
filled
movies
Lie
widespread
Ocean
string
Kat
Sav
Operation
Dark
##yo
Cab
someone
benefits
habit
##ii
##resents
incorporated
passenger
##osh
Military
aer
99
##hammad
regularly
fly
imag
mir
processing
##raction
Lind
alcohol
stages
178
Massachusetts
tall
1955
succeeded
merch
Plan
persons
birds
##pe
Tamil
Gram
Similar
##uters
racing
##iversary
Non
component
95
tiss
networks
subjects
Bridge
coverage
tick
##essions
caught
represents
links
briefly
upgr
##aki
preced
profit
fal
##omot
flying
hypot
param
1949
Jay
##issance
manufacturing
learned
hits
Wat
Pier
occasionally
##outs
1946
##uster
Temple
Pass
strongly
dress
Tit
customers
1930s
##osph
involves
Ho
cable
symptoms
Prior
termin
sculpt
##equ
extension
##ulating
54
separated
##inth
##DP
##otes
planet
##illery
pregn
inhabit
cyl
responsibility
##kes
Aud
Brig
1954
Sound
lies
Der
duty
valid
##onder
therm
##ares
##ads
Austria
Ross
usage
##ecess
massive
renew
ago
##athan
equipped
offering
##amic
##ooth
assumed
##agu
engaged
canc
Aven
hired
##going
800
agency
Sky
shaped
carrying
starts
Beng
wine
Ult
Od
Leon
vocals
twelve
Who
56
##anna
flo
reserv
##ygen
Ont
Adam
fer
lov
plate
historic
##ounced
sleep
##annels
Ta
grown
Nazi
Es
Key
sections
decline
buried
jurisd
soil
##anz
##erate
governments
assistant
satisf
rating
##abilities
Nar
portrayed
changing
Jord
##ilton
encounter
factory
Hart
##antine
adding
map
spoken
##worth
Chair
1953
##alled
yield
teen
Conc
stopped
alleg
Examp
Moon
initi
##eball
speak
returns
##án
charts
passengers
Muslims
plus
adopt
##erted
prime
soul
Third
apply
##orph
177
##enna
agents
##roit
##roke
##oh
dies
Abd
learn
##friend
##inois
##ighth
headed
audio
credited
behavi
trou
authors
##BI
##lar
Turn
exped
Plot
##bra
##ucky
##osm
##ologists
suit
Ottoman
churches
rhy
eat
Low
density
powered
Bos
understand
depos
replacement
Whit
17th
Kal
##etime
4th
tur
analog
##ework
Simon
Sus
##RC
mouth
Marine
Abb
##bourne
##rec
##igenous
Beach
Illinois
##lications
##anches
Foreign
##uous
Armen
Here
IP
invited
Medical
appropriate
Iron
Gib
scheme
assass
grounds
passes
truth
Dream
depth
partnership
Down
##oln
actors
exists
shooting
decor
Dor
Dick
stands
##urric
##ivation
fictional
##know
250
vast
Author
Bah
strict
Journal
Forces
genre
styles
##gorith
generated
musicians
populations
##gets
Imperial
principles
Stock
##iami
Turkey
operates
mechanism
recon
Olympics
Pot
Tenn
##oz
injured
##ferences
milit
Ku
adjust
indicate
debuted
influential
stret
circumst
owners
##ipping
resolution
mart
Clin
Howard
emerged
offensive
articles
Instead
NAS
frag
homes
appearing
Mosc
debt
baseball
FA
thing
withdraw
perce
wrong
mal
##edding
##da
##rac
##ele
##iveness
Miami
victims
composition
sup
reputation
Ontario
##inian
jazz
finding
SA
##hu
1952
relationships
arrival
##theless
Five
situated
agricultural
bacter
vision
Domin
Linc
prices
viewed
roof
Sn
##idel
Ts
Lis
easy
Ele
cong
domain
##aza
opera
62
Detroit
expensive
Labor
Pa
##lan
##encing
Czech
Som
profession
shif
indicated
Castle
##rastructure
novels
accompanied
Ra
Da
diplom
representing
##rig
##ucing
franchise
defensive
routes
surf
##amental
channels
Leb
parent
Avenue
judge
divisions
seed
assault
##ucks
config
Eric
Shah
85
dat
denied
Jam
Born
Miller
Kennedy
cited
Taiwan
##utenant
##rating
trading
layer
##tenance
periods
##ownt
districts
losses
##aduate
##archy
tell
marketing
retained
trend
##anny
##abled
Mach
Treaty
Services
finals
classified
Your
Gord
snow
Burn
lie
registered
Library
##ES
##otype
##tery
Saf
About
##atern
Production
trig
Houston
##ictions
roads
##ommod
##acle
##fare
interior
challenge
Hitler
Express
tra
survived
##pass
conventional
extreme
races
insurance
valley
undert
Administration
compete
catch
57
traditions
Rose
overl
nucle
tribes
electrical
Writ
Moscow
publ
adapted
pitch
##OC
##urally
Lincoln
org
Jordan
66
##bec
McG
die
Persian
forming
Square
Orthodox
choose
Cy
Offic
##rity
Rick
Anth
collected
gradually
Pun
concerned
Children
gall
balance
algorith
##ersed
Prize
territories
##ika
hors
##avia
naval
ideal
produces
simpl
founding
##writer
assistance
intellect
##ilst
foundation
essential
participate
collect
dominated
Gun
admitted
visible
prompt
Professor
recip
Vi
dating
##ET
##xual
##pan
landing
grade
##outheast
16th
surgery
Cam
traditionally
Fame
hotel
sort
##crib
##raph
possibility
##ultane
##oli
shel
municipal
Nob
ahead
linear
rarely
chairman
Beg
##chang
##alion
ownership
Country
poetry
courses
##erman
Christianity
Earl
session
graduate
Norway
cinem
suicide
hundreds
superior
##uther
wins
laid
##acent
##ossible
translation
mob
random
##hr
lake
zero
##oen
acknow
##hedral
NCA
##bal
##chestra
expect
presidential
Therefore
medicine
licens
arc
exposure
reinfor
Run
prisoners
Model
oxygen
tries
Ext
Palace
Eag
tower
Ener
ven
Front
##ighters
jump
Season
od
liberal
Il
murd
apparently
Kev
concentration
Silver
##key
tanks
ped
58
##hyl
raise
##oto
Beat
damaged
identify
volt
72
businesses
Meanwhile
alph
neither
corner
mechanical
discip
guitarist
##agues
##rep
##iration
reduction
villages
rub
accommod
amongst
destruction
##itual
##abet
emergency
##erto
Croat
compr
Wolf
prol
exceed
battles
Apple
literal
everything
dream
EU
shares
##iang
integrated
Mountain
medal
Mong
##inals
Prin
declined
1951
Dougl
Malaysia
machines
safe
##St
reun
votes
Cru
segment
##antasy
Jane
hang
diff
Liver
accel
knew
##inations
crop
##ni
conscious
##andy
males
##apse
Lor
license
##alo
Maria
dominant
##adow
teach
Hug
##ques
patterns
producers
vs
##lyn
##TS
protected
translated
Dall
hyper
##icop
professor
arrest
Switzer
filed
##ogy
##agen
genetic
falls
signs
Defense
Protest
personality
penalty
veter
Communist
63
Dal
Trib
secure
praised
Gro
theories
advertising
membership
clearly
##unications
##render
##aska
Biography
successor
Egyptian
Gulf
sufficient
phrase
Rights
centers
Jacob
disappear
stable
refuge
CA
##ifies
##eption
inhabitants
##bar
deliver
##zer
duties
argument
Athlet
FC
##ée
##oples
tool
##ricted
remove
hip
intention
protest
Deb
##iel
##IV
##edia
poem
Broadway
##riers
bringing
MS
volunte
interested
releases
##agh
Germans
adaptation
existed
spr
Switzerland
##opol
serial
recommended
Batt
involvement
Pict
##eases
assemb
agencies
##oured
Last
Vide
Dead
celebrated
remember
temperatures
##ching
row
grav
corporate
##pective
missing
Ren
explo
immediate
regime
categories
frequent
##uv
manif
boat
##ito
throw
false
waters
Medic
Community
meat
Within
measured
Fil
Christians
pool
##adi
##chen
rig
1938
happened
##ushing
Championships
76
unl
##isition
hem
Heb
mail
grant
Satur
Hawai
cryst
thousand
manufactured
claiming
##amps
turns
##iller
##ova
neck
supports
Federation
scientists
Forest
Philip
NCAA
recordings
absol
Euro
Bron
diet
practical
dual
piano
begun
circumstances
Nag
Album
##hire
##11
Food
##pping
imprison
journey
Trop
Bible
gay
medieval
pu
moral
description
substantial
74
Magazine
worn
##organ
Control
tab
Saturday
gear
childhood
fruit
index
abol
formally
boys
Arabic
intent
unsu
render
assets
Finn
appoint
attributed
Crown
provinces
absence
wars
breaking
earn
discovery
wearing
Cow
pull
Alan
experiences
120
dub
interpre
##zona
inhib
##itis
Represent
moves
Liverpool
Nik
desire
Colorado
rose
IC
filmed
Mit
automatic
##inners
roots
68
references
##arant
simultane
soundtrack
##aste
characterized
Cre
Op
##stic
Cur
fundamental
hence
##dden
##ultan
cm
##eff
##ER
evening
##pur
entertainment
Ryan
pione
Allen
Portugal
loyal
gene
##icon
Studies
maintenance
deaths
1000
##iability
##wealth
##EA
##wich
##IT
##aria
compens
conservative
fold
unusual
jobs
Standard
1936
neighborhood
Kansas
Gri
Motor
##ortion
publicly
##ship
Oxford
Cost
##bl
arranged
Muhammad
vel
##PA
affect
Kevin
retirement
##ante
commissioned
Arizona
dependent
profile
86
73
researchers
Gil
Cra
supporters
consumption
nav
##rehens
##empl
monitor
anyone
solar
##athy
punish
Fund
evolved
Douglas
Equ
##col
gross
tropical
recru
Tro
none
colors
Furthermore
##ewhere
ru
surrender
AS
implemented
dangerous
responded
Vice
Executive
replacing
nut
females
##erg
tied
gender
##eper
heads
strip
gone
amounts
assembly
friendly
##BM
NHL
OS
ritual
download
Hop
ready
percentage
detailed
inner
sentence
branches
Ay
essentially
Memorial
Phys
universe
##insula
Tenness
##asm
##incial
Dave
teleph
Tun
##coming
mainstream
swim
keeping
Heart
satellite
##ocated
writes
gram
##rus
Squad
operational
##ester
##emen
neutral
##ti
##uma
Moore
predomin
sudden
clock
88
summ
##endment
cash
##pet
encouraged
Na
Background
infantry
equation
##ashed
##angel
window
abuse
rebu
##then
conj
AR
brown
relation
seventh
residence
relief
anniversary
radiation
##avalry
identical
Lat
##olph
acclaim
historian
Ever
Energy
Convention
##ographer
continuous
##rod
photograph
nort
Tennessee
##thm
59
entrance
Niger
Argentina
Afghanistan
Highway
##ags
proposal
Nich
apparent
700
Event
##rors
infrastructure
crash
1937
Fall
##bell
##orous
astron
interpretation
##udes
casual
Lyn
##rator
steps
Si
streets
fled
Amb
##iliar
Ow
Ni
tempor
therapy
Stew
treaty
covering
decisions
angle
error
Whe
supplies
animated
Reb
inaug
reducing
videos
##father
vessels
temporary
hosts
##oven
unlike
Engineering
attracted
shift
ranking
UE
CEO
merged
everyone
relev
Bry
joining
print
Rena
Rout
mo
Ban
##osexual
horiz
injuries
tox
Ltd
invent
longest
Indonesia
census
##eria
##ori
##itals
clothing
##asters
exposed
violent
##night
Commonwealth
##ectic
Cit
CN
##abad
Global
77
Dog
themes
List
turning
##ners
composer
##jection
Swiss
Alb
Patri
Chile
executed
minority
demonstrated
flex
Dallas
suffering
Singh
explan
underground
indigenous
sample
fib
Again
Denmark
entering
##uits
##dule
96
slaves
limits
Building
##king
civilian
##ugh
coff
empire
Colomb
FM
panel
##ogether
ruling
plastic
Province
61
files
discussed
Anderson
Las
else
explicit
hearing
sees
##ello
Bart
occupation
castle
nit
meters
Bruce
78
##kh
admin
##ivated
##ails
1918
##intend
##ographical
##weg
Nev
sight
unless
Lib
visitors
struck
consumer
mining
Prim
1933
##hedule
Buck
hal
departure
5th
##cript
Indians
##una
sugar
Peace
##abil
##ogan
pig
tort
immigrants
Where
employment
Fu
##icle
regulations
Ger
flights
marry
##eland
##ateur
rum
lasted
Celt
reprodu
Prop
Native
candidates
##sewhere
repair
continuing
keyboard
Pear
painted
Yug
Rub
##li
Contin
fluid
procedure
98
disorder
enjoyed
##tha
Note
lect
##ED
Sport
seeking
affairs
contributions
##owntown
Vik
##olas
##olly
finishing
Diego
Agency
Patrick
Walter
Market
Jess
##rose
67
Py
##etary
variable
representation
coastal
Dom
compound
prep
codice
propag
##isp
##state
preferred
##scape
intellectual
vow
influences
Pap
Chen
Examples
##arsh
ocean
agree
Brazilian
radical
industries
Invest
Jenn
collaboration
Buff
Jimmy
Queens
cultures
chrom
clinical
Brothers
Environment
Grant
##asks
chamber
##elli
Melbourne
efficiency
distinction
##elle
##ureau
temp
hat
Spe
Kings
Perform
##itter
exclud
##uation
lock
Trust
excell
Roger
##rant
artillery
Freder
broadc
partly
cul
Hungary
unsuccess
Atlanta
Anthony
struggle
representative
Mess
adjacent
Sin
##uct
anch
spin
lose
aged
##igious
climb
occasions
Mond
##roid
facilit
guarant
missions
Call
rooms
Gab
Tot
##eo
##ouri
closer
Information
Puerto
barrel
Fal
1920
bes
fighter
hardware
reportedly
threatened
que
warm
##aire
revenue
printed
Gordon
colony
EC
Area
ris
paintings
##erald
Sax
suitable
Johnny
Billy
##sk
hope
##mouth
copy
##endar
mountains
##utt
##loyd
##licated
##active
possession
infl
##30
helping
##lah
magnetic
crimes
CS
salt
Trad
Ins
handed
97
convention
Confeder
rivers
##car
baby
kilomet
computers
originated
impossible
##ulus
transportation
Leban
##eing
drew
##ilty
##obi
origins
##rogen
PA
electricity
evil
Wrestling
biological
##onian
##ancer
reception
auton
helicop
texts
##oa
Winter
Delhi
pist
fab
constitu
proteins
faster
Bull
adults
##12
participants
vice
##elson
ranks
Cart
Hans
Magn
Warner
resign
spoke
stayed
discont
completion
strategic
spending
Advent
atmosphere
UEFA
Champions
##raf
##anks
believes
1935
Hamilton
Byz
grass
notice
datab
efficient
Soon
chronic
cous
locomot
##ailed
dogs
##eenth
Video
##iop
wants
viewers
Belgium
blocks
Minnes
approval
swit
cricket
exclusively
Ty
peoples
throne
waste
Finally
##lication
##IN
Staff
##rane
Commer
justice
commented
experimental
wedding
procl
restored
Allied
1920s
conversion
declar
Tokyo
##agg
operator
Stra
##olis
technologies
Tib
Mult
ranging
Somet
descent
restricted
##eton
##ardens
competitive
Hold
corresponding
meets
##life
Zh
##place
expert
communications
aimed
##iley
horses
curren
defence
deleg
carrier
musician
perceived
signing
rated
peaked
mineral
Pack
Minnesota
##rence
passage
controls
Hotel
Reception
worship
hill
##OM
tissue
drawing
submar
steam
Sud
1930
HD
##ayan
Marx
1900
Local
Oak
##using
1934
##opher
qualified
##40
Lank
slowly
exactly
##oca
##overty
situations
Much
##otyp
##rip
options
160
Code
archae
##tic
Dynasty
lingu
DJ
Mars
Get
##mate
##oked
hunting
junior
acknowled
annually
Obama
flav
assign
Jason
signals
Father
banned
McD
falling
organic
journalist
##itarian
Sign
matters
BM
understood
##andal
##unc
concepts
Review
Princess
##brid
Norweg
tube
##jan
Those
vertical
##iter
##ista
Matthew
voltage
logo
Trade
##ayal
##DS
implementation
Organization
##ogle
partially
##iki
consp
dynasty
Along
exclusive
aspect
Hungarian
##usalem
variation
##ecution
bid
tight
Kam
instrumental
wounded
explain
Cry
Cer
thinking
fishing
manufacturers
##seud
##hum
fert
Point
##hess
##LC
dispute
##ardo
defeating
##ports
resigned
diameter
outer
##mat
##ean
exercise
syndrome
##after
delivery
##iology
proof
vul
Morgan
dated
Harvard
sover
Jerusalem
Psych
variations
Priv
NY
Seattle
Story
hydrogen
Indiana
pip
variant
fitted
##emet
phosph
Rac
weekly
##certain
distinguished
sounds
Chairman
##icip
Phill
tie
compat
tested
##issions
Seven
Sah
##anger
Sciences
characteristic
inch
discussion
Hom
Hig
##roph
acted
merely
##rupted
##egas
##uz
execution
stood
bone
predecess
Pitts
opponent
illness
femin
lob
##lus
Om
VII
Mississ
asks
Originally
commem
whilst
Hebrew
rescue
muscle
##iments
bon
refere
1919
Studios
##arks
historians
comparison
Holl
surrounded
1917
displayed
Friend
##bn
recovered
Juan
##riev
##enh
##ycles
Cook
particles
Mi
Harris
Charlie
drivers
thin
##exp
Gi
Daily
interface
cogn
Anc
restaurant
Andy
fest
ham
Carn
Buddhist
##wick
expedition
teachers
beautiful
bron
copper
##aments
##thus
abst
matrix
##achelor
Dance
##idency
labour
bright
picked
Quebec
Alab
Aqu
Ec
##nold
Horn
Ern
##nat
surviving
##IP
##onymous
##jo
##mun
Laur
##otton
faculty
agriculture
taxes
Boys
##rell
genus
wat
##haust
Cape
credits
##rene
enh
##eters
69
Cold
FIFA
experiments
Karl
indicates
Yugosl
facing
Junior
usual
Term
guilty
geomet
oriented
Rain
engineer
Tower
Oklah
toler
82
concrete
##rett
seeing
participation
consistent
1929
##asure
##ensional
recommend
thirty
cup
87
1914
##acc
Around
##ripts
lowest
Meg
obvious
Rap
Rey
chapter
eggs
Naval
suspended
##ete
gate
92
Danish
Dh
##ensively
cylinder
depicted
Fact
Labour
##wing
Sarah
##iner
##western
provision
elsewhere
milk
select
Nav
##igible
survive
Oklahoma
##oking
prove
scholar
Steel
Box
13th
Carib
##don
##sters
slave
diverse
advis
universal
theat
eliminated
##ML
kit
##graduate
bat
emphasis
imperial
Type
Set
Carter
colleges
Player
##operation
##erb
argues
Roberts
Missouri
victim
Pruss
RA
Ru
execut
republic
wet
theater
Political
trials
cann
rising
SC
##iga
internet
7th
wrest
newspapers
Shortly
classification
opportunities
##oons
stored
permitted
airline
Jerry
##veland
Kelly
neighbour
Anne
Hand
Merc
##aux
ceremon
Alban
Alabama
Russell
tone
##mates
##umed
sponsored
##uis
publishing
Dod
Mrs
##bean
##OR
##vant
Authority
##izer
##sea
Prix
Blood
Phoen
Chart
Universal
garden
Stanley
literally
##elsh
Cleveland
circle
latest
Gill
Norwegian
Late
premiered
Fac
##iah
emotional
boundary
##iph
diseases
lists
##burn
176
Gang
speakers
Dur
Mes
py
distinctive
Lawrence
neu
arrangement
##olid
Austrian
elder
cycl
sustain
##sequently
diver
looked
Chand
##emed
advice
reveals
connections
Hills
gal
##vision
##ailand
empt
##opes
voting
rice
legs
client
##opl
Garden
Tol
seemed
12th
##ippi
Airlines
solutions
connect
##aro
exhaust
difficulty
tub
constitutional
memb
Comb
helps
rounds
Stars
Shan
statements
artific
Nash
Route
15th
Bishop
concerts
regul
beliefs
subsidiary
Throughout
##aver
Bomb
Lam
highway
Senator
suburb
functional
1932
Toy
aw
84
manip
Adams
answer
Tradition
Finland
stead
feud
marks
Oreg
referring
Sex
cloud
recovery
les
##terior
reserve
Alexand
binding
schedule
persu
Our
romantic
##die
targets
manufacturer
Until
##ulum
concerning
compounds
Prom
##ellion
Thailand
tack
Medit
##orus
Anglo
talent
colonies
fee
##acher
mixture
##osy
deployed
handle
fulf
Mother
dollars
expand
tum
Economic
vector
PS
preserved
attempting
SP
subt
outl
noise
Protestant
Professional
surpr
coins
##heastern
##inct
##ocation
Scient
Rest
accurate
##attan
veloc
metres
residential
Spirit
GT
Saud
ll
Antonio
familiar
##amese
hockey
argue
deriv
competed
pages
##uru
depression
##iege
wooden
Fred
Joh
flash
##urricane
Welsh
acquisition
Langu
Vers
McK
strengthen
Iranian
boot
palace
##emetery
##cont
Camer
spaces
wings
##abs
ratings
Stewart
tape
framework
clim
##cribed
condem
Pittsburgh
ft
Ark
ampl
Michel
tons
Oregon
DS
collapse
enforcement
Orle
cutting
##esis
twin
##errane
relevant
initiated
spir
Google
mamm
ing
Norman
Maj
Any
stem
physics
##idges
quarterback
Bud
contribution
6th
sulf
Montreal
##rection
##anton
2014
accord
Cass
Brun
export
Sultan
designer
##eway
organisation
##IM
touring
battery
traded
MTV
reconst
Nevertheless
##bro
##rat
nomination
##raud
aggreg
aware
thereby
##aughters
IT
Electric
Benn
approaches
Christopher
alive
Face
Intell
varies
Affairs
jurisdiction
remote
drummer
Maryland
customer
conclusion
earthqu
Century
##ifer
175
manage
Kaz
Soft
ST
sky
##iece
indeed
mac
demands
phenomenon
Ent
##icing
rifle
##ibilities
71
Lock
Capital
##erranean
Sony
10th
missile
isolated
Eventually
kg
Digital
##odium
Bes
Tu
camps
furn
ongoing
Bureau
##sky
depends
emperor
pump
Lith
interaction
manual
##iture
symp
wider
Small
coun
landed
partners
obst
Regiment
Austin
##arma
structural
package
suspension
pointed
blog
telephone
Know
Limited
Orleans
##ovak
nam
tribe
Report
sin
##onda
tag
Manh
waves
martial
##unes
discontin
##ão
Current
Louisiana
crossing
perspective
sang
pictures
explains
transmit
Mediterranean
alliance
bases
Nort
poverty
borrow
reflect
drums
Bangl
establishing
Rot
objective
Sac
filter
NA
Dean
##ugg
Aer
93
##hent
writings
Cambridge
currency
Members
funded
##icy
dramatic
fewer
##imore
infection
pret
removal
Napole
subsc
Mississippi
##avery
judg
stick
restrictions
Gary
orbit
blind
poison
Marshall
drag
MA
pursue
Cyp
14th
describing
##dale
ordinary
decides
Alph
simultaneously
Ry
1931
sharing
Tibet
invented
Kit
79
abroad
smooth
recre
firing
##icism
requiring
##istical
comprehens
Bou
scen
negotiations
exhibition
eleven
##és
Culture
respective
Colonel
toured
conven
Lieutenant
Ve
railroad
Chel
coat
manusc
competing
demol
##ais
encl
Currently
##estyle
##hal
##uli
theoret
traveled
forests
boats
creative
commemor
Kl
giant
##aman
judges
##emic
Admir
ties
Friday
certified
venture
ray
##RI
Eff
elabor
virtual
shock
behalf
artistic
charter
farmers
involve
##oil
Territ
Cher
legit
deliber
Region
Chem
Fried
##erior
##uction
Systems
pin
reverse
Start
##wareness
1940s
##mits
Cooper
Samuel
Wing
abilities
erect
prize
charity
pharm
##uri
worst
##ando
chlor
sweet
##hyd
overseas
Franklin
##point
directors
dict
##achment
radar
Draft
Mahar
##olt
easier
Independent
spend
##anner
provincial
representatives
GM
##icts
89
Syria
##ige
Caribbean
requirement
1928
posted
dimensional
##assador
youngest
remainder
soph
feelings
patent
reactions
Lov
##rav
Ring
##body
outd
resol
meetings
behaviour
Alliance
necessarily
Near
protests
08
regulation
Ton
campaigns
Ul
statistics
Brah
enemies
procedures
incomp
Mountains
Inn
missed
telling
extend
Creek
Mumb
Youth
polar
sav
sessions
accum
apartment
sung
decide
##ür
fighters
opponents
convicted
##arr
Ale
##itic
handling
sure
rational
81
hole
##where
doctrine
coc
##bles
tribute
racial
warfare
##je
willing
130
Wy
sole
Bird
Surv
Neg
91
##mers
##irates
forth
enact
hidden
comfort
reforms
Initially
Ped
prest
oblig
Baseball
drinking
##ipher
funeral
fill
##itudes
##stan
mine
Mans
receiver
##umps
Clinton
##aft
Baltimore
mathematics
algorithm
##uable
heritage
specialized
cargo
Mission
affair
##esty
##acked
raising
Metro
Reserve
sensitive
difficulties
Knight
Java
##kel
truck
Rangers
Alfred
##yright
requested
papers
uncertain
##boy
Morris
Barry
##RS
Vinc
feeling
coinc
instruction
Anna
##icious
convert
partial
overt
sentenced
spac
##atinum
Lang
preparation
UC
94
##dy
priest
prosp
LP
orient
##idal
Champion
psychological
alumin
83
restaurants
disaster
##owa
Yank
Movement
permission
##otte
##aws
wrestling
Wayne
Chang
##apolis
horizont
sequel
significance
##asi
unt
##agar
Well
favorite
##dam
##cope
specified
attorney
wheels
Ze
Margar
ride
Luther
cavalry
dismissed
Notable
educated
foss
server
extensively
Philippine
icon
##ho
underw
releg
Marie
Officer
Natural
Training
Wol
Ori
Ky
Guy
1922
compilation
Gor
Robinson
evac
##uests
toxic
kings
1927
##quir
Maur
Wright
studying
honour
contracts
Regional
Ukraine
retreat
##atherine
3D
mile
Tig
##jab
pref
Shakes
cousin
beach
optim
coffee
Walker
plain
probability
##lock
##math
##SR
codes
bic
alternate
##ums
odd
bot
Andre
##ania
##igrated
pulled
flour
songwriter
2000s
##angle
comments
##ods
Mumbai
Broadcast
pseud
renov
Lanc
pm
09
Has
Delt
afterwards
##enger
calendar
##teenth
portra
##ía
payment
tru
inspiration
fur
filming
generate
wish
Commander
statue
Rav
##eto
##ctic
closing
##dess
11th
Goth
saved
visiting
##essed
reflected
1925
molecules
ID
##ourse
improvements
Liberal
shorter
Manhattan
proportion
wel
pronounced
21st
##mingham
lun
intense
enthus
##pear
Bed
decrease
shield
Altern
##ials
immigration
##uki
Len
jet
##ouver
competitions
##zh
virtually
merger
Section
mini
Hend
Product
##br
permit
dialect
stability
historically
prox
1924
societies
scores
Method
Frederick
##ophy
##etta
homosexual
separation
submitted
varying
intermedi
looks
clot
developments
Row
ju
bath
Tax
publications
CC
punk
operators
pushed
##oming
Shakespear
reporting
1921
170
define
disag
correl
predict
##iper
potentially
Birmingham
Ko
memorial
armies
Liter
volumes
##azines
Medal
ranges
hier
forg
kidn
Similarly
rhythm
scar
Hem
Girls
Kap
playoffs
messages
##urray
Lane
supplied
nurs
beating
AA
Nintend
dischar
boss
magic
##alin
Lad
##nia
belt
eighth
criteria
highlight
##din
variants
##rimination
Emer
receives
##lad
##sch
Using
Ker
Mind
nerv
##zed
Sig
##zing
##away
Freedom
tea
Maced
##alia
vessel
fame
##ocket
Vegas
loop
Heavy
aqu
Madrid
tasks
Graham
Pant
guide
Bobby
Gand
approached
flowers
Support
maintaining
Occ
fract
licensed
Mongol
Gon
Kentucky
flew
##eping
alien
EM
Parker
##LS
properly
Nelson
awareness
Princip
1912
Nintendo
bronze
##avan
ion
fabric
patron
promoting
shopping
penet
phon
Having
Exper
Milan
Action
artificial
##oga
Others
induct
Formula
daughters
settlers
forb
gap
Thomp
1923
##inos
psychology
Vanc
##onal
##ashi
proclaim
excellent
##break
namely
Delta
examination
Bond
Campbell
Return
retain
Nation
Sor
samples
interviews
velocity
##rous
Cuba
fasc
##aze
heir
desired
Byzantine
followers
Fleet
Fern
Ric
##GA
##irts
##ixon
fairly
##inced
##emy
informed
marine
##fish
bacteria
wealthy
Mall
recognised
CB
economics
##agram
secured
breast
Pas
##aware
Ancient
Pil
Mayor
downtown
database
Dublin
##arked
cosm
Ages
##ancell
Honor
Rud
tunnel
beauty
Upper
Bangladesh
logic
Ferr
craft
rect
##iracy
Expl
Lithuan
Grammy
Amaz
confused
Comics
quantum
grandfather
champions
Saudi
##ateral
mayor
Tan
1926
##wall
##gate
Robin
amateur
Griff
borders
stroke
Chall
revival
Sid
Metropolitan
##auge
Years
intervention
hybrid
Hus
Vancouver
buses
pilots
warning
Squadron
Legisl
Cou
doors
mainland
eating
lights
convinced
##acre
Thompson
oxid
##low
Dragon
Palestinian
Full
##gi
advertis
vari
comed
deemed
nickname
finance
documented
fraud
infer
AN
##anne
absolute
weekend
Cob
boundaries
vulner
regist
assisted
endors
Ian
Mort
Celtic
wore
##ls
democracy
Marvel
wick
Fun
axis
surviv
Fel
symbols
configuration
Speed
broadcasting
1910
intercept
quoted
##auc
locally
Hawaii
Josh
##chell
Village
##fit
##enez
NAT
##hentic
##inite
arbit
Kum
Record
regardless
virus
Diam
prototype
9th
8th
Gran
denomin
Snow
ruler
Had
##stery
##iox
Vienna
##ospel
tourist
IBM
distinguish
attending
##velt
punishment
shr
counties
patrol
divorce
##ishn
Punjab
duo
AF
winds
hypothesis
improvement
detect
Phoenix
##omes
happy
Round
blow
descendants
electro
antib
Financ
disturb
graphics
Rand
VI
slavery
Nam
##orious
900
##agonist
##asa
bull
breeding
skill
cooperation
creates
monarch
Medicine
Construction
bin
addressed
Exchange
##Station
memor
##80
deck
Larry
Orange
##riors
pup
##ener
##olar
Rat
liv
##fe
poems
##amine
Tob
supplement
Tag
repeatedly
##iffer
survival
corruption
philosoph
sized
##owder
##ifier
cinema
##ouses
jury
##mi
Infantry
magazines
rugby
explanation
ninet
Fem
birthday
##oids
##gun
varied
delayed
estimates
employee
departments
##ecraft
updated
06
productions
da
Donald
intern
asking
desert
Pub
Ice
Soul
mos
oral
tourism
Benj
##ookie
bearing
shops
dish
1916
Romania
Farm
extract
genes
Iv
##elfare
BCE
Filip
Songs
winners
Jama
Hockey
merc
Storm
privile
kinds
Roose
thereafter
acou
McL
Vietn
Slav
symmet
windows
##reement
##chi
##estone
Mick
Raw
challenges
attacking
afford
##oda
Murray
Vietnamese
Swe
lawyer
##izz
Defence
walking
Sour
##asia
##acles
autobi
##eta
automatically
carries
concentrated
Chamber
venue
independently
Books
edited
Peters
putting
Nep
Fat
##bow
sharp
Article
capabilities
allegedly
integration
resid
cam
flows
##GB
Former
Ye
##di
moderate
ceased
guests
cancelled
Osc
photo
Opp
Bapt
Unit
Giants
motorc
Cad
Mobile
Pin
displays
##orer
landscape
mit
Jose
collaps
rib
cooper
1911
##acon
Anim
Connectic
sket
unsuccessful
##rium
Bear
Oil
contribute
Connecticut
##ashes
07
bars
Greater
realized
revised
Syn
orb
settlements
##sts
Roosevelt
spectrum
Terry
thor
optical
imposed
Boeing
Industrial
Utah
Financial
##ON
earning
qualifying
##omous
Pad
knock
minim
bombing
tradem
Icel
sick
##oker
##uda
metab
Student
Flight
substance
Zone
Fight
Lanka
uncle
##geon
PlayStation
ingred
caps
Shakespeare
Thor
##borne
##isations
naturally
thermal
##pent
focuses
scatter
IN
championships
Turner
platforms
hosp
editions
municipality
##employ
Iceland
soap
engage
Salv
chest
##ulu
stake
exchang
renown
allies
Rio
Rhod
Warren
Mack
lux
sending
signature
Grey
Theater
versus
1915
dubbed
##amics
Conservative
Students
Reform
backed
rocket
Pradesh
05
abund
underlying
##hana
inters
migr
waiting
Tech
Legend
considerably
cattle
ports
##aders
##enson
##appy
##senal
crossed
horror
northwest
coalition
##eli
Margaret
Abu
raw
Alice
devoted
##aco
forcing
Sans
interpreted
brig
secretary
prevented
hub
dealing
flower
conservation
cow
Chuck
Computer
bankrupt
varieties
##sm
internationally
Arena
Carlos
appointment
remix
Bask
Place
recognize
CIA
##aja
doubt
##irm
soldier
mechanisms
telec
gods
ESP
Ax
holiday
cameras
gro
Beck
##arat
##iciently
stronger
Jun
##iri
##acco
push
provisions
##ijing
##cially
temporarily
Pierre
notion
Dram
##lon
spokes
Hud
rocks
##onsin
Communications
programmes
reaches
Ethiop
drafted
##iliation
haz
##hard
mathematical
##anga
conflicts
pill
collections
Spr
Reich
horn
Agricult
##ivan
revolutionary
voiced
casualties
molecular
temples
Bernard
apprec
progressive
##inated
bread
##munition
citizen
demanded
Kan
Anti
##rik
##phy
connecting
Gate
Mol
##EE
MC
Buddhism
##60
rotation
##ortunately
variables
Yam
administered
teeth
danger
eligible
Benjamin
delay
considering
narrative
pairs
beam
nose
##aku
Vel
Brigade
talks
disk
CH
Log
##oned
diplomatic
identification
burning
##ugs
Side
clar
altitude
fifteen
disorders
enabled
cataly
murdered
inches
tenure
Wisc
dynamic
architectural
GP
interesting
vital
anime
Bengal
Bey
layers
comprom
Brooklyn
Alaska
lung
##leton
Steven
completing
gh
verse
Herm
##owed
Language
##oi
Cultural
Ga
SM
Blues
gauge
manufacture
Stein
jew
aggressive
northeast
##agger
Romans
cabinet
##abul
speeds
finger
moon
Johann
Wisconsin
Living
animation
prey
##icken
monaster
verb
consolid
citing
##eries
diesel
Renaissance
Next
entity
Rugby
storyline
leaf
Beijing
Rico
##uated
equally
elite
Studio
festivals
Baker
seriously
Cann
##borough
Thir
##former
Works
101
organised
Judge
##roduc
placing
accessible
##anche
##aran
##utor
Iraqi
withdrew
pregnant
Lear
comprehensive
1913
parad
pries
encod
shots
similarly
findings
reporter
sacrif
Mitchell
particle
culmin
Serbia
164
125
##regation
civilians
Tang
gift
110
##ocent
communist
RAF
vit
maintains
Ald
NS
##pa
monument
breaks
anticip
Lower
escaped
jack
arrive
Isa
trick
Rolling
##ui
defended
blend
Apoll
neur
Mut
Singles
Ward
promised
shoulder
Jonathan
Monday
citizenship
challenged
wait
Alt
Obs
membrane
unw
##tym
preval
register
##ulsion
##ski
democratic
##ieth
copyright
minimal
Mak
marg
consequence
firms
compact
substitute
synthesis
Vic
occurring
tennis
quad
anthrop
legislative
laboratory
grave
valuable
swimming
##kt
consumers
masc
NATO
authentic
Diamond
beer
cuis
sword
actively
SE
bonds
##eston
Adv
Venez
##agers
readers
overw
releasing
Heritage
photographs
Data
Right
##okes
##illo
Roc
confidence
discrimination
Ple
##oric
mild
lift
Trav
ticket
Classic
Marath
Constant
##feld
FBI
Jefferson
seeds
drives
Masters
integral
consequences
Produc
accompany
Fif
Collins
References
Track
##ettes
secular
##ompass
engineers
nerve
##OT
generations
donated
##cho
banking
Shel
lifetime
##anim
surprise
item
earthquake
plates
succession
vocalist
estimate
tract
Still
attitude
Schools
##eda
##iffs
LA
exhibit
empty
indicating
unn
wrap
##power
peas
sitting
Canal
Magic
prepare
gathered
quiet
NASA
enhan
##adic
##atever
dimensions
NC
organisms
Tourn
millions
experts
Eddie
##brev
diamond
trouble
politicians
bulk
Lion
##aping
Dak
Evans
adequ
attendance
golden
arguments
##rolled
Beginning
Representatives
Deep
##unct
initiative
##oline
breath
accuracy
Pent
Based
porn
array
##cos
switched
clients
stere
##edge
ro
Orchestra
girlfriend
dancing
paying
##erated
##aneous
canon
José
##istent
fallen
Bulgar
Lloyd
suffer
Opera
undergraduate
Woman
Armenian
##WA
reward
##eva
Brand
dollar
Sic
printing
Performance
##bird
volunt
footage
sisters
consciousness
Finnish
Yellow
valve
meter
complement
Linux
predecessor
Kos
lens
stabil
torn
##onna
scr
Abra
duration
##lete
altered
##ificate
annex
resource
Athens
immun
confusion
encompass
##olen
depict
faces
##lev
Thai
##rage
Net
Independence
fatal
cuts
pap
lawsuit
parks
Admiral
Operations
##vironments
ammunition
Future
##RT
##acht
##div
Rab
##gon
##no
Newton
##itime
visits
backing
habitat
Walt
##enne
renowned
Days
digit
Gay
eventual
Senior
crops
Serbian
##itary
##lining
segments
Ted
destination
##onald
##atar
Inv
##igar
indirect
##asp
##overy
##kar
Stu
encourage
emissions
##ologically
migration
grap
##empt
myster
assessment
transformation
suggesting
premiere
horizontal
fet
Serge
Baby
Sometimes
##roscop
cens
##bes
severely
capability
enable
##bing
bay
Ot
exit
centres
bullet
surfaces
weaken
##enders
decreased
theoretical
##rises
trim
intr
##yard
commitment
Perry
owns
Sull
encountered
Pictures
Athletic
Battalion
Beh
##aton
overwhel
Neil
personally
Geography
innings
gent
##olo
Ukrainian
adoption
predominantly
Ground
##atus
prayer
sciences
Edin
devast
Luke
Hindi
Nord
Insp
curve
Say
investors
01
Popular
Pink
gaining
Intelligence
Pont
chemistry
Wonder
unemploy
errors
##atra
presents
audiences
obl
Hamp
commanded
Napoleon
gly
Moreover
1905
burned
##mund
restoration
sequences
shore
##rys
Ey
##ymn
Belgian
rebellion
siege
traveling
measurement
boost
Urban
mines
targeted
##opp
Saints
##tes
legally
cartoon
environments
manifest
##idae
threw
abbrev
calculated
excav
parish
Lebanon
deals
collective
blues
Attorney
##ishna
sheet
##isons
##asht
##lie
alge
designation
Fisher
dil
##case
politician
Deputy
upcoming
drove
##holders
##uez
parliamentary
guid
hospitals
commercially
reveal
##haw
observation
Iowa
##othy
manga
sustained
solely
##arms
tu
recalled
Lud
Lenn
Protection
obsc
Alpha
ninth
outcome
Barcel
tens
Pay
suspected
Relations
fro
Venezuel
##BO
qualify
Pel
##icking
Vas
ages
proven
168
Craig
1908
Kirk
metropolitan
##IDS
maps
Together
##ovo
Got
##riages
interchange
##pat
##achi
Moroc
##ocal
specim
Arabia
relating
announcement
stops
celebration
buff
na
heter
##odore
lap
laser
doctors
fees
thanks
bonus
##iya
Industry
instructions
enl
affiliated
Tak
Kid
constantly
##uman
Dest
##core
##urities
associate
Ja
Players
enters
physically
worker
foods
Must
expanding
centered
grid
sacred
##igo
golf
aftern
360
Hunter
Edinburgh
southwest
Denver
sor
transformed
acknowledged
##ulates
Cathedral
interactions
talking
##mel
Racing
Wa
Environmental
##ancellor
Sug
marketed
rivalry
##lem
mutual
Juda
legacy
morph
##cut
##eding
termed
Architect
acceptance
missiles
Chelsea
diversity
fantasy
Harrison
HIV
curric
cock
Amendment
Sad
utility
publisher
cancel
cotton
accommodate
enorm
##ema
Batman
Legacy
orientation
Nicholas
##bu
##ficial
fifty
speaker
Nobel
acoustic
Safety
rape
##chron
grain
outstanding
presentation
catalog
carriers
psychiat
Scar
prosper
governing
friendship
Sr
Rogers
Comedy
RNA
##ović
##fire
Peninsula
Jazz
Democrats
arena
sizes
##acking
##nty
Gabri
##25
protocol
lip
Abraham
redes
##odge
accomplished
##odynam
allegations
studios
developers
##gs
Bun
arrives
##iblical
Recent
divorced
ESPN
##inking
scope
Buffalo
Romanian
hoped
##ouch
lesser
gif
canal
equations
Assist
Pic
##eps
Various
Barcelona
Jar
##nda
##ormal
rulers
Joy
discipline
compensation
CF
libr
tip
##EM
##sex
Danny
plural
##iti
Wu
140
failing
Qual
Without
anarch
Neb
dimin
taste
Plant
YouT
Bund
columns
leather
discontinued
##gus
intensity
Eug
southeast
##amo
conquest
toll
Oliver
##zes
Campus
cler
350
tension
scandal
##oan
##ivia
Pul
##lights
##iler
Lost
defending
McM
sitcom
synthes
##olith
##ín
##rets
Beaut
contrad
resort
Lisa
confront
reluct
scholarship
precip
LS
zones
circular
Brist
attraction
tomb
installation
##eted
Hann
deeply
Motors
conjunction
rid
##itely
Private
disb
riding
weigh
dialogue
##ré
TD
##igent
suppl
cere
forty
imported
Confederate
mentions
##HS
emerging
##omon
consent
brands
bears
divine
##iaz
cognitive
##uum
ash
knows
lasting
exile
patri
Bri
Stalin
Charlotte
cust
##actions
##izers
circulation
Nigeria
Gallery
withdrawal
tactics
fiber
YouTube
bell
rivals
##race
##legiate
jail
##aha
recurring
defines
Tiger
##rators
Hispan
rever
inherited
clothes
perpet
Haz
topics
diagnosis
reserves
##umni
##imony
##rang
farming
passion
oct
confron
Susan
victories
Aar
##21
deposits
permanently
##ewise
Spider
Lan
WWE
04
Arsenal
width
##elect
##iors
cub
boom
Kash
Transportation
entertain
##eals
##PC
assassination
improving
##idelines
Universe
##bus
##missions
gravity
bishop
Edition
tong
##reck
listing
lighting
clan
Dennis
alphabet
##ulous
Barn
Ral
##berry
##cons
commentary
professionals
brings
gig
nest
prohibited
payments
assembled
knee
shipping
##alysis
petition
bore
descript
healthy
Tab
##etheless
soccer
Eagles
##icular
##axy
##emon
dism
Poll
legendary
Glas
##eu
steal
counsel
MG
##inery
Rhodes
Thunder
Hudson
perception
174
GDP
complicated
intermediate
reliable
unions
Kon
carb
##part
Watch
##oqu
##mother
gam
transit
Rah
recruited
Critical
Software
receptor
Eight
congress
crucial
lineup
Aj
Arist
cort
##reprene
1907
##ishops
tours
comprises
Oscar
lad
MH
Tommy
authorized
thread
##olics
##roducing
##rift
Lag
##iens
cad
seal
incidents
Nevada
##itative
SR
belonging
##ishers
corps
Chronic
Lot
rings
Arc
##rent
participating
Hyd
liver
syll
loans
relatives
##ste
focusing
refugees
preserve
voters
quantities
explicitly
##bridge
##ishi
##aurus
aboard
hills
Chi
Doc
hook
submarine
Trophy
##apor
align
organisations
noble
Bros
Exc
discovers
vic
##urated
##quiry
165
Homer
erected
relocated
cuisine
Opt
tourists
Keith
armor
rubber
##omber
introduce
##owski
mask
compatible
##oj
examin
threats
Basketball
##ften
##master
touchdowns
##ampa
consideration
predicted
Curt
Actress
Leeds
criticised
prompted
bench
parking
managing
ITV
arrangements
diox
lying
creator
Caes
Din
arose
orange
upset
Ord
Cuban
Fab
agreements
dialects
##isa
monthly
Qur
##istani
Starting
Moz
##umph
kiss
anx
grey
judicial
shifted
##rov
acclaimed
##zzle
elevation
Syrian
1906
##MC
discl
Sikh
##tm
Hughes
listen
tribal
pole
##cha
fastest
auto
Tournament
##arth
Resp
aims
availability
##icate
Municip
applies
travelled
##ennium
Southeast
helicopter
acquire
Cricket
veteran
##ycling
settings
occasional
Ivan
lig
ov
till
elevated
Barbara
##orig
modes
Mario
Pete
##erver
certainly
UFC
##acular
AL
disappeared
SD
Member
orth
Besides
##19
quantity
##mation
accred
colored
Croatia
Gw
poorly
truly
fu
acids
Testament
##ghai
Vlad
legislature
Broadcasting
Cris
observations
Vincent
##illes
Indonesian
##star
Ghost
##alan
##ierra
epic
landmark
Policy
topic
induced
AIDS
##rafts
Indo
retriev
extending
renewed
tends
Joint
corporation
Pow
##rust
##etics
Raid
Coal
theatrical
athletic
remembered
explosion
##entieth
beings
##asma
Imm
##reeks
##imp
##inea
Sha
fault
##krit
default
trigger
enhanced
opposing
##mphony
Campaign
##gow
glac
Burg
Keral
##alg
layout
philosophical
##icated
Room
Harold
Use
##ikely
##asha
consistently
SO
removing
interf
Commissioner
detection
broadcasts
Kath
Lead
Often
monitoring
cave
##bie
offense
Bert
thrown
Judaism
Baron
Bak
colours
pounds
pregnancy
graduating
Cond
Yugoslavia
welfare
tom
assists
Mul
##itol
questioned
noun
##bi
unanim
hopes
##ilib
closest
cooking
mirror
theorem
Friends
##otypes
impressive
155
Philos
kills
##occ
Compet
Put
##zyme
Chev
kin
continental
parameters
ministers
runner
conquered
Nine
Chan
166
1909
Lucas
Colombia
##ayers
##ribution
##auer
strategies
Cars
newer
Yu
algebra
restore
##heric
undergo
Historical
Less
##role
striking
orchest
##alling
##tex
Palestine
Bristol
Suz
##gie
territorial
portions
ISO
Manila
feels
Clay
mph
abolished
outbreak
##itory
Gas
Catherine
##imm
##oba
posts
Munich
Bass
stones
##enberg
aviation
Pand
RP
humanity
Creat
bits
Ronald
Cinem
##enues
reorgan
gardens
##advant
##umer
167
##ellation
1901
##nders
##castle
fru
rebuilt
##assis
Catholics
Fitz
Fly
bag
cooling
continent
afternoon
bones
##MP
Sanskrit
heating
GA
tenth
Emmy
Kerala
customs
Victorian
Description
Socialist
artwork
Pakistani
fed
fate
guidance
Apart
wake
manages
trademark
##16
Hob
gran
Kate
Fran
dust
Wallace
promise
atomic
##ikes
##emia
relie
169
Link
dissolved
preventing
celebrate
recruit
##rior
scrap
##rah
Cole
Rus
Unf
vacc
holes
##irical
SN
Wor
dy
Number
tournaments
##ambers
##eyer
Bald
Sudan
Mason
upgraded
Cov
RT
bridges
Critics
Bachelor
##tymology
##urer
atoms
terrorist
Portland
watching
Musical
##icles
stolen
03
controlling
boards
imprisoned
investigate
GS
##care
proclaimed
tap
Drug
uncon
aggregate
registration
Sut
##bishop
performers
MD
##nal
Actor
religions
MV
negl
households
onwards
##appa
Sean
Official
Queensland
queen
Valent
saving
Heaven
Armed
merchant
Cand
governed
numbered
##oints
##itated
Pearl
Salt
practiced
##tar
Cinc
Mann
Baptist
Price
Minor
coaching
risks
Ess
anten
##angular
Crime
unrel
separately
Viol
suddenly
Bour
photography
##boys
##esters
Toyota
praise
Morning
convey
absorbed
Seb
Tigers
assert
decorated
lighter
##backs
Leo
View
Soph
venues
##nik
##oni
bombs
sculpture
Lamb
Shanghai
collaborated
##rooms
##otion
effectiveness
Aviation
butter
BA
CR
##rosion
instances
frust
Page
slot
dying
smoke
travels
Kay
drain
enthusi
aest
brows
##pert
Apollo
accomplish
Guide
Sullivan
Eagle
plug
##ogram
demonstrate
Edwards
defic
colleagues
Hope
seized
##po
feeding
perf
Peru
goddess
unlikely
BS
##cano
housed
Eis
nep
Vent
tob
pound
revenge
Yang
##agi
##15
##US
transmitted
abstract
priests
horm
##oro
athletes
Dale
achievement
anchor
conform
Gray
proposals
engagement
comparable
rely
honors
##VA
Ref
regulated
reduces
beaten
extends
clay
substit
Kle
Lux
1904
spell
replic
105
##ME
Grace
naming
borough
##HA
Nan
##force
Bulgaria
Hunt
accounting
Eve
conson
disputed
fusion
##omorph
Bulg
filmm
complexity
Sak
platinum
hitting
regiment
entities
terrain
##usters
precise
directions
Economy
ecc
Esp
essay
##ailing
Guardian
##anth
ultimate
triple
enrolled
Productions
##iko
unclear
Facebook
Pi
Path
Ralph
##held
##atty
physician
consensus
ber
tendency
Dir
Wel
ghost
considers
singers
HT
##pm
formats
shelter
coaches
numer
##ennial
margin
tale
##uka
absent
##eor
##arta
sophistic
Race
##assy
facts
##avian
Arnold
Beatles
elaborate
mechanics
smart
responses
Chapter
Yet
Maz
ancestry
##enburg
##uclear
loved
Kil
transported
Superman
##utical
interv
Total
TC
neighboring
Being
inducted
##imir
span
##vi
Films
Anat
biography
impressed
Clar
prestigious
##encer
Overview
1903
##OP
nominations
polymer
outdoor
ski
Higher
##hell
Buddha
reserved
differential
Todd
strikes
shirt
159
strings
Holland
Fig
AB
AG
barrier
dioxide
##edded
Gilbert
Esc
Look
Holmes
associations
Venice
eaten
enormous
priority
interference
##expected
Cut
163
volunteers
Drive
profits
Technical
Eston
Hab
Ug
Gard
lifestyle
hosting
presum
metap
evaluation
htm
rainfall
adventure
##atories
contributing
Glasgow
conversation
invention
##eig
conceived
surn
Quest
Machine
statistical
Finals
RS
Continental
##keeper
revers
##ilateral
exceptions
Madison
Cincinn
distant
##zo
##orf
##iots
skull
Hav
Wes
labels
##izard
electrons
insisted
##ylan
Shaw
Charter
arriving
overcome
AI
Self
##ido
artif
Simp
underwent
PD
XX
ibn
activated
lakes
Gam
##ussion
advantages
accus
Jung
##urbs
guards
moments
pollution
sphere
wors
##rox
excessive
locomotives
console
fisher
Anglic
bapt
##avi
strictly
PR
Brew
Villa
incorrect
Rank
paras
Past
mythology
##EG
##emble
mysterious
sou
adher
Sweet
unve
beneath
Ran
##amation
resignation
##ovakia
##OL
cream
Territory
##prises
Lions
ton
Treas
thirteen
153
Cincinnati
##itars
MB
orchestra
trucks
Fighter
deputy
handled
Pros
##ju
##én
02
Mang
sew
vacuum
##oves
freed
superv
coined
inflam
circles
##rolog
Newcastle
summary
styl
Reed
cord
tobacco
##tees
##ugu
painter
##itted
optional
magnitude
##aternity
compression
##EN
audition
compiled
panels
exploration
spite
##aceutical
genres
accordance
vulnerable
managers
practition
websites
rally
Carr
Rou
chains
##alks
teachings
Arkansas
comics
Wed
Hi
Babyl
##otto
##mented
metals
comprising
nervous
politically
Interstate
##iscal
1902
alk
McN
eliminate
Rabb
Daw
Cameron
173
immune
Controvers
##ahl
Bright
Croatian
##wig
mature
Mend
##mus
##itting
summit
theology
##ellers
scientist
reconc
hide
belonged
##urrence
Fantasy
##eling
instant
##yers
Syl
##eignty
diagnosed
##lain
happens
evident
##bound
airing
surpass
##regular
balls
beta
measuring
prosecut
##ilibrium
Liberty
Horse
noting
##ogenic
WC
imprisonment
tet
##rary
prince
gluc
ho
luxury
Hur
whatever
##hl
##isan
momentum
condemned
Take
penn
##vo
Hein
Movie
Sox
Stuart
relax
##aji
dimension
mate
##rific
##quis
##inned
quarters
adds
pursued
thorough
detected
Break
bassist
##isha
##fol
##cott
couples
watched
##fast
chromos
##sa
attributes
Talk
frequencies
##vanced
Ki
##idity
Manager
eleph
assume
Greeks
resumed
Mercury
Nova
Lex
sodium
Advanced
nicknamed
Bach
Cyr
##apur
advised
157
Kenya
blocked
categor
Eld
Kor
enlar
Fish
##isers
measurements
##writing
Guj
worse
Albums
forec
##13
bankruptcy
##itivity
invaded
##roleum
Americas
insects
Hait
cc
Fa
loaded
revived
Rivers
##quer
reasonable
gathering
##lass
##ifiers
##ifferent
admir
providers
tables
wavel
inflation
Mechan
##abling
##arin
##mans
resur
propri
lobby
Hat
Lak
reader
Sierra
##uns
Plat
Fourth
Cemetery
Cabinet
Watson
readily
##ión
Crus
honorary
ded
##ipper
schemes
solve
Coach
sectors
##ulture
reson
Dylan
swing
prisoner
Kas
harsh
corporations
##ullah
##yler
Alger
Historic
af
cartridge
##comes
Murphy
competitors
Stanford
Against
aside
implies
Character
continuously
Dol
unity
peer
squadron
Wag
156
Bog
rod
##hand
Gibson
##istically
chapters
dressed
##contin
enacted
Bloom
junction
fires
Contem
Metal
commerce
##ieg
Gregory
nominal
ineff
flank
judgment
inaugural
survivors
rebels
united
##affe
Honda
Patriots
coeff
neighb
##EP
154
Custom
1898
sporting
Aw
navy
chassis
HP
##hill
outs
towers
Name
##TP
Compar
Schol
nationwide
vig
##afe
cha
##romagn
activists
unexpected
Commercial
Roth
##ranium
mortg
Cel
Reds
Relig
Legal
finite
Nixon
##minster
determining
facilitate
pilgr
Stre
imper
learns
Krishna
##arus
differs
Garc
nephew
##rition
Luis
demolished
##osystem
planes
Lords
loud
##sor
ignored
Kurt
sheep
diagram
##aba
collapsed
spots
subdiv
Harvey
iP
##osely
Census
mammals
Constantin
disadvant
spacecraft
worksh
rifles
gest
Large
##inyl
##hev
Epis
##ét
##issa
equity
Reagan
telev
wishes
##piece
protagonist
intens
illustrated
voy
Jacques
##cepts
##unciation
finale
consumed
Amy
nan
Filipino
autumn
limitations
battalion
Wang
##imination
radi
propaganda
Tree
dinner
Falls
##omatic
Param
##unication
LC
##sterdam
epid
enterprise
anywhere
Buch
##elin
autobiography
auction
Agreement
memories
emotion
marginal
Block
bats
Ach
inclusion
apolog
ow
examined
eldest
##hra
mad
salary
##stal
openly
refuses
reject
Finance
conspiracy
trem
wireless
##orms
testimony
Yorkshire
Flash
Ahmad
##18
attractive
##ulin
##24
##rez
Level
guided
##restrial
##engers
holy
##wer
abn
reviewed
preparing
Argentine
Yankees
arguing
Cyprus
Gonz
viewing
Oz
Malay
navigation
Gothic
Faith
##rock
Gandhi
Hamb
##ingham
thrust
Stri
drunk
Train
rent
External
graphic
leagues
Marines
Desert
libraries
Hurricane
Come
ol
##HL
disappoin
substantially
keys
impression
photos
Rush
singular
Merced
burial
##orp
##ictionary
Sle
believing
sacrifice
abortion
##iji
##lined
##strong
sovereignty
Um
opens
Abbey
##ère
##amped
speculation
brut
##ulator
Oakland
##actic
Amsterdam
cyt
threatening
ceremonies
legitimate
dozen
celebrity
closure
receptors
rendered
geometry
##ptic
sixteen
Climate
Access
accidentally
##Os
##itects
electronics
##arded
molecule
fossil
Given
activist
grandson
Map
##ivic
Kill
irregular
Julian
Money
Left
decis
IG
enzyme
Richmond
recipient
SL
##do
butt
unst
expense
twentieth
sid
powder
discipl
Xbox
bio
entreprene
Auto
acute
lib
tune
epit
knowing
curriculum
##oided
gains
Indeed
acceptable
Cant
##iche
Wilhel
Hub
clergy
Scand
Saxon
archaeological
Fro
Rice
Resour
march
organs
##asting
replied
nineteenth
certification
Aaron
Cu
exterior
##bled
steep
Wells
murders
Nashville
avoided
impl
philosopher
Joan
Darwin
##ilia
allied
Raymond
##ocyt
1890
muscles
Pra
##apy
PP
ce
UA
resolved
Maine
##ostic
##ray
quot
##ophone
compositions
streak
Guinea
Crow
##sche
##liminary
Vo
dramatically
fortress
aftermath
##aring
introducing
##onnes
tickets
##onation
Mig
medals
connects
Cauc
loose
chip
Drama
##roying
Pav
##zi
agrees
infant
overth
socialist
Trail
Tir
geographical
Bav
##stand
Body
##DI
journalists
hull
Chrys
Commons
##ogs
fourteen
bub
IM
staged
automobile
revolt
Bulgarian
Presidential
deterior
Hampshire
Diet
buying
performs
Yale
privately
Weekly
trace
custody
##net
##bery
distances
posit
Railroad
undertaken
##vas
##hend
Franco
##parts
##rup
Abdul
Stevens
Et
Nas
Helen
##via
Doll
RC
crystal
Herbert
declaration
Balk
Celeb
presidency
Citiz
moist
casting
pink
municipalities
approxim
raids
##etti
contents
##HC
tongue
sus
violation
Simpson
coupled
109
hotels
batteries
ha
provider
innovative
##verage
##istence
Half
Individual
##rians
##teb
advances
CM
arist
blade
Hence
Prison
equilibrium
##habilit
pace
graduation
objectives
Pick
##ilian
Monte
resistant
Justin
Circle
destroying
##atial
True
cheap
struggled
throwing
uniforms
Cambod
bowl
pupp
Northwest
##hin
reactor
nationally
ES
Mix
##arc
##irable
wavelength
Math
torped
metabol
Voice
conducting
chemicals
communicate
##stad
critically
Bears
##instein
158
##ds
evol
##pine
applying
##ente
biology
runway
1800
impair
##urse
##rand
##14
Chin
factories
specification
Poly
##iev
Indies
bout
derives
bypass
ML
##lee
##EL
processor
Ferdin
ingredients
##bian
Kiss
grows
expelled
##ascular
reflects
Phillips
linguistic
achieving
Isaac
gamb
qualification
##pro
##ör
parody
farms
inhabited
civilization
##urred
transpar
marking
Germanic
witnesses
guidelines
##olithic
Contemporary
traits
stretch
Hugh
Mik
dup
travelling
##imity
Costa
computing
affiliate
flown
valued
Additional
bombers
adequate
gates
##lia
commenced
spawn
autonomous
purely
Kun
##elet
Shiva
populated
##iological
Greatest
##isting
Pract
technological
##veill
aristocr
##airo
Mugh
##canic
basin
disputes
##mont
pipe
Online
specialist
Leonard
##iliary
Bent
##amy
Manuel
Compan
Devil
mood
feedback
Rams
ministry
Process
Globe
##unning
106
##criptions
##cence
feather
Hero
Cert
dishes
##shore
MW
ty
##pher
##OW
rede
insuff
meg
neighbouring
portrait
Nature
Wik
Unfortunately
dealt
##ancers
silent
Shadow
Challenge
Pedro
interviewed
Armstrong
Bened
prosecution
##inate
por
vend
hostile
Typically
unre
derivative
##adal
##oshi
Dw
##gal
##umi
lacked
##through
unemployment
##arians
Frances
##mo
ease
Proper
frames
ancestors
##mn
Symphony
addresses
Verm
seemingly
1896
weakness
backup
voices
##22
governmental
skilled
##onnie
Gene
##lington
Mob
brick
investigations
regulatory
monarchy
##engu
phenomena
##uity
##agons
remarkable
massacre
Theory
badly
dense
flexible
genu
Classical
##ampire
##atha
vibr
Ps
amino
Leader
Previous
injection
##eded
Legion
##veillance
Nancy
sponsor
navig
treatments
draws
Rol
concentrations
CPU
pian
tough
##raul
##gae
plasma
qualities
Consequently
opinions
Gust
modifications
Nepal
utilized
tactical
referend
Rather
smoking
angry
Flying
##child
Derby
##usive
peninsula
##outheastern
NT
rolling
innovation
floating
##itance
heated
Venezuela
humor
Liv
1899
Bod
nucleus
spelling
binary
##quest
Bris
fo
monopol
topped
bias
Ny
Twitter
Cardinals
infected
##ographics
Owen
prominence
promotional
harvest
composers
##IL
Henri
Fine
mu
admission
##egraph
investigated
Criminal
Pok
revenues
Generally
achievements
withdrawn
nitrogen
enhance
calcium
complaints
Apost
Triple
##idad
Scandin
defining
definitions
##onso
Ig
logical
##idays
strain
terrorism
Advis
135
Recently
explore
Tru
transf
fights
##bone
suburbs
mud
nights
##lend
Heat
unoff
maneu
Chancellor
Dim
phases
Guild
Jet
proximity
##aults
Pir
##amous
##nai
carved
sad
memoir
Va
carefully
Allies
##arium
freely
##FS
Mercedes
Shop
sau
Europeans
pale
##uras
Florence
advocate
##iblings
##bach
advocated
similarities
Herz
Primary
##BN
killer
informal
trio
##artered
tended
##hall
##ampton
149
lateral
Phot
sophisticated
Brooks
grants
##bane
Ruth
cav
responsibilities
CT
heroes
stationed
discussions
poets
##vet
totally
##ecca
metall
##bul
button
Dame
##town
1895
Depression
motorcycle
Blu
specially
##enos
Case
Economics
investments
cleared
Krist
Butler
peripher
developer
electoral
guitars
##clop
wage
Enterprise
mandatory
teles
es
contacts
Conserv
elementary
amendment
Hous
shallow
thoughts
Nuclear
Collection
counts
Shir
edges
##ingers
##ocolate
Midd
##var
honored
generic
née
##omical
merchants
Morm
Ferdinand
kids
puts
##ersion
symbolic
##neum
Solar
combine
metric
manuscript
Lic
Isab
Laura
harmon
##ucker
##alid
##ahan
supposedly
decomp
AV
##ommunications
reservoir
warned
generating
substances
synthetic
demonstration
Trinity
commercials
phones
Terminal
BP
V8
traced
Kur
Ridge
XV
exports
modeling
shapes
decay
Marcus
contrary
cheese
sovereign
combust
scales
USSR
##ancement
##gence
128
siblings
costume
boxes
tubes
mere
Prussia
Double
businessman
##amination
timing
labeled
Stage
Core
##vation
lend
protecting
proceeds
##izable
Lucy
Rachel
##aque
supporter
Historically
affects
##cks
Ing
Weather
Writing
Kann
equality
Angels
intelligent
##asis
irr
Range
sanct
##keley
##17
##rising
blank
1861
Integ
osc
trapped
Intel
##original
torture
pier
monastery
anth
Aur
Hul
Fell
##holm
Bark
Spencer
Capitol
Parad
gameplay
synchron
Ultimate
##electric
Wilhelm
Mail
bitter
##ön
determination
HS
Planet
planets
isot
Ti
belongs
explored
##ellar
Knights
seeks
Architecture
##racts
##wright
tracking
Republicans
uncons
Shin
knocked
##atorial
Circuit
##pect
Columbus
villain
premium
noticed
Cool
##zym
preceding
Cort
Cha
##uba
proceedings
Flag
acet
##anni
overwhelming
##ffield
anat
##rh
extinct
respected
##NS
Ernest
Laz
Mis
Raf
##elihood
##omal
stuff
##ogene
scre
creatures
scattered
wheat
Montana
Amazon
##isely
##mentation
vowel
Wednes
grades
nationalist
BMW
Kurd
Telec
Antar
intensive
Religion
favored
favorable
dose
cabin
magnet
Tampa
disgu
explosive
##ocese
Caesar
Titan
aux
Ahmed
reunited
embedded
fier
Alberta
##lla
cigar
##hist
Aircraft
everyday
Berg
constitute
contested
Burma
Num
mg
update
Rosen
Indianapolis
keeps
presenting
cement
Clarke
aerial
shoes
lessons
Laboratory
Vij
tent
Fi
##ordinary
Berkeley
Constantinople
Petersburg
Pon
Gabriel
violin
##mod
bigger
##rimin
shells
##asant
##ichi
Glass
Traff
Bot
Duc
peaceful
loyalty
unveiled
Ful
successive
reconstruction
conserv
collecting
Westminster
possessed
##beit
Word
A3
tang
##atoes
combining
##fly
surprising
gases
##isdom
feared
bund
Bosnia
Arctic
irre
ecl
requests
reversed
maxim
Virt
ambassador
##earing
##000
Corp
Corpor
isolation
104
mall
inferior
##omi
##ocaust
##addy
##raints
departed
thro
outlets
##oly
##beat
##eno
##asted
1870
incorporate
Gent
Revolutionary
develops
##ovich
commod
designers
routine
1897
preference
NP
sentences
dys
stom
reinforced
fails
correctly
Foster
Nadu
Cos
##ardi
##natural
certificate
enroll
prefix
Electronic
Jennifer
Mills
cov
Origin
arise
Fifth
locked
inland
footballer
choices
ric
evolutionary
emotions
##umble
Traditional
rabb
##aru
##overed
conviction
incent
Morocco
##istle
mortality
invas
reass
employer
oscill
Scots
Almost
smallest
discharge
alumni
revel
##matic
portrayal
favourite
elderly
Harm
militia
Mathemat
voluntary
witnessed
Why
Thurs
radius
Jamaica
Athen
ambig
disbanded
uranium
##rible
Subsequently
bills
Agriculture
performer
##works
##opal
Gospel
bomber
whereby
Kashmir
Airways
precurs
Adventures
subordin
sends
##lick
asset
companion
##utors
cluster
pitcher
Ming
grandmother
boyfriend
submit
steady
streams
##isphere
ul
fruits
Geneva
heavier
##nan
clause
motif
boxing
ions
mold
Pos
##imental
infections
##ilogy
Kumar
Palmer
maid
USD
Moh
comedian
incarn
upgrade
##ci
Discovery
Single
Cruz
conclus
dropping
suited
quar
Kids
chron
Anglican
loading
Tibetan
midfield
Combat
##atri
##ellular
quit
Scout
Franç
doubles
Mam
PM
Ster
Sent
lane
armour
Bath
robot
McDonald
Archbishop
Dakota
mes
ideology
Tong
enables
Convers
Basil
corp
dispos
SI
Otto
garrison
Source
Easter
spirits
##odied
desper
deliberately
cater
Gur
grammar
##anthrop
##ochem
mystery
jersey
monks
Commerce
Depend
Hass
spher
##warf
proceeded
##riction
##inas
commands
##otherapy
##phis
premier
demanding
admit
Forum
##eting
suppress
torque
dancer
Liu
elimination
Was
expectations
knife
brill
##oque
geographic
Harper
##urst
heading
Chennai
anger
steering
Lah
##antom
##group
##wind
gra
institutional
Declar
projected
ascend
compuls
walked
deceased
hierarchy
esp
kilometers
accent
Glen
chore
meal
masses
##RL
gallery
Gem
remn
flooding
Travel
VIII
Patt
##gency
publicity
##inter
##acker
commanders
relegated
Chad
NG
108
Lif
Teen
Grow
iT
nearest
cellular
deployment
Seg
editorial
##rities
freight
ma
##reshold
Blair
mistaken
SU
Led
Friedrich
Chemical
editing
activation
##artz
autonomy
identifying
##mail
partition
##ounters
Emma
suburban
enabling
retro
Crystal
ecosystem
realizes
Swan
Survey
Eye
##hett
referendum
Vatic
Ship
Miles
Notes
kidney
reconstruct
Hil
Saw
disl
hazard
Jin
Chase
honey
nobility
alpha
Calvin
broader
brew
interc
portfol
harass
vegetables
##cle
pitched
750
makers
Julia
##ctive
asserted
Index
1500
Qing
##urai
115
speaks
reads
disabled
Sheffield
Bag
Kyle
dens
##reated
##azi
Palm
romance
chicken
realm
sensor
Zion
##minent
resemble
Powell
Applications
headquartered
destinations
##alties
Azerb
Aristot
##ordination
unified
Geoff
mixing
Treatment
appl
holder
floors
inver
tier
strange
roster
##imo
##essa
##icia
Tyler
##oop
##vy
Nebr
ups
transaction
protective
Azerbai
rookie
demo
Cred
Hir
##izational
Industries
sustainable
node
Memphis
cycles
reconna
constituency
Shi
Rif
switching
##hero
static
##avor
##hart
lover
##inely
albeit
Vern
##ometer
Turb
bishops
preservation
chapel
##isch
Hey
##alions
riot
excluded
nas
##afia
mistake
##uto
Claud
damages
##obic
wished
chorus
linking
Arabs
exhibited
careers
##nut
##zb
modest
insurg
firearms
Basic
furniture
##lation
wages
lymph
Vatican
primitive
Pain
warrant
contracted
consort
unconscious
Lem
1894
semif
reconnaissance
fraction
##rag
Assistant
Dj
DM
##orne
##oko
Jesse
##DR
##inders
sear
Rocky
Nebraska
rays
##furt
Origins
Present
fus
email
Prussian
Niss
Bever
touc
Lay
overlook
helicopters
##oria
1860
challenging
Politics
Ghana
fertil
##aca
atom
silk
fiscal
ware
Colle
hatch
Raja
neuro
controller
##gom
Outstanding
transactions
Congo
pistol
notation
Literature
cameo
1889
electromagn
anxiety
tonnes
indoor
Wheel
##abulary
hydraul
Legislative
Adela
cathedral
Shak
Trip
##tz
lacking
##ommon
Vid
functioning
IF
guarantee
thumb
garn
prevalent
chips
##oka
median
fragments
Rule
proc
Lon
##ication
##auna
wrestler
Tow
MHz
DA
Jets
shed
##otten
Jur
##mons
warn
precision
##iao
enzym
rotating
##thal
##ripp
shadow
XII
##alore
##iances
intake
##inding
flagship
Plate
Orland
Tunis
Bennett
notorious
recommendations
IA
explaining
103
Influ
thirds
descended
surrendered
bend
##anti
proportional
adm
longtime
jurisdictions
relat
affecting
1893
domains
Pall
##lip
##23
##kee
emphasized
ER
perc
2015
##kov
rapper
crypt
Baltic
gray
systematic
Blake
Turks
iTunes
Soviets
heaven
gast
##oku
liked
assumption
circuits
cats
urged
SEC
Quarter
bra
container
Cox
trap
Style
Moses
founders
1848
##ridor
Sold
Beth
volunteer
crowned
strongest
convince
Nathan
oxide
Vladimir
Sang
compromise
Gaul
climbing
sufficiently
Franz
##ographers
suspect
bol
Crisis
##IR
modification
sexually
##ints
##ivities
Cla
nutri
##angered
##inda
##estock
lease
Generation
Maxim
Cardinal
Cohen
Schw
##spring
timber
surgical
screening
endorsed
##person
newsc
emergence
searching
Ana
vegetation
servers
dur
rpm
Holocaust
WA
##rone
Vehic
choosing
##fr
Screen
tiny
##lements
depr
seating
themed
creature
Release
Bryan
promising
##esses
spont
Conservation
##ushes
127
expenses
entries
Madonna
##oning
expend
sued
Twin
Malaysian
Miguel
Vick
Thames
Solomon
maternal
Ottawa
450
##jud
crashed
lenses
vinyl
drawings
Terror
gifts
##agonal
##ppe
meth
Twenty
ruins
shortened
##auses
##hears
##aho
Nu
Nak
##27
institute
inserted
repeat
Own
Complex
widow
Tourism
Pharm
Czechosl
##pin
##igs
##quet
Hispanic
resolve
Jen
Sep
Inside
Heath
AFC
Manufact
vine
Zimb
aug
preliminary
trips
batting
##ktop
Pars
Sau
shipped
Declaration
infinite
Kab
diving
##avier
107
secretly
##elage
rehabilit
presumably
ramp
##itus
blamed
##roe
canceled
##odic
functionality
depicting
incons
##zens
Colin
Glenn
crosses
fibers
Animal
dominance
Liberation
marriages
ally
Trent
motivated
##cience
##holder
Cowboys
artifacts
airfield
imaging
fever
Chapel
GB
planted
Powers
##ding
pursuit
Orlando
Leop
branded
##inction
##ught
neurons
Dy
##ometown
Sebast
stance
Fighting
Sou
je
Mk
lawyers
##olia
magical
volcanic
Dow
exempt
##racted
counterparts
aided
averaged
governance
lifted
technically
crews
##anol
Instit
145
Deg
lb
Lil
deer
prolong
matching
hiding
Religious
maritime
##CAR
##annon
seiz
outcomes
guaranteed
stepped
Folk
conventions
Benedict
volcano
coordinate
gentle
hung
Tat
Tas
Branch
Morrison
##ournals
##ulative
##kers
Panama
Gamb
Princ
Heavyweight
pix
Plus
embry
fulfill
enlisted
photographer
Jak
tooth
Genesis
Emb
atmospheric
##iating
sketch
Rut
##cot
passive
deity
Physical
recall
##atta
rushing
Recording
chess
##umen
adoles
WWF
regiments
aluminum
##len
hurt
traders
Ethiopia
onset
whenever
antiqu
Ek
confident
##ashtra
Zero
embr
Banks
complications
Faculty
##asse
dried
Impact
Bradley
##levard
realize
##cht
Muk
adverse
Nazis
##angelical
algorithms
Chiefs
Kenneth
rebel
Jamie
Wii
##TE
##othing
directing
Adelaide
graduates
Municipal
gaming
##agic
##plane
##atics
##eca
allocated
Bhut
##haus
pocket
##eback
Jake
UP
Store
motors
##rament
celebrities
accurately
Potter
listening
Democrat
coordinates
##how
attitudes
##agedy
##elia
facto
thinks
interval
##grade
##addle
stomach
Strong
Beyond
##astics
##lesh
Soccer
FS
Laws
Slavic
literacy
Artist
sealed
confer
Maya
Kem
contamin
Arms
Russians
fortune
Types
##market
subscrib
##agne
celebrations
Picture
monetary
invested
attractions
deficit
regards
summar
Delaware
borrowed
counted
fut
filling
Mom
inquiry
counterpart
Lap
hunt
integrity
##elly
##species
sensitivity
obtaining
Ellis
1885
##flow
defendant
##than
accompanying
bike
trophy
##ocide
bicycle
##erek
glob
gasoline
##zhou
preserv
threshold
lieutenant
implied
Sherman
Different
Hood
Utt
verses
Annual
reflecting
loosely
locomotive
choir
Salvador
Working
ATP
Golf
##pit
##adequ
crack
ethics
##zon
surname
Spect
alcoh
Stef
Wednesday
surveillance
Iss
##EF
IR
São
##mal
Alc
##nels
tales
Harbor
cleaning
hind
reliability
##innings
slower
Telugu
Academic
presenter
Factory
##blem
Guitar
breakdown
resembles
penalties
##28
buck
Assy
Davies
##omed
veterans
Hut
triumph
nevertheless
trends
Hz
guerr
##heed
aluminium
##igg
busy
wildlife
sab
##cements
##elong
revealing
unrest
teamed
Strateg
Clear
##roduction
encounters
Fast
bure
intact
combinations
disciplines
##adh
Caucas
Churchill
patch
screenplay
Bagh
Gol
Reading
##join
expressions
abnormal
##ourg
betr
Etymology
Tall
Bengali
jewel
remake
tensions
trunk
##orde
suggestion
1892
Volks
relied
foundations
manuscripts
CI
Warsaw
forbidden
##akk
1880
pneum
ye
##utely
uncommon
Doug
##26
##hea
##itational
uprising
faction
##phan
machinery
AFL
Bil
rituals
Hip
##erness
Female
Ri
Ambassador
ethn
##iously
hometown
##eri
traces
Montgom
Kenny
precisely
Scholars
Truth
wonder
##ña
confined
feas
angles
Lik
Wagner
Yemen
hurricane
##raz
Happy
mim
Montgomery
palm
selective
Aber
##ingo
Kin
screw
overhead
Sind
pressed
##abwe
executives
Lithuania
1865
##heimer
Gael
PL
mock
depicts
surprised
Ferrari
##atsu
jointly
Hoff
Lun
##ahu
reflection
polyn
Kol
##verse
fluor
um
interrog
pressures
Hyder
monkey
realistic
Lok
##thood
inscription
anticipated
Winn
Phase
Title
translations
rigid
assignment
##ealous
Maurice
fears
nodes
conting
Criticism
Lomb
##OD
Armenia
##ovan
Certain
Match
healing
Libya
combustion
persuaded
sulfur
pod
Meh
##rugu
behaviors
##itate
Athletics
collectively
##lance
Job
Tyr
saint
boarding
weakened
deeper
1888
##nolds
profound
ceremonial
##ride
inev
differently
Trin
dances
organize
thesis
##iju
##orge
3000
TS
##py
##alus
Duncan
suscept
Ches
insert
employs
##umm
organism
detective
Guang
Edge
Zimbabwe
processed
limiting
Success
##urrent
1867
financing
hydrox
Raiders
bold
placement
Linda
lectures
Dubai
abbreviated
Siber
##ocene
reop
postp
journalism
minerals
Mull
Wals
rounded
divide
Wald
cultiv
BR
##colm
drift
carn
Outside
extraordinary
##ér
##abe
posthum
bachelor
Wend
decisive
Nass
pointing
privacy
ben
##esian
hoping
##ulent
initiatives
hanging
##olphins
screens
ost
Rodrig
spotted
Gardens
pedest
##rington
tissues
specifications
##oting
staying
continuity
walks
##tor
volley
##season
corresponds
1891
Kang
memorable
constituted
Thursday
##run
##athetic
nationalism
ethical
advocates
##him
consequently
Sed
Malcolm
brigade
Por
##eches
Champ
rankings
FDA
Secondary
tumor
Interior
violations
sided
triangle
Scientific
##insky
slide
loves
Gy
orn
cum
mant
##HF
gymn
##uchy
teenage
Chrysler
Brisbane
Ober
displacement
##ogl
attain
improv
Yah
halls
brass
##nell
teammate
purchasing
##aram
authored
Chevro
km²
hex
Kub
123
compliance
pioneer
dancers
Exped
breakthrough
##ensis
Burton
Betty
dorm
Panzer
##found
module
observe
cass
comeback
discour
Very
Warriors
1862
Troy
Isle
kern
servants
1864
preceded
Aub
inadequ
adul
Jackie
insufficient
Jag
##immer
##encia
sailing
descriptions
suspic
##omial
pleasure
Alexandria
Mickey
Lennon
conferences
Canton
haul
emission
Month
Burns
Urugu
##lore
Spart
Chal
Guru
conductor
Cod
Mater
fitness
trump
##sover
##ogenes
toy
##ometric
Og
cant
##lett
1871
exhibits
Rules
##atile
##ithm
advertisements
Period
Usually
sailed
Lakes
Nin
ore
spark
treas
likes
Louise
remarked
SF
theaters
Cable
kingdoms
##utic
protesters
accepting
prophe
anthem
Treasury
Dion
occupy
Gates
suffix
cel
unpre
kilometres
##folk
comfortable
lamp
sanction
Ibn
Him
Basin
##abh
rises
##mud
parade
recreational
MT
Mini
dome
intim
##stock
acres
joins
MVP
##aternal
lith
Woods
Borough
Lac
masters
##SCO
nomine
treating
Study
immigrant
##idian
##oya
1863
Dominican
Moss
##imon
bottle
##eros
launching
observers
##olin
Cinema
Ost
owing
subjected
eag
##elic
inability
Richardson
lean
Springs
Hamburg
##ucc
beef
battlefield
Vit
Kw
##ilion
spatial
accidents
submarines
wholly
##aren
Reynolds
Pt
Acts
Rib
lanes
shaft
revision
Cave
licensing
Albania
composite
Hawk
intersection
dreams
mouse
##iago
Jeremy
kitchen
Gerald
cemetery
117
1881
EA
Zen
pharmaceutical
Vin
sits
predators
wives
##rina
abundant
Samp
Frankfurt
dign
riots
airlines
licence
sponsorship
129
pronoun
##ups
##ashing
rebounds
##ovsky
complained
Cornwall
Mits
##itches
Visual
NO
##ept
Adolf
Bruss
interactive
Chevrolet
blacks
Sul
##DC
##plant
##front
desp
paths
pond
Richards
Belf
Wool
##aunch
trailer
Employ
din
handful
McCart
escal
Shen
##airy
Karen
##aic
assim
harbour
prone
Princeton
Burke
Mold
cultivation
Herald
##unal
##NT
swept
remin
Venus
Glor
Shield
mobil
airports
Edmund
abolition
chord
##heads
##hibition
wo
repet
##ographed
Tonight
ferry
ts
##gio
Adrian
Plaza
employers
dop
CNN
1850
decree
Dew
MI
Overall
Cros
##iaries
terminus
exercises
Curtis
##vor
Task
##isure
Karnat
Fergus
Gö
journals
##imeter
Holly
matched
RCA
##él
brilliant
runners
Chester
Sey
TA
Kosovo
balanced
RF
interfer
##lishing
absorption
Lebanese
crystall
Products
Ley
##etry
##acies
embarked
stopping
inflic
mosque
##alis
guy
##linary
spreading
thickness
##ratic
cruise
Smart
Doct
##iban
147
altogether
mortgage
asym
ambit
##ocate
##ipur
constraints
savings
Perhaps
rendering
Change
Emily
Gaz
##rained
Saturn
##rano
bless
Paulo
flowing
appealed
Episode
Statistics
Site
Edgar
attachment
architects
lengthy
Randy
blast
essence
Sugar
specimens
fake
##ounted
interim
advancing
worlds
Porter
mast
ink
dragon
Hod
##adia
##inus
aging
##retion
drops
encouraging
Sicily
Pret
unofficial
academy
museums
livestock
indef
Allah
supervision
drinks
Hull
maker
Cord
Craw
Pred
monster
Nissan
laugh
helmet
statute
IL
trafficking
Constantine
abd
Clement
acceleration
liability
mice
##emption
warriors
Fant
##rise
subspecies
sleev
GN
##iman
missionaries
Workers
tolerance
demonstrations
virtue
struggling
##olves
##mitt
ensuing
flee
Luxemb
HBO
##igue
Ary
pled
insign
Underground
Sit
bis
jam
##ewell
Marl
Brid
beneficial
pupils
Mughal
lion
dozens
enforce
ward
portable
inequ
coached
relates
Notting
condens
Regard
underm
Structure
Volume
Karnataka
Sister
##egu
disrupt
successes
pyram
oath
prevents
purple
html
Julie
##abetes
Lutheran
Institution
editors
bail
##UC
##hematic
Bronze
rescued
ceiling
observer
sa
stip
practitioners
Fresh
migrated
Martha
surge
approaching
interpretations
Kad
grace
portfolio
Dat
##illon
Julius
Pyth
prevention
Insurance
cure
reasoning
televised
##odynamic
greet
summon
frontier
Barack
Learning
##oyle
collision
Georgian
correspondence
sperm
##ructive
Ya
##arts
##adier
battalions
sleeping
##wau
##arted
Cardiff
Feder
Ji
PT
##omo
prominently
Milton
Fernando
##owing
spelled
brake
wool
invitation
##atisf
Ports
##elsen
Emergency
Hugo
Wire
Sz
overtime
Bundes
Stern
##rob
##owship
Boulevard
scal
premises
Casey
Brussels
modules
Archae
Derek
##iratory
garnered
##aris
minorities
loses
Fou
Gaza
exported
Gru
compass
verbal
finest
pretty
Mead
Tales
alike
concentrate
percussion
surpl
##ischer
Rhine
##avo
mothers
engaging
Pale
##books
juven
Dob
MM
rider
##plate
Choice
struggles
Coalition
voyage
Ecu
tram
##landers
barely
innocent
inception
pathway
referee
regulate
Transit
snake
##oved
ancestor
Koch
##ocy
##pling
1884
Made
rend
Idol
besides
##IF
incorporating
amend
narrator
##wait
Sche
##ountain
accepts
permits
##ensen
USC
Mao
Kod
crust
physicians
Letter
weld
Neu
decreases
Diana
Neo
Benz
##orian
1876
gren
cheaper
corrupt
##psons
derivatives
##hammed
Kane
##cts
methyl
Macedonia
modeled
dynamics
progressed
dock
Eugene
##ijuana
##atem
cultivated
Milwau
avoiding
ensemble
Newman
Bollywood
naked
##itism
doubled
Male
Veter
hect
##ieu
Protocol
sensors
Cloud
##bons
##anca
estates
Defin
##borg
arbitrary
enzymes
cooked
Philosophy
retaining
Parks
Iber
Winc
##ylum
standardized
##artime
Drum
Freud
pine
##omers
proud
##tenham
Simpsons
hammer
Maharashtra
hur
##etically
safely
Brien
##ocols
harder
maneuver
##base
implications
Representative
packages
Dawn
Gan
##world
genuine
Gir
##ronics
seasonal
Demographics
Railways
adjusted
##otrop
pronunciation
accredited
Sap
##manuel
1886
yields
riders
eighteen
Search
Hammer
commentator
beaches
precipitation
##rified
Milwaukee
##fold
Wings
infring
negotiated
Cosm
lac
Adult
capturing
shrine
Drew
##tical
##stage
Albanian
##lide
parameter
tin
##ás
aesthetic
Depending
Than
Ign
joy
TR
##word
##aceae
Traditionally
lesbian
Steelers
Mega
networking
thriller
comput
Have
ps
1887
Tues
investigating
hydraulic
facial
discussing
nursing
antenna
Hook
##cu
Stockholm
ambitious
tribut
##rared
steadily
##osity
alloy
##idth
formations
denominations
Hellen
pav
Willie
declaring
rushed
turbine
litre
encry
Shut
lady
apost
envelop
##ounded
hypothes
Kazakh
##iatus
sax
Springfield
stap
petroleum
applicable
##osaurus
spear
flags
Observ
1878
frozen
##icacy
persecution
Sharon
Jessica
Make
##utory
wreck
##kind
reper
##ipedia
Dian
Floyd
ensuring
Marshal
imagery
brakes
##iconduct
Das
##enzo
orbital
spl
Crist
Leices
amphib
GC
starter
##cat
Thanks
##list
Controversy
merchand
Zhang
Vikings
SW
Pod
Alternative
emerge
ED
##ambo
conceptual
resides
cartoons
burst
adventures
Cambodia
Cao
rejoin
Cho
scripts
Welling
Manch
##club
##licity
Ecuador
##iks
Playing
failures
DO
Nonetheless
determines
MIT
##ioned
Vall
crafts
NASCAR
113
inherent
similarity
Aristotle
##eur
##NC
duet
##eric
reef
Worth
##enary
attained
Honey
##zone
structured
Slam
Evil
highlighted
armoured
##assium
slope
##ospace
pursuing
Lynch
bip
##adows
offshore
servant
Cec
dot
##ilee
marched
Southwest
publishers
torpedo
Distribution
Bombay
Competition
Bug
organizing
Account
athe
breach
remarks
Ellen
coloured
##iast
wickets
##ipel
Cycl
speculated
complaint
Bailey
browser
sediment
breathing
fingers
Monster
Mant
expertise
##irmed
##oots
ballot
##qual
relegation
sauce
Elvis
Augustus
Hank
Birth
vag
genome
organizational
acceler
CV
Serie
##RO
exempl
spare
##eville
statues
drown
Dayton
rope
Lut
economically
Cock
XI
pushing
##yne
holders
proprietary
inscriptions
councils
##arrass
nurse
##kept
combines
##inks
Vishn
1882
offset
melody
criminals
whites
Griffin
bride
occurrence
glucose
theft
118
legends
chances
identifies
embarrass
Cash
healthcare
Expedition
##oxic
gambling
dump
Congressional
##ados
Brain
Associated
Sloven
##ril
Malta
Headqu
interrupted
##gestion
globe
answers
Cairo
wounds
carc
spy
lowered
campuses
##izar
Mü
breeds
competitor
Carey
Leslie
##uble
delegates
tackles
Gott
Vision
bord
productive
ecological
Renault
Sales
##ourt
necessity
##osphere
seas
Belarus
lunar
Claire
Estab
Michelle
obligations
correlation
pride
determin
pel
marble
donations
Claude
Buk
leak
##kan
Server
pulse
unanimous
Things
idol
Joel
socially
digits
Nab
##ovina
squadrons
comprised
unh
instructed
vicinity
##orum
meteor
homeless
rehears
peaking
currents
##text
railways
Bast
inert
stamp
terrestrial
digest
Standards
Giov
bolt
joke
Bohem
lyric
##inqu
confirm
Fear
mansion
##tec
locals
Lakers
strips
lengths
Notre
automated
Santiago
Arn
Colts
accounted
##ogg
productivity
Wolver
disagre
utter
comparing
assuming
harmony
beats
Hors
offspring
caste
Pam
Rig
##wagen
##onomy
factions
Strat
slogan
Host
Jup
solved
Einstein
stems
anonymous
Joey
Deut
Artists
##iffe
RO
##anyon
adaptations
piv
##rove
Internal
compress
##dict
compare
inaugurated
enclosed
tear
##gered
##ledon
111
1868
##rea
incumb
electromagnetic
Ng
##emann
apprent
102
displaced
vowels
##ultural
witch
AK
Jagu
##cul
contestants
Seoul
amid
Amp
##iography
##houses
argu
USS
##quin
Fen
Yuan
Marriage
commentators
Hopkins
Fur
Forbes
124
##isi
ridge
unaware
148
##neath
incomplete
evid
demon
Speaker
thy
unrelated
Monten
motivation
mapping
NE
testified
intervals
##eley
Ident
anterior
projection
maj
Sonic
MGM
arguably
Viv
racism
triggered
Approx
contacted
##lighten
strengthened
ank
Beautiful
jung
referenced
##erting
##urgical
Colleges
Hipp
WH
Agu
examine
Import
mobility
Adventure
Kuwait
McCartney
Dum
geography
Bac
hp
##ivism
impacts
inspection
Connor
cubic
##soon
slip
API
feminist
bare
monuments
hob
enterprises
Version
pension
perfectly
excluding
Wave
##cock
rejection
##ptions
##azing
repeal
##anya
Arabian
careful
optimal
portray
##stanbul
committees
Lars
SV
Multip
Theodore
Azerbaijan
wines
eliminating
Heroes
cocaine
Doom
countryside
Henderson
prostitution
supreme
spokesman
delays
conception
##oos
extinction
##ridges
declining
aka
LGB
Liz
##oxide
posterior
generator
viable
abb
armored
Luft
Paramount
Android
reproduction
Allan
associates
Lyon
clusters
Ferguson
keyboards
##woman
altar
Kend
##usions
Mine
shocked
##ritic
119
Maid
##ESCO
##racks
declare
scenario
prescribed
addressing
Instr
ram
Titans
toil
bureauc
Paper
herb
physic
passages
ears
capita
126
economies
vapor
144
Gren
dispat
Bols
Andhra
impress
Eg
Comic
##dad
##iker
regained
unstable
fant
basically
Constitutional
##awed
trauma
Wimb
##gary
##iative
metre
Analysis
twins
Hang
Yan
Meyer
##awi
motiv
ballet
aspir
##apa
generals
debris
Monteneg
cros
intest
holidays
##ede
137
liberation
sponsors
##sein
1866
Directors
Giant
ta
Maxwell
Yugoslav
solving
badge
Phi
amended
dealer
Poké
Hour
chocolate
Johannes
Hyderabad
stint
moder
satellites
teenager
prospect
dent
extraction
contempor
charted
colloqu
##rotic
exceptional
mutations
Windsor
philosophers
##ools
dispar
posed
Motion
uncertainty
Tribune
Eb
burden
flavor
hate
tunnels
Hindus
smugg
Kra
WS
sailors
reiss
extensions
stripped
friction
basement
reminisc
Bene
concludes
##iotic
induction
inheritance
Evolution
Gaelic
meanings
Haiti
##29
##otive
Unic
Carroll
Beast
Andrews
suite
Aboriginal
Annie
banner
##rests
positioned
viral
cortex
endangered
Lithuanian
Pengu
NL
lev
cruel
DOS
Zoo
220
validity
irrigation
Muss
HM
fals
##rically
Prague
flexibility
Nottingham
DR
periodic
Supporting
defender
mentor
exploitation
##oco
1873
Mormon
##comed
Features
##econ
vest
##uta
Sham
##oux
Rovers
134
sexuality
Tropical
##ayana
Aires
homosexuality
##inians
##adays
Norse
Resources
novelist
expressing
Achie
##afi
barriers
Murder
crude
telep
cease
lord
Dipl
sheets
processors
tatt
133
devised
incorporates
pianist
sacked
stack
shoots
accusations
fuselage
##cester
affection
blocking
indication
Formation
Strategic
caf
neo
Divine
tackle
Caroline
##bin
##etz
Whitney
undef
freshman
sect
compulsory
Wake
dip
Rex
##lord
Qa
Cancer
multipl
Hayes
##width
Programme
welcomed
Carlo
discrete
utilize
arter
ordin
Shank
Buenos
Catholicism
CG
rhet
agenda
Sard
cables
Fol
##hey
1872
##onde
##achers
taxi
1883
Grande
Baldwin
submission
240
talented
##enhagen
differing
robust
##egie
##hm
desirable
##aeus
##space
reluctant
polym
1857
incidence
promises
UNESCO
Cly
yearly
##athic
pilgrim
hood
Uttar
deciding
Tank
neighborhoods
##wara
superhero
enforced
consultant
symmetry
precursor
simulation
##amba
Lope
transfers
Meas
##berger
Canon
wartime
reel
reporters
eleg
troop
Colonial
privileges
##lightenment
negotiate
mandate
##edo
##byter
Bin
Mā
Ply
counting
wolf
lever
Empress
documentation
deplet
Guatem
advisor
individ
erosion
##hya
updates
Era
Canyon
charging
acquiring
intentions
sensory
Population
Fellow
fore
stuck
developmental
paired
##éd
##arag
Planning
Gujarat
IX
bowling
phrases
##fi
throat
Sidd
##lay
stiff
infilt
Tasman
Dre
aligned
Brady
Luxembourg
ET
insight
enlarged
Gul
Kau
peasants
Did
##pace
138
lineage
Sacrament
LGBT
##iesel
Duck
##avin
1879
dissolution
1877
##isy
personalities
##amas
Carnegie
##atal
##phal
refusal
Border
##idan
Concert
Companies
lod
lamps
pipeline
Publishing
##arthy
packaging
Heights
Barnes
supernatural
originating
exagger
##ilda
##uchi
relate
warming
plains
Ace
hollow
##rology
Noah
Reid
Officers
Interest
ende
Manning
##izon
profitable
tragedy
rolled
monopoly
Lenin
UV
oak
peers
Hawaiian
##ei
Monroe
Ludwig
insect
costumes
oversee
Wildlife
##lings
deities
##illas
satisfy
dwarf
troubles
Physics
likelihood
unchang
##appropri
comprise
Dud
##icus
lined
Marian
Satan
Hess
prayers
Falk
TH
##days
jealous
##olete
relies
capitalism
##arse
remind
Calgary
Savage
neighbourhood
kidnapped
##ortic
Fredd
##iott
##arity
reside
Estate
Stop
behavioral
lacks
alcoholic
##pherd
Nok
##cedented
##jective
courage
Autom
##esy
valves
Sally
incred
kernel
inning
grip
reunion
Jupiter
##ordshire
missionary
prolonged
representations
delivering
Rama
##yd
114
Weap
Galaxy
annexed
rats
1875
rectangular
Ms
Lynn
pac
Wellington
Nest
Perth
affiliation
##kinson
hiatus
##exts
Acting
Seas
trilogy
neural
alignment
Numerous
lots
##ishment
progression
licenses
iconic
inadequate
grouped
toys
unnecess
humanitarian
pottery
fierce
Teh
exceeded
GH
Graduate
temporal
Gross
##raid
protocols
ordering
famously
##opy
securities
treaties
contexts
##obia
commanding
Copenhagen
redevelop
##auss
slaughter
preparations
answered
Sens
lecture
Browns
##Ar
percept
Neal
Rs
Biblical
popularly
faithful
prosperity
Kant
debated
Norfolk
wears
Register
Essex
Wimbledon
frog
terminology
tender
DB
##iba
specialty
theological
springs
dental
turret
Sask
##ibal
offs
switches
tremend
##esp
Dong
suits
USB
unprecedented
sings
patents
##upp
Griffith
slopes
##idding
granting
surplus
hered
##ég
Beta
benz
##opsis
defenders
striker
Fest
cos
Shane
Idaho
##orrow
medication
decent
simplified
##PD
offerings
wrapped
motto
Dorothy
highways
cooled
underwater
gradual
##mid
forum
delegation
##rill
116
garage
Bangalore
Pokémon
laps
exhibitions
##ablo
warrior
Trek
folklore
Canter
USAF
Catal
redesign
Rox
Cul
chambers
neighbors
Bolshev
Element
##emn
highlights
Rabbi
hire
deposit
rumors
##oded
Nothing
absorb
introduces
##anan
Fraser
opted
transp
sixty
Previously
oppose
gospel
respiratory
1869
Waters
##usa
retains
Fan
luck
Grade
alarm
shirts
146
folded
Approximately
Build
satisfied
scout
Belfast
Kingston
##arya
##print
Lob
stressed
CL
advers
Broncos
Jain
marsh
Riley
Chronicle
##hoon
##uria
diabetes
Sara
refined
136
##limited
simpler
natives
judged
verbs
bacterial
pir
##ikk
spectacular
##athi
empirical
Hinduism
collar
kicked
socio
immort
syndicated
issuing
auxiliary
radioactive
wanting
Hern
##urel
complexes
dominate
filters
Coff
considerations
Istanbul
spinal
Sisters
imports
Sigma
Wesley
inmates
comply
mixt
microph
Strike
Wi
automotive
harmful
Rhy
wisdom
##str
skate
keen
aggression
Guards
millennium
jumping
redesigned
Tuesday
underneath
##osaurs
Quinn
spectators
loads
François
Cover
contestant
Strait
zinc
stir
Rum
Junction
Tah
charitable
transcription
Need
Winston
##ergic
chloride
collector
Pist
landsc
##swick
damaging
essays
decreasing
admits
fitting
Ashley
shorts
Synd
reciproc
confronted
Crom
##inge
addiction
daytime
Chop
Carson
Brom
Yes
rush
##anas
##ibration
securing
obsolete
stocks
##ulatory
mutation
privat
hipp
mascot
shareholders
Tet
brack
sculptures
Estonia
infrared
reformed
Coch
biblical
Lopez
##lessly
talents
somewhere
Citizens
##enstein
relay
Algeria
##hee
Persia
crowds
Fut
Tell
Kannada
Sach
##rice
##rint
subtle
Communication
Kerry
Cities
paradox
Tes
desktop
Barber
Natal
Klein
ammon
designing
##boards
##fecture
Gn
Hond
Cav
vectors
25th
##kien
silence
Mafia
pagan
innovations
artery
violated
wax
Tracy
Venet
renewable
Nig
mathematic
Deal
refuse
goalkeeper
##opt
irrit
Voy
ads
Engineers
bandwidth
Too
individually
Chess
Fed
Kot
forever
##irus
##inness
Boss
Million
dining
##ulators
checks
##rans
Hyper
nightclub
shifting
Habs
##rams
encoding
possibilities
assumptions
##sten
expired
instituted
colonists
##alam
139
conditioning
##abi
Churches
KC
Rever
storms
Packers
incumbent
##atche
transmitter
fron
##ologic
fluct
Lotus
curved
##imer
midnight
potassium
beds
##igate
Yak
iter
##azar
overturn
##heid
princess
Likewise
antis
accelerated
##DE
analyst
athlete
##venth
nm
UCLA
Sebastian
##last
##oding
Occup
SG
fart
escort
Dil
interven
##inguished
dependence
Mohammed
Merch
null
##eated
outfit
##urers
Want
rows
continually
Wikipedia
Text
hij
regain
##eeper
ideals
Marxist
metaphor
Belt
Sue
fi
##ouncill
##ricks
valleys
targeting
Chilean
##vae
Rally
Enc
peaks
broadly
caliber
MacD
recommendation
Sergeant
detention
Plymouth
Ble
euro
Drake
inventor
feudal
numerical
wagon
angular
crest
microscop
Hew
Lines
escapes
researcher
Brent
##rological
IGN
BT
simp
Monica
habitats
Partners
##gins
coordination
infect
confisc
debates
Dust
inexp
resemblance
Dwight
Piet
##ugged
Leaf
passport
##isans
financially
restriction
Fashion
southeastern
alternatives
Grove
Falcon
flesh
##opot
Cham
ellip
##rying
renovation
Away
Gut
Berry
taxation
unsuccessfully
evacuated
##uate
##yg
sometime
Hardy
Somers
prolific
Headquarters
Ath
throws
##astrop
experiencing
F1
##ritz
oxidation
tuber
McCl
cavity
##ventions
Appeals
Priest
retiring
Castro
prints
poisoning
laying
assumes
surpassed
Giovanni
Medieval
##dal
Theod
##conn
restruct
unders
Hunting
Rhode
Ras
cardiac
absolutely
##ecuted
deny
Naples
Luck
Pitt
##abis
Marin
##ailable
overthrow
fox
shark
##artet
extant
strang
Ulster
Methodist
limestone
Ravens
VC
Ved
dors
abrupt
Auck
tire
##eme
demise
Suff
focal
##radation
curs
viewer
firmly
Brunswick
conclusions
##estation
Butter
ISBN
discrimin
1874
bombard
Norton
##ár
Spani
##isible
##astically
illumin
vocabulary
##abbed
Ling
Strip
censorship
Witch
##oths
fortified
northeastern
Ced
Wick
##entric
cheer
##function
demographic
##ilingual
Uruguay
Ruby
SH
receivers
Suzuki
Categ
Nile
showc
Volkswagen
Tin
Touch
myself
Shoot
XL
Confederation
Inspector
##uj
##NG
Victory
Uganda
Anders
popularized
homeland
possessions
pulling
Herzeg
##rocess
locate
Urdu
Nickel
##anto
happiness
##orthy
Clif
drainage
##eutic
##ilo
flame
financed
Auckland
pear
hardcore
continuation
Canterbury
awa
##othe
implementing
inventory
Thing
Herc
##idi
Vishnu
calculations
defl
Cheroke
##fa
conced
manifold
reproductive
moisture
##lude
shifts
accommodation
signaling
elephant
scorer
accessed
MiG
sam
evaluated
remnants
IRA
Roma
justified
calculation
pec
##rath
clouds
Leh
Patrol
costly
terminated
Von
foster
##ovic
##arios
Taliban
subset
Rajas
Leicester
Aston
undergoing
Belle
suspects
Cornell
Habsburg
Beau
Vermont
metallic
narrowly
Burm
operative
infants
astronaut
PhD
predecessors
insult
Panthers
consolidated
coefficient
Lub
abundance
eccles
Nit
##log
Colony
Rein
Flu
telecommunications
Fry
Tact
Johnston
Abs
honours
##ogenesis
##umbers
Taj
echo
Britt
Stark
derive
Nut
indie
piston
calm
Lal
Singer
Presbyter
Kolk
spor
WB
##post
matric
vitamin
orphan
Clan
speeches
Bess
##hou
##bank
advertisement
Bit
##eneration
##actory
offence
indirectly
biod
##mith
Preston
Bryant
debts
sympathetic
Malayal
##ogeneous
reapp
psychiatric
##brella
##aline
pipes
Robertson
herald
flies
##tel
depiction
confrontation
##ifiable
superst
kits
Dee
##ipelago
Tao
bust
##leading
##andi
arises
##ported
liberty
Vista
gard
infamous
possesses
legitim
##ighed
##brook
appeals
barg
defeats
Lip
##matory
##raint
Madras
Eyes
##anco
##monton
seam
Santos
integer
tallest
rehabilitation
caves
##cover
##erie
Canadians
distribute
nickel
decorative
##stown
afterward
promotes
Kaw
pioneered
bark
calculate
Factor
minimize
##yu
##initely
Famous
stain
##enzie
Covent
Sons
sne
##igrate
Aftermath
employing
texture
sap
Phantom
viruses
Lodge
Pirates
##hot
scholarly
hormone
fried
Mau
##foot
refusing
##eon
Trinidad
crushed
feast
skept
##ahon
Oriental
portraits
Thous
commemorate
embassy
##igm
popul
Sym
Eisenh
sparked
##sequent
Jub
VA
pose
congreg
Southampton
##liga
textile
indicator
Image
earnings
Euc
polls
Audi
Leadership
fare
defunct
classroom
reflex
wherein
distress
Reformation
MLB
##atz
marker
Paragu
consulting
##imus
chase
Shore
odds
positively
clip
Senators
recognizes
ethanol
Scotia
roller
Paradise
Pors
##otal
1840
Parliamentary
##wear
##onium
forget
##uku
gravitational
Bren
##ivier
##exual
blame
##uer
##wald
##izards
Hundred
##irk
Vaugh
##iseries
enrollment
myst
crystals
##say
##imson
Raz
##atl
pornography
##olan
persistent
Ez
lag
##imedia
Telegraph
1830
convenient
143
Organisation
beside
##quez
foul
André
aster
##zig
monk
Shell
Ricky
conjug
Table
cannon
##just
Agent
au
##heng
announcing
McCarthy
Babylon
OC
lunch
##ainted
Bhag
Valentine
Tennis
##rud
terminals
encoded
unchanged
Rag
Ish
Progressive
Excell
Stones
emigrated
Malayalam
##maker
##awks
Below
philanthrop
watches
##iden
Devon
##ewater
##elfth
Volunte
Temp
arom
incoming
guilt
genera
Belie
picks
incap
Sheikh
Contest
hunter
congressional
LT
corners
##arte
socialism
pressing
##yclic
geometric
susceptible
rockets
Ai
##unda
orthodox
teaches
Baghdad
Bub
semin
Ranger
outlined
consonant
##ongs
Ard
##isman
devote
##enza
Patric
curves
resembling
GE
rab
plots
incarnation
##urgy
Arg
settling
##iciary
surveys
stun
scor
Edmonton
Starr
saves
Universities
Fasc
tires
decoration
1859
nobles
exchanges
##manship
seated
##ocytes
foreigners
Abdullah
Janet
bags
collectors
Brock
Belgrade
stimulus
mi
##arl
likewise
fraternity
##illary
defects
takeover
Events
miners
airs
Symb
urine
Vil
Aside
Elliott
diminished
Election
##smith
Axis
ME
##bel
inject
Schum
athletics
exotic
Dodge
Macedonian
degr
##ariat
##ija
sampling
Hussein
quarterf
Bradford
transparent
mills
spawned
empower
substrate
evaluate
Romeo
Webb
DP
drought
##sted
Crew
unm
Founded
Boris
Counter
sights
energ
Pride
styled
XP
heroin
Australians
meditation
Illust
chaos
luc
plaint
##brahim
Cay
Presley
##ancies
crus
Ministers
Corporate
Cell
rode
##oken
subc
reactors
Initial
Marketing
Subsequent
melting
ridic
Huss
##pot
##cyclop
Herzegovina
pent
peripheral
Beverly
breakfast
colleague
Ultimately
Dart
Marg
soils
discs
Humph
Angela
overlap
converting
Burmese
650
##rawl
averaging
Pierce
juice
Ranch
##ilated
Example
arcade
Bend
bun
tuning
Carm
Mode
##ombe
methodology
vendors
Vul
##eni
##izza
##iking
nationality
doctr
TM
##ensic
Charac
farmer
Knox
hell
knight
minds
Housing
Vari
vein
honest
FL
atop
excited
Torah
##lis
##ellan
repairs
Active
##ropolis
mascul
destructive
Adri
Guadal
50th
##into
installations
Felix
##uddin
evacuation
##ooney
##beck
packed
##KO
##chy
Creative
reminiscent
##amboo
LL
practically
strat
Audio
80s
prohibition
chromosome
Pé
shout
Parish
Sams
Wei
miscon
Winchester
##nian
compressed
disposal
Gig
statutory
analyzed
##oub
rotor
Berm
Eisenhower
##rio
##ea
##SI
humorous
Neigh
##DF
##otechn
Attack
cancellation
analogous
entrepreneur
Alleg
correction
Murd
Principal
pending
prejud
surgeon
Czechoslovakia
Classification
Nurs
Wade
cro
puls
veto
cra
ornam
glut
participant
conquer
Shawn
##umper
defenses
supervis
clearing
Herman
overnight
rack
succ
Uses
approximate
los
5000
retailers
Logan
fertile
RBI
##osynt
obligation
##sburg
##ów
Coleman
Places
darker
CO2
Pius
##agonists
Fay
Ib
Sandy
shuttle
Middles
volleyball
PBS
punct
##penter
Dancing
Pine
problematic
Quant
Tucker
dye
Weber
Swift
Resolution
probe
Joshua
dawn
dwell
##nesty
unnecessary
Sadd
attach
Regular
##hardt
##xi
Satell
##Ds
Nokia
feathers
CW
LED
Eden
morality
EMI
##acional
Christie
Cotton
EL
eruption
##ipation
scream
##gart
catches
reint
Poles
ratified
Northeast
Forever
deficiency
Ned
##ippers
Italians
menu
Explorer
Hack
chef
Minne
additions
talked
Cavalry
seventeen
coordinated
cone
1200
Characters
grape
woods
extracted
prehist
##ramer
reinst
Rash
##aceous
supersed
Sega
overd
broadcaster
##thel
cereb
Newport
##ounce
Abbas
Downtown
##notes
suppressed
1854
upload
civic
blades
Neither
Incre
lifelong
welcome
loot
fundra
lex
unav
Viking
Bulls
sells
##wal
contributes
Literary
grains
Johns
cooperative
stealing
reclaim
Crazy
lent
Known
##rab
##etus
descendant
unfair
Kolkata
Ci
##ilic
shoe
backs
inputs
Roland
Coming
##accur
Bruno
##but
emphasize
crossover
finishes
1812
halted
Portsmouth
Role
attribute
norms
##onut
funny
Ernst
prose
Plains
verdict
Located
midfielder
Pere
Fiction
halt
##ochond
Andrea
blown
convinc
endemic
Summit
##shine
Lisbon
##fight
Qaeda
Walsh
##reb
engineered
GPS
refurb
Function
Technologies
inappropri
##pta
columnist
##kok
##points
meals
##opotam
Ub
##waffe
premature
unpop
sedan
##ht
Hearts
latitude
carriage
haun
merchandise
Gear
UT
transist
suppression
copied
Sunni
advocacy
##GP
##appers
Thomson
seller
tense
##imar
Irving
fluores
Patriarch
Dictionary
Ud
beans
lightning
MO
##walk
squares
sharply
BB
Dul
dir
retros
Carbon
Himal
genocide
instantly
Shiv
drilling
freeway
merit
renovated
Normandy
occupying
specimen
##rak
contributor
suspicious
Prepar
Solid
Millennium
correspondent
Impro
favoured
devastated
tech
solic
captive
silicon
Stories
criticisms
bounded
##umberland
Gov
tapes
retreated
Kul
##asaki
Commodore
victorious
alternating
fa
##ño
alert
##erner
lethal
Cherokee
Spot
bubble
##hurst
Harbour
mentally
Bronx
vegetable
##olini
Hulk
##obiles
Edwin
Avengers
Hyp
Clinical
Investigation
killings
assessed
HC
MR
doses
jokes
rall
##ondo
mush
companions
semiconduct
severity
pp
Marcel
Pool
Sacramento
hereditary
Duchy
UF
cruc
Seventh
sanctions
ICC
Miz
112
Epic
pork
impose
shortage
##raged
Encyclop
##drop
##itations
stew
##toire
Qatar
##QL
##imi
Ptol
inaccur
##idine
Afterwards
Liga
Gardner
professors
revelation
suspicion
##nar
##opard
diary
schiz
pharmac
devastating
Advisory
None
Plato
Redskins
Rover
panc
##eer
degradation
##harm
##frame
PV
rou
thunder
Porsche
Pill
##pers
potent
bottles
Seth
vault
Cyber
workshops
Better
feminine
Boom
##andra
larvae
brutal
dive
strap
Confuc
##ietal
Investment
##adian
gradient
interception
amalg
definitive
picking
Evening
subordinate
Kom
Truman
Consumer
Writers
grossing
fertility
Opposition
Parade
instructor
mountainous
satisfaction
plaque
Africans
listeners
fuels
preview
lightweight
Brighton
##isse
constituent
Garcia
##egal
numbering
Editor
Peg
bug
##GS
Cola
accessories
##ifa
flux
verteb
intentionally
##elian
Bavaria
guerrilla
las
rides
realism
Holden
arrow
Moor
##armed
stays
spanning
Conrad
Antio
Soundtrack
knockout
coil
Fuj
Holdings
constitutes
interd
enjoys
##syched
disability
Bolton
Kre
LLC
generators
Anniversary
Vince
##alli
unwilling
eternal
teammates
unusually
practicing
catastrop
Chapman
##gone
##luded
coron
captivity
darkness
Luftwaffe
##iom
Omar
##asan
Wer
dismant
pumps
efficacy
##bard
Newfound
terrible
ratios
Aval
Journey
bleeding
Nikol
northwestern
hardly
Honours
McMahon
##vern
deadly
execute
Donna
fond
##etto
##agara
Bhar
aunt
Hels
formulation
Letters
temperate
Minneapolis
obviously
Lily
Script
stretched
GL
Tanz
##lint
Colombian
wise
1849
Concern
undertook
##oping
manipulation
forgotten
Hak
muc
Europa
##ogo
##boat
Pure
asc
##ophys
##ghold
Administrative
prompting
Nielsen
##ogues
##iatric
Uncle
saints
Imag
Solo
apparatus
Timothy
boots
Rican
Schwar
theatres
Bash
specify
Pomp
cake
asserts
delta
stationary
Marco
##class
1855
Chamberlain
Alm
Myth
intimid
##eled
ego
conclude
Virtual
RM
Chak
poles
HR
biom
1851
##human
latt
Joyce
##rika
##ockets
southwestern
proposes
poetic
investigators
1880s
##iasm
racist
cher
implicit
theolog
Plain
Barney
astronomy
fossils
inverse
recreation
Cherry
WN
merge
##uling
upheld
coher
visa
##owitz
##eco
Educational
##irs
diagnostic
mirrors
##arp
##offs
imagination
administer
accumulated
Mikh
##ropical
buttons
hiring
recession
Mystery
EPA
Māori
Peterson
tut
Trou
##KA
Baroque
sophom
omitted
##isle
##iferation
treasure
1858
Tottenham
gel
##boro
quote
Sussex
trainer
Dund
##oton
##raphic
trades
packet
drill
Ens
shotgun
harbor
Spy
groom
##oscop
operas
Document
privilege
##ivo
##azed
##roduced
investor
##elles
Hap
paternal
backgrounds
stripes
advisory
Elder
49ers
congregation
Rahman
Ibrahim
jacket
vampire
Nigerian
Shuttle
##amorph
Rotten
Astron
Hogan
Jal
stamps
transcend
reviewer
pad
pirates
##ked
##ppers
Jeffrey
Naw
Wander
billed
Zamb
contamination
fragment
Leopold
##tered
1600
Durham
inflammatory
nutrients
ROM
##ieri
Vijay
##rite
sketches
Monaco
substituted
reinforcements
##udi
leisure
UM
vaccine
##ointment
Everything
Capt
locks
rav
imply
helm
Course
tremendous
swords
Agricultural
##iastical
Heinrich
Crawford
Cork
bod
definite
Lockheed
##ronghold
##atti
##opsy
##unta
Fields
deposited
Zag
##pend
plague
##sha
prevalence
HMS
##lav
multic
coastline
Initiative
Traffic
semifinals
adopting
ancestral
Zar
##amph
recovering
illustrations
DV
Dial
crank
##due
AW
##aspor
denounced
Atlas
plateau
Ethiopian
attracting
bullets
corridor
burg
Greene
Evidence
jaw
exchanged
imped
Poor
afor
##ranes
mounting
tuned
##onstruction
dug
##ulas
Oracle
visibility
Sail
##ulse
##owners
##odus
##perors
probable
leased
Airbus
Monument
exclusion
Warwick
Robot
therapeutic
approximation
Bonn
customary
##hone
Royce
Newfoundland
Ronnie
##igibility
robbery
Alternatively
Frost
##dan
Wid
anal
Sty
snakes
unpopular
Mats
##acey
nonetheless
ethnicity
Gibral
configur
worsh
rept
Carth
Rosa
1815
Koh
presumed
exercised
nasal
Mood
generates
obscure
Kamp
vacant
Dry
##iov
beet
universally
Sinc
devotion
sworn
subjective
Cheng
eagle
aro
stup
habits
Rid
dw
pept
Holiday
culminated
polynomial
##makers
Kens
Yun
wholes
NM
cites
regret
maturity
Creation
Dodgers
Lahore
##zel
Mongolia
##oining
Platinum
Hallow
deliberate
Rodriguez
exiled
Emil
bedroom
##Vs
payload
Diagn
encompasses
Tomb
##backer
bent
painful
ballad
insignia
##gang
integrate
Stephan
repertoire
visitor
portal
displaying
screened
Extra
sar
airborne
archives
Peak
Quad
sanctuary
pageant
Tunnel
adhes
EF
##stead
Mohammad
ecology
afraid
Nath
Clem
mercury
##yards
parach
collaborative
##guard
instability
Courts
sunlight
induce
stair
Superior
Shannon
##ahi
Species
##writers
Tate
formulated
strains
Panch
ideological
sensation
Trevor
intimate
##ertiary
##rosse
Twelve
Yo
##andro
survives
immense
Lau
sink
outlet
Wide
glory
culminating
cob
##ethyl
Vehicle
dairy
##reted
Inner
obstacles
Rao
pall
cliff
miniseries
Mandarin
Beauty
Gloria
ERA
1856
##itsu
Hannah
##cue
uniqu
magist
hostage
Kind
##zan
prototypes
chiefs
prestige
gamma
subscribers
ranged
exploring
Rw
pays
Negro
affinity
institutes
teenagers
backwards
characterised
MPs
presently
wells
encourages
buyers
##lif
##riot
happening
stro
##agraph
##actor
weights
Corinth
denote
Boat
burnt
Sonny
discusses
juvenile
Taking
Arr
##iotics
Points
Nicarag
spinning
converts
computational
Montenegro
##epers
Salem
freshwater
assassinated
##ibles
ACC
famine
##intage
##ighty
analysts
##children
scan
Immedi
Duff
quotes
plantations
batch
outright
Daniels
cott
##abl
##uni
compatibility
Mist
Rip
Tud
distributions
dissent
Bowie
550
rim
Teams
pant
Romantic
waist
Tap
nin
influx
simultaneous
umbrella
dispatched
dynam
Mathematics
jungle
manned
delight
Credit
Lav
Nem
wrist
##eem
##egan
polyp
utilizing
Mets
##continental
Kai
Mt
##tail
##enny
communal
Calc
anarchist
Hast
pioneering
KM
Jacksonville
reopened
##fu
translates
##music
##ashire
suprem
ankle
tyr
##yon
Dana
90s
compartment
Sixth
Tsar
WT
lon
allocation
tam
Wo
discourse
Manit
everywhere
Whether
Psychology
stereo
Jenny
Lancashire
overh
##cliffe
##author
##rants
exploit
contradict
Maritime
scrut
Somerset
Bj
plum
weighed
##itorium
RAM
dividing
prizes
omn
##anor
backward
Dragons
staple
##ocus
Chemistry
Romance
##NP
modify
Brandon
Hitch
Mell
twist
WCW
Trial
fel
Willis
interfere
File
zoo
##antes
##prising
precious
monsters
##icz
Percy
liner
retal
Lambert
consonants
homage
##midt
lau
##gil
consuming
##itating
##intosh
discoveries
recruiting
antiquity
Dolphins
interfaces
##afts
needle
Sanct
Slovakia
##ustain
##monary
Icelandic
##building
genius
principally
coordinator
filmmaker
Aus
stretching
##orrh
Gibraltar
patented
donor
##path
skating
fortifications
wicket
identities
hierarch
##olation
reply
redund
Kapoor
Shri
Greenland
TF
cath
jewelry
chat
bred
##iu
amendments
resisted
sentiment
partnered
pard
##giving
##ceans
postal
administrator
celebrating
Mouse
wand
prophet
##astrous
famed
Shirley
Chambers
Fuller
consistency
expresses
Tac
joints
Bott
##mill
Juliet
disappointing
Serbs
chooses
Words
justify
convenience
##fam
martyr
guides
Emirates
clearance
##ographically
minded
Antioch
fool
plac
Ultra
cartridges
doctoral
inequality
Close
engr
Bras
1846
Towns
dismissal
flourished
explanations
immunity
Flet
Gob
paved
consume
Guinness
##uke
Ans
Recogn
Quality
McA
Bangkok
##ounge
apartments
Fischer
tones
##iked
petrol
shoulders
vacation
diffusion
disastrous
buffer
cycling
Basque
cockpit
OP
workforce
##vez
Schne
Fortune
Celebrity
Turbo
Guatemala
##iza
Ist
##oche
leaked
##uxe
Strange
defendants
Multiple
nic
##esa
##amon
Whilst
republican
wires
worried
Soci
pertain
Goa
baptism
##insic
traum
exceeding
Presidency
Relief
routinely
consortium
##ubs
Purple
Appeal
##urricanes
wrestlers
inflammation
##eh
barrels
supervised
Hers
dash
##atro
stimulation
##stones
invalid
hatred
tears
##girl
##estial
elastic
##ementioned
realised
Gian
##esium
Surrey
Micha
##ieces
disadvantage
globally
Augustine
Roberto
containers
Progress
mistakes
Gund
fence
fined
sher
Brooke
Perfect
Mirror
poster
governors
Diane
Dex
cope
Sv
accordingly
Spike
Eur
##oise
successors
Provincial
coding
photographic
neutron
chim
deport
Ride
##RE
##endra
questioning
##Rs
disqual
Wyoming
Punk
medi
Sunder
capitalist
observing
##avers
rebuild
disappointed
##igma
occupies
Think
axle
protested
Sexual
CBC
##uce
##leased
##uler
resting
Behind
Bills
Brett
stronghold
portraying
cheek
##written
aquatic
Hert
embraced
##eleton
Valencia
dramas
McLaren
AU
##card
meaningful
##imet
whale
POW
Detective
spontaneous
Parsons
Hawks
medications
Gore
Yuk
##racellular
##BL
##keeping
chiefly
lapt
disappearance
Xavier
marijuana
Aztec
phosphate
HA
##aines
Neill
lasts
examinations
Highland
trait
compensate
excellence
Sabb
caution
supplier
segregation
TNA
greenhouse
Dell
##unker
academics
##hrer
##SE
##ithe
explosives
efficiently
Presbyterian
fres
pawn
Colt
Afro
penetration
contemporaries
Resist
V6
##eterm
metro
Rouge
Duk
straw
##aby
##ango
Conversely
Typical
lav
tiles
##DM
##roft
Shu
Sof
unhappy
Georges
Bihar
##iad
handic
recruits
Innov
Rafael
Wine
donation
sinking
pope
deton
##cutta
Bian
##stra
teens
admired
Satellite
Wan
##encl
synag
Fitzg
metabolism
definitely
painters
##IAA
Ballet
warships
affirm
##ascar
Wong
desperate
Kazakhstan
lovers
persuade
ranch
Monter
Rainbow
undefeated
Dixon
Vand
VHS
jun
Prec
domination
casino
Sacred
arising
Dix
Said
tracked
administrators
tide
Apache
worthy
Tian
playable
economists
superiority
Investig
lungs
Yosh
##itas
shear
syllable
##ophren
denoted
tablet
Rebellion
Nearly
dictators
##iae
assured
##ebe
transplant
Calcutta
##yar
Amanda
skelet
posthumously
Syrac
denotes
downstream
Zhou
nominee
##omans
Witness
Isles
Brahm
troubled
Pione
iod
unint
##ennes
soup
Mons
Stro
contempl
Aid
Osw
fatty
presidents
Kok
postponed
tiger
Partn
recruitment
clips
weaker
Unix
##orns
Mosque
Piper
##adder
illusion
ignor
Fiat
lact
playwright
Earlier
Mikhail
DT
Kerr
##HD
Sequ
inclus
##terson
mammal
##birds
Wrest
filing
Everton
Crosby
230
Erik
Electronics
papal
Kry
Ov
Rising
##inement
setup
bush
Harlem
Kell
Trap
##nas
##leen
dorsal
Kick
residing
Clara
constructing
floods
suffers
dedication
handles
pseudonym
Bibl
Bolivia
Somalia
##elyn
qualifications
punished
airplane
Ort
fairy
Flem
detained
Bahrain
Dawson
aforementioned
lumin
##erion
doctorate
nuclei
exploited
XML
ub
prediction
nons
substitution
Tip
li
swall
Devi
pepper
ingredient
Vocal
##ND
seaf
##urement
cruiser
rust
##cats
Achievement
Nom
##uala
Hort
##tering
Marion
Marqu
Barrett
Damasc
Lauren
pilgrimage
##lair
##uga
comparisons
plantation
ventures
ket
analyses
ambul
slic
##cies
invasive
UTC
Wah
catalyst
monasteries
canonical
misc
Chu
Nagar
sanctioned
Jill
Rise
stunt
##ollah
salmon
galaxy
Rochester
##IX
##ureate
Suk
Wit
Geoffrey
##atchewan
##inent
Copa
checked
Pune
discretion
comparative
rebuilding
granite
Britann
Carnival
olive
Deutsche
Mud
Schem
Grass
Helm
Rough
Caliph
Ket
##isen
##avour
flooded
Gould
##loo
ensured
Premi
Whereas
cage
fog
undergone
Lightning
Taiwanese
newest
labelled
jumped
Saskatchewan
toss
##orman
duel
##fits
interconn
Silva
Sporting
Claus
JP
ineffective
##HP
##enko
touched
asylum
##ogly
simplest
resonance
Mitsub
consec
denial
Webster
##ozo
nurses
##ithmetic
destroyers
Proto
markers
Hampton
1845
expeditions
risen
eccentric
Gustav
hectares
##oors
##uddy
mandated
besie
spiral
rud
Laos
1847
##lift
Therm
##illi
chant
Bulld
Keynes
carcin
Cors
clans
Eli
physiological
sake
unification
##rescent
applicants
Nordic
##itious
allegiance
Hours
Definition
##abar
generalized
Khmer
micros
duck
hes
##iani
trails
horns
Pag
commissioner
Animals
Yar
##oney
iPhone
##aryn
Midnight
contingent
Pole
##anson
dissem
Thirty
##jin
Quick
Prevention
void
##este
Libert
Lantern
##eways
Domestic
scratch
Samsung
##ben
upward
Tea
originates
unin
Democracy
Partnership
Tina
variously
purported
balloon
partnerships
climbed
Mitsubishi
implementations
incompat
Speedway
preserving
separating
##ophon
Jude
Torn
##70
princes
Travis
FF
NI
Macau
NR
##raine
songwriting
Peruv
virgin
publishes
inappropriate
reck
relativity
tricks
treason
glasses
Zepp
circulated
angel
Matthews
Kö
##onaut
intu
frontal
Mesopotam
##rax
Rocket
##urrection
communism
CDs
Hermann
Save
##stop
grat
Midwest
promptly
contaminated
Kappa
Alps
Glou
Khal
thoroughly
versa
makeup
radial
Effect
telescope
Yard
uk
villagers
1890s
Bio
##ourge
##rosis
1853
##intendent
Hassan
sophomore
Easy
Vander
twe
##esque
sociology
70s
Shepherd
##ller
deadline
Chip
workplace
procession
patches
eager
stimuli
Resident
Immigration
nice
reservation
marching
importantly
transferring
Tolkien
gut
##inia
sticks
Freeman
nouns
Pasc
Coca
Glory
Prophet
##chester
##Gs
freezing
surroundings
Palestinians
upgrades
Denis
Lé
differentiate
210
Extreme
Till
Cannes
##liner
Tul
Blackburn
Kara
syntax
MBA
reprin
hunters
Restoration
retrieve
premise
Gle
##unn
##ylene
Zap
##bye
Herod
Glad
Quran
Molly
ceramic
Nay
conditional
panic
psyched
##anza
Cliff
sweep
tumors
Lancaster
Fitzgerald
conduc
hemisphere
subscription
Fletcher
##MI
##pted
Alam
Particip
hunger
Dup
eleventh
PE
##acritic
Egg
Fram
Application
folding
lyr
Shock
Norwich
##UI
differed
##Ms
genetically
Circus
replica
Leigh
intercepted
seals
##pered
Related
##uffs
robots
workshop
objected
owed
Elector
##otechnology
Few
Kak
Spin
Beeth
courty
demonstrates
lifting
Rebecca
##omorphic
nude
birthplace
colonization
FCC
tired
Results
##ytechn
Nicolas
Sophie
Flanders
Raven
##tera
respects
##ARC
Syracuse
Flam
##chel
Spears
demolition
Dru
NFC
##ndon
##atham
raises
Chandler
railroads
Edu
splitting
Normal
##acity
1837
tasked
broker
appreciation
vern
contests
rooted
Beethoven
DL
##screen
##ylon
Auburn
RB
manually
##ooks
##ihad
heroic
macro
FO
spun
##ević
Protestants
Wizard
cyan
feeds
brib
rematch
Sword
##marks
dos
astronomical
cannabis
##oplasm
HTML
pins
Jerome
##itored
##ilers
holdings
bloody
##hao
Greens
Mile
jets
##with
Multi
enthusiasm
Towards
Lü
boiling
##Ps
rebell
semester
Atlant
confirmation
WR
tips
Gibbs
Uzb
##eroy
##idas
professionally
predominant
obey
##shi
Cage
Jab
##shaw
souls
mosa
1852
Category
reasonably
prevailing
promotions
lamb
subway
##iquit
Legislature
Phy
oils
Sharp
examining
spherical
Tunisia
specialists
Smack
assisting
##rels
Damascus
propelled
fright
dissol
Equipment
##gas
##lot
Frontier
germ
tragic
Celtics
clutch
Christine
coral
emblem
pools
accumulation
Hok
sank
zomb
deform
##orks
Sidney
##ariant
Jesuit
frustrated
##pectives
eighteenth
ambiguous
Overs
rh
##bands
deaf
Batter
Indigenous
cyber
terrorists
Til
bump
exter
purchases
pathways
1844
Buddy
disciples
Janeiro
subdivided
##culosis
##ueb
Shia
Marathi
puppet
toxicity
Wemb
##nton
Except
Memory
peculi
unnamed
beginnings
##ritis
Quint
unreleased
##loid
##ificent
Assess
Sheriff
wip
##ogie
Evangelical
Grac
Something
informs
miniature
wash
punch
heal
abduct
buyer
interceptions
Antarctic
Stoke
Interp
senses
ambient
Dreams
farther
spokesperson
Katherine
federation
wond
Birds
pseudo
##erget
resume
##ART
Welles
Toul
proposition
dealers
salvation
migrants
desk
propulsion
misunder
bh
dirt
Blind
antagonist
Gilm
##witz
internally
##aston
Hyde
##bling
##alach
##enches
screenwriter
##zzy
asymmet
##lé
##heart
Hutch
initiate
Devils
##anus
clo
Collegiate
fauna
##aldi
patriarch
Benson
dé
fring
##irling
laboratories
Making
announcer
discovering
Pearson
incorrectly
Rica
##inski
Target
Uzbek
Hits
##90
Prayer
posting
padd
##atum
sunk
Ferry
Rita
Recre
fleeing
duct
polyg
exhausted
scenarios
##LE
arrests
##eldom
##annah
critique
succeeding
Rookie
##amoto
insulin
Winnip
Warrior
Amar
gon
##ulties
ordained
Jiang
Emerson
affiliates
nutrition
Doyle
monitored
wield
##onge
justification
committing
Nim
##esthes
contraction
Tick
Location
damp
Monkey
commenting
##opathy
exciting
improper
Louisville
Consult
Miranda
recipients
underway
Marvin
Artillery
Signific
pic
##the
extr
##itud
canals
30th
Busch
Bard
Rous
generous
myths
Jenkins
configurations
soluble
innoc
Miche
proving
##tlement
MK
##otti
swift
##BE
protector
Angola
Zach
##fried
##words
##ilis
proponents
Baba
timeline
Hercules
Tou
##WS
outsk
##blems
Amateur
Chargers
databases
##pendicular
##igon
##spe
Knowledge
Cret
Iz
taxp
convincing
lattice
##ipse
graves
Ae
Torres
intellectuals
weighing
Byzant
Sag
##chard
outline
##ventional
noticeable
eu
fundament
Goddess
Rajasthan
Paraguay
seize
Halloween
Fon
Tek
##enas
exams
Yas
desires
differentiation
Mys
dressing
##uations
##ifax
rip
##uti
pleased
bilateral
Santo
provisional
Jump
Vald
##bot
##UP
Pratt
Wembley
##ppen
demons
Strauss
##otta
ultra
##istries
tablets
##stadt
Scandinavian
anthology
PRC
Coun
##32
##erk
traction
builds
280
monastic
Dante
Yi
mating
##gren
depictions
humidity
styling
Mongols
relieved
Patricia
##redited
##ucle
Malik
##ronym
Omega
Stefan
##ogens
Calder
Rolls
proliferation
Scientology
Barker
Mussolini
##yth
subun
Grammar
##inosaur
Gat
pulp
Sabha
Phillip
pupil
metabolic
Lucky
##gel
controllers
repaired
inexpensive
bite
##anners
coating
helpful
Oslo
dysfunction
inconsistent
washed
discount
dissatisf
peasant
##ław
spends
annoy
Judy
botan
##fordshire
##45
Rockef
1836
Odys
Rapid
disagreement
Winnipeg
accidental
kinetic
Coc
Anand
demonstrating
Ottomans
Aragon
Libyan
Coventry
aliens
Intern
priced
Requ
heights
Reserv
harmonic
Pig
Lao
##hetics
seeded
warnings
ot
vom
obliged
Laf
##asw
aggress
Talmud
pigs
clerk
Buchanan
lending
gri
##ndez
Byrd
plea
Dome
Lump
WP
##ificates
Rescue
hypn
##hawk
tying
##isco
##jet
concealed
illegally
Sinclair
H2
##Ts
forts
##dominal
Rivera
spectral
Punjabi
incentives
##yang
##icol
Braves
adviser
##grav
Hed
##oso
apple
Networks
##orpor
##phone
refr
Semin
whales
overc
summoned
Lance
Plans
humid
Cic
##atron
Guerr
objections
Armenians
Dudley
pamph
injected
pyramid
outskirts
Pip
##las
collegiate
Hoover
confronts
glor
##far
1832
##idelity
Kurdish
Poe
##icals
##integ
##idy
##illac
Kiev
excit
Haj
mediated
funk
fathers
amplifier
##IG
upright
activism
urging
shelf
patronage
Dif
##ogical
leuk
variance
negatively
dispersed
turbines
Manitoba
Ide
##dr
##AA
##usement
Marina
disco
Slovenia
##trans
antibodies
##inished
Tracks
contractor
eigen
energet
penal
cache
##ologne
##uder
subgroup
Haven
##oult
dispens
coconut
tightly
##enclature
expans
antip
##III
##illation
inscribed
establishments
Specifically
biographer
graphical
Clyde
##jiang
Metall
erupt
rods
economist
motorcycles
Sale
Chiang
solvent
routing
Buckingham
##nis
##omas
crush
condemn
upwards
Mayer
Beer
##umbered
ba
1838
##asso
comparatively
Fellowship
schizophren
Boot
##lez
Meeting
undes
Thur
unanimously
unconstitution
##chan
##apest
sabot
##geons
Mozart
Going
Darren
1835
elephants
##alla
meantime
Dag
Arj
invisible
limbs
sympath
Marse
schooling
slang
sacrific
Saddam
croc
rer
galleries
Latvia
##shot
readings
acknowledge
cerebral
Lives
bests
##owl
##emost
Seal
undertake
reconstructed
##anium
Shot
maiden
Davidson
Sob
Sieg
seldom
##hara
archive
pirate
Jacobs
##matical
header
discharged
punt
incon
Released
Sources
catalogue
carp
##ometry
Burgund
RFC
##top
##alon
##ayas
seaw
entirety
##odynamics
harassment
Rockefeller
Wess
##inational
slowed
loving
Synt
Greenwich
FE
Lands
2020
Arrow
remed
soci
kidnapping
Bant
selecting
320
##atism
downward
Madh
Dock
##emma
##cker
##urban
Alexandra
affordable
Kuala
til
somehow
franc
Clean
subsidies
spans
fluids
tombs
##oglob
##wave
midst
Tomorrow
Howe
suppliers
wit
spider
Leone
loops
armament
geological
Performing
Budapest
litigation
superseded
##frey
apartheid
Dirty
Immediately
Lug
##ivial
prehistoric
erupted
##evo
supplying
Kaiser
spray
prost
##afa
satire
satirical
##eous
escaping
ODI
recapt
belts
eponymous
##ropy
coated
uncovered
Philippe
Boyd
##icients
mutually
emphasizes
Brotherhood
cylinders
float
phy
sorts
Gameplay
orchestral
Duchess
hazardous
branding
climax
##ethe
Associate
Booth
ana
Barr
##lash
##asim
Abbott
rigorous
symmetric
Nacional
Pablo
##gement
##avior
##odeon
penc
ency
Dear
Danube
commodity
pour
##ermo
pricing
brush
Nicole
Semitic
Egyptians
ladies
lava
##storm
Swim
Nicol
PG
centred
preferences
inevitable
Basel
synonymous
conferred
Brittany
Tomatoes
Halifax
suggestions
Woody
pedestrian
Jorge
##ono
Mint
##bourg
Sunderland
jumps
relying
monitors
##raper
additionally
packs
Versa
ecclesiastical
Caval
##erable
Revenue
utilities
aiming
hearings
dictionary
pie
forged
Distinguished
Panther
resurrect
##itives
recalls
smell
Aberde
rented
bombings
Navar
stern
Charity
Effects
mitochond
Gadd
Hag
shy
abort
triangular
creativity
lub
##unami
BAS
##awar
depressed
reactive
motorway
AFB
oval
gaps
Seah
supportive
councill
##bial
submer
Appear
##izarre
Dent
##forward
Bosnian
Ce
sacks
letting
relieve
##press
attracts
approve
##eworthy
##atore
stall
Disp
Shelley
simplicity
numeral
stranded
skeleton
##Arthur
Xen
stretches
algebraic
A1
Reports
Catalan
cents
cosmic
##stick
##ructs
announce
Scouts
dramat
Township
##ibus
1839
multiplayer
##had
##arf
blockade
Publications
disappro
##gust
Ismail
Monk
strengthening
Honorary
##mare
forc
capped
##ographies
tunes
Foods
Venetian
##aspora
Rak
##alm
burns
1814
Figure
coefficients
Bundesliga
##his
Kand
lowering
automobiles
Midlands
pedal
##EEE
##urable
Maver
rites
distortion
subsidiaries
Baden
grossed
##igi
Interactive
Coul
Siles
commuter
Reilly
predictions
lawsuits
TT
gangs
vertically
Eleph
Bram
Pep
bamboo
proton
##iscip
memoirs
##nance
##64
borne
creators
mistress
Drag
rocky
Practice
pledged
Kyoto
physicist
##agus
reputed
steals
Twins
cruisers
persona
MacDonald
upt
##icans
alias
McI
accession
liquor
penned
Excellence
washing
distributor
soy
##licate
Exhibition
restoring
Cubs
AMC
sculptor
appreciated
Rust
##atas
Simple
photographed
##ochar
Object
Tut
Read
Changes
##olla
##umbled
Guns
##rusted
mars
##lace
fatigue
gland
##gender
periodically
advertised
anchored
denomination
entrepreneurs
##gem
##edience
beams
1820
Sanders
DD
Au
VH
tidal
Programs
progressively
Casino
spur
##ixed
mystical
Dang
deleted
Flat
##rush
Comment
illustrate
summers
Niz
glands
shores
Maggie
concluding
pixel
##ilight
markings
portrays
hailed
misleading
Noble
Balkans
##sty
##unks
envelope
##ál
spine
attested
refugee
prospective
Allmusic
logistics
gearbox
pneumonia
Cologne
##ulg
Adobe
marrying
##asium
curse
Provision
IB
rental
patrons
disappointment
Hanc
Ware
oste
##grass
Temper
tattoo
Byr
Drac
Cyrus
Wireless
##ako
propose
framed
illustration
Nickelodeon
ABS
Pend
##daughter
Canber
warehouse
Mund
mun
Zo
lords
grapes
##ococc
FR
math
villains
boxer
trusted
##enter
perpendicular
detector
Hammond
Playboy
Operational
##yam
envision
amen
restructuring
Peruvian
Perm
SK
Shim
retention
anyway
Growth
##hai
##osures
Lindsay
horizon
##even
Reconstruction
##attered
epidemic
deported
Resear
Rural
##onts
##rica
seizure
purity
270
reviewers
Rifle
elong
Porto
Fiji
##UR
commissions
##ismatic
musk
postseason
twelfth
Crimson
##zzi
Areas
Streets
richest
Sik
Und
resided
circa
salts
prosecutor
newscast
Complete
apology
tornado
##continent
Communists
Publ
##owd
Advert
dams
snap
Concord
Gone
Tale
##antan
ballistic
Python
stole
Manual
limb
##aunt
griev
busiest
Jaw
Sina
##mour
Patterson
Goodman
tortured
Sleep
Scandinavia
TP
nod
indict
prescription
##eke
nationals
Activities
Schumacher
HK
env
pillars
dire
defect
bees
##opic
Grim
touching
Confederacy
perm
Countries
decorations
voluntarily
##hetto
shooter
streaming
catching
awaken
enthusiastic
Ole
Vert
charities
##inki
Entry
originate
actresses
ladder
Oss
##ummy
phased
##stitutes
narrated
Lans
##99
canvas
upstream
fungi
congestion
arithmetic
Byron
oversaw
Falcons
Tehran
continents
sounding
potato
pleaded
precedent
Clap
histories
tenor
raped
1842
antisem
##ews
masculine
##ingen
termination
Karachi
##sworth
proportions
##ingle
Sunny
eradic
outward
Invasion
Dres
reigning
Lowe
Magnus
Analy
Sino
font
##thms
winters
Perkins
##hetical
Concept
##aptic
Revival
babies
Granada
DE
Albany
##jee
sliding
conversations
categorized
##itudinal
##aan
gem
Madag
quarterfinals
Poin
Personnel
Gos
##onnell
Katrina
lesions
Caucasus
peculiar
##eves
121
Fritz
dignity
DF
##ackers
##angs
##rophy
coupling
Katie
Xin
Zhu
##esto
##araoh
microphone
Resistance
##etric
seism
Worldwide
Fri
ought
implicated
##ahar
Bea
Grav
glam
##zzles
Eleanor
Ladies
expulsion
plag
indicators
yielded
dietary
Lus
##bad
transmissions
Elite
consultation
Miy
anthropology
muzzle
Mental
notices
##inny
Monitor
Myster
Tau
ausp
vass
Giul
Milit
##dia
unlimited
flora
Conan
##aires
profiles
Tests
outc
Berger
##itone
Timber
Built
westward
excavated
##abel
Conv
Revel
Groups
Pilot
Kru
Nice
mankind
fission
##ermat
Honduras
Zeppelin
tempo
intercourse
Tactical
Jubilee
GR
Expressway
Siberia
##100
reliance
culturally
Diss
sop
teas
heel
Schmidt
pickup
Morton
Animation
Bhutan
##ilin
basal
Goldman
Hancock
Cartoon
telescop
Ich
Sass
pend
recognizing
senator
Coin
melt
outrage
Cannon
Ces
Cron
Sib
##ignment
defences
Simmons
Users
Therap
##headed
translate
McCain
Mé
harness
majors
Civic
salv
tailed
disturbed
AE
##WC
Compared
evolve
abdominal
signatures
meanwhile
Isabella
Siege
olig
Liqu
##orse
##arez
mortar
coincide
lubric
roman
##dog
trillion
disabilities
Atomic
halluc
Manufacturing
##week
potatoes
contention
provoked
Gaut
##asties
Lamp
##ecular
algae
prohibit
diamonds
##note
##orah
cardinal
microw
##opus
analyze
conflicting
renewal
arid
##helial
Copper
Randolph
Cyn
SB
genetics
Garrett
##onc
intrig
competes
Laden
Kramer
##lov
##edi
##quisition
Robbie
fulfilled
Clock
Enlightenment
impaired
Bates
traj
Juvent
coincided
centralized
##iciencies
phyl
##är
##rehend
acquis
Dogs
Assyrian
Vampire
##gee
Marty
##olphin
metaphys
masks
hobby
exaggerated
##onds
recipe
##awan
Associates
adjustment
tuberculosis
OR
Zam
##verages
maybe
connector
chaired
Levi
Nad
ceded
discarded
Sto
XIV
staging
Lorenzo
ét
##uo
##uca
encirc
##wana
commitments
climates
JA
Bullet
fountain
##aras
curtain
psychologist
Gods
promoter
##nie
##alese
Cromwell
Steam
Episc
clinic
Hanover
motifs
MLS
consoles
##raphy
kicker
matrices
pestic
Austro
IEEE
scattering
##ilyn
checking
Wrestle
Manor
biochem
Disease
Madagascar
Wilm
gloss
##eddy
toilet
distinguishing
##ouk
binds
niece
Penny
Movies
unconstitutional
Versailles
Vale
campaigned
cyclone
Draw
Experience
Moy
Appalach
rolls
pulmonary
Budget
clashes
Neolithic
Canberra
Hawkins
beloved
revive
Platform
Haus
perme
cassette
infringement
melodic
##idable
Heather
Allison
calib
Toledo
responds
inact
foremost
Models
PK
Rit
##ilon
modular
850
Nir
presided
Lankan
##ecd
pars
Philharm
embrace
Airborne
##AFTA
Snake
battleships
##rar
depot
Flood
WM
dehyd
225
errone
##thy
##shop
rebr
intentional
Hair
##ivist
Slovak
rewarded
Fury
##oufl
Chir
imperson
Jas
##pop
landings
skiing
gesture
1841
Theres
abused
Combined
Respons
boycott
receptions
##link
##ongo
Struct
intric
disinteg
scroll
1843
planetary
yeast
##orporated
paradigm
ling
guys
militant
Jaguar
volatile
María
Bee
Polyn
##utable
beverages
acre
Presidents
Robb
guardian
facilitated
Witt
chop
##ograms
Spurs
everybody
covert
contractors
Critic
rhetoric
nost
ignore
Killer
fug
##ocl
##itional
equals
protects
Kahn
puzzle
Daim
nuts
deposed
Freddie
Nigel
traject
niche
##fig
Macintosh
Behavior
Newark
Pied
Milk
Nights
synthesized
##35
rejects
divides
hostilities
extermin
Evan
##rones
broadband
pastoral
curv
complementary
neglected
Jakarta
spells
##ogi
##ibia
detachment
ruined
tuition
Seymour
deposition
##avas
resent
##oser
##tershire
guild
surprisingly
infectious
MAC
OM
##static
Olivia
invading
hedge
##ushi
electroly
##rade
drastically
Introduction
##uy
initiation
fueled
Marcos
Benny
Hilton
##law
inflicted
##orical
Assam
260
sleeve
Mysore
clash
electrod
sympathy
anatomy
invade
airplay
Carpenter
fortunes
Hos
mas
##ctica
expose
synth
reproduce
Cecil
dangers
earthquakes
blessing
Bayern
Latino
lobbying
Vor
##buster
##inating
decimal
Geographic
superc
##baum
ashes
Units
archipelago
##thernet
Frankie
Eurovision
##UT
fixture
Fender
Mecca
expectation
Fow
threatens
Tool
unac
##ouncing
MacArthur
edit
Sheridan
expenditure
Restaur
##wen
az
paragraph
Albion
locking
Elections
Variety
##acious
##usk
interrupt
Atari
finances
corrosion
withstand
Standing
hostility
benefic
voter
responding
nobody
fracture
Turkic
Hastings
RE
##obil
Hollow
massac
corpse
Veterans
Lum
Webber
berth
energies
EV
AAA
Hoffman
inad
acronym
rupt
##hole
Mercy
scrapped
classics
exploded
Helena
elevator
Rath
Rider
inex
Charleston
doubts
Napoleonic
Ecc
Naj
##athon
registers
Reverend
bombardment
Tanzania
Ik
confession
Yankee
Written
Elementary
eminent
##onica
##artments
Indy
Hamas
Wendy
##adors
firearm
probation
contrasted
parallels
kar
complim
overview
Massacre
cooler
Securities
Madame
exceeds
Gest
Oman
Omaha
##amel
##romb
cane
Rudolf
intensified
poker
quantitative
ventric
stresses
Leonardo
tensor
Clarence
Outer
##users
Somali
Legends
searches
Nicaragua
##ourning
favourable
disruption
Spar
122
Aviv
1821
Discography
Property
Michaels
Ner
ech
pits
##elius
advancement
devot
Sikhs
Jh
fol
##bat
##org
##acerb
##axies
convoy
charting
donors
semiconductor
Pix
adjoining
Akbar
filmmakers
Wanderers
penis
Tara
##ricting
Medina
Buffy
Magnum
Recordings
García
##opia
pert
playback
Applied
Keys
Cunning
Zomb
##ān
##lict
planting
axes
Select
vascular
proves
visually
Incident
explores
##bage
##óp
imminent
statutes
pitching
hast
##wyn
forensic
Brend
pes
##Us
benefited
Rodgers
autobiographical
Embassy
##hus
2016
parishes
slots
1789
pants
humour
##âte
tenants
ecosystems
Fres
Pang
Pull
RIAA
Malt
ensures
praising
##lec
defer
offences
Italia
tactic
penetrate
heterosexual
VP
##200
##ès
Resort
##ische
1870s
Sprint
accomplishments
bundle
Coss
shareholder
Ramb
##parents
FP
Wigan
##green
##Down
##ublished
Autumn
Maple
dirty
Thess
onward
unse
newcom
hearts
angels
microp
Lep
Governors
incentive
Latter
Barton
bilingual
##oine
##horn
Electrical
nerves
pillar
Diesel
##assic
realizing
weekends
mimic
##atable
mystic
amplitude
flowering
##uh
##antha
Dexter
Francisc
Carlton
seventy
ribbon
Aberdeen
Gret
##holding
Eva
acquisitions
Lights
Pitch
Alco
trailing
grammatical
Weekend
Cats
KL
Stap
endurance
Neh
attorneys
mans
##owment
McE
morale
##rench
recognizable
Angelo
senators
##acia
overr
Metacritic
sampled
Rabbit
Gauss
sharks
prospects
exacerb
##ounding
Anch
##fields
rails
Frequ
##hyde
figur
neighbours
##Bs
Plateau
Congressman
Horror
Dominion
Marathon
arrows
receip
Edison
##iazep
LDS
##atorium
royalty
mates
tast
shade
minus
medicinal
unavailable
Nets
##fest
showcase
Roads
certificates
lyrical
wolves
##vested
destroyer
Rhe
##arius
amazing
recognise
M4
spices
imprint
residual
NK
merging
propagation
gifted
##itat
##chair
reset
append
Fra
OK
iv
##atography
##aland
uncont
monsoon
##planes
pastor
retaliation
ours
##yas
opener
turbochar
Yahoo
M1
Peps
##rase
compelled
##ommunication
castles
boiled
Surviv
Laksh
Natalie
overturned
vintage
textiles
malaria
Jungle
Sustain
erotic
Sho
##ourses
##iso
Laurent
##hawks
Characteristics
aids
##omics
Knowles
Mae
Chung
criterion
Accordingly
##economic
Coy
bourge
##oval
Elis
weekday
devil
disguised
Brem
Stur
carpet
Pras
Hare
##dor
1834
Fuel
##will
Chit
hydrocar
XVI
Flint
Wyn
Pulitzer
##chem
strand
BCS
Spaniards
Oswald
akin
McCoy
pornographic
GNU
rabbit
enduring
Carrier
engined
Christina
commodities
Pueb
troup
ros
finalist
franchises
experimented
Vaughan
disgust
Leading
##phones
Meet
safegu
randomly
Bermuda
##zzo
##rised
fibre
toe
##ansen
##pler
solitary
weighted
Lionel
systemic
##leys
contempt
NSW
vibration
prostitutes
Goes
Kitchen
##perture
secrets
parole
renal
Brigadier
Vernon
chairs
24th
Articles
Balkan
##herty
click
Marilyn
Above
Status
##making
##adin
##utive
##ographs
instrumentation
Cran
Hague
Braun
barracks
ubiquit
Nure
intends
##acha
detached
##isciplinary
Episcopal
linebacker
Crane
heavyweight
##sta
parental
propeller
Parkway
icons
##acements
resorts
Adapt
ventilation
scrutiny
pioneers
##mart
packets
Flemish
bikes
Northwestern
##ycled
Lester
Guest
activate
diagonal
Olivier
liable
replication
##lessness
hin
clever
##rs
chick
OF
##hov
uncom
##marine
330
Roses
composing
McF
Loss
straightforward
747
delivers
violating
Aryan
##esthesia
FT
Wet
Imam
Engineer
Majesty
Kob
Vish
ceas
dough
##aea
Wyatt
PI
Iberian
Causes
gy
prisons
leap
informally
Sophia
##ignant
Amber
monkeys
bourgeois
##86
resurg
disasters
spreads
Jennings
relaxed
ON
##icho
##ephone
Fuji
serge
removes
Greco
Galile
Phillies
##arb
Dickens
threads
Xia
dread
Fleming
Estonian
##acio
annexation
BI
noon
SmackDown
Archie
Archer
elector
Flower
stereotyp
rendition
psychedelic
OH
limitation
possessing
intervene
lions
lets
DeL
insists
Parts
Schl
packaged
refriger
##forth
depended
##olester
Ricardo
Gentle
##wi
assignments
XM
Stream
replaces
Bruins
mathematician
##aret
##arist
Should
theoretically
rhythmic
##proof
Alberto
hypert
requesting
concessions
localized
incorporation
Silent
lucrative
dictatorship
recycling
confessed
Mog
Poetry
Producer
Hog
classrooms
crater
Aerospace
bisexual
colonel
intrinsic
beverage
perimeter
uter
conject
perspectives
convinces
Amazing
doctrines
Auton
Sutton
regulating
eligibility
terr
1831
worm
##aneously
Myers
DVDs
Tudor
##steen
##uming
melan
drying
Bahá
Properties
herd
Alg
finalists
amounted
##fs
##osc
disreg
Regulation
Martine
reverted
methane
##XT
Theor
##ectomy
Opening
unfinished
enthusiasts
courtyard
Give
guess
Monaster
Lifetime
suck
neglig
Counsel
ka
##page
##elman
##iguous
Beir
bonding
IEC
pitches
muscular
sustainability
Mozamb
Nina
fost
programmed
Cadillac
Emin
analogy
gateway
evolving
Shankar
##Script
##ionage
##brids
Huff
chi
Graves
256
##alde
Instrument
plagued
cerv
##andez
1700
repeating
Enfor
barred
seminal
illegit
frustration
amphibious
Bé
Carmel
Unicode
unaccept
Russo
##raj
trustees
congregations
fins
1824
reorganized
mistakenly
Riv
reggae
grille
ensued
Providence
descending
Lois
Influence
Dad
Hick
Okin
slated
oversight
##hausen
indefinitely
Helsinki
##falls
##eyn
Composition
Principles
celestial
Tub
epist
Siem
Antarctica
##ozy
Buzz
watershed
sacrifices
overhaul
Ethernet
TAR
unequ
abuses
declares
membranes
René
Wis
##onyms
explorer
##lynn
unexpectedly
communists
arrange
epil
births
resembled
Lig
##occup
Patent
Jamaican
brigades
Luk
hug
spill
arth
Orb
wilderness
disagreed
raced
tertiary
halft
Thanksgiving
tags
##icides
##recht
dissip
4000
Romney
cylind
landscapes
standings
##ranged
imposing
Anj
1833
safer
Toll
printer
lone
bureaucr
Tup
Assessment
bells
exceptionally
nomadic
rhythms
Owens
cigarette
##xt
Meteor
##ositions
interventions
Forward
Scream
circus
motives
rewards
##closed
Jacqu
vernacular
discography
Laurence
flute
Appro
DI
##osi
##fulness
acquitted
Operating
supplemented
carbure
Illustrated
Hes
Enterprises
plenty
disclosed
improves
corrected
Lund
##ecost
meta
##boarding
TE
populous
Huang
chartered
Researchers
Eighth
Jod
MMA
interred
Saharan
fishermen
foam
##hs
##ène
##oki
Honors
capsule
JC
NET
##iyah
Perman
rans
##WR
##GC
Alfonso
Ptolemy
##anian
##oderm
redevelopment
Pact
Rings
##isson
anymore
Hendrix
Conservatives
##akov
documentaries
feasible
Dracula
avant
Chronicles
recomb
partisan
Stevenson
Persians
evidenced
FIA
sins
averages
inauguration
Graph
Jules
##lishes
VT
migrate
##erun
##istice
##ancements
depths
Coffee
##jor
##ecker
modulation
sanitation
imaginary
grams
besieged
quasi
verified
QB
please
yes
##onson
faculties
bulb
intermitt
excavations
##obacter
dispers
bicycles
Confucian
Lumpur
posters
scarce
heirs
Bolog
Umar
##andan
##ATA
adulthood
Mask
nests
##rances
absurd
vegetarian
appointments
Chern
wishing
exponent
trumpet
unite
100th
neurop
Synopsis
FX
##rals
sixteenth
gastro
rejoined
murderer
reservations
1776
invasions
Funk
##ewood
Chain
reprised
skirm
Andalus
specialised
##garh
utilizes
Languages
lithium
whit
##nez
802
orbits
Wait
##jing
Krak
Eleven
Observatory
##orno
economical
dece
antit
mosques
HE
Rear
##lake
hears
Expo
correlated
Kah
Sover
##enov
braking
allev
Sundays
encryption
vivid
detain
Driver
Salam
candy
Waterloo
##omotive
stalk
Alonso
implying
shortages
breakup
moderately
inhibitors
passionate
Dot
Push
adorn
XIII
confiscated
##onne
##agher
compose
knives
Carmen
Trustees
disturbance
seizures
stainless
##mberg
rework
hunted
Zeus
Atlantis
Poss
hards
emotionally
##UM
propell
enjoying
Darkness
##ocalyp
Certificate
Juventus
Seahawks
Pepsi
Files
Vedic
arches
##urnal
redist
Goldberg
Tuls
Bean
emitted
antibiotics
TN
##ummer
##asonry
installment
Loy
computed
turnover
suffrage
theorists
Occasion
compassion
freestyle
multinational
paste
Sabbath
logging
Bacon
Stad
disks
Motown
Talent
hormones
##arten
daylight
Lect
yoga
1860s
searched
Cunningham
inactive
ambitions
Savoy
Watts
Rapha
##raviol
electrode
Ajax
Ebert
Transform
Fo
Meat
Provisional
Holt
Content
consolidation
Lod
##nor
##andem
##estro
##ometers
motive
Myan
collaborations
Boxing
Zoro
##enaries
Weapons
##fri
contributors
Municipality
Baj
lime
##rí
behave
##regn
adaptive
ignition
stimulate
executions
Beirut
Gad
Glob
23rd
rumours
willingness
Bedford
Daytona
AH
Pepper
cousins
Tasmania
##ibi
Suite
Broken
##unga
deviation
Biology
Cornish
Sioux
ornament
Bound
Gus
Hanna
residency
Genoa
dinosaurs
crocod
##umar
reinforce
pilgrims
grenade
Variations
Hof
##kward
paran
Worlds
semantic
optimization
decomposition
podium
##idia
credibility
Slov
Spiritual
##ém
acquaint
##ührer
##essive
##evol
directory
entropy
humili
audit
##entz
optic
ASC
##ository
##asket
##bohyd
Merchant
##code
##chens
##arck
Usage
##rochem
elegant
##eger
warmer
undis
Lima
auditioned
Important
dess
##ionic
##luent
##roads
grief
mould
relinqu
knights
##rimp
Chaos
Consid
Sahara
Males
canton
Uniform
Newsp
##inkel
##grave
calculus
hanged
Erit
Mighty
##andum
IQ
spoof
Gener
viewpoint
22nd
raided
Cantonese
Smy
kh
##luence
Bucc
Vig
Corner
NWA
iOS
emigration
appealing
acetyl
##prints
Speech
energetic
duc
##lich
##ández
Mih
cf
wan
Polytechn
threaten
Fate
scholarships
pleas
inherently
Kes
Niet
wagons
wavelengths
submerged
antigen
MyS
grandchildren
Tort
traps
trivial
remod
belly
prosperous
traumatic
Yus
Zur
##leigh
Trains
Nationalist
Elena
##oidal
psychologists
wonderful
Nah
##fin
Shep
strained
Charts
Friedman
landmarks
confess
Dual
noteworthy
disclosure
conscience
Judith
manipulate
Gel
nem
apoc
##glomer
Philharmonic
Ges
vars
establishes
Eliot
Degree
envisioned
ICA
Midland
Frog
chords
Walton
convened
Orient
Regarding
uniquely
Constit
Gong
Babylonian
reconciliation
Mechanical
Lama
Try
Loch
nu
##avis
harvested
inhibit
##iovascular
divid
storylines
authenticity
Rankings
garde
legitimacy
incompatible
travelers
tendencies
diplomat
neuros
Fantastic
Framework
schizophrenia
esteem
authoritarian
Divisions
Levy
Wolfe
connectivity
Pentecost
inverted
Penguins
##UN
##onies
modernization
modelling
Carrie
1825
McGu
Individuals
##ocalypse
Blacks
Dunn
survivor
conservatives
##chev
lifes
dwelling
rainfor
pivotal
Erie
Gymn
Burger
militants
NF
##oped
##inous
##ulam
hym
Summ
assemblies
deprived
Linn
##fax
Chat
KT
##elves
##iola
paramilitary
KS
gor
refract
strengths
diploma
Hansen
Kut
Lyc
Nike
##dar
##itures
##ilus
contrace
Mai
##oces
deter
reinstated
Risk
##alities
transitional
Saxony
abbreviation
colloquially
Oy
##rews
Castile
accreditation
disguise
Brendan
Lup
inclined
adren
hymn
Offensive
Consort
forecast
##otism
##ffiti
revolves
Buc
Pf
ni
comedic
persisted
Thatcher
unwanted
batsman
Myanmar
SAS
Cain
specifies
##getown
liturgical
reacted
convergence
Anatolia
varsity
banning
expecting
##azy
nowadays
adherents
BL
##ün
depress
131
Bentley
unused
##ocratic
nutrit
resolutions
spheres
overlooking
evapor
helium
Sank
coronation
competent
Bax
Jah
woven
##jah
medial
##ocrates
analytical
Osaka
mantle
immortal
Occasionally
fork
Prote
Barth
LM
oceans
Carly
Mahab
negotiating
Customs
Cot
##aci
Sunshine
Filming
insertion
##raviolet
disrupted
amass
swamp
neglect
##modern
uncomfort
oust
sack
##pose
amusement
Regist
mythical
Cobra
abbey
##eles
plaster
Chicken
publicized
Crash
newborn
detailing
Bombard
##oran
##send
fearing
enhancing
Reformed
Zimmer
gum
wards
##amar
agreeing
##flies
Prob
Phon
topology
denying
Merit
magnesium
Nolan
##fts
##quel
Smithson
galaxies
Coup
aristocracy
Chong
honoured
guarantees
##vara
String
ambition
##ellery
baked
trench
coasts
colorful
Nursing
Schneider
Cull
unauthor
convictions
1850s
turtle
prejudice
Cycle
##zt
##tsky
serum
##lishment
##shaft
routed
sweeping
fermentation
##ighthouse
Running
##ieft
mono
Phone
##osynthesis
Scorp
transporting
Kirby
Bohemia
##fman
##olesterol
Gond
Kart
pile
herbs
##inae
Locke
cylindrical
clad
##ebu
destined
basket
##auded
syllables
Unity
Breton
overlapping
fascist
Observer
Hale
##hrm
##itably
recipes
Hemisphere
MCA
forums
shame
Silk
surfaced
assertion
Kip
vocational
pistols
Sympt
Noel
Ank
Peuge
UAE
Hands
##ateful
outn
sheer
132
hostages
Wilde
Pontiac
##atu
nonpro
multimedia
Actors
disliked
strokes
Bali
##esity
halfway
multiplication
Kimber
fits
Tribunal
augmented
STS
faults
deeds
summarized
Reason
cues
Hamlet
Consider
Response
endeav
camoufl
Vickers
Dash
##xx
##elines
##opers
plc
clocks
Antony
boiler
oppression
Minh
unlaw
Mazda
Gyp
Piano
bizarre
incub
concurrent
connot
Borde
Pound
##entin
Myc
Names
plut
furious
Wins
neutrality
Fourier
tributary
##eler
##emaker
lightly
##omme
controversies
Mast
whistle
##elo
radios
Nou
Blade
Donovan
disagree
entertaining
##ignon
granddaughter
analogue
inhibition
relevance
Byrne
pleasant
Sanctuary
Rost
##ipei
VF
##uds
avid
bordered
convex
investigative
township
retailer
Nehru
Bone
Hai
drained
scheduling
Bism
Thorn
Farn
##iaison
recurs
outpost
Nept
transforming
##worthy
Schwartz
##olta
Swami
##entials
residues
chromosomes
footh
##spoken
mutant
737
##isal
##ossip
specials
undisclosed
Ves
oun
##imeters
Centers
Archives
seab
downs
salaries
Sinatra
reversal
pets
##urgery
rains
##otus
##igated
Leip
##iosis
clinics
Niagara
Oilers
fatalities
prosecutors
Mitch
Tos
jar
##ís
##rique
remedy
campaigning
destroys
storey
##rocery
prophecy
Marseille
EB
##bred
##boats
monumental
Nuremberg
foref
Chick
remar
##pless
Samar
Koreans
Vanessa
awkward
Spit
##eka
rotated
Triumph
1810
melodies
Taipei
RPG
NOT
Vod
genital
Patients
neurological
geology
Liberals
Matrix
obstacle
Moody
KO
##atility
compiler
Polo
Henn
Jing
Pasha
##iral
tariff
wr
##DL
differentiated
Richie
Milo
sandstone
##breaking
exploits
ECW
hazards
TO
enrich
needing
improvised
abruptly
aperture
perfection
Hitchcock
Dresden
reluctantly
turt
##akis
backdrop
realization
##rategy
Borg
batted
Candid
##caster
emerges
tran
nationalists
##ophobia
fashioned
rage
chol
loaned
cadets
Zak
mang
Sufi
libert
exclude
sickness
Stephanie
usable
152
##ogenous
Recreation
Winners
stairs
offenders
insol
Moroccan
##acs
##iseum
shower
Telecom
##hof
##ku
Alpine
livery
Vogue
##vic
notions
Paula
sheriff
innocence
##rama
intra
goat
Clause
Hiro
Houses
##pike
Sting
Als
Mali
illegitimate
Poker
##leep
emperors
Laugh
alliances
accusing
Anthrop
##ossa
proclamation
Hellenistic
##AP
Deer
experimentation
microwave
rotate
1819
##nick
telegraph
Glac
distinctions
1900s
confidential
##uded
crashes
enclosure
residences
##cia
##adan
##onga
repay
Door
unfold
perceive
skysc
Yong
Pavilion
Tuc
Titanic
betrayed
smuggling
Sofia
##urga
##untary
Rupert
fundraising
##cs
##vous
elbow
mythological
unreliable
Bic
Bold
Frem
bidding
##ça
##heon
Bergen
##missible
nud
Grad
endorsement
nineteen
Hydro
##hop
##zburg
psychoan
quietly
Mord
fused
Philips
Clifford
halftime
U2
##uced
grounded
LE
Sung
Via
lawn
rugged
##cents
commune
investing
##represent
morphology
sinc
##fred
carbohyd
1828
Peugeot
##pi
wherever
separates
Soldier
thyroid
Nell
Leib
##urrently
ROC
##ieves
XXX
Slim
etymology
carbonate
Looking
alloys
flip
businessmen
##utsch
conspir
Eugen
Prair
##roqu
##hampton
SAR
insane
schedules
seventeenth
populace
reptiles
##ternally
systematically
Soap
inaccurate
Mith
lem
inclusive
##inic
Horace
discouraged
Bordeaux
##jack
headline
WHO
##yad
pray
##coni
contrasts
subtropical
Citizen
vamp
vague
##gment
regimes
cohes
believers
distributing
reviewing
Hash
Tz
##tures
scanning
Brune
ambulance
Passion
pulls
Tart
poured
specializing
Schles
Same
byte
atroc
Inters
##eward
Damon
Bologna
Truck
Sindh
brom
Browning
progresses
##df
homogeneous
ensl
mercenaries
Gaddafi
##anity
Virgil
1829
Sark
##imated
##ulence
clone
repression
##iosity
Typhoon
forthcoming
relocation
Islanders
Medicare
Suther
persist
abdomen
##abo
allot
Elliot
aerodynamic
Ngu
pa
wast
##ulose
affirmed
Anast
delicate
treatise
compares
unemployed
supremacy
##etes
##umption
Stella
verify
Sterling
Kri
bog
kicks
##resses
teleg
circulating
squir
judgement
devotees
##hora
Boer
grandparents
negotiation
##araj
exposing
handgun
transformations
KP
anecd
Solutions
aristocratic
VH1
unacceptable
##ych
fundamentally
##anu
spar
##asses
formulas
formidable
Franks
Doctors
Find
adjective
warns
hypothetical
cancers
blogs
##ivorous
##trak
adjustable
Mug
prevailed
Cooperation
Desmond
##ausole
Soy
bil
##onte
##raught
concession
sums
Teachers
angered
Stras
fixing
Midway
Territories
isotopes
Nassau
Cir
erod
##erick
objection
##fires
Classics
resurrection
fumble
##quist
##awk
##ariants
Rodney
Tyson
Toby
Landing
Yoga
cipher
##igl
remaster
tenant
rainy
newscasts
##othic
Check
battleship
Soldiers
tsunami
Samb
bricks
ti
longitudinal
1803
pigment
deteriorated
##ichy
query
Kemp
Fuk
##fur
annih
##apo
Parkinson
1801
nucleot
filtering
Kabul
Towers
autism
Mongolian
##rification
reissued
Liam
Ars
Clive
attacker
Emmanuel
directional
odor
vi
Into
Creed
TB
Highlands
##tracks
Keep
reconcile
implant
retrospective
Peggy
LG
broadcasters
counseling
Integrated
arche
invaders
##ancipation
Hartford
Ravi
Rhythm
Vine
turbo
Hasan
Lombard
Brick
Hide
Pesh
Tiber
##bee
##thi
useless
##iterated
##ío
Stam
polished
Mohan
Contract
Turin
Oblast
Please
Hubbard
PO
##bag
mercy
##aniel
Prefecture
coden
Wolfgang
Sergei
PF
##lords
contender
##angles
Assass
freeze
Dundee
denies
Bam
bestowed
Mining
civilizations
Infrastructure
Timor
ACT
Encyclopedia
keeper
congen
canopy
impart
retract
Raphael
Ecl
NSA
##moil
##uristic
Alumni
Trading
slam
Weston
assistants
Alz
taxon
Speaking
archaeologists
Xi
##union
wholesale
inadvert
Pomer
##fo
##vey
sexes
liberated
phosphorus
impedance
BJ
Laser
Werner
Guill
questionable
Statistical
proxy
##schild
Jol
##ajo
Thereafter
winding
Organizations
margins
glacial
forcibly
pads
occult
Twilight
accelerate
inhibitor
cooperate
ammonia
Pioneer
Value
Avon
transparency
conducts
##oclass
surreal
##rolling
##ulla
##55
Alive
gloves
##ospels
Sutherland
Aux
Pec
pockets
scaled
Clare
template
hybrids
Younger
Coastal
feminism
Nate
Roch
sultan
Colbert
Salon
Hello
cannons
encompassing
Hiros
Candy
hash
##angi
stereotypes
cigarettes
KA
##eking
scarc
touches
saxophone
Rai
gravel
motions
Chandra
harvesting
maximize
Feld
Lóp
##brough
secession
remot
quartz
Cald
sync
evangel
diaspora
##uffle
Seminary
Worcester
López
A4
vows
bytes
educate
coma
scler
MSN
Flyers
overly
weighs
##RAM
amalgam
##ación
Stutt
testify
unitary
Judah
SQL
leng
regression
Weiss
##iskey
Mesopotamia
##jar
counteratt
Freed
1813
Southeastern
Wen
gears
relics
Mari
1806
Specific
linguistics
##giene
Tusc
##ystem
##bol
insulation
Rajput
digitally
Francesco
Eup
compelling
impulse
##married
platoon
roofs
ISP
Wak
gym
excer
archaic
phosphory
EN
Watt
Strategy
geneal
sib
ambush
acidic
flavour
ostens
tails
Viz
evangelical
crazy
Overseas
Qin
articulated
grazing
prosecuted
Tribe
Basilica
cripp
adhere
dragged
Zionist
agon
coh
Regent
royalties
manipulated
convertible
LSU
60s
Sop
##stall
rests
Petroleum
thinkers
Bing
##aso
distract
Mayo
Blackpool
interacting
preferring
Remember
diplomacy
MRI
exemption
hydroelectric
Dah
##yrus
Humphrey
mesh
##ande
Antoine
constituencies
bodily
revital
Parth
Facility
practitioner
pixels
dich
promulg
##uckle
Expansion
hydroly
countless
##iuse
coded
depleted
Symptoms
Asp
Kitty
coherent
Cum
pledge
Wein
Missile
reprinted
Wise
##vana
computation
Morse
calculating
consulted
sulfate
Mozambique
uncomfortable
knot
extrav
Pes
##iland
Manif
selections
sequels
Separ
Cumberland
blowing
1300
integers
fines
##markets
Resource
corpus
subj
Dollar
Bhutto
EX
RI
spouse
Melissa
ng
hyster
shelters
Cag
##alsa
Samoa
Norris
Rwanda
Pond
##whe
replies
Everett
Returning
reductions
Pretty
Feed
Gert
Transfer
compromised
Advance
IOC
##cers
Choir
Anime
embroid
restrictive
ligament
turtles
##kick
solv
Enforcement
Pry
symph
Forrest
McP
textbooks
yourself
symbolism
dictator
pertaining
##ego
1792
Clayton
LCD
Drop
##park
Date
Euras
prostitute
Regulations
multiplex
Upd
Roh
Permanent
Yor
##lew
##assi
secre
bloom
neutrons
dopamine
Pseud
Vy
arsen
guarded
configured
Getty
##âteau
Ion
VS
Faust
brewery
ornamental
Dors
apt
manor
##udding
waited
##acet
Chun
##ensed
goalt
crowded
##enic
##unate
hitter
glyc
kinase
soprano
Jade
smok
bombed
Bunny
RN
lining
##pox
intox
Wheat
adequately
insurgents
Diagnosis
Sod
extrad
Georgetown
transistor
preaching
visions
Steele
Sylvia
License
NZ
##cal
outfield
Weaver
irresp
altitudes
reorganization
Giuse
Escape
Nug
##unkers
1818
downloads
epidem
downt
openings
Drav
Historian
Ninth
##pill
discern
Coliseum
Canary
Williamson
Havana
stellar
Charlton
Nue
bathroom
Gazette
resin
demos
imagine
Daddy
aggrav
photon
priorities
NW
ascent
##chin
##illin
McKin
Hs
recycled
##anchez
##ucci
SEA
Inver
impuls
Hybrid
spectroscop
Loyal
bids
##itya
nowhere
##anao
butterfly
##atan
prag
abusive
superficial
fantastic
##rack
##vian
##onential
##orc
##arine
Exeter
Monarch
diverted
Crusade
durable
##hari
##anj
shrimp
clauses
Feel
unlock
hymns
unhe
Banking
##game
##enerate
Adler
Pauline
Nichols
Papal
indicted
Facilities
wed
##clusive
235
remixes
##oppy
Ment
##aye
##estab
backbone
northward
##33
intol
2D
##dig
chor
flames
charm
logs
Texans
advocating
Lorraine
perceptions
##yah
revisions
imagined
##tef
##atting
##aunched
optics
FAA
insurgency
##gly
Recovery
curvature
synonym
Gior
casc
##bek
##agements
insistence
violate
alternatively
Postal
turmoil
ruin
Patton
cumulative
##Cl
##CO
##GE
1795
Javan
Koz
PB
preca
fashionable
kicking
Crete
edible
supermarket
manufactures
Merlin
opium
Anaheim
Eck
##amaic
hierarchical
Daimler
chin
##chez
##engeance
prefers
glaciers
vigil
incredible
Sparta
invites
Guam
positioning
squee
Moving
coffin
Hodg
Stuttgart
##iates
espionage
tributaries
biodiversity
Amin
Bonnie
##inging
##ibu
Bord
Lill
Tata
gag
##anguard
##iddish
1793
Bavarian
##antics
Amnesty
Barcl
predator
sensing
transforms
Scheme
hides
##umbling
Cream
prostate
205
chancellor
Thr
León
passports
Papua
grocery
##eche
Alv
grouping
##inka
booked
##vester
sounded
alterations
counters
Vie
Za
##zilla
##ité
Trump
Average
Hoy
Claim
EastE
Skinner
vulnerability
densely
Sta
Aden
##ommission
1790
Question
Flowers
##loe
Lesser
TCP
##dish
radically
postwar
boasts
constructions
Pascal
PGA
registry
preseason
severed
Yorker
knocking
rag
Shang
psychic
Automatic
stimulated
Kus
owning
Prak
programmer
bowler
Randall
Brandenburg
##lidean
tastes
##orb
##arbon
Theme
##enda
##obs
knees
storyt
liquids
thirteenth
Bulldogs
##eddings
sul
##chet
##court
forfe
analyzing
shrines
sq
reflective
380
1798
prohibits
aromatic
EastEnders
Mamm
disgr
##oby
Ashes
stripe
segreg
Implement
Writer
Reichs
reappear
##iku
Booker
rotary
Doctrine
Bret
Dover
Luna
taped
stal
Bravo
garment
Journalism
Apostolic
Aurora
cyclic
criticizing
comedies
remixed
nonprofit
Irene
Kidd
eg
coerc
Diocese
masterpiece
Sherlock
thicker
Tito
disadvantages
curb
neon
detach
faç
Sanchez
stained
hepat
40th
altering
sandy
Odd
Destiny
Suez
lips
##reach
amplifiers
weaving
##osaur
quint
eighty
piercing
exits
expenditures
lavish
Hole
##chio
Gerry
Cobb
ery
incurred
unex
invite
##habi
Motorola
Swansea
overhe
##achev
Hark
Absol
Gog
O2
dull
conglomer
##ellate
buzz
cardiovascular
Termin
repealed
##qi
token
Caled
tariffs
Irv
groove
Yiddish
thw
##estead
##udence
Tram
##comb
##dard
Aramaic
Joa
Agn
shootout
proceeding
Move
##powder
##erry
##identified
Costello
vitro
Giles
hated
##oust
TG
headlines
visc
antagon
Sunset
Ethan
Cameroon
cottage
##ocating
Elaine
Daisy
Fah
VM
conserved
somebody
interrogation
Guth
##Qu
regeneration
mint
marketplace
mixes
Teresa
aft
##hne
##encement
Cups
Surf
Sharif
hypotheses
parachute
om
Indus
lesson
##oxy
Carlisle
##As
##strom
##stairs
Skyl
1816
downloaded
Andreas
deduct
Fulham
Gap
plaus
distorted
translator
Mixed
##aroo
polymers
##ayn
Orion
Canadiens
resurgence
SAC
##itively
##pense
departing
##monds
1826
fec
Polar
shortest
##abbing
recommends
Twe
Stirling
Jong
##ifix
Novel
frontman
Commando
cliffs
impe
flaws
simulated
Rockets
unbeat
##insk
Nichol
patrols
paraly
solids
Slow
geographically
Relationship
Kish
manifestation
Mohamed
Brunei
Ips
stepping
MacL
Stevie
palaces
conceal
patriotic
orthog
decentral
Giuseppe
Nec
vas
Always
Arlington
locality
freel
Collabor
reinforcement
Nun
shaping
Evangel
##osterone
fisheries
Rite
tan
##omat
Inform
flatten
Euclidean
##oglobin
Pey
##hma
##orously
proponent
Fortress
encouragement
youths
banana
Employment
transports
Peoples
ultraviolet
Kinn
Sharma
invoked
bladder
pressur
doubling
greeted
worshipped
projectile
indicative
oversh
assessments
Ironically
archet
dow
##uating
Alien
Appar
Knock
surveyed
LO
Judicial
Dai
hats
modelled
Monetary
Olive
340
Wish
##redict
supplements
evenly
causal
Urs
explorers
Venezuelan
Fail
NJ
lbs
storing
facade
fragile
infin
dominating
vertices
synagogue
Hust
mound
Knicks
GSM
Chet
parap
Regardless
HQ
confusing
Sandra
cups
##hies
##ounty
researched
dun
##riz
landowners
Macc
Antiqu
Supply
BD
##oire
capacities
dependency
weaponry
Affair
foil
##acons
Miracle
ignoring
Antwer
permitting
deficits
Leipzig
ruth
##vre
##otomy
##chlor
Gao
Hume
Elton
McB
Dominic
lecturer
Marxism
republics
##owns
quartet
redisc
veins
Sanj
Rocks
Pyram
BO
NES
asleep
advise
Kass
##ratives
##akan
Ston
Bonap
isotope
supervisor
Hau
cite
##coe
launches
excavation
Riverside
bru
lobe
trams
uneven
##ictional
##asonic
##ersonic
Scr
satir
distinguishes
Cey
##etical
480
##collegiate
psychiatrist
obesity
Bridges
disprop
dynasties
nesting
conceded
##odiazep
tops
Volta
Ou
##pes
goats
Earn
Berk
liberties
Feature
Springsteen
##ocial
Tran
Harri
fetus
Arcade
Iroqu
engagements
Belize
Dalton
blended
admiration
impairment
Tec
Voc
coats
fluent
##flower
delegate
Fathers
Thornton
Ducks
bou
diarr
repeats
Pupp
plaintiff
##ibe
##enthal
Kris
serpent
rumored
dismantled
Mama
##ulo
seap
notified
Marquis
transitions
Horizon
Bengals
assaulted
Nasser
Johannesburg
laptop
Sovereign
##aten
##ikos
endings
caliph
##ipers
eup
thigh
##imates
##estine
##estinal
##auri
confirming
Colombo
borrowing
electrodes
Fowler
Vega
Flora
mixtape
##tham
Sultanate
Ethics
Elements
Tad
pest
##osomal
discrep
IRS
##olades
Refl
keyboardist
baseman
blessed
underworld
Dionys
Bloc
Higgins
pronouns
##iably
##olyt
##anka
lottery
GO
Sirius
illnesses
rejecting
Smithsonian
giants
scram
metamorph
Berber
mortal
Covenant
Gamma
welding
Senna
Proced
Honour
awaiting
troupe
Malaya
archaeology
Autonomous
Welfare
plunder
cores
catastrophic
Nietz
disconn
Shopping
Foley
JT
##alone
protagonists
Herb
Putin
Elephant
Monastery
intend
Coron
Format
Narayan
weaknesses
trajectory
cholesterol
##spur
##oxin
projections
encyclop
Burr
##igator
Sami
harp
undertaking
aquarium
beads
##oprop
Bran
Coronation
jewellery
tractor
Gin
##bear
##iferous
poses
password
27th
Help
dresses
Cruise
Kali
eastward
converter
remarkably
outlook
disturbances
tetra
Gavin
Nero
Sas
Zhao
saus
##epsy
dolls
solidarity
Pentagon
BAFTA
Casc
fist
occupational
Browne
Cody
Ll
Bahamas
Conway
diocese
judiciary
##won
26th
collaborator
Dewey
Martinez
Siemens
spoil
##indy
executing
Payne
Siberian
Etr
peg
##esame
##icked
Produ
Clarkson
Everyone
Zagreb
##levant
topical
Aziz
illustrates
tant
biased
narration
cleans
Mirage
PAL
incapable
MF
##ilations
##plan
Syed
##ortunate
Premiership
##RP
deprec
outputs
Picasso
Ré
##inho
Ask
signalling
Volvo
gigs
vomiting
lengthen
cured
##sed
brid
flavors
Scene
1400
##azzo
CON
Pilgr
Haf
stagn
titanium
Jonas
1822
Gerard
semifinal
Vanderb
Nietzsche
lam
applicant
hampered
Archaeological
breat
##antically
alleging
Prairie
##illic
ceramics
totaling
illuminated
Tiff
##eny
##aird
commemorated
Guerrero
Wür
##irot
deputies
saturated
atrocities
Susp
##urious
Problems
twisted
1775
Echo
Pump
regent
emphasizing
Maharaja
Root
builder
Wehrm
musicals
dissoci
Sinai
farewell
Marks
Continuing
GHz
Antwerp
Nur
Wey
##esome
barn
integrating
milestone
##estones
##estrian
Shadows
Brab
unpredict
ARIA
commemorative
Maurit
astronauts
Beaver
captures
chronicles
##apuram
appliances
repetitive
analytic
Torch
fictitious
Battery
aph
malf
implements
Samantha
creditors
woodland
Flex
##arest
Edith
Agg
magnificent
volunteered
lou
impract
flats
Flames
heroine
sewage
Pug
Rin
jockey
##nagar
##ornings
swap
participates
Ecology
Athenian
Vest
mourning
piracy
swelling
##aduates
##urbation
Hawth
##iasis
monarchs
Nes
Ramp
##anid
Spa
Senegal
Wolves
CAS
Ruf
chemist
verte
parasites
bargaining
Boul
Caf
vicious
##fighters
Chron
imitation
##gested
Santana
candidacy
misd
Ernie
ambiguity
phylogen
Cott
treats
UFO
seismic
Summary
aide
tile
Salis
horizontally
Cogn
Font
messenger
impacted
stadiums
Mutual
##pg
Split
ballads
Autob
Semi
Signal
Aman
##UD
##iston
Akh
Neville
bending
apprentices
Suffolk
##48
##orio
##inkle
Portra
outspoken
Shepard
BY
Saga
##SS
##atio
fresco
Banner
##oit
##RNA
deserted
##embrance
runoff
authorization
##uffed
terminate
reefs
Elisabeth
Eurasian
##dong
##erd
presentations
oneself
Experimental
repetition
Tesla
Gug
whis
##forms
Spiel
Vera
Gregorian
assimilation
##Sh
##olulu
marital
societal
Regina
syndication
nomenclature
Wheeler
Ely
##flu
intro
unaff
invari
Boyle
Dramatic
Welcome
Wedding
##emis
engraved
Numbers
##educ
arrays
divisional
pumping
abnormalities
état
Melan
Poo
Were
saddle
##jas
Suns
Alzheimer
Kyr
recoil
exponential
##metics
elders
disciplinary
wrestled
Nguy
Focus
thereof
Willow
worry
turrets
antibody
residue
Vac
mapped
exert
starvation
mah
bean
##assadors
##ungs
Radical
Honolulu
Sicilian
intricate
Wehrmacht
peac
1100
Garfield
respondents
##ammu
Jays
##udh
appet
indications
Rotter
Saul
intending
##irement
##system
Khalid
Wilkinson
Dhaka
TL
Revol
helmets
bureau
##rae
impending
sergeant
eve
Parall
replay
distinctly
sediments
Namibia
Teddy
gov
Reality
Qué
winged
Algerian
Telecommunications
skeletal
Hicks
TI
eut
##adle
endured
Schedule
marries
entrusted
builders
fronts
##cr
stalled
Chow
Chey
fixtures
petty
##iator
##esi
Enemy
Transylvania
circumc
Promotion
nominally
Sachs
##DB
soror
Cafe
M3
Blessed
homolog
virtues
1817
shields
catalytic
AJ
euk
##arton
Reddy
Contrary
PCI
Remote
loom
##utz
GMA
Kern
Yel
perennial
indul
transverse
Silicon
tolerant
regulator
Theresa
mul
##oway
buoy
trousers
sequencing
socket
assaults
##islav
Membership
Innovation
Eh
bast
slipped
Touring
vacated
forehead
Faw
barb
explosions
Bianca
consecrated
Sai
powd
##ewitness
crem
designate
##affer
harb
Jesuits
Programming
descriptive
adolescent
##wari
unjust
Canucks
procedural
1804
Camden
stylized
disproportion
Rooney
##akr
Demon
tribunal
Erich
evaluating
Titus
##ded
##ør
##requ
##ayev
ejected
##oriety
contend
capitals
embark
Renew
overwhelmed
ont
repuls
simul
Israelis
NME
Threat
collateral
WWII
Josef
pinned
##was
anonym
blows
Palin
Connection
sandwich
revolver
Foss
Kron
lodge
##44
decks
Identity
Catalonia
Recognition
Dro
##tings
##unge
attackers
prepares
##organic
Gemini
spo
Stall
Marino
axe
Brut
contrasting
Barbados
vendor
Pérez
Boll
Mersey
##lane
topping
unle
costing
Disneyland
mosqu
Established
Appalachian
Ding
expatri
brothel
guiding
righteous
Chef
commentaries
disciple
unlawful
pell
tandem
Inuit
Proc
Petty
Methods
rebranded
##DIS
##umination
unsc
finalized
1840s
Personality
Tant
Asc
Sharks
confluence
Amiga
competence
multitude
lumber
disob
Flo
mentioning
adjustments
Fors
##eau
stub
##opath
##oulder
minors
Mathematical
eukary
Mare
ate
Borneo
Sain
##icidal
spiders
dislike
Shō
mined
medicines
Yamaha
Harmon
Dmit
Seph
ker
pact
##rada
##alism
##ocations
WG
caring
garbage
Rubin
Ryder
truce
##inence
caret
Issues
aston
coinage
Scientists
transmitting
Manson
lan
##bil
Corridor
Taft
Hurricanes
Rudd
Tus
##eson
convection
Buccane
ump
Advant
Telephone
##iesta
irrelevant
sabotage
##uaries
##icher
##thouse
subcontinent
classifications
Amos
Bloomberg
podcast
clues
##athing
recorder
Fris
Maratha
Volunteer
Avery
stature
206
##aean
Trio
yielding
libertarian
Visc
##actus
##roughs
grab
breasts
announces
##intestinal
Triangle
Unknown
knots
renovations
cosmetic
##patrick
Bres
bored
inverteb
Murdoch
biomass
##inel
plaza
Burt
Publication
overlooked
Müller
parity
Reeves
Olympia
Surface
symptom
##cestershire
additive
avoidance
appropriately
exemplified
Huntington
Kraft
Mek
##gars
202
classify
titular
Abel
injunction
Laboratories
Cretaceous
##tre
hemorrh
Aquino
accumulate
increment
proto
certainty
Teaching
novelty
Hep
Hillary
printers
NGOs
Burgundy
resurrected
anomal
obsessed
undesirable
Polytechnic
refuel
Defensive
Bolshevik
Okinawa
Vanderbilt
##arak
ants
Schu
##nyder
Mackenzie
Maiden
ISA
proposing
##angelo
ration
##riched
Spark
technicians
auditory
distributors
Brahmin
Rapt
crises
Agnes
Slater
laborers
fluorescent
redundant
Phyll
Trotsky
drowned
dissolve
notoriety
admissions
Sumer
bucket
Vend
interstate
marathon
Helms
pairing
elevations
Reyes
ourselves
Baxter
Salisbury
cows
jailed
##uen
##ocative
##ffer
posing
villa
Nazar
Chance
Bragg
ordination
Panel
rhyme
dear
##amide
##urian
##chn
##thren
##tedly
Shr
Provinces
vastly
hoax
IMF
Spartan
Igor
Lich
Biological
Remington
Daleks
Kag
##hound
resultant
Morg
conditioned
1807
nutrient
##HT
Blaz
postgraduate
trusts
lifespan
kins
chased
chrome
undercover
1805
##anic
curious
inspire
Reviews
Thousand
vertebra
##mand
##Works
##ayam
reinc
##odrome
Amir
sentiments
occupants
Frankish
conspic
obstruct
Rhodesia
Refuge
Gaga
organizers
##rera
sequential
jerseys
Monthly
Zoroast
Aks
faded
scrub
Anatomy
Fruit
##itha
##abouts
Thy
simulate
bounds
taller
constituents
Gwyn
##cz
offenses
groundwater
assemble
disagreements
Bibliography
##chwitz
Stick
##ottest
IDF
Cedar
Horton
spaced
Aby
Saur
cube
##acial
##ritt
Minutes
robotic
succumb
ostensibly
nause
##uously
stabbed
splits
fri
equator
emit
Tend
routines
Lowell
inventions
FD
##esse
derivation
##rex
observes
indec
maize
eruptions
chemotherapy
Bourbon
overwhelmingly
MID
lamin
awarding
Normally
aerospace
Ninja
Favor
worms
pean
cleaned
Hussain
Gloucester
lid
##än
incurs
arrog
Peer
vertex
Cory
Meng
##zai
thriving
SMS
fuck
Galicia
Bose
bugs
lemon
vandal
##nard
constants
Reggie
Martian
Hamm
1808
##broken
nets
##rolley
##ophical
Teacher
catcher
scenic
##oultry
saga
##kill
strands
connectors
Ghaz
Hindust
anticipation
##ausoleum
##jord
spanned
Anita
videot
shipments
Ashton
Brennan
indictment
plutonium
Sudd
detecting
injust
clarified
extrater
##cient
##acca
battled
##glass
catering
crystalline
ropes
##utra
indices
Challenger
Named
##oteric
compute
invariant
fleets
rotational
oceanic
mosaic
##argo
superb
Magdal
balcon
Straight
Chau
bloc
anybody
Afrika
photographers
credible
Ethnic
Signs
fabricated
diagrams
nuns
##gean
##inker
Kingdoms
installing
punches
##ihu
gatherings
Fighters
Witnesses
excitement
Yoko
Which
##hetamine
##marked
dissert
Kall
Sok
detectors
influenza
practised
Sammy
sniper
Osborne
lacrosse
##elope
Uns
Alone
collisions
Reaction
1809
captains
Retail
##opolitan
boroughs
lyn
##cephal
destiny
dispatch
walled
Hotspur
balancing
Chaplin
Passenger
Gateway
PAC
lucky
##utations
Farmer
Bernstein
Bismarck
ny
##ioms
##arcer
inh
Marge
unsuit
Hearst
privileged
##VN
##atton
highlands
##ythe
Savannah
intervened
directive
electrically
legion
Talbot
neurotrans
##orce
constraint
Peel
##itania
compliant
dictated
Flynn
Whatever
##rasound
assassin
##adoes
Assistance
inevitably
unbeaten
Gale
tig
Straw
thank
Button
Sinh
obstruction
elaborated
Rudolph
Crowley
Bust
reigned
wheelbase
Dress
cu
clue
##ryl
emigr
##rottle
AMD
remastered
Rotterdam
copying
1783
Middlesbrough
Mash
Ris
sway
Shal
confinement
crushing
soundtracks
collaborate
parasite
Javanese
rift
##iken
listener
NYC
Violence
Bremen
Bonaparte
Kier
##estically
relocate
Ready
Subst
badges
Straits
ignorance
##estan
##lux
escorted
1799
revoked
textbook
Willy
vigorous
911
##emi
authorised
risky
appreciate
Vad
forerun
Chitt
restricting
lifts
enhancement
volcanoes
##urf
##umbo
verification
alcoholism
Ruther
unload
investigator
crying
pavilion
Robbins
Trem
##rail
concurrently
Alexis
deliveries
rallies
Siv
##rador
##iton
##opa
##ankton
presiding
commonplace
Monsters
##family
Capp
dad
landfall
Clubs
Nowadays
diversion
Supporters
Illy
Aeronaut
Hier
##enb
##oulos
wheelchair
Everybody
Snoop
Caucasian
Establishment
conversions
torch
diversified
Tobago
Grap
Random
##aky
##elda
Projects
##aunted
##liners
##ël
saloon
Skull
Mustafa
Believe
Fog
##añ
##assa
pointer
duke
Gunn
ivory
inadvertently
Riders
Yad
##mind
##aq
##itans
##heny
Oro
Pax
reag
141
##echt
Extension
Penguin
Advertising
##ianc
Berks
urgent
horsepower
fetal
antennas
relaxation
subdu
immigrated
Boliv
Holding
Carthage
##lio
inel
designations
Mercer
expectancy
Opel
##36
##Net
versatile
automation
Playhouse
Royals
predictable
TNT
##street
graphs
aspirations
secrecy
2500
twinned
Butt
Domingo
rabbits
caut
##iw
Preservation
Sims
mechanically
indefinite
Toulouse
Cebu
della
Summers
embryo
Variants
##ivores
orch
##bern
bonded
captained
Mate
##85
Clapton
digging
Jericho
Buckley
wetlands
Teng
reaff
##esthetic
Harley
inconsist
undermine
Baud
Hector
##ismo
Electoral
Vaj
##adata
##idium
sentencing
Perl
Jaff
Tint
##adar
##coal
occupations
Maximum
Historians
scriptures
Heming
orthogonal
Panc
tally
unple
Amé
Bauer
lounge
ons
##idic
Heads
Beatrice
Zü
##olom
##chaft
characterization
skew
Calendar
euros
ridges
##church
##ahs
Augusta
inspiring
Construct
equivalence
Cheshire
Shab
Shark
examines
poisoned
camouflage
Bucks
Called
Riding
pand
alpine
pubs
275
prohibiting
Euler
Turing
Wife
dinosaur
nood
declines
User
pollen
##gard
inline
bee
Alison
drafting
ventral
fabrics
Stafford
Brahman
arbitration
Shelby
Haitian
Tung
lust
Ching
IW
tect
##oving
continuum
capacitor
Dickinson
weakening
Euch
Loth
Tail
Quentin
Patriot
authentication
Bucharest
Aless
statistic
posture
takeoff
launcher
ARM
Aleks
bubbles
Trafford
##guez
##odon
influencing
Depot
1823
Zappa
##amiliar
moniker
Materials
apprentice
Lec
rite
##des
Alley
##arno
sinus
inexper
dots
##ος
##ypes
Buy
absorbing
baptized
outsour
ponds
elongated
Eust
##abolic
sue
Testing
Phel
Chatt
Hezb
DeM
142
banker
stabilize
ligand
##cripts
##league
##arty
Abram
Scholar
Strang
Seville
ACL
Steiner
Catch
##ucid
Harding
falsely
Nationals
kan
physiology
poorer
Hayden
Dü
PH
hoc
deception
initials
spirituality
Privy
##evolent
##osin
fungus
Apocalypse
Esk
Welch
Zurich
reacts
transcript
husbands
##oeuv
370
clockwise
asteroid
Sessions
##nets
##awak
Mona
auditorium
Boone
Trials
Auschwitz
Odyssey
cervical
Ceylon
rechar
confesses
Hath
Tours
Brass
##ophile
Gender
Kany
##pian
##obar
Income
melod
Walking
cytoplasm
peptide
##eti
##oscope
##gha
Score
Esther
trailers
Homo
Cindy
##bies
Conquest
Sumatra
tolerate
Heinz
nail
Alvin
##obl
syrup
215
fireworks
environmentally
narratives
Darling
interpreter
benign
##ubl
flawed
astronomer
##A1
##ushima
Hubert
Messiah
Megatron
revered
Uzbekistan
Alcohol
ubiquitous
##onics
##queous
squads
undergoes
Isabel
aggressively
propellant
##Cs
##cci
##henko
Hungarians
deed
Prat
professions
Lawson
##lop
##user
perfor
mont
640
1791
puzzles
Sahib
arteries
Irvine
Lening
##awat
impover
Plut
Otherwise
photons
garner
Cypriot
ashore
wiped
Bis
donate
bordering
Launch
##arism
centrif
##lemagne
Restaurant
unsuitable
Leningrad
skins
hydroph
Settlement
Lexington
Aero
Kathy
fonts
##avar
##riac
##activity
Buddhists
Thousands
##usic
Aunt
restart
Garrison
Mesa
Vehicles
Gros
Nil
##wy
Reader
Deborah
showcased
Ain
FG
##zeb
440
ribs
Gop
Lys
##ienced
##lides
incarcer
citation
Dalmat
Fascist
Fang
chieft
Directive
Venk
sacrificed
##hoff
1794
incompet
reciprocal
Eminem
Sector
adject
Kelley
Guangzhou
munitions
##grat
uncomp
6000
##ryn
expands
instinct
contracting
abandoning
narrower
Laurie
Nipp
##listed
stamped
parted
commencement
Shap
handheld
1830s
Fug
Parma
xen
thinner
enriched
Counties
estimation
fifteenth
Revelation
GW
Wien
##ayo
Rodrí
nitrate
[...]
