[PAD]
[UNK]
[CLS]
[SEP]
[MASK]
!
"
#
$
%
&
'
(
)
*
+
,
-
.
/
0
1
2
3
4
5
6
7
8
9
:
;
<
=
>
?
@
A
B
C
D
E
F
G
H
I
J
K
L
M
N
O
P
Q
R
S
T
U
V
W
X
Y
Z
[
\
]
^
_
`
a
b
c
d
e
f
g
h
i
j
k
l
m
n
o
p
q
r
s
t
u
v
w
x
y
z
{
|
}
~
¡
¢
£
¤
¥
§
¨
©
ª
«
¬
®
°
±
²
³
´
µ
·
¸
¹
º
»
¼
½
¾
¿
À
Á
Â
Ä
Å
Æ
Ç
È
É
Í
Î
Ð
Ñ
Ó
Ô
Ö
×
Ø
Ú
Ü
Þ
ß
à
á
â
ã
ä
å
æ
ç
è
é
ê
ë
ì
í
î
ï
ð
ñ
ò
ó
ô
õ
ö
÷
ø
ù
ú
û
ü
ý
þ
ÿ
Ā
ā
Ă
ă
Ą
ą
Ć
ć
Č
č
Ď
Đ
đ
Ē
ē
ĕ
ė
ę
ě
ğ
ġ
ħ
ĩ
Ī
ī
ĭ
İ
ı
Ĺ
ĺ
ļ
Ľ
ľ
Ł
ł
ń
ņ
ň
ŋ
Ō
ō
ŏ
ő
Œ
œ
ŕ
Ř
ř
Ś
ś
Ş
ş
Š
š
Ţ
ţ
Ť
ť
ũ
ū
ŭ
ů
ű
ų
ŵ
ŷ
Ź
ź
Ż
ż
Ž
ž
ſ
ƒ
ơ
ư
ǎ
ǐ
ǒ
ǔ
ǝ
ǧ
ǫ
Ș
ș
Ț
ț
ɐ
ɑ
ɔ
ɗ
ə
ɛ
ɣ
ɨ
ɪ
ɾ
ʃ
ʉ
ʊ
ʒ
ʔ
ʕ
ʰ
ʲ
ʷ
ʻ
ʼ
ʾ
ʿ
ˇ
ˈ
ː
˘
˚
˛
˝
́
̃
̪
̯
̲
͡
Α
Β
Γ
Δ
Ε
Η
Θ
Ι
Κ
Λ
Μ
Ν
Ο
Π
Ρ
Σ
Τ
Υ
Φ
Χ
Ψ
Ω
ά
έ
ή
ί
α
β
γ
δ
ε
ζ
η
θ
ι
κ
λ
μ
ν
ξ
ο
π
ρ
ς
σ
τ
υ
φ
χ
ψ
ω
ό
ύ
ώ
А
Б
В
Г
Д
Е
Ж
З
И
К
Л
М
Н
О
П
Р
С
Т
У
Ф
Х
Ц
Ч
Ш
Э
Я
а
б
в
г
д
е
ж
з
и
й
к
л
м
н
о
п
р
с
т
у
ф
х
ц
ч
ш
щ
ъ
ы
ь
э
ю
я
ё
і
ј
ћ
ա
ե
ի
ն
ո
ր
ւ
ְ
ִ
ֵ
ֶ
ַ
ָ
ֹ
ּ
ׁ
א
ב
ג
ד
ה
ו
ז
ח
ט
י
ך
כ
ל
ם
מ
ן
נ
ס
ע
פ
צ
ק
ר
ש
ת
آ
أ
إ
ئ
ا
ب
ة
ت
ج
ح
خ
د
ر
ز
س
ش
ص
ض
ط
ع
غ
ف
ق
ك
ل
م
ن
ه
و
ى
ي
َ
ُ
ِ
ّ
ْ
پ
ک
گ
ہ
ی
ं
अ
आ
उ
ए
क
ख
ग
च
ज
ट
ड
ण
त
थ
द
ध
न
प
ब
भ
म
य
र
ल
व
श
ष
स
ह
़
ा
ि
ी
ु
ू
े
ै
ो
्
।
॥
ক
জ
ত
দ
ন
ব
ম
য
র
ল
স
়
া
ি
ু
ে
্
ਰ
ਾ
க
ச
ட
த
ந
ன
ப
ம
ய
ர
ல
ள
வ
ா
ி
ு
ே
ை
்
క
ర
ా
ి
ు
్
ಕ
ನ
ರ
ಾ
ಿ
್
ക
ത
ര
ാ
ി
്
ก
ข
ค
ง
จ
ช
ณ
ด
ต
ถ
ท
ธ
น
บ
ป
พ
ภ
ม
ย
ร
ล
ว
ศ
ส
ห
อ
ะ
ั
า
ำ
ิ
ี
ื
ุ
ู
เ
แ
โ
ไ
่
้
์
་
ག
ད
བ
ས
ི
ོ
ა
ი
ḍ
ḏ
ḗ
Ḥ
ḥ
Ḫ
ḫ
ḷ
ṃ
ṅ
ṇ
ṉ
ṛ
Ṣ
ṣ
Ṭ
ṭ
ṯ
ẓ
ạ
ả
ấ
ầ
ẩ
ậ
ắ
ẵ
ế
ề
ễ
ệ
ị
ọ
ố
ồ
ổ
ộ
ớ
ờ
ụ
ủ
ứ
ữ
ỳ
ỹ
ἀ
ἄ
Ἀ
ἐ
ἰ
ὐ
ὶ
ὸ
ῆ
ῖ
ῦ
ῶ
‐
‑
–
—
―
‘
’
‚
“
”
„
†
‡
•
…
‰
′
″
‹
›
₤
€
₱
₹
ℓ
№
™
⅓
⅔
←
↑
→
↔
⇒
∂
∈
−
∗
√
∞
∧
∨
≈
≠
≡
≤
≥
⊕
⊗
⋅
─
█
■
●
☉
♦
♭
♯
⚭
✉
⟨
⟩
、
。
《
》
「
」
あ
い
う
え
お
か
が
き
く
け
こ
さ
し
す
た
ち
つ
て
と
な
に
の
は
ま
み
め
も
ら
り
る
れ
わ
ん
ア
ィ
イ
ウ
エ
オ
カ
キ
ク
グ
コ
サ
シ
ジ
ス
タ
ダ
チ
ッ
ツ
テ
デ
ト
ド
ナ
ニ
バ
フ
マ
ム
ャ
ュ
ョ
ラ
リ
ル
レ
ロ
ン
・
ー
一
丁
三
上
下
不
丑
世
丙
中
之
乙
九
二
五
亥
京
人
会
元
光
八
公
劉
北
区
十
午
南
卯
原
县
台
司
合
和
四
国
國
地
城
士
壬
大
天
太
女
子
字
学
學
安
宗
家
寅
小
山
川
州
己
巳
市
帝
平
年
庚
張
德
心
愛
戊
戌
成
我
文
新
方
族
日
明
星
春
書
會
月
有
木
未
本
李
東
林
正
武
民
水
江
河
法
海
港
漢
無
王
生
田
甲
申
癸
白
的
皇
石
社
神
福
立
自
花
華
行
西
語
路
軍
辛
辰
通
道
都
酉
金
長
門
院
陳
陽
青
香
馬
高
龍
국
기
대
도
리
사
이
한
ﬁ
ﬂ
（
）
，
～
##u
##n
##g
##s
##d
##a
##t
##m
##h
##i
##c
##l
##e
##y
##w
##r
##b
##f
##A
##R
##I
##C
##H
##W
##N
##ä
##o
##k
##p
##S
##v
##2
##6
##z
##M
##B
##4
##x
##7
##8
##9
##β
##δ
##3
##D
##q
##j
##е
##м
##и
##х
##о
##в
##é
##ó
##ü
##5
##0
##T
##ř
##á
##ć
##²
##ì
##í
##Q
##F
##P
##1
##ö
##E
##ú
##L
##O
##U
##J
##ý
##у
##G
##ṭ
##ņ
##´
##ę
##Y
##γ
##ύ
##α
##ō
##V
##ñ
##ン
##K
##â
##ô
##ய
##ல
##்
##ா
##ம
##ο
##ῦ
##λ
##ν
##ā
##X
##ǧ
##ŏ
##ร
##า
##Â
##ǝ
##ש
##ה
##ħ
##ē
##ะ
##ส
##ั
##ต
##ุ
##ด
##ß
##ç
##ğ
##ı
##ń
##г
##с
##т
##è
##ś
##ა
##я
##л
##і
##к
##お
##け
##る
##र
##क
##ṇ
##ת
##ק
##ד
##מ
##ו
##و
##ز
##ی
##š
##ī
##É
##್
##ರ
##н
##ы
##ł
##å
##а
##р
##ч
##ό
##π
##τ
##ε
##ι
##°
##ž
##ไ
##ท
##ย
##ว
##น
##ò
##ू
##ं
##ũ
##ã
##ी
##त
##ा
##प
##े
##व
##ग
##ि
##ŭ
##ŕ
##æ
##î
##ă
##Ü
##ώ
##ς
##́
##ц
##à
##č
##ρ
##ὶ
##う
##ə
##ウ
##シ
##ュ
##ʾ
##û
##ი
##ṅ
##Ă
##Ą
##य
##Z
##υ
##ί
##ḍ
##ל
##ח
##י
##ר
##え
##ş
##ɾ
##ɑ
##Ν
##Δ
##Ρ
##Ο
##Μ
##Ε
##Α
##ह
##स
##द
##्
##ध
##ά
##μ
##้
##ำ
##ก
##ภ
##ู
##ถ
##พ
##Ó
##म
##च
##σ
##χ
##д
##ъ
##→
##ज
##پ
##ا
##ه
##з
##ø
##ே
##க
##ū
##こ
##に
##ธ
##ณ
##เ
##ศ
##บ
##ล
##ม
##ื
##อ
##ง
##ห
##่
##έ
##φ
##ف
##ر
##ج
##ж
##ป
##ė
##イ
##ー
##κ
##ḥ
##ẓ
##ಿ
##º
##Í
##Ñ
##̃
##ǫ
##й
##ą
##Σ
##ź
##ð
##ḫ
##ּ
##פ
##ע
##ט
##ɪ
##ダ
##エ
##ッ
##ئ
##ن
##ข
##ช
##ː
##ل
##م
##ع
##ي
##د
##ˈ
##ɛ
##ந
##த
##ա
##ր
##ե
##ն
##ի
##്
##ര
##η
##ξ
##⇒
##ș
##ค
##ิ
##ִ
##ב
##ְ
##리
##ь
##כ
##נ
##¤
##ż
##ル
##フ
##マ
##ן
##Ι
##ɨ
##Ş
##̪
##ư
##ֹ
##א
##þ
##θ
##ി
##ш
##ʲ
##แ
##โ
##ή
##ω
##ф
##ش
##ك
##국
##て
##ě
##ǎ
##ǔ
##¬
##Ψ
##ल
##Ź
##ָ
##ő
##щ
##し
##ら
##¸
##˛
##ť
##ロ
##ス
##ֵ
##ֶ
##ם
##Ô
##ు
##క
##్
##ి
##ո
##ւ
##ê
##ാ
##ʿ
##×
##←
##ï
##ʃ
##ṃ
##ี
##์
##ζ
##б
##ὐ
##®
##ῆ
##ح
##ة
##ɔ
##Ä
##ṛ
##−
##ʊ
##ŋ
##Γ
##Π
##Η
##ț
##ţ
##ë
##ј
##ु
##ʻ
##ट
##ћ
##ド
##り
##ச
##ப
##ு
##ù
##ǒ
##ਾ
##ਰ
##ジ
##ク
##⋅
##ो
##～
##が
##─
##བ
##ア
##Š
##ַ
##ọ
##す
##ま
##つ
##も
##ち
##ʼ
##ṣ
##п
##ɐ
##は
##い
##わ
##な
##チ
##カ
##͡
##Ž
##ǐ
##̯
##়
##ু
##দ
##া
##đ
##न
##Á
##Ł
##ْ
##ُ
##س
##ِ
##َ
##ക
##غ
##ラ
##ہ
##ʕ
##˘
##ĺ
##ˇ
##ன
##¢
##ů
##¥
##ಕ
##±
##œ
##ా
##ర
##ª
##ſ
##ब
##∞
##ю
##リ
##ׁ
##Î
##ё
##이
##ت
##ै
##ʔ
##█
##ų
##テ
##ィ
##ள
##ط
##ب
##¨
##か
##기
##ق
##उ
##ব
##ি
##ʰ
##Б
##Г
##З
##Φ
##И
##オ
##ṯ
##ḷ
##ন
##্
##র
##ʒ
##Ö
##ṉ
##ﬁ
##ĩ
##ĭ
##ツ
##ニ
##ʷ
##ョ
##گ
##ẩ
##ड
##ắ
##ण
##Τ
##ص
##ャ
##ّ
##™
##ர
##श
##ष
##ɗ
##ג
##ÿ
##ト
##ň
##ľ
##ん
##사
##ế
##จ
##õ
##キ
##み
##ὸ
##バ
##Ú
##ল
##ম
##の
##Л
##タ
##Е
##В
##М
##А
##Ш
##Θ
##Υ
##Λ
##ơ
##भ
##ى
##さ
##ס
##Β
##あ
##צ
##ả
##ῶ
##ி
##ে
##য
##た
##ĕ
##إ
##ạ
##Ø
##জ
##़
##आ
##ề
##خ
##С
##Н
##ļ
##ட
##ை
##ख
##き
##ấ
##ờ
##ψ
##도
##Р
##½
##ɣ
##Ĺ
##Ť
##ナ
##レ
##ত
##⅓
##©
##স
##ἰ
##À
##ས
##ớ
##Т
##ム
##ġ
##Ω
##э
##வ
##Æ
##グ
##Э
##П
##³
##ಾ
##한
##Я
##€
##ụ
##ক
##थ
##˝
##Ď
##ố
##Κ
##Ľ
##と
##İ
##̲
##め
##く
##ἀ
##ồ
##ḗ
##˚
##Д
##О
##ך
##ನ
##ག
##√
##≈
##≤
##ک
##Ā
##÷
##ŷ
##대
##ི
##ῖ
##♭
##ệ
##ủ
##Ō
##Đ
##↔
##サ
##ầ
##अ
##ʉ
##ị
##آ
##Å
##Ж
##コ
##Þ
##ത
##≠
##К
##ད
##≡
##ོ
##ז
##¼
##ض
##デ
##Ś
##↑
##ﬂ
##⊕
##È
##أ
##µ
##ƒ
##Č
##れ
##ỹ
##Ц
##У
##ữ
##Ф
##ễ
##≥
##∗
##ű
##ए
##ậ
##ḏ
##Ř
##Ē
##Ī
##Ż
##¹
##Χ
##Œ
##ổ
##ŵ
##ἐ
##∈
##ứ
##Ç
##Х
##Ч
##Ṣ
##£
##Ć
##Ð
##ộ
##⅔
##♯
##¾
##Ţ
##∨
##●
##Ḥ
##☉
##ℓ
##♦
##ỳ
##ẵ
##∧
##Ḫ
##Ṭ
##Ț
##∂
##₹
##ἄ
##⊗
##₤
##■
##er
##he
##en
##in
the
##on
##es
##an
##or
##at
##ed
##ar
##al
##nd
##it
##is
##ic
##as
in
of
##ing
and
##el
##ion
##ro
##re
to
##ch
##st
##ent
##il
##ur
##om
de
##le
##ad
##am
##ol
##ou
##et
##ct
##os
th
##ig
##id
##ir
##iv
##ter
##th
##ie
##us
re
##ly
The
be
##ut
for
##ation
##im
##un
##ac
##ers
is
on
##em
19
was
al
as
##ow
##ul
##ot
con
##ra
##and
st
##ith
##ich
##ist
##ay
##ce
##um
an
with
wh
20
##est
se
en
##ag
##ere
pro
##ver
that
by
##ab
##ts
##te
com
##ri
##od
In
##ue
##ci
##ess
su
##av
##op
##ber
at
##ate
la
or
##ud
un
##pe
##rom
##ain
der
und
##if
##se
##ies
##che
ex
##ill
##art
##ge
##end
from
are
##all
##ia
he
##ity
##ung
##ap
##oc
##ell
200
##ine
##ard
St
##ak
##ant
##ort
##igh
his
##ment
##ld
##og
##ew
##ive
##ian
##ug
ch
##so
##ther
##ran
##ip
el
##ated
##ov
pl
##ost
##qu
##ach
die
des
##hr
##ally
##ore
##ten
it
##ear
##iz
##ong
pr
which
##ast
##ust
##ord
##per
##our
im
##pl
##ame
were
##pt
##ff
le
##ub
##und
##hen
sh
##ik
not
##ction
##ass
##cl
##oun
##ier
Th
##ary
##ack
comp
##ave
##mer
##ón
Ch
##ru
##du
##rit
also
cont
Re
##ib
##cc
##pp
##ure
##ind
ar
##ish
##ang
##ous
201
has
Al
Un
##ition
##ical
ab
res
##ens
##ome
##ele
##orm
us
##ial
He
##ond
ad
cl
##io
##age
##to
##we
##ign
##00
had
##fer
##ne
##pr
18
per
##ork
##ok
##uf
their
fir
##ight
##ult
##ater
ein
have
##ations
##ry
man
An
que
es
##ide
von
##ische
##ob
##ire
##ence
del
##lic
##ath
all
##ould
##ied
##ect
first
##ec
but
ser
199
##oll
##fter
##ah
##ft
##act
##ann
##ice
##tern
##ph
##uch
her
##wo
part
Ar
its
los
##own
En
##ime
It
this
##ric
dis
one
##ark
ag
##ely
##aus
##ual
est
##eb
##sch
##ory
rec
##ile
##erm
##ions
##ound
te
##out
incl
##able
who
##ión
year
so
##ree
Sch
##up
er
sp
den
been
##amp
bo
bec
##eg
can
##ace
##ents
##ild
##rad
##ced
##ates
##gh
##over
par
includ
##ien
##ite
me
##land
##ational
##ces
##ember
##ern
##ors
##ance
##ugh
dur
##vel
Se
##form
other
##ose
##iel
##are
##port
##ail
##ase
form
ver
they
##de
##ount
two
ev
am
##ans
##ía
up
##ough
##eit
198
play
##ür
##ased
##iss
ap
##wn
pre
De
##ons
##one
##old
ind
out
Mar
##gr
no
dem
##ert
ne
gro
##ener
cons
##ck
over
##les
comm
##ock
##ism
spe
produ
##ited
##der
after
##inal
more
As
##aj
off
##ular
act
into
##oy
##oin
##hed
time
##gan
mit
##ade
##ren
new
rel
reg
##ado
##ick
##oh
##ve
##atur
##olog
##cial
work
197
sy
##ivers
##ings
such
att
##au
##ood
##orn
bet
most
used
##rib
Com
would
Le
inter
por
##ilm
##urn
##ari
kn
##isch
This
##ron
##rough
##ischen
when
##az
Pr
Pro
##rans
cent
sc
##den
##icht
##ted
##arg
ele
##orld
ent
pol
sec
only
him
##ward
we
fl
##ación
she
war
On
las
sub
##reat
El
Sh
##ica
##ise
##ool
em
ac
Die
196
than
Be
New
auf
acc
##ada
##stem
sch
##red
La
fe
under
##ional
Amer
mod
##ient
##gl
##ake
col
some
##ros
##any
qu
do
pres
##als
##ement
##ved
may
##ins
##ral
them
##ep
zu
num
tra
##eth
##ever
inc
17
Ind
Sp
inv
##ird
##hip
bl
##ank
ob
ear
das
##ines
10
tr
pe
##cted
##ween
##ix
Con
def
where
##ific
again
##ities
15
##man
##ics
##ateg
there
car
##uro
##ollow
pub
##ina
##ger
##ating
pos
##ahr
call
##ton
##ste
rem
una
dif
between
during
##ince
##gen
trans
ret
years
through
rele
##ict
##ower
##way
##kt
##ll
prov
loc
##att
##its
##ican
film
##owever
##erson
##ys
many
##uss
wur
##ters
##inn
co
##ze
mov
Fran
##ision
end
##ason
##ife
high
made
##ily
about
##velop
bu
stud
Ver
##amm
16
##overn
als
##ative
ist
##ject
min
##ident
für
##ale
##lich
##ke
##els
##ike
mus
known
app
##ished
dec
##fore
194
pop
int
gener
dist
##ene
ro
12
then
##af
dr
Te
will
aus
##enn
well
195
For
found
being
later
follow
Er
three
##aw
ph
Or
##ament
set
##ks
At
##fl
##ually
##ars
##ious
cap
##ause
system
##chen
##cept
##por
##dition
000
sur
Cl
##outh
appe
##ury
##ames
##pen
eine
use
sich
##emb
hel
develop
##itt
##other
##con
##ider
##round
##til
United
cre
##amb
char
sign
##ico
##ution
##uer
Bl
supp
dire
##ategor
Is
##orth
fam
##ner
##air
##stit
mon
##elf
##min
##ather
med
Pl
including
show
##pos
second
##bum
##que
##rie
orig
lo
##0s
Ad
##ople
##ax
art
Joh
both
Euro
##iet
Am
air
Ph
Ab
##ists
vari
called
##ungen
##iew
team
ass
these
Chr
record
Car
number
##alt
##ash
##ently
vers
11
sim
while
hist
##ple
Univers
lead
own
count
##ible
main
became
##ales
##ized
US
##ived
##ued
American
##erv
group
##ium
serv
day
eff
oper
##sp
Col
##idad
go
##chn
against
##eh
como
Par
##overnment
sing
193
any
##ctor
##aid
##ute
##men
##ven
Wh
14
trad
##ges
##ido
##res
She
##ás
##ogra
four
##cia
wurde
##iver
##ai
##imes
##ues
para
##cy
13
##ract
##elt
Gr
progr
##ange
gr
##xt
writ
sm
##ically
Me
back
##ared
album
##ior
##veral
##ischer
Ge
differ
##ful
##yp
long
##ility
mar
comple
##igen
##ield
##led
series
before
Fl
Mus
##co
auch
##ister
contin
##ler
design
people
term
##ital
##vent
Br
##ret
##iones
bro
season
##ctions
fin
Brit
##ets
bel
##ried
##ober
##ungs
perform
partic
##son
Pol
After
##ek
2010
same
ext
Man
desc
##ives
##ajor
##stru
##urch
##ress
##omb
mat
John
War
##hes
##ouse
##ull
cur
##me
##ink
##ster
song
##ained
gu
met
##ilit
Her
2011
contro
##urg
ke
Germ
However
##ble
game
person
public
##oot
##uc
Jan
##aking
several
II
prim
##ments
released
2009
sol
World
##illion
##ices
red
2008
##pres
States
name
organ
world
Jun
nach
Jahr
early
##ages
##ios
government
cor
##och
based
Im
##ben
band
br
##ccess
##abl
##cess
##ley
##erg
##ode
##iter
192
So
2012
##ino
##ature
##vers
occ
ins
##par
Aug
##rop
##ción
could
school
##uring
consider
##fic
2007
They
##rat
Der
often
##oman
##ternational
##eng
life
##ting
All
Ex
Comm
Can
##ados
charact
equ
##ology
requ
Ein
##lin
Aust
##aft
disc
##pect
sl
Ju
each
str
##though
##yn
##etz
Christ
best
state
since
poin
until
ann
leg
Bo
Europe
##ures
like
dep
##ores
because
We
did
##ty
run
major
rece
speci
ref
##ando
##mb
Su
##eter
durch
##ided
##ula
start
##ograph
There
mark
##lt
conf
May
Ste
##mp
##ired
##än
Mon
music
##ante
av
larg
##amed
##ised
offic
##ida
über
power
August
Nov
##ove
cr
##era
2006
dies
Ne
small
##ball
pass
eng
much
##iven
result
wer
imp
Reg
##omin
if
##arge
incre
University
25
##be
real
success
son
Sc
century
191
##ians
National
open
class
care
child
support
final
##ains
##ats
ant
began
##iod
##ument
##ission
Sept
rest
stand
Bar
##ants
##ulation
##ries
hum
##aim
##yl
ever
##esch
##ilt
werden
import
allow
now
##my
city
oder
##ige
##ator
30
##lo
##ät
##uth
##ras
return
wird
different
bas
September
##ross
law
##uel
conc
##ör
##raft
##med
bei
hand
einer
head
rev
##ott
##aced
##ended
##ival
##án
##duc
##ams
tem
##ides
Gu
##utsch
##hem
And
featur
area
##ones
##adt
present
York
polit
Cent
##iving
##är
##ety
um
2005
very
down
Apr
##añ
sus
##ata
British
##oph
##ana
resp
val
hab
##ays
más
following
near
##aving
##ete
include
##arm
Janu
around
##int
exp
even
April
sie
large
deb
bis
zur
sein
##press
said
land
book
order
nicht
##leg
prof
##eder
##ively
##ön
##soci
effect
common
##omen
fre
memb
tit
ge
##rag
##anz
along
pat
##gel
ep
old
commun
##uts
Ber
##ately
colle
though
##ane
beg
##ald
div
##let
##ilar
line
##plic
due
camp
Air
refer
##ca
played
##gest
##ague
build
##ero
##iert
period
##ined
##ony
sind
et
##itz
##ural
lang
cult
His
West
gen
100
##ording
inst
##ün
Es
fun
##ison
November
still
appro
##wards
Sy
##uen
Co
##ights
##és
bus
##ama
tele
vor
##ara
##apan
local
fact
King
##ample
aut
unter
exper
bre
Min
##ves
Hist
##oss
popular
##thern
family
##conom
South
zum
##ases
##ches
techn
Est
id
Land
##rodu
vis
add
repres
company
single
##ization
##ards
##ling
som
men
##ize
process
##änd
those
Ed
##ody
million
Af
##urs
prin
members
##br
##of
poss
ter
##ense
last
former
Cal
Bro
place
21
event
##ief
cour
po
2013
home
##ified
level
left
##lichen
Dec
crit
##rem
Kategor
Har
##cer
Med
just
2004
##tain
character
milit
Des
rad
##li
##cht
elect
within
establ
won
opp
cu
Kategorie
adv
born
##thers
##iber
North
infl
Japan
##ored
##ruct
##hel
These
curr
San
##reen
Oct
Austral
When
##wer
addition
Will
hat
##ms
water
##iness
##her
##by
##tal
##ially
##omm
enc
##berg
##mente
Feb
another
March
prom
gl
##vision
using
##enz
what
publ
##ühr
exist
top
24
##ese
##bo
national
expl
post
report
iss
describ
##work
took
##row
##én
join
fue
June
##iam
original
##ched
##ender
##alth
##aul
inf
##ped
example
death
Febru
##ista
##ahl
Engl
prev
##ura
sit
##ration
##geb
During
langu
non
##ness
22
stat
tod
Char
make
##sel
##ió
##orts
Gener
led
control
represent
Cor
##eme
appear
sk
similar
tradition
histor
##la
October
##osed
July
named
Pres
among
##enden
Mc
typ
##ured
claim
##hn
Geor
prote
activ
2003
January
##akes
##aster
##hal
One
role
Aus
five
##rab
City
##earch
Los
Eng
##alk
##ente
however
By
##cul
##ps
dest
Phil
inform
way
repl
career
190
constru
six
Ear
##ole
country
##liche
##sten
general
English
short
##riend
##umb
##reg
Qu
##ück
##rench
Per
Gro
Tr
invol
late
##ords
attack
Das
third
German
port
##stand
##aces
IS
##ett
auth
Part
##ublic
manag
##ote
##agn
##ador
vol
##read
##ivid
##onn
fr
23
comb
caus
##ances
star
##ma
find
need
aff
##ney
##aff
##ano
lim
##uk
December
chang
held
##ploy
Gl
einem
##mit
become
Ro
ed
Russ
esc
econom
##cip
##rict
included
particular
añ
Ital
French
test
few
##ning
##go
2000
##off
turn
ident
direct
##rew
month
espe
indust
##inning
great
announ
Auf
Ser
sold
every
club
kill
##urther
##abor
history
##cient
##uted
##ption
modern
received
Dav
##keit
##sh
##ander
version
given
Lond
##ias
##augh
##ether
Stadt
No
##ieder
origin
important
50
##burg
bar
epis
Comp
less
Sw
##amente
production
mid
##ategoría
Mal
various
##stell
without
##ena
position
Sec
came
##ences
town
##ont
##attle
##omp
social
##ampions
hal
Some
beh
##rain
##ule
##ivil
##aut
##epend
ide
Lu
produced
##sy
Res
##uß
##lam
##gt
super
Rep
take
##olution
##iger
Mit
##ows
Acc
Kar
development
##lear
view
##ey
##ray
##ivo
Art
189
Arch
built
tri
##ende
##estern
init
##aterial
children
product
Ir
rep
introdu
School
compet
usually
pract
list
should
With
Categoría
field
sent
cover
considered
human
##side
does
##ius
individ
arr
##ambi
##ij
##ots
cost
London
##tens
invest
##lex
26
project
avail
dam
2002
mot
enter
##ront
proble
Nor
##ither
fund
General
##egen
##ype
##ideo
dass
##iento
foot
Em
einen
##etwork
February
point
fac
attem
India
##aken
Afric
side
although
ste
Dr
International
##ention
28
educ
2001
special
ot
belie
##irc
total
##yle
nov
##ged
Act
Pal
service
##ination
##uy
mult
engine
##ox
27
see
##tt
Hol
##acy
relig
##lag
##itar
Nach
previous
##reich
grad
##uck
##aciones
having
dev
published
##za
prop
##eren
get
##atz
##ogn
Mor
author
military
##anc
games
##ken
wie
##cil
##ably
##app
right
cal
television
vi
signific
##aron
##adem
##BN
##reis
political
Roman
times
##iment
##rich
##atic
population
case
##elle
##ring
win
arg
youn
univers
State
##adas
business
Mich
##ham
##ethod
##sequ
model
40
##line
entre
##beit
available
##fe
Sal
##lie
##rid
ten
decl
##ka
##unic
##tic
sug
individual
Pe
must
##ush
tw
##arch
next
##ending
body
sum
announced
##cent
##endo
##ude
European
appeared
member
##ising
##rote
host
##ambién
##ae
##ware
##ops
Sie
offer
interest
##unt
##ering
sw
##ories
##iles
##ünd
ISBN
father
developed
cert
market
##ahn
##ona
##ago
Indian
President
good
Port
grow
##lands
women
anim
Pat
Park
low
friend
##dom
priv
##aten
##alls
separ
my
Fre
##ipp
program
##avy
##oth
##itive
##ining
Colle
##ario
track
188
material
##ached
created
went
##vir
written
official
##na
League
international
Ele
Spe
age
Zeit
wurden
##BC
seg
language
story
##ähr
##sen
##ismo
##aba
Ag
started
relations
##kl
##bert
making
##minist
##idos
associ
arch
title
America
nur
established
read
29
press
Frank
neg
England
full
High
##ael
areas
Red
Paul
##itor
Val
##ford
31
house
##ensch
free
##imm
##piel
##bers
struct
research
##ampionship
##ability
While
tro
independ
##ades
##iden
##ential
##ells
never
##ples
located
Mark
##xim
##iqu
##ological
##ways
redu
##ille
sour
##iker
##oyal
##ours
further
qual
Sm
nor
Mad
According
proper
##cially
half
profess
TV
natur
cas
strong
fail
##hl
##uter
light
1999
sex
History
others
##va
##aur
##bar
Although
##ope
##ittle
##nen
plan
##reet
##idence
days
To
formula
Mart
##yd
prot
conne
##olf
wrote
Ac
fran
##eld
release
##used
##heit
##ements
hold
deter
Stud
##ker
##ying
Other
187
186
whe
how
anal
##for
##stitut
deutsch
##vin
countries
##wa
##aining
di
##abe
employ
help
China
##craft
continued
Bra
video
##weise
##illa
Film
obs
##atter
Dem
rock
phys
particip
Rober
km
##ffic
Rich
##raw
##oles
moved
##self
Rec
##istic
seen
broad
##ato
weit
##vo
vict
you
pot
##icle
East
##etimes
ship
Sant
##ergy
Mod
##fol
nec
round
building
gra
##ua
either
method
rul
Dis
states
himself
##ique
defe
north
##stead
player
Je
sig
pur
sele
##utz
##II
region
##ís
zwe
station
ur
##osp
Vor
significant
##50
let
liter
##dle
Christian
##tsch
zw
circ
treat
Inter
Ap
Jul
students
pain
1998
##stant
impro
##los
largest
##schaft
##pite
condition
##ience
##hib
suggest
Mo
reported
era
##ington
##acional
eas
deg
Jew
##je
France
Ant
David
norm
coun
pri
Tur
successful
##ography
sow
##ín
##ichn
lost
UK
recogn
##ered
attempt
My
Count
word
##cis
information
situ
ren
##oney
##ky
systems
network
Kir
described
live
tog
##äs
mag
##iforn
##str
##ourn
##hm
##iud
##view
Ent
ra
Unter
##ha
Bas
groups
species
##ators
south
##most
president
##uz
##atch
doc
##ellen
##obre
##iers
black
Sim
también
died
##irl
together
Australia
##ciety
range
fem
Kon
Vol
Dan
coll
sound
Aut
episode
Met
week
mean
##cience
Army
Bel
##asing
House
forces
capital
James
ihr
##eum
ground
Dies
esp
##wick
Kl
style
mer
##cast
mehr
rather
princip
##ification
College
##gar
agre
##ands
respect
Best
type
Do
rank
cop
sometimes
##ym
Californ
Trans
##elb
match
Rad
sett
intern
vom
##oming
##vert
##unk
standard
fut
##uest
##urt
##artment
Black
equip
##ito
Wil
##anted
able
taken
1997
Mer
Canada
God
Super
aircraft
tour
##no
polic
Cap
cast
##ya
personal
Cup
1990
current
award
Ben
Fir
##roll
##ream
fire
data
meas
Jack
##aign
frequ
civil
California
fav
mass
1996
once
Republic
##oms
recorded
##ban
##omas
##ume
##ares
generally
If
River
##viron
##ola
##ee
pers
Gree
performance
##chie
aud
But
meet
##iting
##zen
Cr
possible
laun
occur
##eln
##cle
Cont
Union
##outhern
##hund
deutscher
pred
leng
ha
Lou
##atal
##ßen
formed
party
Cour
##aged
Div
##igkeit
George
##ita
##ltim
##ili
followed
##ederal
##aper
far
##ruck
consist
introduced
##elling
Jo
Chines
foc
##ora
##athol
##ery
working
works
Bet
##ror
che
subject
##sych
services
know
contrib
mother
##ße
##aves
returned
##chan
Span
sal
study
away
Gold
Geb
det
change
sem
##aries
1995
abs
features
Germany
lab
##less
bes
respons
Many
especially
##val
##ift
months
served
Bund
##iding
commer
##lem
Ob
throughout
##ills
Berlin
distrib
##posed
Gra
##ogen
##iemb
Ze
function
Ur
From
##ös
Sen
mini
vo
##erd
##bor
Deutsch
indic
express
##ikan
##zeichn
say
front
500
across
Ter
regular
##iff
##odes
aber
viol
William
sobre
Polit
Que
##acht
lie
##ilities
##ki
Sam
radio
site
hard
##ichte
hon
##ership
1994
Michael
##encia
Las
Jahrhund
##rick
eines
##rael
mem
##face
##ids
points
noch
territ
Bay
##itch
##ental
##ición
dos
look
Church
##oria
football
##iction
Alex
##agen
fig
featured
put
##20
hom
designed
Tor
##ufact
fol
Sov
##ishing
pay
Dep
##üd
upon
Since
stated
Chinese
##führ
##rup
access
Japanese
eventually
##eland
central
Sing
object
gave
community
##ít
certain
##oted
##ference
##ierung
##iva
##asta
emb
least
alg
influ
songs
Ges
young
force
performed
Vir
web
Hen
capt
##amil
ve
playing
##war
##ede
##erous
##ierte
Mag
Not
60
##itect
##ala
##nde
Ma
##enci
stri
Peter
white
log
##arily
##ram
west
##iudad
natural
este
provide
Ke
pued
##rum
fall
accept
events
##ception
Most
above
##utes
##wood
184
relationship
condu
##uge
administ
1992
##cing
Robert
##ún
##etic
##ults
##mann
fight
##ests
##ites
wid
applic
##ends
Hall
##aps
##medi
tax
grand
arm
##öl
itself
##stein
higher
Form
##vironment
almost
Person
Coun
##eben
cer
##pg
food
##ache
bank
##ta
##zeit
##ichen
Angel
##ems
##isl
campaign
1991
##istan
##bre
lower
regard
##idge
contract
##ria
Gesch
Cong
Mex
Kh
specific
##osoph
critic
##ought
##ned
##ving
inte
means
años
health
##apt
instead
##rä
road
##fahr
##ceed
bi
signed
squ
education
players
Mac
##itte
1993
disp
via
##px
##antes
##stitution
##ils
lear
##onde
base
Israel
##atin
##annt
hit
##play
Mid
achie
parts
aver
acqu
Kn
##eros
action
leading
media
##mar
##rought
required
manufact
##emeind
jpg
Jose
mix
##ais
thus
traditional
related
##gn
energy
##leich
##rian
##icas
##stitute
exec
past
speed
tre
zwischen
util
fuer
lik
cele
space
veh
worked
##ript
##rial
provided
##rieg
temper
##iendo
##stra
stage
cy
Soviet
Fried
jun
##ux
loss
gegen
##ris
cross
Great
##heim
adop
##unicip
##uff
shows
currently
miss
You
pen
##udd
novel
review
Associ
##band
rights
##field
sowie
saw
Leg
originally
compan
op
Web
joined
vill
##önig
##rest
discover
involved
plant
gew
Fin
System
Bill
##atory
Tex
includes
court
close
opt
wife
##oma
##thing
##gy
##uent
extens
##eten
Rock
suff
##osition
Bec
night
replaced
teach
Award
185
35
domin
Go
too
vir
inj
relat
##van
##äch
Lin
rail
jud
##roy
Um
##ima
##rol
##car
quest
added
jed
##icos
First
dou
##fect
80
Esp
##lung
mach
kann
phot
Sl
##teil
Sa
Fe
investig
##pts
opened
##usion
goal
Fest
clos
##orf
founded
Beg
Tod
dig
self
1989
##urity
##iano
hor
Court
##ér
Western
Sta
outside
mount
defin
police
##wend
little
seit
prob
married
cust
Francis
##ih
##jo
eing
debut
reve
cho
III
deal
Oper
Royal
director
##riff
Sol
industry
imm
Early
Nord
key
cases
Band
##rift
private
##ournal
professional
films
##urb
estim
killed
Minister
##ficult
movement
##lier
##ibt
Pre
allowed
exam
dar
come
Club
reb
Spr
##ibility
##aker
lib
brought
Arab
gun
text
Date
surv
Rev
Party
subsequ
183
Dist
mayor
Thomas
##iten
Cast
daugh
sin
theory
trib
Don
parte
according
difficult
Den
##aint
##imin
concern
seven
##ja
Canad
remained
terms
ask
##ols
multip
sup
##hest
increased
Tom
Gar
Kingdom
##utive
office
##order
soft
document
##acing
pero
pie
Rel
bene
Council
Charles
##iene
Os
Bundes
Just
Pri
require
##lor
##ape
##ktion
commercial
Championship
##aled
##CA
##rei
##icles
organiz
##ieren
##amer
USA
Wash
Serv
##vi
32
##ema
ill
##arter
##asons
##edy
##aña
##ían
dise
wind
economic
dom
##ump
1980
king
Grand
##action
whose
Stra
da
Intern
##nis
training
complex
cou
##ellow
syn
Richard
Jah
amer
##oor
cred
construction
famous
Law
finan
Teil
Star
break
color
Paris
rate
##ession
##lim
##azine
sil
##asion
##äd
altern
Play
assist
Mot
appoin
culture
Central
Tra
##icro
##ommen
uses
##ität
##annel
Ass
##gesch
teams
##yr
continu
hasta
Dar
##erk
##pected
##ested
##pped
##ables
amb
##arian
actual
##pa
##vis
size
##irth
travel
Wind
reached
Group
##inter
##ex
##cción
##hi
##imiento
eight
##ini
##glich
particularly
referred
Street
##uit
Music
45
creat
##ctive
Welt
Flor
fore
Bur
##isk
associated
97
mur
seiner
behind
legal
Washington
Atl
Mat
##zo
thought
clear
schools
##hre
Sk
cut
##amen
characters
decided
Spanish
##oul
##igt
Louis
König
##usamm
Sil
Sub
percent
##NA
##ground
##inen
value
money
sat
approxim
##iche
keep
36
Company
Del
block
Emp
cual
future
fest
ciudad
##inder
Ev
Vers
changes
##ensive
Off
geh
##auer
##anded
Kore
##ports
prem
1988
emer
##ask
problem
desde
limited
##gin
soon
gran
stop
remov
Produ
Africa
hous
plann
##ville
##iente
##iner
Camp
companies
##ella
##selves
Rob
Jahre
evidence
181
##mark
concept
Und
##ality
caused
Pet
solo
length
mechan
White
beginning
better
themselves
ball
deuts
Ol
lack
gre
##onse
##isten
environment
##cel
##unn
voc
##cho
##iembre
Techn
##back
1987
programm
##day
Datei
##tz
Hand
Day
##ients
kön
big
##aval
transfer
Tem
1986
cause
Liter
Center
fil
##bon
##ises
##rach
##essen
prevent
##ready
structure
##sec
1970
eth
##isation
##itions
always
waren
##inger
distin
##aupt
average
Che
autom
##board
Ger
pal
battle
##akt
##rast
Academ
religious
brother
33
gold
Arg
du
colon
##isc
hac
Ros
dieser
Ang
increase
might
Pan
Green
nue
etwa
interp
Russian
Australian
##ingu
complet
Cathol
Mil
Cons
earlier
##argo
##ocrat
ens
ges
Gal
Jos
##enen
##use
army
nuc
influen
##AS
rap
placed
amerikan
##une
musical
seine
CD
Bre
changed
consum
trade
forms
##irk
cit
nar
##ires
Du
Mary
east
##plied
lay
1985
center
##lymp
move
bomb
##oke
practice
source
ej
Association
produce
##ospital
Ba
independent
##oid
##omes
pod
300
Ha
##ittel
Bank
guitar
quick
shown
##ittee
Sin
already
occup
##ency
saf
living
completed
Georg
90
Mont
Stand
##umn
##axim
gradu
transport
##ify
sen
Kal
##ías
##ye
##head
race
##acter
año
70
larger
Up
Sur
verb
##ulf
##ajo
##haus
psych
esta
celebr
##aring
entire
longer
Greek
Dire
Vict
taking
##ismus
##una
##allen
Olymp
give
integr
provin
##etzt
Islam
##ograf
Island
meaning
reach
determin
##andid
##rief
units
recent
##owers
winning
Gen
Two
problems
ang
##reme
1984
##riage
movie
wide
##üs
writing
sens
Ok
##liament
purch
##igned
concl
Jud
##ota
Mos
necess
daughter
primary
180
today
increasing
Def
Bi
liber
wieder
account
typically
believed
transl
hig
##rica
products
##aís
hatte
##rying
dro
Hum
##aden
BC
feature
African
##cont
jedoch
majority
##lying
anti
sea
gas
sequ
ended
Canadian
Gemeind
phil
##oo
Tele
decision
degree
##obal
Hal
Prin
claimed
foreign
County
below
drug
donde
influence
towards
types
highest
##oper
Old
chem
##assen
##met
Italian
##edic
mor
Progr
Another
##omet
Cro
Fra
hours
municip
appearance
cell
fourth
Mr
whether
link
names
zwei
girl
pun
##ba
##airs
scient
Deutschland
capac
subs
##atives
Scott
Smith
prior
##este
surface
interview
1982
excl
Post
##adores
##adium
nomb
threat
election
issue
##plement
operations
response
effects
alt
create
##hab
focus
Wal
##oon
bef
##hold
blood
results
Division
island
Far
Hel
minor
Martin
##cher
##ette
##istas
##usammen
commonly
books
news
complete
idea
1983
Mount
1945
programs
##uj
amount
ord
##isions
mom
##rieb
Later
##irit
love
nomin
whom
numbers
clim
park
Bes
insp
date
famil
coach
additional
Ra
Museum
##stadt
conditions
weap
Jer
##cting
##inos
targ
variety
architect
lines
immedi
reason
##blic
Jahrhundert
##ston
Fr
##äter
Schw
##resp
##itan
##icial
##mbol
previously
directed
1979
Fern
##isen
##erve
prison
policy
##oring
Prem
affect
##elled
church
Mas
Organ
CE
##orial
diese
done
##astern
levels
##ubl
fort
##irtsch
actor
exc
Henry
league
Year
##nah
etc
issues
Johann
##idades
management
pas
##issensch
Bild
fif
ir
except
##erein
##mas
technology
##pu
##ysis
Kr
##pro
incor
pressure
##atre
pil
##ortun
ca
Ot
Congress
Prof
##mitted
oil
resist
cam
##antic
numerous
##undo
##change
cities
##entes
Reich
approximately
Archivo
unit
00
birth
Earth
going
##rary
Force
status
Records
refle
Government
words
##grad
mostly
divers
forced
1981
##vor
##oute
Pak
sche
34
##vention
##kehr
running
finished
##aria
draw
##obl
discuss
Gre
Follow
bur
bring
##ani
App
##osph
38
enough
##öß
female
demon
##aches
españ
normal
##äh
Bus
custom
studies
separate
##anda
Anton
1975
shot
makes
destroy
Over
##formation
extern
Jes
organization
##da
##izing
Portug
Bern
Catholic
1980s
##asc
##arse
##loss
behav
Ober
conflic
##ging
active
##zent
tie
Main
Pac
##eks
##hood
durante
friends
contra
Chic
hot
district
fle
182
govern
principal
##iana
Karl
##cts
section
models
Men
rat
detail
Texas
Hot
directly
##iation
##erved
##iro
fast
job
noted
Ak
Mah
##zw
coast
##ieron
command
secret
magn
remains
ess
##now
offered
Por
Empire
nation
Joseph
1972
Jahren
Jewish
rule
extra
Muslim
compon
scored
Leb
##west
college
poor
está
Road
1974
##ét
Second
Tri
##EC
##idents
versch
mm
Pop
soll
##sterreich
##put
##ented
Lib
##ht
financial
##sche
That
Pers
##gypt
nature
##wh
Mur
Tour
Grund
owned
1976
37
broadcast
##uft
hier
computer
##porary
Sun
##ährend
screen
Big
laws
Following
Despite
mill
appears
lic
Angeles
##agon
##empl
alc
1978
##oca
##tained
##rel
woman
elements
##gang
##amiento
unc
controll
summer
board
conv
heavy
growth
##bed
remain
ya
Sum
course
concent
quarter
hyd
opening
können
takes
##mission
studio
##uries
##anto
Som
Di
##ispiel
##lement
leader
Mai
fa
Chicago
##aban
##ño
box
##istry
##ply
Miss
Also
##rated
##uls
1973
##asser
##eck
##get
##idas
siglo
Department
##pués
##ously
##licher
highly
software
student
Mill
deliver
Virgin
1960
metal
philosoph
charg
##bur
widely
1968
experience
launched
##zial
##BA
reform
emp
##cha
##istics
rot
tal
##anced
uns
Budd
Institute
federal
implement
erst
Jim
##utions
Tro
##igu
Liber
contact
communic
##mon
Rom
treatment
##itation
##ties
Britain
inn
legisl
##bol
##jet
##bild
cab
Lo
Cur
provides
likely
Ireland
1969
##ledge
##inner
activities
##cas
##erts
nearly
##ío
got
lived
regul
##10
university
##elbst
face
our
surround
Int
Ep
##FA
cultural
Mün
##rupt
medical
specif
society
##iga
bek
##ums
##verse
##las
gel
ability
told
physical
42
science
1977
alle
passed
visit
##äng
##aften
führ
Mär
##appen
electric
address
strateg
weeks
elected
##ierten
1971
Mass
Asia
southern
Juan
favor
España
defeated
schol
##utch
Latin
##respond
1970s
Ram
Awards
##eller
Eine
Life
observ
kind
##mal
whole
troops
##hne
actually
##rea
##ube
controvers
##bit
pack
stren
Francisco
Italy
magazine
competition
##astic
Boy
##lage
Cop
card
supported
1990s
Top
##obile
approach
Trad
proposed
##ordin
becoming
##richt
##ricult
potential
Hill
neigh
citiz
alleg
failed
Class
Rh
##col
Bal
smaller
pick
##aging
element
farm
Their
Fort
geb
Arbeit
país
##rier
##oren
##imens
mis
Histor
electron
##ips
##ingen
appointed
location
Kenn
mention
spr
1967
recon
Dez
bran
asked
##ohn
yet
##itting
contains
question
##ución
quality
Under
Foot
edition
promin
northern
##ellt
179
initially
haben
Brown
##achen
2014
division
turned
##sk
75
recording
primer
##irm
##bes
Ret
##uten
candid
Da
Bob
##azz
counter
Educ
Egypt
Radio
##ultur
##ager
##angel
property
Deuts
puede
Argent
multiple
Seg
saying
awarded
coin
44
Literatur
Of
Tre
Ann
##pre
##ket
languages
##amt
Game
Us
Commission
Both
##chts
benef
promot
quickly
##itude
sexual
McC
##riz
ox
##zil
##ffent
##ús
step
arran
perman
48
##ließ
##itted
Swed
##BS
despite
wood
Battle
##úblic
Haupt
marriage
moment
victory
##ech
display
gibt
##ohl
cat
therefore
Bor
finally
Philipp
##overs
label
comment
##AT
experien
mainly
conserv
##inks
##fen
##bach
cells
##zös
More
share
##aje
Sar
Secret
##onia
depart
install
Show
##edeut
pan
##iere
Book
19th
How
##cri
##down
##hand
##iance
Carol
##aya
BBC
operation
ben
stra
basis
Pakistan
realiz
experiment
##TV
murder
##arbeit
Mexico
webs
##ppen
##andon
400
bal
establish
cru
##poration
carried
##olo
stay
primarily
Lord
sports
Mann
Tw
später
simple
true
think
##ira
##wide
Inc
##cos
Für
security
initial
##unst
##ält
##ctors
##ellig
##rd
otros
##onom
Love
##fang
river
ho
##ady
Jac
simply
##utt
##oint
##hemat
##ivity
greater
wear
Real
Orig
positive
needed
Academy
conoc
##gew
dead
mission
##tober
habit
bound
recently
##unter
bere
##enk
Alf
anderen
compos
impact
Schwe
plays
allows
mind
dete
western
heute
39
Sir
##yes
Friedrich
defined
Festival
##eds
Bh
issued
##halb
##íst
Hans
correspond
##yer
Ho
Rail
Oktober
ori
##unden
Einz
feel
49
ancient
##cies
##vey
##ständ
##illed
middle
risk
##tes
##eres
Bei
dedic
##zy
heart
entered
tank
Commun
versions
path
centre
##onic
Because
Society
##ynam
##opp
intended
20th
##afts
runs
Cam
DV
cart
staff
vot
Jean
extrem
Indust
spent
Santa
##teen
scale
parents
##FL
##aland
Haw
cle
adj
##enta
##standing
plans
room
chief
##aught
##neh
1965
##ugar
regional
brit
##can
billion
41
##dem
minutes
buildings
tourn
##ounts
leaving
artists
industrial
male
##ees
Viet
Saint
goals
Mu
individuals
##osa
##ipl
aspect
continue
##ully
##ela
##ened
latter
Lee
##arios
labor
##illo
ran
hund
##erb
singer
Kur
Florida
##zeug
##iste
##gency
##imal
Dur
Hein
forma
1960s
##obe
Russia
##igung
##pose
responsible
##arten
maxim
43
1966
##vement
revealed
Bow
Song
scene
Spain
poet
Times
flu
har
##akers
wanted
##edia
Bu
##éc
ersten
##chester
1964
UN
##stellung
compared
##cape
llam
spl
image
Po
brief
code
Iran
heav
978
Fer
cuando
gar
Januar
Lang
activity
47
enem
Internet
Social
Juli
Als
incorpor
##óm
presented
annual
interpret
double
größ
News
Irish
Mel
Plan
Rod
Ira
largely
instr
target
motor
##amin
Tim
##enth
nuclear
instrument
remaining
primera
paper
##het
Cas
il
##spr
1950
Groß
64
helped
##AR
attended
exhib
##ads
##rif
Dezember
##ierno
Natur
Gran
muy
repe
Geschichte
Brazil
raised
algun
adopted
##feld
pra
##aters
fuel
##aza
slow
##ims
##uerto
content
susp
Northern
##isis
deep
starting
##bahn
vert
academ
52
ihre
lif
Series
##helm
##estic
##gra
weight
plat
##uerra
Squ
Pap
##like
##ga
sac
erh
##ati
claims
##fü
Public
konn
Scot
Enter
##tainment
manager
##hof
spread
##ags
Queen
##iminal
Lie
##ava
Bib
sources
Juni
150
stations
collection
corre
##unkt
José
comes
Zwe
Wood
Inf
wel
discovered
pattern
##uments
conver
touch
nine
leave
##zt
Det
bit
Diese
##well
Navy
expected
notable
hy
##unque
##issenschaft
IV
dial
##arden
sales
Norm
##isches
fix
März
End
Sup
gesch
Eastern
mess
inside
##nic
Test
Final
Über
##fall
overall
score
equipment
##inary
Found
closed
hin
##iat
Hor
##eht
##kreis
##gs
newsp
Democrat
51
##rá
measure
lleg
Dou
letter
##auf
##aily
##ivos
resulting
##AC
institut
Milit
pap
drei
methods
championship
progress
Long
resour
##peror
##ienen
consists
contain
##bau
flight
soci
Max
Chief
voice
tor
disease
55
serious
artist
##gebiet
Football
campus
##eding
Middle
Az
firm
##ething
Vietn
Care
##ounds
Time
##edd
hop
giving
##öglich
##osen
Carl
Four
thous
##reck
##öm
Service
attention
Hung
batt
##ila
cars
sym
##do
Open
46
article
People
##bl
estad
##cles
Bol
Dam
composed
##itud
Ca
##ieler
1963
##steller
##ologie
##ques
##terior
meeting
##ordn
older
##zeichnet
Back
Alexander
knowledge
Profess
Süd
##kn
village
##esh
Bad
symbol
##ika
##embly
presence
cant
fish
178
besch
Columb
##cias
##pieler
historical
##yan
analysis
##uan
Wall
##aded
zurück
1962
Tit
utiliz
##osis
estimated
Prot
Fred
Ever
Ford
operating
##agement
subsequently
había
Youn
purpose
2015
applied
después
appar
Sand
selected
compar
relatively
Kreis
thr
##abei
Work
pet
Willi
Zealand
here
mismo
##halt
divided
Prim
##hend
AD
producer
proced
sister
Mens
Mem
##oster
##rative
##uty
recover
Fol
Southern
abandon
digital
##bs
capacity
gest
##iques
##folg
honor
crew
District
##ST
rules
chart
amerikanischer
princi
##isión
##iform
Hoch
einz
tip
Lake
reduced
Committee
diss
Sea
mut
Out
Bul
uno
##rent
soldiers
peak
virt
Dutch
Conf
contem
agreed
##uded
blue
Civil
Politiker
Revolution
Refer
removed
Kong
hus
französ
bad
assum
Buch
##po
##ault
##ED
immediately
tiene
becomes
Each
nombre
Ost
hundred
Ale
##vest
vez
expans
##igan
writer
pobl
frequently
##geben
##oto
pel
online
adapt
##atro
shoot
1961
says
rapid
Arm
Hin
records
collabor
##thlet
##wan
ships
Ende
Van
sense
direction
Penn
urban
Press
##hard
Str
##stoff
##30
##rey
##hens
Blue
Bab
dog
necessary
##oud
green
maintain
flow
accepted
suggested
##ícul
##pression
journal
DVD
65
covered
Research
Ern
##venue
##ighter
Kais
drive
temperature
peace
vent
##icans
##icted
officers
##wig
trav
Ill
Bau
spirit
extended
Verb
ordered
quant
encuent
Jones
Ham
Elect
fans
##sg
officially
##oe
don
##gles
effic
hyp
##kes
citizens
global
See
memory
Verlag
##über
Matt
route
Wild
cerem
##zie
##arters
##ancy
Hy
##uv
##atures
lat
##ulated
Ast
##writ
acquired
##ynast
fueron
roles
##OS
Sund
Science
sist
effective
##uvo
Good
opportun
instru
economy
Cy
kle
##enty
charge
Broad
channel
rein
Williams
inner
efforts
##rical
hydro
agreement
##uras
Tal
lives
stock
##igo
##arroll
##text
Federal
critical
generation
distribution
##perial
##edom
Europa
regions
1944
damage
oc
Gew
##IA
pict
##igur
table
distance
Schl
54
##omer
Wolf
native
##ef
##cean
así
Ray
nú
planned
allowing
unique
website
animals
constit
trab
##irtschaft
rout
Pacific
##odies
##ología
lands
##ientos
##rar
Education
Kle
Wer
Develop
Schrift
##obierno
erste
respond
Les
decre
1939
##ña
##ielt
basic
##änger
##encias
##ró
moving
Team
workers
##orship
##grund
##tr
##olved
things
1940
##lev
declared
tras
formal
train
attacks
##vant
situation
##emás
probably
##ardo
completely
ven
##aling
##mir
Son
##ierra
lí
occurred
Mir
Menschen
Mitgl
Windows
cod
Raj
Night
tres
bott
Prince
mas
bul
mal
##icher
últim
conce
Gh
Fam
##lig
##rado
growing
Rome
Durch
PC
hospital
medic
resulted
ast
agricult
Naz
initi
brand
##isters
albums
stars
Herz
##60
Madrid
something
search
constant
encour
Virginia
seinen
seem
stories
Stan
fell
Hon
managed
projects
gives
Parliament
border
advant
leaders
##mus
##halten
van
Ins
ents
vehicle
Cult
##äl
vac
acting
##yond
represented
Jackson
177
wa
##ns
##ading
##ketball
##itness
cin
limit
Vill
01
Musik
paid
titled
##rik
folg
application
Mé
##ieg
Econom
Buddh
oppos
##erman
episodes
dark
1948
##schied
Iraq
##zahl
Young
##eleg
ihn
##ucht
elimin
Ort
Att
slight
##udi
Fuß
1956
Pf
Johnson
serve
53
gained
##uso
operated
ber
##win
Three
##fficient
##RA
##uri
Jews
demonstr
applications
Human
Bere
combined
##ners
keine
ultim
verschied
places
Board
propos
Prime
##jor
##phas
##weg
fully
Albert
Ru
Thus
tournament
##itled
1958
respectively
Bell
husband
##irmed
Krieg
##joy
purs
dance
##iders
felt
platform
Alt
Bat
wen
Major
follows
matter
earth
##zer
##ension
##80
##iring
effort
Rog
roll
##uego
Chile
conflict
stre
believe
grew
plants
1959
##rane
Bost
tempor
selbst
##orning
forward
withd
##gers
Edward
featuring
demand
Loc
families
##ropol
sehr
Auch
rob
prepar
##ktur
showed
han
##abil
reference
consec
ihrer
powerful
Sus
price
creation
conqu
vehicles
rang
##ss
##ientes
tracks
commission
weiter
jur
receive
refers
##zi
administration
organizations
1946
##ueb
Estados
todo
Lim
##SA
Town
identified
immig
##edro
engl
facilities
Govern
si
ple
trial
##lines
##ibly
1941
eastern
##aped
dann
##iant
listed
sn
##alla
god
dat
##bt
polít
offers
materials
burn
territory
kept
bzw
Personal
prefer
wing
##rics
seinem
##inas
Daniel
##SC
2016
ital
##lywood
##itable
contrast
scen
Lud
equival
upper
##key
##rist
advert
##aben
existing
negative
Av
##mpo
##ritt
Ly
##uela
ways
##ölker
hour
combat
desarroll
machine
boy
prominent
poll
##olid
Special
##isher
frü
Komp
##eless
##rown
##iced
##izes
Cat
recognized
##miss
suffered
bereits
prep
damit
##enburg
weapons
want
##falls
Hit
Oh
##ny
Stat
figure
Arts
1957
scholars
##isms
patients
##gu
während
acid
accident
supply
sector
##ashion
##adel
aqu
##óg
hands
recomm
actress
exclus
##aka
##ril
##add
español
allem
belief
##enses
##ütz
Boston
##ampion
portray
houses
senior
##FC
##rim
##unda
Mov
walk
oct
launch
##ounid
income
user
##öt
##walt
##ridge
literature
##phy
Corporation
Cub
##iest
fifth
##äuf
rise
tried
##elligence
dra
##onder
enth
yard
providing
talk
bird
wild
Gall
destroyed
##werk
##abeth
safety
Power
##resh
Kap
bra
mixed
pg
Von
##recht
officer
mole
##hol
Maria
Americans
##reib
behavior
##cion
##ifying
mentioned
1947
theor
ranked
##eta
authority
compl
depend
Sport
domestic
Several
##com
bor
1942
##claim
##tered
enjoy
conducted
meant
Jeff
Ven
Ott
##ichts
Dev
termin
controlled
57
reports
Common
dimens
##ID
##bour
##ografía
ohne
##atura
Februar
1949
Micro
Like
earned
deutsche
Landes
editor
chair
seasons
Media
##hy
store
99
Schweiz
vote
lit
Child
Bang
Bahn
##nes
Feder
##ensus
viel
suc
zusammen
joint
##ali
estadounid
reject
distingu
coming
graph
chemical
functions
users
1955
beim
parties
##alty
arrived
##ähl
convers
Wilhelm
Ox
format
Roll
##ruppen
scientific
Hö
##ko
transform
protection
##rate
avoid
Herr
Line
alternative
Hu
lugar
##eral
##aug
Sem
embargo
##iß
animal
marked
Little
carbon
Schaus
mil
Cab
##geme
fear
Vert
alongside
ax
derived
streng
equal
synt
##eball
spect
attempts
##zug
appearances
Fun
Lab
Unidos
Gemeinde
Kunst
##ancing
600
##cio
Nacional
##eo
Hay
##oten
fair
reduce
opposed
internal
seek
##MA
defeat
Before
exact
Further
56
intens
micro
##40
ideas
Network
##house
##ohol
##anten
##alu
Fox
##cu
##acement
Kol
##vere
mig
sport
elev
Modern
pair
##änder
strug
restaur
##ader
Ty
Mittel
Kat
Id
corn
Wales
fighting
Step
Korea
##oco
exchange
##eler
##oration
##äsident
belong
sites
85
Haus
##antas
##umin
tells
##abb
##äß
##11
##alen
Kirche
Development
##ersey
Op
Scotland
centuries
powers
1954
entitled
Nap
95
##fte
device
pron
speech
sigu
##ropri
##links
actions
accomp
ly
Ko
Bür
communities
Belg
##iele
1953
emphas
Kan
Pen
##ctic
##ruppe
##rac
##plies
##yo
conj
les
eben
seat
jew
constructed
tiempo
wenn
rival
2017
1943
Argentina
##ogue
##udo
rear
Camb
##mond
Live
attrib
harm
tru
##AF
minim
##haps
officials
##iled
##hein
dram
Gebiet
##minister
Nic
yards
##entially
spons
ander
Famil
verwend
causes
##illy
##heast
ihm
##lagen
##more
expansion
chap
opin
##át
##oven
##pol
##CC
Joe
headqu
Turk
Region
master
occasion
tend
Kre
pul
hij
SP
Fil
##ización
##ellschaft
af
1938
Berg
##rupo
##anes
Volks
province
1952
indu
ll
achieved
religion
je
standards
connected
Today
##ció
sust
refused
figures
influenced
links
captured
##hren
##itzer
phase
succeed
Valley
Hong
##cop
##lichkeit
resources
##führt
Even
rac
aunque
##oti
62
##bere
needs
##ciones
Carlos
column
Weblinks
Way
Conference
Gott
##itors
Home
Jesus
##lers
##inson
Card
##nel
attra
ring
sond
brain
defense
Office
Bon
##cest
##erst
bass
htt
Sche
creating
Airport
##osl
iron
tur
##idel
##ulo
59
Dre
quien
1930
theme
trop
factors
starred
audience
##xual
strength
Let
produc
##buch
bill
##iplom
thumb
goes
Cle
expanded
Health
escrit
techniques
attempted
values
Mike
Ta
inspired
##ographic
concert
leadership
ans
wall
Though
reci
250
ice
criminal
##set
continues
##ishes
selling
Jon
guest
##ello
München
reasons
your
cada
aim
##thur
determ
sets
ethnic
Games
1933
Tar
##road
couple
vary
Lew
Cross
semi
matches
##ancia
worldwide
Bew
alone
Among
##wicklung
1920
reaction
Crit
Pier
Win
piece
##urance
##odox
confirmed
##12
volume
core
drama
comedy
cond
failure
58
##wise
##renn
##actions
Heinrich
subsequent
##uses
##chedul
##ser
san
Dig
swe
quite
##uda
neut
##aven
poly
tree
leaves
##ishop
Water
Journal
##aph
towns
##oking
##eget
Cu
zun
argued
##erc
sle
##rieben
Fall
page
fal
sido
##allel
Sports
mand
Bru
happen
SS
vocal
dens
cancer
crime
gehör
heat
floor
draft
ze
engines
##cious
Tay
##bury
##schl
critics
##ein
injury
Provin
choice
##IR
##ulations
squad
gan
##wart
dropped
bezeichnet
formation
studied
titles
77
##aly
Antonio
easily
bud
maximum
Kaiser
statt
Ken
attend
pes
arms
##eles
feet
##cement
carry
##III
challen
##organ
Beispiel
##ockey
factor
Fund
Cru
Foundation
2018
positions
Relig
split
Guard
dang
Lor
incident
advanced
examples
determined
authorities
opposition
expressed
Administ
Phys
Enl
sides
##essed
euro
Han
Supreme
traffic
beyond
sondern
Vietnam
##iot
##chsel
Wien
Theatre
Wasser
railway
Franz
##rome
diesem
númer
72
##eno
lot
independence
coal
##hin
react
Engine
deutschen
acts
Doctor
occurs
1936
##furt
##antry
##log
nearby
spok
##häng
organized
##annte
##ruit
Kultur
Syn
executive
##isf
##ienst
humans
tim
800
Police
##iser
revolution
street
1950s
Schauspieler
##aks
begins
##ublik
background
identity
nun
##iy
Leon
http
unable
corpor
##TA
letz
Ul
##IC
Corn
##awa
Ash
1951
##itter
Magn
Corps
bridge
##rix
Golden
befind
script
Greg
guard
Zu
fashion
##zu
##ründ
CO
eg
Deb
Eth
kil
vier
120
cm
institutions
distinct
##acks
trat
superior
Secretary
liegt
Esc
granted
todos
Lind
Through
Korean
##aja
bat
##anta
Senate
chosen
wor
##SP
begin
##aver
Carolina
ampl
geg
learning
nob
66
##ester
##amental
specifically
Chris
existence
devices
Tony
##iments
else
NFL
##ünst
containing
Addition
##sta
Spiel
Pa
Lebens
##prise
hair
##aga
##ipe
##ician
properties
Columbia
konnte
spring
bow
Due
Ker
intent
wo
##mals
##cription
Nations
serving
phen
deren
rom
partner
##hat
rough
63
developing
expos
emot
##aro
##ánd
var
Steve
otras
dir
Wik
Clark
youth
straight
setting
DNA
classes
##aming
slightly
##amber
minute
##isse
Brad
ce
cry
Fußball
Brand
Luc
76
Director
Coll
academic
Hamb
stark
alleged
##inet
##erme
84
hosted
Tenn
##uting
inhab
Nick
write
advantage
Mess
##stream
notes
branch
formerly
86
##onym
defend
spot
2019
rain
copies
twice
accur
88
bands
Emperor
Tag
Christmas
##gle
requires
##ynasty
tanto
dedicated
Governor
Luis
Weit
Nik
losing
##xico
kam
##ione
pros
signal
estadounidense
costs
Death
illeg
Vari
Verein
denomin
Ball
shape
##MS
hoch
doing
##idd
immer
producing
glass
bond
speaking
singles
Ten
##rees
Hr
##iller
gab
##chs
##han
##oes
Rem
##iti
What
Chap
Bos
Rang
causing
objects
extensive
##ativ
Girl
difference
##krieg
aer
##rig
##ientras
convent
Coast
MP
Hard
Uk
Herm
proved
Justice
##fort
##known
##érica
surrounding
fellow
Nob
##lass
##icio
74
##ER
##lauf
##ois
newspaper
89
temple
Asian
##üt
cir
Khan
calls
##quier
newly
Staats
contemporary
combination
FI
Polish
motion
##rero
Fal
register
Il
Stadium
AC
terror
Einwo
##imo
reserv
tail
##eda
82
##kir
miles
##völker
AT
owner
población
definition
uniform
Pass
XV
resistance
performances
##onto
clubs
Field
##atern
67
Komm
##cheid
Channel
doll
##light
##eto
ejempl
##illing
bild
##cript
Master
Women
##olle
Mand
fer
##eman
Cla
##íc
mes
##amento
##ondere
interior
##dorf
liqu
Career
Tai
manufactur
regarded
##vania
performing
Hollywood
Sat
##spieler
rates
Eliz
##othe
##DA
structures
##itä
fields
neighbor
favour
wealth
visual
##har
airport
dic
correct
analy
hall
schedul
prec
absol
##iling
improved
Singap
Victoria
calcul
shared
Kel
onto
##erior
heavily
Zent
##fern
Mic
Typ
drum
secondary
square
consequ
Hil
Transport
##DP
toward
notably
##usal
komm
proceed
pilot
##achsen
1900
check
Burg
Seit
steel
residents
broke
winter
categor
##ugu
Atlantic
##anos
##utation
##othes
Gren
##cipl
sistema
Nar
##ww
##icks
Islamic
Treat
##where
dort
92
##org
hö
EP
engineering
##uster
extremely
##heless
##ätz
##ública
##alo
younger
popularity
cool
##gress
beiden
##liest
wicht
instance
pueden
##ii
renamed
##time
mountain
statement
Head
78
Colomb
ending
solid
##agu
ign
regarding
México
Satur
protect
ban
sun
twenty
##elta
substant
differences
gain
##esen
1918
beaut
##uese
##crib
Prov
1937
mathemat
##rison
mort
Motor
bekannt
conference
Indones
Andrew
mel
bajo
letters
Family
aid
Walter
##acio
clin
Zahl
##ciences
##restling
tex
##encies
vess
elections
##cciones
classical
entstand
Kompon
ones
Este
revol
violence
Fel
73
really
especial
Pot
purchased
##agan
aired
87
AM
door
Station
##rot
68
##fahren
##alten
##ticos
93
Now
##soft
diam
meist
gobierno
diagn
flat
observed
##nehmen
Offic
Business
##uing
Once
nacional
##range
Billboard
Landkreis
Free
##rete
council
scoring
##klär
hacia
Fire
##azu
##nahme
##pä
Einzeln
org
permanent
vida
dessen
##ocks
Mitglied
Rand
enl
Schriftsteller
Disney
##ening
##achweise
##idi
union
##enced
greatest
Sab
##ami
eigen
##ologies
##ría
sell
Tok
Harry
crisis
##hew
Anth
##burgh
typical
Si
Ord
environmental
Georgia
contained
Einzelnachweise
Jersey
Österreich
##amples
flag
agent
Cost
somew
Centre
Fahr
##fas
Light
adult
destru
catal
awards
architecture
Log
Turn
www
##inity
ehem
perhaps
daily
##etzung
reviews
Democratic
Li
##ersch
##isa
stress
##right
gather
sevent
##poses
##thodox
##position
Parte
negoti
##reiche
touchdown
solution
importance
XX
mir
vel
relative
##pan
horse
ni
Project
mundo
arts
175
Begriff
61
retired
##ocol
Hrsg
Ludwig
Fac
##asse
Hart
pitch
hip
sel
##schn
Schul
DC
kur
absor
wave
chain
##racht
##anga
##enda
160
##ivals
##ischof
auß
attacked
Album
trying
##mosph
entwick
Taylor
##hner
prohib
reun
affected
components
skin
rare
Dub
##ylvania
employed
stadium
andere
describe
sought
Rot
Kom
holds
##DR
1000
introduction
transferred
Jr
portion
##igte
map
technical
1934
##ár
approved
oppon
Arthur
wheel
Independ
climate
##punkt
##LA
##rant
Bowl
thir
items
##iens
legend
##uert
obtained
hers
Serb
enfor
1st
alcohol
##iler
Jahres
AP
##rance
nominated
Nue
##ansas
Hug
##ocked
Bibli
Philip
Kim
##annten
##rowd
##lad
myth
contest
assigned
decades
starring
Priv
##iac
##undial
##iny
rich
fiction
##real
context
##unde
minister
significantly
##erse
silver
happ
Luft
clean
fixed
sept
advoc
Singapore
equivalent
estud
##irely
##kon
##él
##appe
armed
morning
##achel
try
unknown
siehe
Malays
arrested
ultimately
Ren
Nether
##inc
EU
describes
mitt
##fass
entirely
Victor
Rud
bodies
Disc
sail
##raum
multi
##uns
fra
##hu
##iciones
##enez
##erap
enemy
##zess
composition
Chem
affili
Only
Entertainment
Domin
apart
XI
Hann
##alter
faith
encont
Zw
Fore
Brook
denen
dere
possibly
watch
##isted
Ohio
politics
FC
veget
Aff
98
repeated
1935
Dom
##imate
plot
176
##phia
fan
##iges
##aine
ihren
grupo
Wilson
perfect
NH
Manchester
Kent
Mexican
heard
kon
oldest
##arde
##ubre
Ron
ster
gleich
Portugal
illust
Information
improve
Sud
ru
Barcel
##omy
##odo
adopt
##umen
Duke
Its
Programm
ancest
##worth
designs
Conserv
Ban
successfully
##rank
Week
externos
oft
circum
jul
output
frequency
na
##sweise
views
Dor
holding
Scottish
##igten
bien
cycle
unf
tas
##IT
Television
1919
##rog
weitere
reign
ange
69
1929
ruled
96
Portuguese
Down
Nieder
permit
##pir
promoted
##uesto
earliest
technique
##ategory
headquarters
##kins
IP
depending
Universidad
##come
##utter
royal
mism
escape
Such
oblig
stone
79
09
nick
Philadel
##struction
Six
why
inher
isol
paint
Poland
##unes
Hab
##iency
Then
Ori
##etts
Mach
Jord
deploy
resc
connection
opposite
Moh
##fully
nothing
supporting
##water
images
Sav
##rants
fleet
verd
appropri
parallel
Jahrhunderts
##aco
orders
gem
##pf
##wand
mad
closely
##ocr
Fa
Elizabeth
##otic
##ächst
##mo
sequence
##ragon
Afgh
settlement
museum
reality
encoun
planning
Gab
CP
Palest
ends
##wind
pieces
Toronto
##äche
Barcelona
Ay
Wahl
número
Ross
##omot
##bec
determine
##ructure
Abd
electronic
Leben
beat
Philadelphia
##IS
fresh
Microsoft
hay
locations
Stock
##gleich
##ystem
Enlaces
##mes
Bush
requirements
algunos
Marc
Design
historia
2nd
##kin
##acher
Fair
Space
##ilo
Lewis
sale
##ng
herself
##üh
basketball
Nav
##oly
protest
##rons
##aca
Meg
Sit
##rence
Adam
Standard
##bro
##eties
verwendet
##athan
##orders
Million
Premier
Rah
resident
sand
Austria
Vis
synd
Stephen
rural
ese
##orage
Hind
seems
compr
05
##hetic
##ulpt
sed
02
degrees
##box
Color
Hitler
Hospital
operate
festival
Netherlands
Davis
##jekt
expand
fought
##stances
Republican
ABC
Captain
looking
##chte
##iza
photograph
Mig
Barb
explos
##rico
finds
Simon
eye
Od
Roy
Eisen
Psych
Winter
Walk
department
processes
Sweden
mist
##rada
1914
07
##ilding
facility
manif
##nea
Armen
##rez
08
Ali
oficial
##reas
teil
##ließlich
recognition
Universität
capable
stating
scenes
net
Michigan
philosophy
Tol
employees
##orio
##icy
programming
maintained
invasion
##ehen
severe
Werk
thousands
##ova
bought
Namen
Order
purposes
drink
süd
##stone
Jug
NBA
##ushed
estable
protein
testing
83
founder
1932
municipal
height
standing
Operation
winner
Olympic
markets
reduc
zug
##onders
Theater
Circ
Wat
gal
sav
freedom
Syd
##öffent
guns
71
investment
eig
Penns
##isd
note
nations
##ichten
VI
Tel
brothers
mode
Frankreich
Sign
Mars
tall
18th
Stein
##ieval
Stone
siendo
Train
Trib
normally
Islands
Num
frag
budget
##issance
obtain
visited
##aki
Geg
##icide
Short
##oked
recept
Pur
driver
Lady
drop
mo
Schm
dent
Dun
Frankfurt
Assembly
##pert
dabei
file
##arn
Rest
##ológ
stores
increasingly
focused
displ
Brig
Auß
##cular
receiving
AR
contributed
worth
doctor
nuevo
storm
Na
##elli
##pton
trees
forest
evolution
##atically
##greg
faced
##bern
killing
Holy
moder
##äm
estado
##stitutional
Referencias
kick
##ulate
##bel
ped
##pool
##allas
proces
mobile
upd
Afghan
islands
trust
bestimm
##etime
funds
getting
llev
También
##otes
Balt
debate
occupied
Bron
##ricket
suggests
estos
Pedro
06
mús
##yles
task
ersch
##urches
Aqu
lyrics
occas
Name
Insel
Management
04
Mis
dialect
bann
##itage
anterior
Deutschen
nin
bed
terminal
Kont
Fle
##bra
consult
##bew
investigation
colonial
##elve
##mittel
mejor
entry
request
##uation
resemb
Bevölker
Philosoph
Pennsylvania
Rück
plane
kingdom
designated
weather
schw
coordin
Dick
policies
settled
Einwohner
##lang
cooper
intelligence
Ku
cos
serves
Age
enh
Puerto
shortly
goods
dry
worden
decade
##osh
Constitution
batter
reading
##achus
##engers
feed
Supp
##TC
Security
Ton
fict
bottom
provincia
Jacob
Kirchen
Technology
##orph
Wars
evalu
##unting
##ammad
##ji
antes
expression
cloth
communication
##idden
useful
cold
##äus
bind
Pil
Bedeut
Sunday
attract
therm
##ticas
700
1928
##rip
aspects
flood
Non
considerable
impr
mientras
Christoph
rejected
ger
Prote
Hou
junto
Lat
Marine
sympt
möglich
##icia
witness
##heits
writers
inaug
##arp
credit
skills
teaching
argument
Summer
1925
restrict
##anth
##essions
##phone
Rechts
##ctr
##ählt
Gib
03
1931
SA
eld
Brian
Städ
##ünf
medium
charges
170
rar
estate
Ged
camb
phr
apro
##hips
sufficient
parliament
Professor
##ampf
seats
zahl
día
weak
colour
adap
Hindu
trains
opportunity
Py
Erz
pad
option
imag
Beat
Philippines
neue
selection
##itos
shall
##ilation
##ände
manner
Francia
exped
##weight
involving
regist
##unte
##aman
Alfred
Zusammen
##ez
##arks
criticism
otherwise
singing
Ga
##ET
converted
Bod
María
##PG
suppor
81
WW
crowd
##umes
chron
##wald
##while
Pra
cul
schon
##eline
##ook
##uters
innov
Ts
unterschied
Bah
él
Dark
##bell
otro
expect
##uate
ma
fab
Rub
##ić
##zas
##örd
##aher
controversy
##ugby
Tot
concluded
Sound
##änge
##die
##iffer
Gründ
taught
ec
diplom
Regional
##ée
Para
##izon
wound
leads
Grad
details
##izo
Nam
##gery
Rena
Gi
Hamburg
marg
Labor
divor
Lt
Alb
##äre
Ext
drawn
sei
decor
promote
##olas
delay
Mun
rif
##nership
##icians
posterior
##sey
1917
Soft
norte
Hier
ment
Kam
arrang
##uerte
Wol
Gil
##wahl
##lets
Otto
##jection
##imb
purchase
charged
Sydney
accompan
##enger
##itet
##pez
##rations
wr
##elte
reaching
buy
##eso
##sc
gilt
Arn
##itis
##shire
Wald
##ifications
##aría
strike
##ropolitan
##wert
Ut
##imientos
##vas
ago
##äll
thick
merc
preced
linked
##pass
##kar
##aked
##ños
personnel
association
measures
message
exception
stim
1910
ble
tests
comic
narrow
Aud
gang
##ikt
##ulty
##isp
Vin
export
peque
ejemplo
mental
retire
patient
##IN
Cre
roman
passing
scheduled
Bridge
##town
##avia
Colon
biggest
Kind
##vious
voll
franch
##ruption
##zieh
yellow
understanding
achieve
somewhat
publication
##track
##gabe
FA
conjun
mayo
94
returning
##oir
viele
obra
finish
programme
##onna
##osten
##straße
impos
orient
##ragen
##zeichnung
accused
replace
jewe
conduct
Cart
jug
weapon
##gos
Israeli
Sel
convert
Vo
Massachus
Tradition
household
rit
##ícula
descend
practices
##osto
Pit
ehemal
theatre
##ears
phenomen
##yect
criticized
Bü
playoff
consisting
##besondere
##iable
planet
champion
ratio
chance
incluy
Spring
ceremony
##anza
Diego
Gest
##hausen
Medic
NAS
Massachusetts
##contin
##onda
1927
zone
Pel
Unlike
rey
##tex
discipl
fired
##issen
##fts
Institut
declar
ante
Ka
ebenfalls
Sky
modified
##äufig
external
guerra
Protest
Ocean
classic
Temple
Heil
huge
3rd
atmosph
county
Express
Gord
Confeder
Jordan
##roc
objet
##antly
Eins
##anas
PS
##pective
##PS
calling
ép
##ev
Wo
Kor
ensure
explic
Pope
Tamil
advent
legislation
Term
cargo
median
abandoned
1924
österreich
1922
retail
committed
enton
Bart
Kil
##boy
Plot
Command
proport
Aer
CBS
hero
bacter
##orith
##ourne
vide
##aints
voted
Mult
deriv
apar
gene
Abs
rum
Jay
camera
cable
save
Code
mic
concerns
encuentra
housing
steht
shell
Besch
fundamental
experienced
transmission
caracter
Mosc
debido
neces
Every
##ologist
Ont
category
##glas
##esis
Mond
1926
julio
ausge
##hang
Lar
Übers
##ingly
Railway
dynam
##uma
liquid
##hör
walls
##länd
diciembre
candidate
##iful
mant
Invest
##hire
vec
genannt
jurisd
girls
Turkish
Mol
Nag
neuen
strategy
##abet
profit
Hur
fert
broken
##St
##apes
##ules
Equ
athlet
##ál
##örper
octubre
entonces
painting
courts
##hedral
accounts
wides
CA
documents
Greece
distributed
Pas
Graf
##inations
Et
##ücke
Never
Gramm
Swedish
Charl
enero
Apple
interests
Oxford
##ruch
Front
Stre
septiembre
driving
Manuel
marzo
ideal
frame
Beng
##ricts
trip
Howard
##igation
installed
Historia
controversial
impress
##uties
benefit
Prior
satisf
##ymn
Sri
hem
documentary
heut
dan
effectively
circuit
moral
Ring
además
##mat
instrum
participated
NBC
instruments
##OC
showing
1912
##ES
2020
##fico
Liste
seconds
##19
Conc
audio
##izar
prol
dich
Entwicklung
universities
Iron
##ikh
##aren
questions
Auth
whereas
eyes
unus
1921
anderem
greatly
##ompl
Low
Chen
Imperial
sixth
##ses
funding
bab
raid
transition
dates
wir
Ll
##net
consisted
crown
##rod
storage
Jane
Salv
Beach
bedeut
##kte
governor
##glés
presidente
Deutsche
depos
Origin
geme
prepared
##pping
Mean
Eric
##jar
sang
erfolg
satell
commander
perm
Komponist
param
Who
##eed
drugs
##kenn
administrative
##otte
##iop
loan
Ministry
promotion
advance
Herzog
##áct
Video
difer
illegal
switch
##ennis
junio
Between
offices
till
verm
liberal
personas
##inois
IC
tact
attached
##outs
consecutive
Gegen
##ho
große
##bek
##roit
1923
Upon
##ector
##ureau
Alg
##system
Bulgar
Gem
Rose
Hom
##erted
supposed
covers
##ám
##pread
##rell
##ori
therap
Model
veloc
##TS
Cra
Gon
neu
##lossen
Esta
plus
##reten
throw
##indung
##ifer
##adow
Kennedy
Wür
##verb
complic
##ierungs
##ctual
varios
autor
understand
##fluss
Mong
Pun
##ayer
Dal
grie
establishment
tipo
principle
Clin
##iami
Additionally
grandes
increases
catch
##oso
educational
trained
Regel
Flug
Miller
literary
inspir
comenz
Illinois
sons
Bedeutung
##erdings
allerdings
##rett
##active
Sig
Military
Amb
kid
##adi
gets
rapidly
explained
##ieb
spiritual
characteristics
Miami
sí
##eness
Buck
##writer
##éd
driven
mart
phone
pueb
##iang
string
##iar
menos
library
piano
graduated
Muh
roughly
teacher
##BI
Fut
Laur
opinion
beispiel
treated
edge
banks
const
shr
Jerusal
cards
sort
##present
nickn
committee
tools
están
großen
extent
flo
##inian
massive
Constant
nav
excess
Marx
Lincol
##BM
shift
energ
##15
Moon
##equ
##emente
captain
anything
fine
Similar
Last
##pha
Dol
130
turb
homb
Digital
movements
##iversary
erw
##affen
##reichen
según
##glesia
fly
warm
##ivel
picture
dismiss
##part
Alan
Forsch
Cant
##vements
chose
capture
##itung
franc
##esser
delivered
Copa
Nazi
movies
##uta
##ishment
mounted
##führung
##schule
Mi
filled
neben
Ah
astron
##DF
##wort
widespread
Catal
someone
##orie
birds
merg
fib
##enten
trabaj
##ching
benefits
Prop
passenger
processing
incorporated
Neg
##ologe
Much
tick
merch
asc
##heiten
regularly
Rick
zona
stages
##bn
##anzen
solar
persons
agosto
tér
succeeded
racing
infe
valid
##antasy
minimum
Venez
hits
jazz
poder
component
eigh
##going
##ouver
diesen
##irt
Anne
cub
networks
tiss
Lincoln
einige
Territ
Castle
Library
##under
subjects
coverage
CS
zunächst
gef
caught
Verwalt
##arauf
##rän
Finn
flying
represents
upgrad
##gart
Guerra
briefly
beispielsweise
plate
Here
manufacturing
##zip
learned
cycl
perce
##16
##zig
kg
Saf
sculpt
##ipedia
gall
occasionally
Rhein
##ivas
##rer
serie
fand
##illery
##irect
1930s
Veg
OS
strongly
cuenta
customers
conven
premier
Detroit
Country
extension
tom
involves
symptoms
##pet
##istische
Well
inglés
neutral
##25
Marsh
inhabit
##acle
##uez
Ontario
cyl
UE
rund
##GB
separated
folk
Third
##iliar
comer
lies
feb
##ritten
##geschichte
truck
responsibility
historic
abril
##ygen
Reform
pregn
Michel
##atively
##eing
duty
##istischen
##rio
##ración
##eper
Schwar
equipo
ub
Pad
##elegt
orden
usage
Una
vocals
dress
answer
##jan
174
##esa
renew
##cknow
canc
equipped
Medical
##wissenschaft
##alled
##ationen
offering
##ingham
##iken
Bomb
assumed
engaged
wine
##obi
Chair
##platz
hired
shaped
agency
Burn
Roger
sov
carrying
gegründ
starts
sud
invent
##lungen
##érc
fünf
naval
span
##18
exerc
twelve
##len
soul
lov
##annels
##chem
caso
##king
Houston
##load
opera
164
##abel
##neo
Allen
dio
Sher
MS
##ounced
Foreign
##ikel
##äss
Hop
##edad
Author
sections
grown
McG
decline
Napole
assess
##esse
rating
vast
pray
soil
##abilities
buried
besteht
##iago
governments
factory
assistant
##claimed
ju
##ologists
changing
cuatro
##edding
portrayed
##ionen
prime
Jam
adding
spoken
teen
sleep
groß
yield
##bus
Douglas
##rap
Ans
##illas
charts
nucle
trig
##ogy
Five
noviembre
learn
segment
Johannes
stopped
Muslims
Kop
returns
##utlich
simpl
1911
vision
##book
Orthodox
passengers
##ufen
Forces
##andal
visible
4th
##wing
Minn
##ture
Taiwan
agents
Inn
apply
pit
sever
röm
##EA
Rat
##schrift
poem
##film
Ottoman
authors
behavi
headed
##leman
##apa
accompl
od
Patri
layer
##ão
credited
##lyn
##emen
##plex
Buen
Liver
density
partir
medieval
speak
##ocracy
suit
doub
Square
##chend
##schaften
17th
churches
través
wegen
powered
ay
synthes
1913
muss
Fame
Pir
##dam
época
replacement
##roduc
##iki
Alexand
alter
Angl
Avenue
Services
Vi
centro
##isiert
##13
##ometer
##untos
río
##igenous
troub
##lä
estaba
mouth
grounds
##OM
importante
##OR
Silver
##obil
Vé
dieses
##ails
##ourney
disappe
Maur
##hält
truth
##isierung
scheme
##ajes
assass
##uas
invited
##14
hotel
##conóm
depth
appropriate
Altern
Gas
commit
##ificación
Jenn
##rera
##apping
tens
passes
##rang
##üll
##kan
partnership
destac
stands
exists
shooting
##orge
actors
vs
Olympics
doctr
##asil
hub
##unnel
fictional
FM
Ide
168
genre
##akh
falls
##anna
rub
populations
Local
Estado
principles
##osexual
strict
linear
##chestra
Turkey
styles
generated
Get
Wes
Neben
musicians
motiv
Autor
millones
dict
domain
##inals
mechanism
Staaten
##iveness
Anfang
adjust
offensive
##icon
operates
extreme
1905
Ernst
articles
Administration
intelle
arrest
##ichtet
resolution
##room
injured
elabor
indicate
Vic
stret
cultiv
influential
Mountain
Cze
debuted
Fußballspieler
hace
owners
ingr
grav
thing
##oli
RED
Instead
predomin
otra
baseball
Kalender
emerged
debt
Exec
Children
wrong
appearing
##pas
sollte
Eff
##schafts
BM
surf
Anna
Durante
##utenant
withdraw
##öff
easy
relationships
Neu
##ichtung
simult
spec
victims
Represent
##aux
balance
Nich
##here
reputation
finding
##tenance
Sym
Hotel
##reter
##raine
##zant
##abhäng
Monte
Colombia
febrero
recip
Fab
##otype
arrival
efect
agricultural
Your
##theless
About
situated
Betrieb
##iera
mehrere
Prize
Colorado
##olis
prices
viewed
Köl
Marie
marketing
Zur
##gie
parent
##rastructure
prosec
Raum
##iesen
antigu
##innen
##oci
##mund
Pierre
Gene
ún
kommt
Erst
Global
tower
expensive
NS
Batt
traditions
unos
##chang
subt
mayoría
Platz
settle
##út
sogen
##andom
##ertain
##asa
Palace
Eg
defensive
novels
##DS
shif
Production
indicated
##wen
accompanied
Rain
Diet
Eag
Conne
propag
Lyn
##nisse
##mäß
##sprün
Holl
##ähn
Verkehr
##unci
##wendung
##kirche
representing
##archy
##rito
##liches
##fare
franchise
divisions
routes
##ework
Sele
Santiago
veter
channels
Whit
Treaty
Pict
Born
judge
Theod
abol
bear
assault
Moore
##IREC
##eton
Freder
##ommod
Dead
##rogen
##verkehr
##fried
##wich
##ipping
Patrick
Bruce
denied
muchos
rig
vul
efficient
infer
flex
Anderson
nut
##rak
cited
gle
##gestellt
##rin
trading
##ultan
CN
167
##acent
insbesondere
districts
homes
snow
Init
Studies
periods
worship
##jas
stream
##ateur
Late
tropical
losses
Malaysia
Moscow
Hof
nom
convin
Niger
error
retained
##oro
señ
##ailand
dentro
1916
Broadway
##fra
Feld
tell
classified
Miguel
roof
Siehe
Horn
uso
finals
Prom
##tery
##RC
Kevin
##onen
volt
##iko
institution
##oen
AS
registered
send
##teilung
##ictions
República
Ariz
Margar
reprodu
##quir
PA
##iate
Frauen
##orney
##oyd
##ilst
ellos
facilit
roads
Evangel
##istol
##ogle
Muhammad
Bud
miemb
challenge
radical
##útbol
Shah
##22
prest
##afen
italien
##mitt
Contin
Stutt
tort
Hawai
##rator
Magazine
Persian
##vard
races
survived
conventional
Sohn
overs
compete
tienen
Staff
##gual
##ski
hatten
Liverpool
insurance
##athy
tribes
lect
neuro
##ffen
fabric
inhib
##coming
##mania
algorith
Verm
eran
befindet
Elekt
##chten
electrical
##aments
dual
Ryan
adapted
Verd
##erdem
REDIREC
restric
Cit
términ
Thr
Millionen
EC
Dog
##ML
político
Forest
##stal
Box
fit
variable
forming
choose
##onso
##uente
muerte
##17
collected
##avel
Bed
Reichs
Bez
RA
muj
Ja
gradually
concerned
##obei
película
survey
Dave
##amps
##icop
territories
sod
Vel
Lam
##outheast
##ruktur
prompt
zero
Mathemat
essential
collect
1915
##friend
##ighters
Zug
##äg
Während
foundation
Community
founding
produces
assistance
random
landing
Hell
##onian
grade
Gust
##icios
Heart
NCA
##ereign
comun
gear
##lter
participate
173
tuvo
clas
16th
##ania
dominated
##otyp
admitted
anth
1908
Method
dating
gegenüber
##weit
translation
surgery
165
Text
Rights
Cooper
##thm
rhy
Nueva
hors
implic
Christianity
evangel
traditionally
##phere
Jerusalem
Czech
Norway
Athlet
Season
poetry
ahead
possibility
##ämp
##arias
ritual
##irtschafts
session
dazu
wobei
nit
artícul
Computer
##herr
rarely
chairman
##ánico
Arizona
ownership
##jahr
compens
courses
strip
medio
155
graduate
dirig
Anthony
suicide
##uesta
##ugen
##unications
##roph
##elson
Proble
Cow
diet
Bry
110
hundreds
##schnitt
Bayern
medicine
tool
wins
laid
Municip
UEFA
##bing
##abled
##fica
##ográ
Kansas
##ólic
acknow
remark
Cambridge
Sn
Memorial
Croat
oxygen
##uto
presidential
licens
exposure
Rus
Mans
Therefore
##fun
Crist
prisoners
##utzt
erstmals
Sonn
##laub
reinfor
Start
recib
republic
tries
Leip
Sac
##genommen
Biography
##irse
##ription
häufig
seed
lake
##okrat
déc
Mind
Stern
Partido
hang
##agues
Program
##bildung
##nia
##alion
##ié
##fre
##ktiv
Nobel
Defense
extend
Mission
##äger
##reci
concentration
Kü
##PA
Präsident
tanks
qued
apparently
vice
Afghanistan
##after
##pur
raise
##ooth
males
166
Hamil
identify
damaged
cort
nam
mechanical
##endar
safe
businesses
Meanwhile
neither
appeal
##mun
reduction
dominant
destruction
villages
guitarist
Om
constitution
accommod
emergency
##var
Gordon
configur
amongst
medal
Federation
##isition
##schul
everything
##anning
##fr
exceed
battles
bron
Vice
##onas
##cules
erhalten
integrated
compress
crop
Tib
##stic
Switzer
machines
Software
shares
región
estas
varied
169
##berger
##chos
declined
##porter
license
públic
Gulf
votes
SC
acceler
##fers
knew
Airlines
Bou
##hou
Food
163
Universal
##essee
Entre
##mern
##eria
patterns
pose
Leit
index
125
translated
157
protected
Egyptian
Dream
serial
Kas
kathol
Johnny
seines
##mod
hecho
Event
Christians
##wealth
Energ
producers
genetic
159
autonom
##scher
ocup
manera
Fue
##öst
política
Bull
unl
signs
professor
violent
hear
Jimmy
Communist
##orno
##üb
##render
Peters
argent
filed
##oples
empres
resol
personality
##üssel
penalty
Pear
##xic
Fernse
theories
führte
##stütz
##aran
frequent
Schweizer
Exper
Sax
Tennessee
##upp
Run
praised
hacer
advertising
##enh
protagon
##tegr
stable
membership
1906
Brun
clearly
##ordnung
153
##fo
##fach
successor
Advent
false
Market
Seb
Heb
##avon
Switzerland
##icional
Dallas
phrase
subsidi
Hamilton
centers
refuge
darauf
gay
banda
nac
Stuttgart
Ltd
grab
Toy
Personen
remove
inhabitants
##ushing
económ
Andr
Alc
##asure
Jur
Championships
Buff
##utor
má
##agh
DJ
duties
Saturday
recur
Popular
##schluss
Bible
##alleng
##24
Luther
##dy
Yug
Kos
##gesetz
hyper
cuer
##ós
Within
Kinder
Sozial
Germans
intention
Ric
##oured
Mundial
dre
##atos
Tab
Bot
Gesellschaft
interested
##schein
assemb
##riften
row
##zeichen
regime
Carib
volunte
releases
adaptation
##21
bringing
##oral
varian
Jazz
##fest
explo
Original
##prising
existed
vertical
dub
remember
recommended
Cer
involvement
missing
##wechsel
##urm
##riel
agencies
deleg
NCAA
corporate
##vens
celebrated
heir
temperatures
boat
bin
##iph
diferentes
##anst
immediate
pool
waters
categories
Whe
Gian
render
Qual
##ielle
##altung
Crown
sor
Samuel
##hum
900
measured
Pin
meat
Occ
fat
happened
Beck
FIFA
1907
AG
Indonesia
Grant
##rón
##idal
erhielt
salt
##pie
Metro
Has
thousand
turns
manufactured
claiming
Billy
Queens
erg
scientists
supports
description
overse
deport
##inners
##icip
recordings
##riers
monitor
entspre
Daten
imperial
summ
punto
##bal
possess
practical
Wikipedia
unters
Sprache
lob
Arabic
circumstances
Engineering
begun
Villa
Systems
##emor
##abol
Kant
Maxim
gering
imprison
##usión
heads
fruit
rose
boys
substantial
Melb
arc
Energy
gender
gross
veröffent
worn
wars
inten
childhood
universal
Gonz
discovery
provinces
##ivia
Fact
formally
Cree
simultane
assets
países
Call
Sold
attributed
breaking
##emas
##iw
##orben
##ército
appoint
##alta
##unch
absence
wearing
##krit
defic
##mel
experiences
##istor
##ítulo
##igkeiten
Dra
##lbum
##zte
Plat
moves
automatic
waste
soundtrack
desire
roots
grant
##idae
1909
##ilidad
Wa
##ären
Commonwealth
Heim
filmed
NHL
##oker
Squad
Swiss
Atlanta
references
Véase
Folge
Executive
gru
##the
Again
Background
##itals
Rei
Perform
Erd
##sburg
Highway
Building
Cher
Gur
##tha
öffent
pull
characterized
algunas
militar
##ls
input
geomet
momento
recru
1901
hence
evening
Convention
Kreuz
casual
partido
##rehens
##erner
entertainment
Fach
Sah
Bevölkerung
##abad
begann
Baden
Merc
pione
ranking
stell
##iley
##apse
Adams
HD
##hö
maintenance
segunda
##écn
inse
##asts
Note
fold
IN
Cass
##rors
deaths
Italia
##ehn
##uchs
profile
conservative
fron
##ucky
##nahmen
jobs
lock
Cos
unusual
##uir
##chi
none
anch
neighborhood
kom
Mayor
##ighten
Nad
largo
Jugend
publicly
Sciences
underst
gemeins
Hold
rect
Warner
Beginn
arranged
Pack
Sitz
Alban
dependent
##avier
origen
##asi
Story
Gruppe
##kh
Google
artific
retirement
commissioned
Además
##insula
secure
##IV
##opping
Hem
videos
researchers
supporters
myster
Wort
francés
compat
Cruz
consumption
anyone
##bi
ray
optim
besonders
Wy
##ím
Singh
poco
Brothers
tub
colors
ton
##ablo
evolved
CEO
challeng
Dabei
surrender
ready
Melbourne
agua
##druck
dangerous
Kriegs
Furthermore
todas
implemented
hardware
mac
responded
prove
Prozent
posit
##lan
Gard
##ahm
brown
gone
friendly
assembly
replacing
print
mainstream
females
tied
154
familia
hypothes
mol
Peace
Area
Byzant
universe
detailed
horizon
Kings
amounts
root
Ky
##atus
percentage
satellite
##night
Gang
##ód
sentence
branches
leb
Harvard
essentially
##nell
Writ
ah
pint
mail
##endencia
stamm
keeping
##endment
proyect
relief
sudden
##oba
Sor
Kab
window
clock
##ocated
##ivamente
writes
misma
##urre
Rein
MA
letzten
##IM
Tras
Fernando
cash
##äude
1904
wider
##áp
Funktion
relation
156
Titel
##ulas
##udem
Autom
Rolle
##uct
##avalry
earn
equation
Jung
abuse
radiation
stro
infantry
encouraged
Tax
igual
eleg
residence
submar
anniversary
daher
imposs
##emark
McD
seventh
Politik
segundo
##fert
entrance
continuous
historian
##scht
crash
identical
##awn
Hermann
rebu
##fel
guar
##itarian
América
panel
##IP
##unft
cad
##rien
pret
proposal
##apers
Benn
steps
Vien
##omic
interpretation
Eig
Poly
Tru
Celt
apparent
##iencia
Bereich
luego
einzel
##anny
infrastructure
Abb
Trust
Mitte
aufgrund
experimental
##pción
angle
hosts
corner
bases
Agency
Where
140
ere
##oa
##bank
Report
usual
Ferd
##arc
Champions
Tas
Cuba
Minnes
streets
therapy
fled
Charlie
coinc
##akter
underground
desarrollo
##ographical
explan
animated
NY
Ciudad
varias
treaty
##füg
covering
Mitt
decisions
trabajo
theoret
Studios
supplies
reducing
vessels
temporary
unsu
Java
analog
Indiana
Environment
unlike
##teenth
Review
Morgan
conscious
attracted
Tower
##ogether
Point
##ünstler
chrom
Harris
música
merged
List
everyone
Sü
##rates
##udes
Delhi
joining
Russell
Matthew
femin
##virt
census
obras
Kurt
IT
Familie
welche
sample
injuries
mont
Premio
##erei
Province
##pat
##LC
longest
deck
einges
clothing
Junior
meisten
##ikal
exposed
Indians
Krit
##mouth
Lank
Denmark
französischer
##haft
themes
expert
composer
Bischof
Mediter
Cob
##rück
turning
Control
empire
##kel
149
plastic
##state
Klein
minority
##dule
Dance
executed
##onial
Bürger
bon
Venezuela
esto
demonstrated
suffering
Stanley
indigenous
##iper
meters
Native
##enders
coff
##father
Jason
Rio
lag
limits
files
Tu
diverse
entering
nueva
toler
slaves
siguiente
##ktor
Carter
Andy
enroll
explicit
##stan
días
familiar
Bis
civilian
##wagen
bew
##pled
5th
##Hz
Vik
1903
Schloss
castle
Phill
##pfl
Neb
occupation
##achelor
##brid
finden
Ach
ruling
Weltkrieg
##ém
Expl
sees
discussed
##bet
hearing
##23
Rap
renov
predec
nieder
##jos
rod
instrumental
##etary
##itudes
sight
##uelle
unless
operational
Kelly
ST
veces
##enti
visitors
mining
consumer
struck
load
ocean
##íos
lose
Cry
##sters
Lock
copy
Christopher
##ugs
Glas
departure
##ativo
Trade
revers
verschiedenen
nivel
Tang
histó
Adolf
Nied
Imper
immigrants
employment
Vas
regulations
##rand
Auflage
fluid
flights
Capital
holid
Minnesota
##ichter
pure
##izer
conform
painted
lasted
candidates
##owa
##uzz
Tokyo
escrib
repair
heraus
158
continuing
procedure
Ark
provincial
disorder
diferen
Jak
Druck
nerv
contributions
affairs
enjoyed
##ätze
habe
Lux
seeking
##lungs
Mehr
Mississ
representation
shut
Commer
##ocratic
##alin
manip
finishing
py
Kern
##ässt
Gemeinden
lanz
Norweg
Perú
##ética
Sarah
Row
presiden
Lehr
último
Costa
Wrestling
compound
shop
##gesamt
##enas
Brazilian
intellectual
aufge
hur
coastal
Naval
##üssen
Lawrence
Spirit
Ferdin
internacional
codice
vow
kein
##ammlung
##ici
preferred
Kommun
Examples
findet
influences
portra
agree
convirt
Senator
Lag
ursprün
clinical
Edition
industries
cultures
reven
##uestra
collaboration
##nung
##gemein
Misso
Stewart
Roma
locomot
Hungary
##äft
Sultan
allen
##nee
Lev
chamber
efficiency
distinction
##meister
innerhalb
spin
Yugosl
##issions
davon
##onio
##elegen
medi
az
excell
mediante
herman
##occer
Boys
Chron
struggle
Roberts
Lith
partly
artillery
##egung
Nep
adjacent
unsuccess
Finland
##acion
representative
##uits
aged
GT
cann
1902
##gebra
principales
Leipzig
cogn
##porte
occasions
missions
descent
aller
DDR
##germe
Obama
kurz
rooms
tan
nie
Seattle
Weg
Chart
Garden
closer
logo
Ald
Honor
Alab
##ativa
NA
fighter
evol
Maj
Ple
1890
##sea
threatened
Städte
printed
##strument
##ON
monument
reportedly
##rently
resign
manifest
##heb
hope
revenue
Mes
Kraft
colony
enorm
##uerdo
CH
Dok
paintings
toda
Oak
DS
Type
Missouri
patron
magnetic
baby
##iches
suitable
mountains
Friend
Frid
UC
Stars
spiel
##emeter
Seven
Jerry
Leban
possession
##rep
##enberg
##life
crimes
origins
helping
Legisl
nort
Okl
apoy
gek
##ahoma
Earl
##entlich
rivers
coc
Serie
##rika
handed
municipio
##ilty
##fs
computers
impossible
##place
convention
grass
##ühl
texts
Prix
Como
evil
originated
junior
biological
Rum
##plant
transportation
drew
##eters
electricity
Princess
##agar
Ster
##ippi
organis
##alia
helicop
reception
superfic
##ayan
Einsatz
##stance
##best
drag
Langu
Ry
Soon
proteins
Thailand
Jag
##sole
abund
Route
##wirtschaft
pin
adults
faster
##achs
##edor
##seud
##ogar
Gesetz
Organization
##usch
ih
Italien
disk
##wers
##clam
Seite
##ería
participants
##icano
##attan
Nation
datab
ranks
elig
##RI
Belgium
MTV
Dod
journey
Tat
spending
Natural
spoke
atmosphere
Publ
Dieser
##27
bot
stayed
##bez
Len
Chand
completion
Oklahoma
Tig
##ailed
habitantes
strategic
decide
cuales
Comb
Regiment
notice
Quebec
cricket
Goth
cous
VII
Cold
Bran
Blood
believes
Allied
inm
Phoen
##rose
Wels
obst
talent
##ierto
Tan
dogs
guarante
blocks
##cribed
clar
tum
wants
##ibl
Nash
Memb
kit
tu
álbum
##arr
Cape
justice
hizo
##produ
##usive
peoples
disapp
internet
legit
##leb
viewers
approval
Köln
Lov
ol
##ilen
Amaz
##ächen
Norman
llamado
Ax
archae
CEST
Professional
Organisation
Pitts
##eron
throne
Finally
exclusively
sab
pir
McL
bid
##illes
Liga
Wir
operator
erricht
Franklin
##fasst
wedding
Guy
##ulos
habl
bol
restored
select
##ören
suppress
##uencia
##aque
weil
commented
conversion
ihrem
Doll
1920s
##ándose
Ukraine
##azar
Maler
Daily
meets
ähn
Was
technologies
##SR
Benj
Rav
Dynasty
Arten
Mario
##cimiento
ranging
Bert
##veland
Staat
restricted
undert
communications
Kaz
carrier
##born
competitive
corresponding
apare
defence
avo
Var
##rium
aimed
horses
tier
lassen
hill
signing
curren
Reception
situations
Buenos
drawing
musician
REDIRECT
passage
##sa
##mö
Markt
perceived
neck
rated
##using
Aires
##stellen
peaked
conocido
##orer
suburb
##orous
##overty
phosph
Electric
viv
swit
##ég
controls
tissue
steam
##was
aggress
##ylon
Alabama
journalist
Ziel
Scient
##lick
Hus
##28
casi
Sony
Selbst
##brit
Admir
##ísticas
##een
qualified
mex
##phan
options
Cin
Hills
exactly
##omo
sozial
slowly
Key
##erte
führt
sulf
organic
hunting
Cleveland
manus
3D
Marshall
Gleich
cere
##tico
##welt
primeros
##haust
##orus
Unters
Those
acknowled
Ferdinand
Dir
annually
assign
Hend
Mik
Orle
ella
russ
repr
##imen
Internacional
Base
signals
gut
Linux
##ifies
Dest
falling
tube
Sachsen
concepts
Bapt
emotional
banned
Along
palab
##eley
matters
Wolfgang
Wel
##immer
Wei
1898
understood
##uegos
Player
Hungarian
din
canal
Desde
Bernard
elekt
##päischen
voltage
implementation
Liberal
##esar
Shakes
Ess
##ufer
##ju
variation
##casts
partially
dynasty
constitutional
IBM
##ping
##zan
Montreal
exclusive
McK
ham
##western
sounds
preserv
Manh
##arta
polar
91
##rí
thinking
manual
wounded
explain
syndrome
##visión
##itas
Ref
fishing
Frau
Ran
vielen
Ni
dispute
##rique
manufacturers
Cho
##öglichkeit
##otton
Archite
##ritz
##cía
Beit
proof
Amt
outer
##aqu
##eric
flav
defeating
##für
##arsh
sam
elector
##éner
administer
Version
diameter
resigned
exercise
##germeister
Din
Dh
Chairman
variations
Gary
hydrogen
Buddhist
delivery
cum
##26
Oreg
##ägt
artificial
expres
dated
Labour
tot
außer
variant
##aum
sovereign
Bir
Hebrew
sino
inch
##uding
Industrial
Filip
CC
##kten
Shakespe
fitted
weekly
##ática
distinguished
lingu
virtual
Conn
Political
discussion
cup
##owski
Orleans
PG
interface
sugar
blind
teilweise
##apar
tested
Our
tarde
##orden
##umber
estruct
tenía
##rupted
Protestant
tag
##kre
resid
Raf
jump
acted
execution
define
merely
thin
León
Regierung
Around
characteristic
##ortion
stood
##orde
##ranean
Century
##RS
comparison
predecess
##stät
##ibles
illness
heutigen
relevant
Gel
##usätz
opponent
bone
##ieß
muscle
crist
Bond
rescue
Auss
wat
Originally
asks
drivers
Brasil
°C
Had
whilst
##gaben
##oda
Austin
tener
genus
inaugur
##richtung
historians
particles
Canal
matrix
surrounded
##ensa
volunt
Führ
guer
garden
displayed
Mrs
Religion
##onymous
recovered
Got
##recke
dispos
##berto
flash
Holz
Are
Mall
Sak
##año
restaurant
expedition
beautiful
Pfl
##uki
SPD
Dean
Nelson
##folge
Anim
##ocy
AN
##oga
labour
##opes
amerikanische
teachers
copper
Authority
Seine
früher
##ígen
gesam
Mak
Dat
##athers
##ui
Small
picked
lig
##fon
##bean
agriculture
circle
gate
Arbeits
ty
pig
Hir
Rahmen
Boeing
surviving
Wohn
##geordn
##räge
faculty
taxes
Bö
Bezeichnung
Sierra
Lot
##low
Steel
Differ
electro
gehört
confer
1899
haber
credits
##sky
##etzen
experiments
consistent
meth
tun
EM
Oscar
##aching
indicates
facing
oriented
##orter
Arist
##iffs
Isa
extin
cualquier
pip
Nr
wür
##ndez
##immt
##fläche
guilty
engineer
concrete
Leop
##nex
Bach
participation
Cad
wrest
Danish
recommend
SE
oxid
verschiedene
Chel
seeing
##andy
Wirtschafts
105
Barry
##wehr
Griff
##arca
comprom
##icana
Mort
Mississippi
##wall
chapter
##igua
##adora
espec
##zü
lowest
eggs
##etta
Chang
obvious
profes
theat
13th
confirm
Know
Sebast
##immen
##imore
proceso
##polit
suspended
##emed
Studio
Edu
##eca
Maryland
exhaust
abst
Pruss
Robin
thirty
cylinder
recre
isla
Nint
detect
Bog
depicted
transmit
Partei
vig
##oz
Mongol
Anglo
wet
slave
Ful
milk
##ánica
Cha
##weis
distint
debe
##hai
##aceae
scholar
elsewhere
##burn
survive
classification
valley
Any
advis
##gehend
victim
colleges
##amos
##ni
theater
Economic
7th
bright
Artikel
eliminated
Nat
só
emphasis
hockey
##lock
##chter
##itäts
Bird
Delta
Tob
##ographie
##grenz
Norwegian
1895
Wein
##iah
Oregon
##tains
##ór
argues
Austrian
##olph
Clinton
Bishop
client
##atherine
Renaissance
vector
trials
zeit
territorio
jeweils
Aur
rising
encl
##bolista
Bureau
romantic
Abra
##adurch
Auft
eigenen
Tibet
strengt
Alter
opportunities
newspapers
##präsident
vit
Shortly
##emberg
neighbour
tone
stored
fram
airline
Flag
permitted
##chron
Wirk
Nintendo
publishing
trigger
Kra
Pittsburgh
icon
##aku
pueblo
sponsored
importantes
instit
Jacques
NAT
Rico
##orious
##umed
##uous
Sein
Sieg
Books
##sein
beach
##hung
##peratur
Robinson
##ística
homosexual
Morris
Lex
##ashi
Lad
Wing
wes
literally
ft
Shakespeare
üb
##ternal
##quest
latest
infect
Louisiana
lists
Diam
ult
##last
temporada
boundary
coup
premiered
diseases
Republik
territorial
arrangement
tape
speakers
empt
sustain
Wayne
Lok
adm
Graham
konnten
Knight
##chell
elder
Frederick
Jar
##nehmer
##okie
distinctive
##imming
Alemania
demol
aument
rebell
kilomet
Material
##sequently
reveals
Bass
looked
Straßen
spir
advice
##fahrer
Wright
enf
connect
connections
voting
rice
Opp
12th
Donald
350
legs
Herbert
Mut
solutions
##mpre
15th
seemed
emig
Imp
Limited
gelang
Wag
##quitect
Comics
blog
difficulty
arbeit
rounds
Wass
##idges
statements
helps
##emetery
symb
Welsh
Höhe
concerts
functional
cloud
porque
##uren
beliefs
Unternehmen
Gun
perten
marks
manufacturer
Salz
Benjamin
Throughout
gegründet
highway
subsidiary
hijo
##bü
Until
exterior
##EN
##ocation
Maced
aust
concerning
binding
Culture
GM
reserve
recovery
1896
Hyd
Franco
Ral
mamm
Walker
##ricane
emple
Gustav
pages
ion
Element
##29
##olar
referring
ging
Wert
Militär
tack
##plan
deliber
##ulum
schedule
targets
##uder
##schutz
Ultim
compounds
Online
Baseball
##elo
##heastern
Beh
Pont
##atra
Nev
colonies
Affairs
Ferr
##izado
Stef
AA
privile
##aurus
fee
noise
Norte
mixture
Defin
##burger
Wissenschaft
Cann
foss
penet
##wär
fulf
deployed
común
cosm
LP
dollars
##gründ
##LS
##ixon
Ic
framework
Unión
##yright
Anal
preserved
##amese
compañ
rational
ley
Bonn
spaces
attempting
coins
angeb
Prad
Vegas
accurate
##izin
Manhattan
Cond
Zweiten
1848
metres
orb
##oner
española
physics
au
Ents
Iranian
##onies
Cultural
miniatur
residential
frente
ubic
Baltimore
dej
Creek
##tera
Gand
éx
##di
##kop
comien
Reserve
fallen
depression
polí
proven
palace
##örder
stem
Independent
competed
##opol
Reino
raz
##wür
argue
wooden
técn
##jähr
##uentes
tons
##park
punk
Zum
acquisition
virus
##afür
6th
Sänger
Frances
wings
welt
término
weiteren
##ource
##ículas
strengthen
decir
##iudades
JPG
Alliance
ratings
alumin
1897
##reted
##lett
##zquier
Mountains
Blues
##70
patent
discontin
##ético
Preis
condem
Alas
Grab
Sans
collapse
Shang
Moz
##ufe
organisation
Inform
edific
contribution
handle
lässt
##bür
enforcement
##half
cutting
##schließ
twin
tales
drums
##ulus
aggreg
initiated
##icular
quarterback
Dort
##ág
##onal
##ameras
pharm
##ussion
radar
accord
Soci
Net
Pos
partners
regr
incluso
##zeitig
Current
##velt
designer
Ian
bio
Margaret
racial
Training
producción
fur
##estyle
battery
Fem
descub
touring
AF
Königs
Dial
aware
traded
Songs
10th
interaction
Tak
##ehl
benefic
Nevertheless
nomination
approaches
weniger
Parker
Lieutenant
remote
##adamente
Sid
##lades
##lemán
alive
##apolis
##ovak
##ifen
##aze
##affe
wire
pens
thereby
##EE
disco
earthqu
introduc
Dragon
varies
imper
vend
##icing
Apoll
drummer
##point
customer
Iglesia
arte
Sex
conclusion
##angs
jurisdiction
manage
##ondo
##ifiz
sowohl
missile
PP
##gence
1870
##ibilities
##quis
phenomenon
##eway
Case
indeed
##emos
Schauspielerin
furn
##kant
demands
Lis
camps
absolute
Rudolf
emperor
Emer
Hub
reflect
GP
entste
englisch
Mediterranean
Mahar
isolated
evac
##cycl
Eventually
##onald
Napoleon
ongoing
package
chlor
##phabet
verst
Tage
Schutz
depends
##eits
128
##zogen
stick
Gesamt
nörd
Colonel
Total
Cou
structural
##comm
surg
Zone
landed
Straße
telephone
perspective
suspension
##entral
rifle
martial
dimensional
tribe
Malay
Support
##estellt
pointed
Werke
##inea
inferior
##ächlich
Pent
crossing
pictures
consolid
nahe
waves
ganz
Arena
Banglades
pesar
acuerdo
Sied
Thomp
##bu
##imir
Alice
Roose
Campe
##amo
akt
perd
alliance
poverty
explains
Eing
##istical
##uguay
Arnold
writings
##iability
##orte
establishing
Kath
Milan
##umps
feud
##chel
objective
Abu
Urban
##beg
gig
##cope
alcanz
esa
Friday
Franç
dramatic
currency
##zes
##inth
monaster
funded
infection
Action
Lenn
fewer
NASA
##agre
removal
Thompson
##kmal
Sprach
Mack
14th
##owder
##ibli
Oliver
Bobby
poison
mob
orbit
judg
##see
restrictions
##otos
SM
sole
Stu
pursue
##andro
wichtig
Yank
sharing
Thor
##body
##roup
describing
Broadcast
shock
##gling
ordinary
Orange
stabil
decides
##ußen
smooth
##graduate
Rangers
coat
simultaneously
memor
complement
invented
breed
persu
Caribbean
Draft
comprehens
Birm
Youth
##rows
spend
grupos
zwar
abroad
Opt
##licht
firing
109
Josef
exhibition
vib
##oni
##arma
mucho
requiring
##ático
eleven
Near
negotiations
genes
Kum
Lane
##lös
erfol
beginn
##wal
##tec
Add
respective
##ttemberg
##idem
Birmingham
aw
interact
##wareness
toured
Amts
##inde
reconoc
tomb
LA
Mumb
##assador
Commander
Kentucky
Ve
Plant
Pul
reverse
##ebook
oral
competing
línea
145
sechs
ISO
digit
giant
commemor
##glichen
Jama
Schlacht
Män
forests
ties
Metropolitan
molecular
Roosevelt
Currently
boats
##jek
##acon
creative
comed
Dienst
prize
##acre
traveled
Gle
posible
##jab
judges
venture
behalf
##ationally
##ece
Syria
Soph
##achment
releg
Grammy
artistic
Campbell
##tica
Emil
comfort
Electron
certified
Champion
##ctu
farmers
##üsse
Tam
Nort
##sprach
Freedom
versión
involve
ning
1880
mos
obten
zweiten
cinco
Lage
Medal
##amine
defect
Yam
##vised
##nez
1940s
horizontal
##aved
Prozess
CIA
Museo
ps
Ec
soph
##iture
Schn
Salvador
##stelle
autobi
360
lange
charity
NC
worst
tam
eingesetzt
Soul
woll
abilities
schwer
decid
135
sung
overseas
Vanc
neur
gehören
enact
##Station
siempre
cerca
tar
Ej
directors
geht
##zos
##rav
Movement
##umer
Marvel
##iffe
diesel
Verwaltungs
##kommen
Larry
##uchte
Cort
Mul
Father
easier
Mick
##oom
Swe
##pent
##ocket
García
##ega
##cken
representatives
##wirk
##pel
##icts
nuev
heter
Vater
remainder
Centro
requirement
Hoff
##chnik
Sad
correl
posted
behaviour
##cus
Student
##voll
reactions
youngest
feelings
vulner
Nutz
Leo
Fro
##ateral
verte
Individ
marry
toxic
Snow
meetings
##zept
km²
##sm
zahlreiche
Lit
##EG
necessarily
##etal
Meter
Mother
statistics
intermedi
##ming
nat
protests
Sic
Dublin
##igar
regulation
##apped
mine
pm
Truppen
##nehm
##oons
enemies
Turner
sessions
campaigns
##bereich
procedures
##ianos
##ancial
hole
##fish
rhythm
Río
missed
fighters
Ley
Gü
telling
accum
##ogan
##wohl
##auge
Richtung
##uable
Hamm
apartment
Farm
Recht
doctrine
hidden
handling
Sow
##rus
warfare
tribute
algorithm
Vancouver
precip
convicted
opponents
tight
Batman
Anat
##atinum
Phoenix
besitz
styl
redes
Storm
finales
Opera
Heavy
dip
Officer
##acial
##erstör
padre
willing
1889
Eb
forth
patri
habían
##ovo
##auss
papers
##ilib
variables
schließlich
Murray
Primera
mathematics
Jonathan
Ukrain
relativ
##ère
cens
MB
reforms
ihnen
##icism
Josh
Initially
culmin
Ehren
Steven
drinking
radi
affair
Philippine
NATO
##sts
##komm
1800
receiver
##acked
Zwischen
heritage
Record
Appe
ded
##ocal
Hinter
##erie
Mumbai
kommen
Gor
Wie
MC
antib
##onds
Architect
sensitive
mile
Hud
##viation
Regierungs
##olen
##atem
##itic
specialized
Return
Hawaii
server
partial
raising
Sicher
klein
instruction
##stag
Pod
Ell
Eis
Ancient
título
feeling
deutlich
##esten
difficulties
Rele
ris
##alz
einigen
Barbara
##OT
alien
arbit
##cano
requested
brach
Saudi
Fluss
Lanc
##bey
Girls
##imar
Terry
dream
Helm
Anti
psychological
Still
##reibung
##pling
##ecn
priest
preparation
wahr
sentenced
Mobile
carb
publish
Notable
ESP
phon
ride
permission
Tier
Abraham
Block
1894
disaster
Years
Bear
Must
Zür
jähr
Braun
wrestling
Rou
Dres
restaurants
Newton
Disk
ließ
significance
##zing
Macht
futbolista
mi
Norden
aplic
sequel
##ds
década
favorite
1893
Emb
specified
Alaska
##ourse
Plaza
wheels
##acia
##aws
fuera
cavalry
101
Data
fro
vic
lado
dismissed
##olds
educated
fís
Weitere
muchas
Bened
##ehm
Lucas
construcción
verse
extensively
##anni
underw
##auten
overl
Speed
Section
vital
ID
compilation
Leist
infin
##lament
PlayStation
##wasser
##roid
wish
##iri
106
##aternal
CF
kings
Hockey
##atha
##liga
Stalin
##werke
honour
Kit
statue
codes
##oben
gobern
Set
plain
teor
Campus
Utah
Past
Serge
##baren
Say
Village
Inv
Basketball
studying
ich
casa
österreichischer
Sha
Sommer
memorial
contracts
##tym
Geme
##EM
##onnen
Bef
retreat
barrel
cord
tenden
cousin
trend
probability
##cca
disturb
hinaus
Dere
Bil
symmet
alternate
pref
bacteria
amateur
Raw
2000s
jet
##dess
anime
##ikation
flour
##lez
21st
Vent
enthus
comments
115
Warren
Ecu
songwriter
pulled
lux
##ulu
rib
##oland
alemán
géner
unp
actriz
judicial
11th
Henri
verbre
comercial
##anco
##mee
##mi
orn
inspiration
##math
1888
Rab
afterwards
Hugo
filming
folgenden
payment
Cook
generate
triang
datos
##core
Gate
erne
Lö
alred
Ice
closing
1871
saved
Ortste
##ografie
playoffs
visiting
predict
width
reflected
Zust
calendar
molecules
proportion
Cuando
##iums
Provinz
Upper
Claud
Regie
pues
Agricult
Revol
decrease
##arged
improvements
volumes
##heimer
miembros
shield
shorter
belt
Fleet
pronounced
conjunto
quad
intense
VIII
##iscal
bronze
##hess
fill
immigration
haz
Language
spac
Orden
Wahr
stability
desert
competitions
merger
subd
##chnung
virtually
Punk
cel
publications
societies
scores
gramm
historically
Formula
1885
relación
developments
Arsen
separation
Pi
##iso
##avan
persona
Chamber
##acc
looks
submitted
ingred
metabol
varying
guide
bath
1860
operators
1892
##azines
cambio
pushed
reporting
##gesehen
Einfluss
Connectic
Carn
magic
loop
höch
##gem
##öße
##apor
##VP
##plo
Connecticut
boss
##fire
##OL
symp
##spiel
unw
potentially
Ages
intercept
División
Lanka
Joy
armies
Walt
##EL
invas
estudio
Zentral
buses
##uros
ranges
hosp
kidn
messages
Similarly
##izi
disch
Rolling
##aton
RAF
Mang
Using
##anstalt
Ere
Imperio
Romans
##wieg
nurs
tea
Baker
Gabriel
##bow
Fat
##ktions
supplied
beating
##onsin
##rimination
##zentrum
Celtic
Dak
highlight
##itsch
interse
##via
##ipher
Vienna
eighth
Feuer
Exchange
fasc
criteria
Imm
erschien
numeros
variants
Gast
##oline
funeral
receives
##endes
Round
##break
fame
Masters
vessel
flowers
Harrison
Testament
##icken
ello
enfer
1500
##ospel
Berliner
##acas
Others
Pom
photo
marine
borrow
##ologische
Lloyd
tourist
tasks
Susan
Medicine
Squadron
liver
Metal
Bangladesh
rugby
Doc
Cole
Gru
##ändern
Körper
idi
1891
Guad
approached
##quer
licensed
Racing
maintaining
Admiral
flew
##stall
awareness
encuentran
Valent
properly
Jefferson
gap
Schne
##inkel
Byzantine
blieb
shopping
ases
Halb
dafür
Stevens
psychology
##uelta
dil
monarch
Having
##aders
Collins
##ashed
##immung
conspir
samples
Tun
promoting
##uido
zusätz
perí
##DI
frances
ehemaligen
daughters
##bare
coffee
precis
##edo
Singles
Wisc
rely
surve
pup
settlers
Tür
fatal
golf
104
tradicional
excellent
Lan
##inus
database
emper
compact
examination
quantum
Werner
##olith
Living
propio
fraud
ciudades
##gesetzt
##acles
Slav
Rugby
retain
1861
obt
namely
Eddie
interviews
##encing
logic
velocity
Lithuan
Ich
##ivan
Aj
specul
Mechan
Pay
desired
economics
Lear
Side
übers
Place
einge
Papst
##zed
followers
103
hybrid
manga
##itten
##rah
Poll
Según
informed
fairly
forb
religios
Wisconsin
Zar
tunnel
##top
##hende
##yll
##oque
##ensis
148
breast
##auen
Joan
wealthy
Energie
downtown
Frei
revival
recognised
secured
stroke
bisher
##erical
Pradesh
eat
flags
luch
beauty
##far
##ández
Lem
Westf
uncertain
##ientí
gast
libro
##ächt
craft
##leist
champions
brig
##fassung
##dale
Geist
nahm
intervention
musste
winds
Deep
excav
entstanden
Charlotte
##vió
frec
confused
especies
PR
##hentic
##uman
Ras
147
##mos
Strateg
bull
##ampa
Gay
##edge
Vat
Wappen
mild
129
##ishn
##istent
Jap
sa
Merced
##logo
Jorge
##riors
##ilian
verl
##rating
borders
##ften
llamada
HT
##elen
##borough
##borne
Brandenburg
##atar
AL
warning
Musical
Palestinian
hervor
Grey
##former
hochkant
hoy
##iety
wick
##üller
Punjab
doors
Fight
eating
Chuck
Senior
Mutter
lights
Construction
pilots
##appy
Después
##iligen
Pon
escritor
evident
mainland
Bak
convinced
Oil
##irts
##ović
aproxim
Flight
axis
Wirtschaft
Princip
advertis
##alam
##iaz
##reicht
hinter
##VA
Link
Reihe
Bald
Ward
##rano
Serbia
##phal
finance
nickname
Segunda
deemed
ocas
principalmente
##eston
Financial
documented
filter
##henden
##usions
democracy
circul
valor
Lion
revel
coron
##phony
boundaries
Zentrum
assisted
erklär
##ecraft
forg
symbols
müssen
pac
endors
weekend
8th
##rific
Mitchell
Evans
wore
vin
##erseits
surviv
Brooklyn
9th
Unit
##cido
broadcasting
CR
##itäten
configuration
horror
Core
izquier
##emat
UA
horm
##ül
Fischer
Pablo
##teile
duo
damals
quoted
locally
bars
horn
##into
Integr
alten
minimal
##sterdam
Arc
slaver
prototype
französischen
##fäh
Magic
europe
regardless
##ployment
##iegel
sweet
##romagn
happy
Rund
gift
Challen
123
circular
ruler
##graph
hypothesis
##ifier
Capit
chronic
##ouses
##gled
comenzó
##acias
##izations
counties
##geon
##roscop
graphics
distinguish
Defence
punishment
Baby
attending
plas
##geführt
##ualmente
divorce
vollständ
##elten
##odynam
##acco
blow
gol
##anim
improvement
##oard
sería
Seiten
Romania
integral
overt
##ulating
Orchestra
##zeuge
127
Astron
cine
actu
descendants
anticip
Familien
Ehe
verlor
insgesamt
slavery
##endorf
1850
somit
BCE
Ernest
Württemberg
grandfather
cinema
größte
cooperation
##cal
##rados
breeding
##arto
salv
Giants
Films
##gruppe
creates
ejército
Dreh
Neil
poems
versus
Kauf
supplement
addressed
Sull
##arf
Licht
##esty
Alle
Greater
##gemeind
profession
survival
Infantry
movimiento
Pow
sket
corruption
Edin
Constit
##issenschaften
##idt
##upts
Classic
##ngel
edited
updated
SR
Kampf
sized
birthday
repeatedly
Sang
Teile
denn
indirect
magazines
Decl
París
zeigt
entsprechend
explanation
Apost
Epis
##erer
jury
torn
##elfare
##rage
productions
##ranken
skill
estimates
##pers
Works
departments
delayed
auto
Peru
testim
éxito
Vlad
dish
employee
##preis
windows
Tech
Beruf
tourism
##elin
Performance
shops
Ronald
##64
asking
Bag
Curt
bearing
Communications
##cker
Brigade
estilo
##eping
Bürgermeister
ibn
acou
Hob
Article
Kirk
direkt
##asant
Former
##ijing
Yellow
osc
eigene
kinds
##inta
información
winners
##stellungen
moderate
Göt
mater
Alpha
##cke
Ya
pump
grave
arena
thereafter
##bischof
Fig
Vietnamese
##osing
Sr
##othy
challenges
campo
walking
Pic
Esto
aún
FBI
##oyalty
erreich
attacking
gelö
Pok
CDU
##sex
afford
Berk
##chinen
##ymnas
preval
ejec
britischer
Rey
##prin
##rimonio
cancel
lawyer
##usa
fragment
doch
puesto
##unta
integration
copyright
certific
##vy
##WA
beste
automatically
Pink
putting
gh
popul
revised
suspect
Roth
independently
concentrated
DN
Ivan
carries
venue
arist
##ekt
Athletic
flows
Hip
108
Param
capabilities
Sz
lle
canon
landscape
##ñas
allegedly
Luxemb
Instrument
Bengal
##ancell
Damit
##alg
##urf
##oses
ceased
Iceland
Next
guests
cancelled
##MP
##enso
cra
sure
rechts
##deuts
gewählt
Thai
Valencia
Perry
displays
##rió
collaps
hing
Gegens
Motors
Hear
Rö
##amma
##lingen
relacion
Gill
Woman
Algun
Nevada
thor
##nik
##eries
spectrum
unsuccessful
contribute
##ders
##uba
realized
Magd
llegó
Friends
##urz
remix
Toch
push
knock
Krie
Obs
Herb
settlements
1887
XIX
optical
##kr
sick
##tra
bombing
Akadem
griech
1867
soldier
ta
##estone
Nikol
äuß
##overy
##uum
Actor
##sis
imposed
##omber
##uper
Fernseh
qualifying
##ijo
continental
##reiben
earning
##windigkeit
porn
Ted
sir
substance
modo
##ucker
1881
mineral
thermal
fusion
Direct
flower
scatter
jap
Students
Conservative
##cif
anthrop
Prag
tap
verw
Future
sta
Applic
prosper
secular
Track
größten
##dienst
##okes
uncle
recht
##izada
##sor
editions
Shar
selten
##kund
naturally
##HS
contrad
Clar
##kal
demonst
exit
signature
soap
focuses
Arabia
municipality
championships
platforms
##ítica
Beatles
darunter
conten
shel
Ergeb
stake
engage
exchang
pill
Wider
Beijing
Edinburgh
Gan
provision
allies
Single
renown
rocket
Grie
klass
prestig
Golf
sending
Oz
##cin
poln
Tierra
vuel
Ign
##ocent
área
##idental
dubbed
holiday
##ouch
Operations
última
Pictures
cow
##ormal
backed
noble
bay
MG
##rella
##üst
##klärung
##munition
Zürich
##gramm
Ult
##istro
waiting
underlying
##unal
keyboard
plural
ports
cattle
raw
##EP
##ará
##sted
ambos
107
Klaus
conservation
blues
Ethiop
perpet
considerably
Dokument
BA
crossed
Krist
Cel
##union
##gef
##entum
##stre
Aber
Mitglieder
Thir
Meth
coalition
northwest
Urs
##itel
Netz
##ücken
Vincent
cuerpo
devoted
golden
##führer
gods
forcing
##iev
secretary
dealing
progressive
interpreted
Día
devast
##ifica
prevented
comunic
Luke
aggressive
Schule
varieties
especialmente
Bour
Tiger
Ye
bag
Lisa
interf
bankrupt
bits
download
doubt
reporter
internationally
Nan
Nigeria
##xide
appointment
##áb
caps
recognize
AB
SN
mechanisms
Pé
Adv
Fantasy
##weisen
Gobierno
##otten
instal
Heritage
Künstler
##iences
Buddhism
Lower
Nas
cameras
Fritz
##aha
mane
##indungen
##lar
sharp
##000
Einzel
arquitect
resort
Nicholas
mathematical
italienischer
gepr
1884
stronger
##neas
rocks
cantante
##sozial
esper
provisions
gent
Hamp
##ulsion
estudios
##orp
papel
Pand
notion
##arium
temporarily
Ps
pier
contr
A3
Days
Lip
narrative
gauge
##erung
##schließlich
sólo
##schlag
##sicht
Ident
cuts
spokes
Vog
##üss
collections
Aunque
programmes
Infl
Anzahl
Ana
equilib
público
reaches
drafted
elecciones
bread
conflicts
Ecuador
Lorenz
##amas
##uye
Verbindung
Position
revolutionary
Members
Ce
##atten
appreci
Struktur
temples
Hispan
##othek
citizen
Lamb
##star
voiced
Geld
##kur
stehen
##beh
casualties
beam
##omon
Verwendung
administrat
##estens
##arked
119
Judge
rotation
lap
demanded
connecting
Leopold
Phase
##usst
danger
ór
identification
moon
Rogers
burning
altitude
Auto
##ortunately
1886
sogar
talks
Municipal
Gut
Tourn
diplomatic
pairs
Balk
eligible
Kid
administered
considering
##onato
overw
##emia
dynamic
finger
disorders
Süden
Kurz
##arms
relie
assert
resto
artículo
kan
##hyd
RNA
gif
construct
array
Musiker
animation
enabled
inches
Fif
fifteen
batalla
elite
layers
tenure
architectural
murdered
interesting
sciences
Baron
Math
##ült
Private
Hunter
1865
Kons
##äsent
unex
Gallery
destro
cabinet
Camer
principios
Monday
grid
fútbol
completing
124
leaf
##itime
##azo
Wu
eventual
definit
##ials
Athens
manufacture
Athen
alumn
sacrif
politischen
Vit
convirtió
Westen
acept
wenig
Lost
ráp
northeast
##ishi
Eisenbahn
CB
speeds
Giov
receptor
entity
prey
Iowa
##chez
Schles
##ennen
gelöscht
Darstellung
miniatura
Put
##oher
Dennis
##ndose
##ogene
storyline
citing
Wonder
Harold
campe
hombres
##roat
Heimat
alrededor
Iraqi
##quet
##rets
encod
festivals
lip
144
equally
##ropical
##öll
alto
Brief
##mbH
##kle
##füll
png
RT
handelt
puntos
seriously
##achi
Mercedes
Versch
Studien
placing
organised
LS
comprehensive
1876
##gesellschaft
accessible
##kraft
##illos
particle
cantidad
Bildung
Hudson
shots
Nur
MHz
stellt
provoc
sky
##emble
##tm
pregnant
Ferrari
Guatem
Shel
Sprachen
withdrew
findings
Ground
Gruppen
##door
##orsitz
Craig
orientation
Vern
jack
##agers
Based
##aneous
similarly
Rath
##etown
Kash
march
Shaw
breaks
Boot
cientí
##ettes
##owed
civilians
##ügel
##rous
##gate
##iya
carrera
##icl
teeth
Denver
menor
infant
Chan
##US
maintains
##ompass
Zeichen
Españ
juego
Möglichkeit
sv
Ig
##oden
erster
legislative
proyecto
SO
nose
BS
Jess
arrive
communist
##ographer
Pete
Titan
##oqu
escaped
##icate
Bros
##rovers
Außerdem
##nt
ba
Drag
##äuser
membrane
defended
Uruguay
Kohl
##etti
##culo
shoulder
##ymph
##ective
citizenship
challenged
Chelsea
Spider
promised
morph
bell
democratic
Metall
tennis
BR
motorcy
liegen
##éct
authentic
Schools
##horn
134
Period
entwickelt
beer
Assist
cuis
Intelligence
consequence
heiß
Pero
substitute
quiet
Maß
firms
1882
laboratory
occurring
##ficos
Hav
valuable
##anzer
swimming
##rato
probable
sword
bonds
consumers
ticket
##MC
protocol
##geber
143
Keith
Danny
cuad
photographs
Untersuch
##andin
##agua
##wiegend
actively
releasing
meter
##olin
triple
##power
##erals
##asy
readers
Drama
##eras
Rank
discrimination
1864
admir
confidence
Ahm
YouT
dimensions
113
etwas
Linie
rid
consequences
##uh
##omorph
##imp
vest
Dios
sad
##graf
118
##gebung
##gage
##bei
##attung
##uka
immun
drives
Syl
seeds
##uttle
Pep
##bark
siguientes
carg
wirtschaft
##ängen
Independence
GmbH
Hindi
item
fo
ober
##olly
##eckt
Fürst
Dale
##redit
##IDS
Beginning
##vol
Coal
1878
References
accompany
Comedy
öst
GA
donated
generations
Verkehrs
Santo
##einander
País
##utors
##äld
Fitz
plates
nerve
engineers
Bachelor
Vere
zehn
Relations
empty
earthquake
Clay
Alfonso
Brother
edición
Ara
surprise
banking
##atever
succession
algebra
Aven
lifetime
appl
##rock
##itative
attitude
intr
Himm
Sä
##empt
Recon
comput
##pense
sop
##ónica
estimate
##don
##airo
vocalist
exhibit
##roe
Handels
Scar
1868
prepare
Holland
sitting
persec
Osten
indicating
dispers
##uche
##rect
##gericht
TC
Tir
##elect
##asis
Nä
obsc
pole
Hochschul
Ehr
chest
gathered
organisms
millions
Verfahren
##ktionen
ninete
experts
Cathedral
##uestos
Gebäude
bulk
Representatives
proxim
##elles
encounter
Konz
politicians
##opuerto
##boards
Casa
##cium
Inner
Strom
initiative
fru
Armenian
YouTube
##íp
adequ
arguments
une
divid
Watch
##ynes
attendance
interv
Verbre
breath
Koch
accuracy
##inated
##leben
##cera
Kate
photos
dancing
lift
Arsenal
Tommy
metropolitan
máxim
##acular
##berry
descript
Quad
switched
##zone
clients
printing
unem
##antwort
confront
ciert
girlfriend
##km
##ribution
117
##fin
Hilfe
paying
dollar
1875
McM
undergraduate
1879
##mäßig
##orr
Finnish
##ishna
cultura
synthesis
Hughes
consciousness
Bahnhof
align
hohen
valve
RS
reward
##folger
Basil
Right
Luci
1862
Amsterdam
##enschaften
fung
lens
eröff
pseud
entwickelte
ält
Terror
libre
##öhn
##alis
François
resource
gly
##gas
sisters
abbre
combust
energía
Ralph
annex
Juda
Exp
Orts
footage
XVI
alphabet
Beaut
Yugoslavia
ers
faces
##lando
##ístico
##fit
predecessor
##itary
hid
Guer
nord
##vironments
##case
Julius
##avi
duration
Wallace
##flug
##oj
Medien
##atl
depict
confusion
##isons
tab
altered
##front
führen
Buffalo
##seite
humor
Stell
transm
encompass
Definition
dece
erwähn
##vet
Innen
meses
##uli
PDF
zunehm
fiel
##gren
parks
concur
lad
errichtet
##uciones
lawsuit
backing
##ependencia
##regular
habitat
emissions
Compet
ammunition
visits
Saints
primero
Gegensatz
programa
##weiter
##amble
HIV
Industry
Geography
Andreas
Serbian
##ibilidad
pist
conse
NP
Wang
höher
crops
Mix
Stamm
destination
renowned
Polen
migration
lengua
##igos
##macht
segments
Liz
Protection
Catherine
charter
transformation
Stefan
##plete
Barn
bilden
dimin
##ermo
assessment
Sometimes
##urer
##ologically
##anol
toll
##asha
Homer
Wend
##oce
##ricos
consent
##gow
gründ
Pav
Constantin
##cut
##eded
Roh
##ilia
buff
1866
psychiat
premiere
encourage
##ierungen
Herrschaft
gard
Tochter
om
libert
##ammed
##oys
suggesting
1863
Legacy
Voll
Battalion
surfaces
clan
bestand
##unny
##igungs
enable
capability
Paz
severely
##isseur
##ürz
##inent
theoretical
##OP
estar
Ló
bullet
Ukrainian
centres
británico
Ereign
##histor
Rafael
weaken
Jakob
Intel
Maz
Together
decreased
elementos
biet
Mail
chemistry
suspic
Vertrag
owns
1883
commitment
Samm
orange
televisión
innings
encountered
Led
Vall
Ulrich
hung
Guinea
prel
ero
##HA
Manager
WWE
prayer
wohl
##umph
presents
sequences
drain
Cars
krit
##ardi
personally
##aktion
anarch
##gebaut
3000
Verhält
Autob
adoption
##abilidad
##alties
predominantly
Anteil
Schön
reconstru
Kay
##mont
Belgian
##pret
Honda
funcion
planes
Environmental
ine
Apollo
##ianist
siege
terrest
investors
gaining
errors
##char
##odge
Path
shore
introduce
brow
Safety
cartoon
Wiener
##inar
reorgan
antiguo
##chas
##HC
audiences
##chet
restoration
133
##TP
regiment
Ghost
Grande
commanded
boost
Lebanon
Hat
Moreover
burned
Wagner
Dynam
Deputy
zonas
diver
measurement
alta
Toyota
##agger
##museum
rebellion
aliment
loyal
traveling
trouble
teamm
mines
##fa
##ierenden
asoci
Phot
146
targeted
lug
##umm
sheet
orth
Ib
Lima
fract
environments
Reed
parish
Guide
138
legally
ESPN
##wesen
collective
##anca
indem
crucial
lun
##ól
Enrique
139
SD
Julian
Mein
##odos
calculated
threw
Yang
período
deals
Ingl
compatible
Wor
stere
Players
##acking
Verl
observation
conocida
Towns
Hund
transit
designation
replic
rech
##ást
##iology
nied
##prochen
##guez
degrad
politician
metaph
137
Gottes
Deport
upcoming
bonus
zuvor
reveal
drove
Moroc
##rob
Without
1873
##tor
parliamentary
hospitals
commercially
##ecen
GS
intellig
Heinz
##omed
##idance
ov
##raph
único
Weiter
metros
##bridge
##axy
sustained
fu
solely
Hi
##pes
##ipper
##inden
maps
##ento
##ti
recalled
outcome
flank
ninth
Arag
##ricks
##icking
Universe
Vul
##rhein
##icul
Rhodes
1872
ages
Isaac
Ari
Sean
suspected
##enzen
##yers
embr
Manila
eher
jüd
tierra
mehreren
fot
##issa
##ayo
qualify
Hern
##schech
mutual
interchange
Außen
##master
##holders
Stuart
##aleza
Pearl
##schung
##riages
##arth
Früh
relating
genutzt
##fung
celebration
suffer
##zz
Peninsula
stops
Fish
announcement
##wegen
Petersburg
ged
einzelnen
Geboren
##oya
##noon
##rams
##rimin
Edwards
Gol
##kunft
##umped
##nahm
##ancellor
Schwarz
Baum
##DC
thanks
cock
curric
cataly
electoral
erreicht
doctors
Darwin
bore
fees
##emy
##agne
centered
sacred
instructions
diversity
Amendment
##cific
affiliated
kin
1877
entspr
bast
Myth
französische
López
constantly
##lon
conson
partidos
Ble
Elis
associate
Armee
anger
enters
worker
Meister
legacy
Minor
##reibt
Träger
foods
##ylan
##iben
expanding
margin
interactions
physically
trail
hombre
verein
Fen
wait
southwest
zentral
transformed
acknowledged
Mason
Leeds
##eted
Nova
rape
talking
bicy
##otion
fantasy
##icus
superficie
Va
luz
columns
Wenn
marketed
italiano
Queensland
cabo
rivalry
Haz
Bezieh
Kirch
cotton
politische
Fot
Page
singular
Bulgaria
grain
missiles
##etten
##amientos
publisher
acceptance
##istik
utility
##nos
##BO
Recent
Erde
termed
trick
##omi
##missions
Wander
ak
escal
acoustic
mujeres
trademark
curve
patrol
tet
##kers
##emann
Gray
##iete
Democrats
accommodate
fifty
Gö
dice
ern
speaker
##castle
Müller
ost
Ángel
IM
unas
##lights
presentation
friendship
Watson
Hohen
Ug
zweite
##NU
outstanding
Bristol
kleine
##republik
Map
interc
grande
stellte
Sev
ofre
Betriebs
carriers
Marcus
##oting
Bit
mg
governing
caf
##thal
##inking
mundial
##rosion
##rolle
##ecer
DM
ey
resultado
##atorio
rebel
Joint
sizes
Trin
##quez
lin
##urities
studios
Solar
##itious
Quellen
Romanian
Hunt
scr
frust
Various
Así
Critical
Sanskrit
Indo
equations
##holm
scope
kamen
126
Broadcasting
accomplished
Fisher
Nine
Aller
Exped
svg
##uard
developers
Venus
##rises
allegations
arrives
Salt
htm
##habilit
##lington
divorced
Sue
Apart
Cust
##uchen
##elia
Alm
##acts
lesser
inspe
##cule
cóm
Index
hoped
Grün
rulers
##strong
View
##ricas
compensation
feder
magnet
Sudan
taste
Monument
gluc
Marath
discipline
mask
Harm
impl
##staat
##held
Dresden
conquest
Benz
##zog
va
114
##isan
##omingo
ermö
irregular
failing
género
##orum
intensity
tension
brill
Transportation
##orig
función
southeast
posición
discontinued
pant
Alberto
##bul
##etics
Shanghai
gren
##tero
nest
Comun
CM
##älfte
mét
Flash
##lied
scandal
##gegen
Madison
##isha
Liv
Superman
##ologischen
Portland
Historical
Kiss
Lead
izquierda
defending
Kem
heißt
##ildet
Planet
zones
Mejor
mud
Conse
Diamond
Grace
Königreich
BMW
reluct
scholarship
installation
##gun
attraction
anten
##zehn
Nür
dialogue
tong
befinden
wissenschaft
Confederate
##agegen
Eagles
##care
passion
##ennium
riding
##legiate
##weig
##adio
conjunction
Cricket
weigh
750
tang
Alten
deeply
laut
Full
Benutz
##deck
##úa
laser
divine
Holmes
knows
trim
1874
##urban
emerging
##igg
christ
Chi
fiber
japan
Generation
cognitive
Rib
Röm
GDP
cabe
Unf
##idelines
##cyclop
Eug
imported
Lü
forty
exile
espacio
bears
brands
Reserv
fals
mentions
AIDS
diagnosis
Use
##atum
##pm
##prene
##íd
lasting
circulation
causa
attorney
ursprünglich
Ped
Berl
Eagle
##person
Adel
damal
Trophy
##nden
aux
Giovanni
Policy
recurring
##appa
tactics
jail
##role
withdrawal
topics
rivals
##imas
Critics
Instituto
defines
rings
Anders
farming
reserves
congreg
leather
##IL
inherited
Felipe
IG
confron
Dame
abge
Modell
clothes
desp
valle
Geh
deposits
soccer
corps
victories
Attorney
letzte
##inery
Cau
Sikh
permanently
##rt
nep
##ikes
commentary
Dopp
gravity
nave
##leit
##anner
setzte
IX
##uclear
Crime
Deutscher
assassination
Mensch
unions
ellas
fuerzas
Ki
embar
epic
##luss
edad
improving
bishop
listing
lighting
tribal
Navar
##zust
Result
1869
Brah
railroad
Qur
Virt
Nixon
Wies
Hauptstadt
##ällen
Hör
MW
continent
HP
Ist
professionals
brings
450
healthy
Stil
prohibited
Alej
##quiry
Fly
tours
##ritte
thread
shipping
petition
assembled
Ny
syll
payments
##aternity
##pekt
perception
cole
legendary
Sed
Schwer
##forder
Volk
casos
##zeichnungen
##etheless
Fell
Kin
intermediate
UFC
##prises
GB
##tei
Lic
folgende
Eld
1830
Raymond
gehörte
reliable
knee
##ishops
complicated
##roqu
congress
##ocaust
##fahrt
##cons
Spen
##parts
##rior
##wed
counsel
modelo
Guatemala
Schol
recruited
seal
lineup
##ucks
Machine
Hun
Lös
Zy
Level
Legend
##imeter
##gi
Viel
Continental
##xis
Heaven
##orms
suces
relatives
ITV
##fred
authorized
##funk
comprises
propied
actividad
Bayer
##izz
Contem
Vie
Actress
Editor
propor
##illon
unanim
Wehr
##ija
enthält
##urger
Sullivan
Price
Fuj
sieben
Number
Temperatur
##avor
Jahreswechsel
Boden
Pam
##ulin
incidents
Tournament
Castilla
argentino
belonging
organisations
##eil
##bruch
##kennt
Ungar
Cuban
Dorf
##deutsch
Gilbert
sogenannten
meg
Hope
preserve
participating
submarine
sau
##punk
bil
hills
refugees
Member
Wed
##entieth
##hrer
loans
aboard
focusing
zudem
##icamente
egg
retrie
LC
Armstrong
voters
Observ
Progress
Dieses
cuisine
Rams
##avian
quantities
explicitly
Bav
Franken
##hardt
Hannover
mec
1840
editorial
Vereinigten
Nathan
Southeast
##aping
##assis
armor
entw
capit
Glasgow
abstract
inex
listen
zähl
guerr
discovers
decis
Lil
##orted
default
creator
erected
frühen
Namens
fus
powder
Julia
Mom
relocated
São
rubber
Hass
##räfte
Cinc
Schle
tourists
1857
parking
Starting
consideration
Alger
threats
touchdowns
Syrian
Conce
##isto
empez
Terminal
kiss
predicted
##azi
cement
beide
Munich
Dylan
brut
Individual
##dr
criticised
lying
##verein
Martín
prompted
##uin
##uridad
managing
mens
##agog
Kloster
agreements
arrangements
anx
dialects
SL
upset
wal
enfermed
Aviation
arose
monthly
Libert
Campaign
##kam
136
Matth
Advan
Facebook
Vergleich
vorhand
Croatia
discl
Wied
interven
Enterprise
##aterra
elevation
220
Bosnia
acht
##adic
Mercury
NT
##leitung
outc
shifted
enfrent
localidad
dadurch
libr
Nicht
##kap
acclaimed
grey
Bio
Dollar
Allgeme
gewesen
bench
Sinne
##ewise
##itus
##adura
anat
##criptions
Quest
##richtungen
##recken
Deg
Falls
beträ
fastest
##enson
Nachdem
Entscheid
aims
availability
Cele
##iglich
##ützen
applies
Buddha
##ipped
##xy
helicopter
Morning
Technik
Offiz
travelled
veteran
hohe
niederländ
Zuge
rever
settings
acquire
occasional
##yard
Come
modes
##bie
##witz
##lined
constituen
elevated
##cott
colored
hol
Hey
Schum
Finanz
Albums
##entwicklung
clás
##ólica
observations
certainly
Commissioner
Japón
transpar
algo
Einführung
##enna
Piet
##law
disappeared
Talk
orche
acids
topic
quantity
RC
André
militär
jeder
Besides
truly
Vil
induced
Movie
Tigers
##ágina
Race
poorly
Indonesian
##ogs
Sut
##eling
existen
legislature
Guardian
ebenso
Kilometer
##cheiden
##üm
##utos
Zusammenhang
Take
##idente
rode
##mother
estudi
landmark
unabhäng
könn
disband
Rica
##ean
Caesar
Kub
situación
explosion
Drive
TD
Mob
dispar
decay
Juden
Cameron
Todd
##uña
longitud
##venth
Gregory
##redited
Basis
##edded
corporation
bund
extending
increment
##zyme
Rabb
##gio
fecha
##ambers
religions
renewed
ling
nos
tends
##minster
Cord
contempor
Hild
cave
Schmidt
Daw
layout
Inglaterra
seis
enhanced
remembered
barr
theatrical
athletic
cél
beings
Ingen
##iolet
##acker
Exc
Lak
tob
philosophical
##oned
##olia
Schiff
Valle
CPU
Gn
Ländern
Meer
sue
vern
prospect
Gibson
Sweet
posts
Claude
##ichi
detection
reson
pronunci
Eben
Judaism
sede
bildet
derecho
Dichter
opposing
##stitutes
Bent
##ources
##UN
problemas
##itory
paras
beta
Leonard
##ikely
Productions
Reagan
repet
mirror
NG
mph
Description
1815
incorrect
rent
Ng
enz
removing
Palestine
recuper
consistently
Unido
broadcasts
##cripts
Arkansas
organism
monitoring
pounds
colours
Gent
adher
Often
##otypes
pregnancy
erfolgte
thrown
##ipo
##barkeit
offense
bail
welfare
1849
comparable
Saar
sistemas
Widerstand
hät
paso
##atty
Ath
mencion
noun
graduating
verh
theorem
Cincinn
Peg
##usters
Castro
assists
extract
##acción
questioned
hopes
##stock
sph
cooking
Santos
##ienten
suppl
extraordin
Kerala
closest
##alan
servicio
##räger
##fur
machen
##isi
##inander
##hmen
mans
##oints
##äten
kills
Resp
Ti
##achim
impressive
Thom
runner
solic
Emmy
Hul
Gandhi
parameters
##ikon
Sinn
##haw
##IG
Hyp
Ruth
##ranj
ministers
dys
conquered
Stift
plug
strategies
Pick
Victorian
##atorial
Justin
Era
116
##alling
newer
essay
aparece
Socialist
NO
Nin
fed
##atik
##ierter
restore
##boys
kleinen
##onents
##ascular
##uated
##oras
undergo
Cyr
##zar
verbunden
portions
anchor
striking
##ianza
##onie
##pler
Bolivia
Oro
Server
deterior
Diplom
diag
##tag
ras
coe
prolong
conced
##iji
##isierte
##rust
feels
Advanced
Self
stones
aviation
cav
outbreak
Bun
abolished
instant
##iesta
boot
##geschlossen
mascul
Nicol
Helen
##igue
##haupt
Harvey
gardens
Laura
humanity
Agre
natür
##ächs
Basel
Jed
Bek
##kauf
inic
##ellers
existe
diff
##advant
Cincinnati
preuß
Schwed
bos
Catholics
Eve
conci
entren
respir
bones
##emic
terrorist
Parad
##ieu
atomic
rebuilt
##rata
Industrie
Lav
Forum
fate
afternoon
creación
Stad
Ens
cooling
tenth
Pueb
colabor
##not
heating
##assung
customs
Freud
artwork
Crow
Meyer
##uario
onwards
##prü
guidance
hun
Economy
Pakistani
##urst
promise
##mans
##backs
##isional
Heidel
##amba
##satz
imagen
##formen
##viv
optional
manages
##entlichen
boards
##irical
USD
##agoge
dios
kont
Armed
Gonzá
teoría
Horse
celebrate
##IF
McN
Simp
preventing
holes
dissolved
Wochen
Gründung
##SCO
Newcastle
glob
Appro
tel
Liberty
Creat
##thor
##aughter
Access
Aaron
bridges
##imos
##force
oeste
tournaments
##tymology
MD
Sind
regel
Meh
##enschaft
Kun
##verfahren
Russland
presum
Stanford
divide
pale
queen
watching
Denn
dust
atoms
upgraded
Fast
##verband
stär
##schriften
controlling
aleman
##äure
##amy
##ulture
##ength
##cen
##olic
stolen
Dion
bedro
imprisoned
Lac
pec
##bishop
investigate
Theodor
##oves
Gef
apr
registration
proclaimed
Iber
aest
disagre
Yale
##ictionary
##itated
finalmente
aggregate
voy
Holocaust
performers
Rosa
periodo
uncon
Murphy
households
Kill
sculpture
saving
numbered
merchant
Kritik
capacidad
derecha
erb
DA
##ierende
Chal
Palm
Geschä
photography
WC
Projekt
ale
governed
##inge
Bright
antigua
sogenannte
baj
##rug
Enc
explor
absorbed
practiced
Legal
Reyn
##assy
coaching
erfolgt
Hugh
##uber
##aire
bombs
risks
unrel
Historic
wake
##ucion
separately
praise
Chapter
Technical
Bronze
suddenly
oro
slot
##atoes
Entwick
Being
Finals
propaganda
Fiction
lighter
##cional
##iegen
##uvieron
decorated
##bird
##lia
effectiveness
venues
estructura
##verwalt
##ostic
##ctional
presencia
propia
González
240
##kov
##odia
Plate
Mant
collaborated
Ahmad
Unterstütz
Wells
##iencias
travels
ethn
##ahu
##uben
dying
instances
##zeugen
##orios
Aristot
pound
Initi
feeding
méd
##ea
Crus
Stelle
AV
Lions
##abling
Rivers
Forschung
Cav
goddess
amino
contamin
unt
práct
demonstrate
cha
colleagues
quím
##örm
##ausch
Break
Jesús
borough
seized
##älle
Fighter
##usk
##oge
Abbey
extends
unlikely
Akt
Khal
ingen
zerstör
lateral
smoke
housed
revenge
##etzungen
##ossen
invers
achievement
Venice
mate
##uci
Elisabeth
transmitted
ahora
clay
Higher
priests
primeras
##stück
athletes
partes
##ennt
##ullah
engagement
Gün
proposals
afect
älter
##pin
Controvers
honors
sou
Gir
Nachfolger
últimos
Bark
Granada
Ortsteil
##wissenschaftler
reduces
##oks
regulated
##hell
beaten
Legion
##ymnasium
enthalten
bapt
##atories
complexity
Territory
##keeper
dism
mere
naming
biography
Beim
insert
semif
##irks
##aji
fuerza
##aceut
accounting
terrain
ultimate
Oriental
principio
disputed
cc
precise
posteriormente
##dad
platinum
Myster
Anglic
filmm
vulnerable
Simpson
##strom
directions
Paulo
Overview
veröffentlich
hitting
butter
##iast
entities
##idencia
Cand
##frica
Heiligen
Maurice
spell
histori
offizi
##ymes
##apur
111
##raul
Shin
Kopf
##vern
##neum
Düssel
Commons
allgeme
recruit
Room
##öder
Nancy
polymer
smart
Maine
Ritter
IA
##PD
enrolled
Hälfte
##lu
Carr
eso
Strat
Sowjet
Tree
##ativen
##HL
ghost
teles
unclear
Corp
Chin
consensus
Nähe
tale
tecn
##gent
retro
Weimar
gases
novela
Theory
Rush
subdiv
Marcel
erhö
Rä
Globe
fier
Pred
Schü
SF
##ösen
dirección
physician
##itze
1859
coaches
diversos
##gele
##DE
##izó
CT
Cert
Rodrí
tendency
Ow
Spanien
grund
formats
considers
singers
mechanics
tropas
Kart
Marines
facts
Nature
##imer
Yu
Stoff
amerikanischen
Tanz
##städ
Yet
##oi
proc
Prä
Fas
fon
##ensen
Joachim
##ité
sophistic
Rodríguez
responses
##rapped
servicios
poc
ancestry
Richmond
loved
differential
elaborate
Frage
Academia
Aw
##eses
##ailing
Bd
##politik
Sul
##vid
prince
ski
Zahlen
Bremen
tema
Depart
##órd
strings
##bound
nuevos
Gemein
transported
Jet
Raid
Xbox
barrier
espect
neighboring
Faith
inducted
outdoor
IR
Demokrat
Bibliografía
##fast
Berkeley
ut
Grenze
impressed
prestigious
chip
reserved
##obacht
##ighth
shirt
Verfüg
nunca
strikes
Sou
nominations
llegar
##umi
##endas
evaluation
mej
Triple
rally
estaban
True
Rosen
Illust
102
Treas
fen
dioxide
Auff
##etter
gleichen
Eight
Falk
invention
Roberto
##annien
skull
Gestorben
Lap
ash
##agi
associations
actualmente
hosting
##prache
carn
nachdem
antagon
priority
derrot
##rov
Collection
Abdul
##hart
interference
neuer
enormous
eaten
sag
gracias
##ogenic
volunteers
##90
adventure
profits
lifestyle
Akademie
conversation
Laut
Rice
##richten
Phillips
##roleum
##esters
bevor
inaugural
##posición
surn
rainfall
statistical
ML
contributing
distant
##aceutical
recurs
metall
conceived
mang
##kunde
##läss
Against
Shadow
Census
##kret
##endum
Corpor
Kass
exceptions
bord
erz
Owen
cuyo
Interstate
iP
Anto
Ál
permite
##kom
Suz
##ranium
labels
Source
##itars
orchestra
bod
Ming
Renault
##atas
Institution
mez
electrons
promo
Sebastian
aspir
Nepal
Airways
##arin
marc
Beth
harsh
Yorkshire
Schriften
Congres
##genes
XII
##lecht
console
artif
arriving
sphere
trata
insisted
pollution
Uhr
Stri
moments
accus
Desert
overcome
kaum
##ovakia
UNE
Journalist
shar
##ímp
activated
underwent
Zen
##aru
advantages
HS
Wieder
mittel
Fútbol
bald
guards
Karls
madre
hind
##GA
##perm
ayud
##uellen
##ophone
veröffentlicht
Amy
excessive
locomotives
scar
##letzt
dimension
mythology
strictly
rede
Bestand
Má
##fiel
freed
##caster
Natal
Webs
gemeinsam
DB
Hero
beneath
mysterious
Bris
bombard
##qual
amph
Steuer
##fassungs
##pine
unve
summary
##onnes
##FS
Incl
##lies
tough
plac
Sox
empresa
Tong
Cycl
##angen
resignation
Hessen
influencia
comics
sob
Lords
thirteen
circles
trucks
deputy
einmal
vacuum
Hampshire
handled
Bundest
penn
Cemetery
UP
exploration
Gerhard
unterstütz
Dow
##etas
adoles
painter
coined
tobacco
canción
Erich
genres
caball
Dw
magnitude
espos
##uble
oben
Stage
Señ
##verage
Estos
Eu
Large
compiled
1854
compression
##omal
panels
ER
audition
Soldaten
##hall
übert
Theorie
abn
managers
##unication
diferencia
Baptist
spite
Abst
sollen
mujer
Depression
facto
sitcom
inicial
##igi
sollten
Pu
balls
accordance
inflamm
##años
Gamb
palabra
chains
Agu
practition
websites
ATP
Sens
Chev
teachings
Sank
Kenya
Gothic
rend
metals
Palmer
nervous
##metros
##jections
Brooks
Coach
Nacht
Croatian
politically
Großbrit
summit
comprising
Spieler
##inda
##idor
Shir
immune
chromos
vas
theology
Bezirk
Marco
importancia
scientist
eliminate
ti
hide
momentum
Nürn
Americas
Frequ
##tel
##rawn
##writing
Paragu
Bast
Baj
##ciente
##ológico
Vista
Spencer
produz
happens
##gelegt
relax
belonged
##fil
subsid
diagnosed
vacc
Cham
ri
##86
Character
airing
measuring
Pérez
Body
Karn
##kreuz
Fourth
surpass
Circle
mature
whatever
##arte
Elli
medida
Travel
imprisonment
noting
Flugh
swing
Viv
amen
Process
Calvin
Cabinet
lakes
luxury
##uo
##ácter
Mini
blocked
condemned
Marg
Emir
##gangen
Normal
apoyo
mindestens
##manuel
sehen
Patriots
Pract
##inned
Cut
Money
##idity
Andal
Lay
Glen
Freund
Westfalen
sociedad
Jin
dagegen
außerdem
thorough
ES
Weiß
##mail
eleph
quarters
detected
fet
Klasse
precurs
Bruno
Commercial
adds
Greeks
pursued
synchron
nuevas
inflation
bassist
gegeben
##itario
favorable
attributes
Trail
watched
Rachel
##essa
couples
FS
peer
##anks
Pfalz
Roland
frequencies
bestimmten
einf
Krishna
##lösung
##pecies
asesin
##osure
flexible
Wett
Nashville
tent
Capitol
assume
Guill
Double
##insel
ecos
resumed
mö
sodium
##ativas
Jür
PO
Theologe
nicknamed
##opl
1851
measurements
puert
lobby
dot
advised
Kö
##ctores
##ispiele
##erne
##ließen
Wand
Kron
worse
Voice
Expedition
Congo
##Os
Sle
Wör
Parque
Bewegung
señal
actualidad
Satell
Compan
insects
Lob
glac
Kann
bankruptcy
loaded
propri
##ocolate
Shen
Sonder
Tet
##stellt
invaded
tables
revived
Lied
reader
reasonable
##linie
##besch
gathering
Oakland
fiscal
wavel
##anne
Bret
disput
Mec
##iors
paral
retir
Carlo
Pale
Besitz
##ampton
providers
Ersten
incom
Citiz
sheep
mete
1858
Dj
##ethe
##puts
Stimmen
übern
plasma
##lichkeiten
ersche
##anger
staat
Clarke
europäischen
odd
##rians
astronom
fossil
Sau
##ovich
Restaur
erneut
##zuf
##lager
aproximadamente
Interior
Butler
Greatest
##ián
1200
Cypr
reactor
Pharm
commerce
##etes
apolog
beträgt
##tingen
Emma
readily
Tall
schemes
honorary
carácter
solve
Sach
##ivation
Agreement
Gaul
Blü
Finance
Less
weltweit
##mot
sectors
##eteil
prisoner
schwed
##bian
##ME
bestehen
Eugen
Ridge
respecto
corporations
Klass
torped
cartridge
##ifiers
finale
Westminster
##natur
unity
aside
##oku
keinen
competitors
##baum
implies
chapters
Declar
Him
##américa
##tum
1856
continuously
squadron
Weekly
##achten
dressed
##nam
1812
tamaño
##dings
##tar
Fine
fires
Witt
enacted
united
Jennifer
##oteca
Bereits
SV
##rass
Chrys
Edgar
Verwaltung
Symphony
Felix
trem
dicho
contex
Presidential
##ingers
##atte
##gebiete
survivors
##uld
Left
rifles
epit
rebels
##genden
judgment
finite
neighb
Babylon
##lings
volcan
##gler
##imental
Yankees
navy
##ubs
electromagn
towers
impression
Londres
sporting
incluyendo
Hurricane
Contemporary
chassis
##jud
##ahmen
##encial
##imination
##arbeiter
spots
personaje
##rische
Geoff
Richter
Angels
Großen
##raron
##icated
##istically
weiterhin
Panzer
Devil
##ystems
características
Filipino
##rition
nationwide
Fernández
##ielten
unexpected
cuya
activists
determining
pilgr
##legen
##cot
BP
keys
erhält
SW
##ucher
Varian
Climate
alm
worksh
Friedens
##alle
V8
facilitate
Plus
schrieb
##lip
learns
illustrated
loud
##porters
Unterschied
UNESCO
einzige
differs
Congreso
##anders
##bot
autumn
spacecraft
Challenge
artículos
mammals
##ativos
nephew
Weber
demolished
Flem
##32
Konfl
Nuclear
sentido
scre
intensive
Programme
collapsed
##óst
ignored
acomp
Cyprus
Flying
##zh
bub
junction
informal
texto
Niederland
disadvant
Saxon
##child
##essel
formas
Streit
##arius
equity
McCart
starb
Hyper
iglesia
wishes
Ahmed
Quer
solche
Classical
entspricht
suf
protagonist
XIII
1855
##päische
##jekte
dinner
##ramm
##oble
wenige
Image
lediglich
Columbus
##unning
##asia
Foster
Qing
cree
sitio
limitations
Stephan
ihres
Argentine
Toledo
External
consumed
Falle
entertain
Mittelalter
battalion
Jamaica
Historiker
absolut
##rible
enterprise
PL
emotion
##asen
chines
autobiography
EA
##ändig
Eck
Job
schwar
Nac
anywhere
##shore
memories
Cell
crecimiento
##rina
Inhalt
wireless
Satz
bats
Guild
auction
Miles
##ühm
##itivity
Mam
##ogl
Lucy
Figur
Prison
diversas
PM
tabl
Lauf
Konstant
conspiracy
NR
humano
wichtige
navigation
##gemeinde
holy
Lomb
inclusion
salary
examined
eldest
machte
##stoffe
absent
##apy
openly
formación
refuses
Solo
marginal
Más
Florence
graphic
guided
núcle
testimony
Mole
erfolgreich
Alternative
##jun
##borg
innovative
Einstein
Inseln
Bene
Lif
Blut
podría
attractive
Eduardo
geometry
Freib
Glass
reviewed
##schw
würde
schnell
##ivic
##imagen
orthodox
Given
##emon
##anned
preparing
##igs
viewing
nan
##lain
Sep
Twitter
verdad
arguing
##TE
Gy
##ifa
Montana
Pars
spo
thrust
##gelöst
libraries
Fan
##áticos
##sthe
Kup
##chine
##áticas
acute
leagues
##hev
Nationalsozial
Caf
##riert
##iao
Stadtteil
burial
##annon
Northwest
substantially
disappoin
sacrifice
Amazon
20px
garner
Erzbischof
##ogie
##añas
tune
sovereignty
believing
abortion
revolt
Ris
##cat
##iary
speculation
dozen
closure
financi
líder
##atial
celebrity
threatening
ceremonies
depress
interés
Alberta
legitimate
nutz
Blu
##üg
enzyme
##gegeben
hered
Produktion
receptors
Lennon
rendered
Fu
electronics
Nicar
stretch
recipient
portrait
##izard
sixteen
Martí
molecule
twentieth
accidentally
##istle
plaza
grandson
casting
Mold
activist
costa
miniaturade
Münster
archaeological
Renn
miniaturadeimagen
pipe
Cov
##hor
butt
##spro
##phis
Iv
Ibn
Orte
consigu
finanz
Länge
##quin
Überg
expense
##iminary
islas
Orient
Dakota
Fur
Shiva
entreprene
Mend
fuerte
nineteenth
##uchy
knowing
##agonal
##insky
Reformation
pasó
nas
entfern
Indeed
Deutschlands
Discovery
Morm
anz
eléct
Railroad
gains
clergy
organs
acceptable
Mau
strain
##anthrop
Rut
ejecut
opens
subordin
Present
Word
##ißen
Pflanzen
certification
curriculum
Send
Half
Frem
##cence
##oan
replied
philosopher
Consejo
WA
Dip
##raba
tickets
acclaim
##45
Proper
allied
Register
murders
temporal
fortress
##flächen
muestra
avoided
Weise
geographical
ul
TS
##estro
muscles
##ennial
Vertreter
mensch
loose
Underg
##auses
hull
##LE
resolved
Ghana
darg
melt
Länder
compositions
Range
##mers
##órm
Bug
Diss
Analy
aftermath
Pasc
##rooms
##ampire
##very
streak
Bulgarian
cream
dramatically
Symbol
Louise
introducing
gelegen
Preußen
TA
##lehrer
medals
crystal
##hra
##istence
automobile
IF
##famil
##opt
connects
Tyler
Potter
Trinity
Großbritannien
amor
agrees
##schließend
Madonna
gamb
##iales
##ücht
overth
quit
weitgehend
Saw
trace
##wid
socialist
steep
execut
overwhelm
Neum
##thon
journalists
pink
##erland
Criminal
Dos
pace
staged
mitad
Luck
##entin
Evolution
bout
##aris
Chor
Heat
performs
##rone
buying
distances
Princ
##cup
Commod
privately
referencia
custody
undertaken
##99
pud
anderer
Orlando
fourteen
Andrea
declaration
Sag
municipalities
##lern
##äte
##inis
##beding
##strecke
contents
Philosophie
##opal
emperador
encarg
suced
raids
Bears
presidency
Ultimate
zust
Erfolg
tongue
##hill
vollständig
1846
austral
##uru
depr
biology
disappear
##gewiesen
Hond
##zon
coupled
verfü
Einige
Guitar
##oric
beteil
violation
Economics
Bath
blade
Spect
Laboratory
Darm
##ancias
##ieur
Indies
hijos
batteries
Architecture
equilibrium
##bles
transc
##rikan
provider
hotels
dign
bureau
Crisis
XIV
Official
Todes
jün
advances
Hz
Edmund
Powell
##anti
Antio
##artz
tipos
Neue
Bevölkerungs
Ek
rectang
Hence
##gom
Entste
Zh
objectives
resistant
##bane
Unabhäng
Marian
calc
##teilt
Blake
Harper
compositor
pupp
graduation
stamp
Electronic
Celebr
Veh
Parks
##olithic
cheap
parad
destroying
Nak
##ficas
Angriff
bowl
##ciples
##oka
##iederung
frames
rehabilit
overlo
wirk
struggled
throwing
##itate
Morrison
uniforms
##ding
Leib
Beispiele
##ennung
inclu
Sheff
jung
violin
##stär
Eigenschaften
critically
comunidad
wavelength
linguistic
realizar
Düsseldorf
##ulates
nationally
Fo
Grenz
##ulator
conducting
communicate
chemicals
specification
bypass
bitter
Mugh
aufgenommen
impair
##änden
segu
isot
Leader
runway
Año
applying
Heidelberg
Basic
Augustus
dorm
processor
Konrad
Tief
factories
kultur
crypt
##oux
manten
##arat
##riger
##irable
perc
##isting
Rit
combin
alte
derives
DOS
feedback
guidelines
civilization
##dar
mittler
Habsburg
ingredients
computing
edit
##zwe
economía
reflects
Problem
grows
erreichte
##zens
Effect
##nai
expelled
bias
Chad
spielte
##blem
##enhagen
qualification
achieving
Vier
##alde
danach
Adventures
##indust
Additional
##uzzle
vag
Sap
##ktop
Hammer
##fly
estuvo
travelling
os
hex
farms
parody
inhabited
näch
##iman
traits
fas
##py
Maya
juven
deshalb
marking
gleichzeitig
McDonald
Wals
##ocke
Aircraft
Comic
Lug
basin
witnesses
Dum
DR
Peng
##iliary
##efin
##afia
inject
##läufer
gates
Lager
wash
mood
Ub
spont
Julio
##ífico
recibió
##path
valued
peripher
fault
Córd
flown
bombers
romance
affiliate
Advis
adequate
##uver
spawn
Circuit
autonomous
commenced
profesional
populated
purely
nitrogen
##ográfica
Alejandro
organización
Unterstützung
##illance
Saturn
technological
specialist
blast
cultur
5000
Kul
disputes
Krank
Pall
##through
##hlen
españoles
Ricardo
##teid
##just
etapa
##hnen
Opfer
##uptsächlich
Dazu
##amination
##ellos
ministry
##ätzen
navig
Forschungs
Größe
silent
traff
Bin
##bery
Scandin
Mills
##ourg
dishes
voices
Standards
Clem
Mús
##nach
##ificar
Bernhard
neighbouring
entreg
incent
latein
##oshi
Genesis
Diana
##levard
Gerald
Rac
interval
derivative
##gruppen
intim
1852
Status
liv
XVIII
Trek
Unfortunately
Rak
dealt
##UC
Anschluss
modest
episod
Scout
interviewed
Teen
backup
Shr
Ausgabe
hostile
prosecution
industri
##piece
matur
massacre
welches
atom
cro
##iem
Typically
ancestors
Fi
addresses
definitions
unemployment
##inate
lacked
ease
##cock
Guadal
##stände
Cardinals
Memphis
Opposition
Claus
Armenia
besitzt
adul
hect
phenomena
##aults
Kenneth
Domingo
Geburt
comedian
##rele
incons
Primary
##anden
1845
weakness
Malta
governmental
wollte
##ordination
seemingly
derechos
##ught
Moses
refere
regulatory
Kad
Französ
corp
##ridor
dense
Indianapolis
investigations
remarkable
skilled
Öffent
monarchy
skel
Previous
##outheastern
Persön
Alexandria
##uga
Holstein
Feh
Pain
##tok
##öffentlich
Website
##rechts
traged
Erb
##itance
abd
badly
Vid
Rather
injection
unbek
grieg
vapor
Theor
jeweiligen
##olge
##glied
moist
##endet
DE
Glaub
##aware
lar
##ólogo
smoking
sponsor
##izers
cook
100px
binary
Blair
##maß
treatments
1814
empf
Cec
griego
Große
draws
floating
##erver
concentrations
fines
rolling
opinions
proportional
modifications
Colin
##35
Churchill
peninsula
qualities
robot
canciones
1847
pied
##addy
Algunos
Consequently
expon
##ancement
Kids
##enthal
pueblos
##pit
Vorsitz
##figur
innovation
##cipe
disl
##ancers
utilized
angry
tactical
nucleus
##adox
promotional
Male
##forschung
##krie
##urai
##itete
extranj
ambient
conve
lung
Chase
##aho
analys
apost
intelligent
Chancellor
productos
##adows
Viele
##chner
großer
##fab
heated
Beiträge
Hag
boom
##ographics
Fras
Tes
römischen
gesamte
##stable
##atta
Aufgrund
Allerdings
Neub
##erbai
##ritos
spelling
harvest
Writing
tren
gesamten
Pie
##aiden
calcium
Lars
Partners
infected
topped
##ods
##yson
Komb
##eting
##uno
##abul
composers
objetivo
redirect
prominence
##arbeiten
##iu
folgt
##regation
achievements
##rill
Generally
admission
vista
Gaz
Sheffield
única
templ
Combat
Cohen
##struktur
investigated
beginnt
##amous
withdrawn
enhance
logical
revenues
Bloom
##ourt
##idency
complaints
incomp
Convers
cambi
Waffen
Zion
##endent
Ship
Recently
memoir
Verfügung
erwähnt
##bral
##eneration
defining
Rhe
Sauer
explore
##beck
Allies
terrorism
Tampa
rh
erkenn
Antar
gray
ehemalige
especie
Brenn
unoff
##gangs
##musik
Crystal
Cox
trio
killer
Silber
##wander
##erweise
Afrika
nights
fights
öffentlichen
loos
Jürgen
##rischen
phases
Isabel
suburbs
Nu
Knights
Burma
##iblings
Ey
condiciones
Europeans
Charter
puts
dedu
ocasiones
freely
proximity
##óc
Teatro
dür
carved
##OE
laugh
personajes
button
Kard
lok
##arus
##wright
boxes
dé
Chemical
carefully
##run
##rocar
Visual
Eye
acet
chil
Rocky
ausgest
Why
cease
Nebras
Germanic
heroes
##autor
advocate
Lotus
Dob
Adela
dim
##izable
blank
Vladimir
1820
TR
gewann
##onte
##fu
Liu
tended
similarities
advocated
##ischem
späteren
Azerbai
McCartney
nationalist
##andelt
1600
generic
Activ
##ellan
poets
Punkt
Ing
##artered
sophisticated
Sard
Marl
##quía
realidad
grants
Sicht
umb
diamond
premio
##ühle
discussions
Lyon
totally
abbrevi
##arlo
cigar
plantas
responsibilities
bomber
stationed
bestimmte
aire
developer
##group
##ambo
metric
epidem
Lorenzo
wage
Lenin
Import
##ánchez
elementary
Bryan
##electric
Lands
##ódigo
manuscript
motorcycle
Nico
##ection
guitars
Prussia
ausschließlich
lista
Spl
##pot
##elly
cheese
Prinzip
1837
Thunder
##uell
##neys
specially
1844
Gospel
##erton
Bennett
##owitz
nutri
geprägt
benannt
##orian
cleared
Ves
investments
Ferg
##ethyl
##waffe
##iks
##ónimo
Gujar
acción
USSR
##etzte
hauptsächlich
mandatory
kids
thoughts
contacts
acab
##ihood
Outs
##handlung
Guang
##works
amendment
stead
Maschinen
née
##iba
counts
combine
shallow
Swan
Nest
##stanz
##ensburg
edges
symbolic
Bruder
matem
Episode
honored
Farb
verbreitet
Nebraska
merchants
Sevilla
Princeton
insu
##natural
transaction
acompañ
##original
Jesse
##iertel
Glenn
romano
##eburg
Panama
##unct
##kind
##atri
Legislative
entsch
##abwe
reservoir
demonstration
Vij
Torre
##iéndose
Kyle
cuanto
Stockholm
substances
Og
katholischen
modeling
Graph
Grow
##anlagen
scales
Tank
Zudem
Stark
actividades
synthetic
Rif
bibli
generating
costume
supposedly
warned
phones
Aeropuerto
##ränk
Wednes
shapes
##ificado
presenta
brick
exports
Mund
commercials
##ycl
traced
Scots
benöt
timing
conductor
hingegen
stom
contrary
Animal
Geschäfts
Rost
genau
Arctic
Traditional
##ittees
tubes
siblings
Schlag
Jub
dado
labeled
inver
edificio
Fläche
Zeitraum
Otros
leicht
vein
commod
businessman
harmon
##ád
mercado
Banks
Industries
##atti
seien
desper
protecting
britischen
Saison
Heath
Tow
1853
aug
Screen
envi
##uchten
##kü
affects
proceeds
Vicente
efecto
Denkmal
allein
Historically
##oß
##ono
supporter
##ühren
fel
utiliza
1835
equality
##ummer
notwend
Bundesliga
rabb
Sánchez
Elektron
explosive
Gross
##bund
Kosovo
Spart
##eri
umfasst
Notes
joven
Adrian
Moss
##days
monastery
meteor
Hut
SU
planets
lu
determination
torture
Schleswig
ambassador
##communications
Hod
trapped
Tales
##üge
Republicans
prakt
gameplay
Politics
senc
Georges
Aragón
unre
religi
##isdom
CV
fertil
Córdoba
##teneg
tracking
aerial
ambigu
Galile
Atlant
Schüler
230
Literature
Herman
##opoly
Macedonia
##aud
Männer
tin
britische
##größ
belongs
Aub
Population
surge
Fifth
update
Torres
proceedings
Nadu
##irus
explored
##imet
animales
Richards
Yah
seeks
ayuda
betracht
Gul
##actic
Zeitung
##bertrag
embedded
Formen
1821
preceding
extinct
stuff
calle
herb
warn
Halle
velocidad
knocked
noticed
villain
Mits
##iero
Constantinople
Hang
trotz
vowel
##leyball
Mao
##staaten
scattered
##elius
respected
Lah
creatures
equipos
Situation
Hood
Jup
Zero
##ocese
##cepts
##lesh
cabin
dose
Audio
Fuer
grades
negle
##uyó
melod
Bilder
sensor
Sitze
Ottawa
zog
##akte
spez
Linda
tercer
uncons
Paraguay
Zap
112
Initiative
favored
deton
Benedict
Koh
dt
disgu
##óv
##gliche
reconstruction
##roads
##pherd
Agriculture
##ograp
everyday
Mk
Vick
reunited
##wes
##bone
Medizin
Pere
estren
##ziehungs
##colm
Commerce
legitim
Campeonato
constitute
darin
hydraul
keeps
Revolutionary
lessons
contested
nominal
Viz
##hlung
##atto
##mic
presenting
Beyond
##brecht
alpha
##esses
shells
Easter
Nomin
Arte
institutional
##ctuary
iT
##irat
ferment
##órmula
##lei
Buk
wheat
bigger
Coch
relaciones
Milton
MM
##stad
Twin
##overed
isolation
##regierung
##vez
##raints
File
Belle
compuls
übernahm
##warf
##anche
##ifik
##rene
Nass
##rones
Umwelt
##ispo
peaceful
ts
successive
collecting
Smart
fundament
victoria
unveiled
Cool
loyalty
Trent
arter
Tunis
possessed
##plane
Almost
1842
irrig
encontrar
incluye
palabras
Morocco
surprising
posee
requests
combining
Interpret
Synd
Malcolm
##adier
feared
reversed
##würd
RF
peas
##techn
traduc
Kashmir
Thurs
Dian
##HF
##heed
##ciendo
##oping
emit
##grade
Muss
Viol
Geneva
##post
##artet
Atlas
##phil
Aktiv
evolutionary
Wach
Solomon
emotions
kitchen
##conne
ups
outlets
Manufact
Edge
departed
pronoun
lugares
Kranken
Drug
zahlreichen
Zo
shoes
preference
traslad
Loth
##plet
Charakter
folgte
McLaren
Bezug
Harbor
sowjet
prefix
incorporate
Strong
##zwischen
routine
kanad
certificate
sentences
Table
Vom
chips
develops
##orb
Volume
altura
designers
##CAR
bedeutet
reinforced
convey
fails
nimmt
generalmente
temas
correctly
Gebiete
##orgung
bás
##mens
##ilogy
Superior
ersetzt
cluster
radius
upr
Vision
locked
##rechte
##ulación
Style
arise
Release
##radas
Turks
Vatican
##uos
##arded
Elemente
Bauern
inland
Trag
choices
##verwaltung
militia
corri
footballer
##isphere
historischen
mortality
stellen
proclam
Bever
discharge
sah
conting
Neut
Quarter
Applications
##zeiten
Bols
Tibetan
demo
Origins
miembro
Kumar
Anglican
conviction
##isem
Herald
pequeño
categoría
diseñ
Ud
smallest
employer
Chennai
favourite
llevó
alumni
compañía
##reiber
portrayal
pitcher
elderly
Fear
##opot
Coron
wichtigsten
bestimmt
companion
uranium
Impact
Ungarn
Privat
wechsel
Manch
voluntary
steady
stammt
Serg
aster
##äst
erreichen
streams
boxing
allí
incarn
witnessed
##ych
##frei
mayores
Donn
performer
Burton
fruits
bills
quienes
disbanded
Subsequently
Einheit
##anch
##aler
asset
eingeführt
Consider
clase
Bradley
##33
MT
##ührung
cameo
dient
##hnung
motif
whereby
Polize
faction
##istisch
Auftrag
Ellis
Wechsel
ye
##adh
##bewegung
sends
##IB
##krank
erheb
armour
##arl
Reise
##kas
Pros
##ylum
Slow
aprob
Winn
##opsis
boyfriend
##abetes
außerhalb
buck
heavier
Siber
Benutzer
##ightened
reass
##kept
clause
1810
Hoy
infections
##hrt
airs
##haltung
TN
ions
##imedia
Delaware
Nuevo
650
lymph
Plata
upgrade
##inders
Engel
lane
shelter
##rington
aven
impres
##gression
interfer
Sö
Zimb
##phones
Yo
dropping
Drei
##ändert
Chip
ocur
Jets
loading
doubles
Iss
##zahlen
Eint
passive
##scheinlich
Äg
##onium
torque
Jagd
sediment
suited
suburban
Archbishop
bibl
Carmen
##ágenes
WWF
Hex
stir
Atom
ideology
mystery
##bin
##nder
Martha
artic
beschrieben
##lau
env
Davies
económica
##riction
Pret
spirits
##mord
##adém
Blick
Dän
Wii
cater
SEC
1836
enables
Helmut
Sib
Arms
##rats
##brücke
##ynom
Rule
chore
Thames
mu
##wait
Edad
poeta
garrison
partition
monks
Metropol
##markt
##away
Anwendung
Montgom
##öss
##pace
deliberately
##eteilt
node
Treatment
MR
interrog
commands
##erape
calidad
##iated
##stern
Spann
Vald
Assy
Shi
gallery
geographic
Inside
##ovan
educación
ath
##äum
Complex
knife
1832
dancer
Encyclop
insign
proceeded
Tin
dah
Nazis
##ombre
Funk
ví
Physical
tercera
static
impuls
1806
elimination
primitive
Joaqu
demanding
Picture
Montgomery
confident
Monteneg
hierarchy
células
Veter
##ebe
Niss
##48
##irge
expectations
MO
##enkt
antiqu
##ällt
Dud
verme
##mud
Cock
##tiles
Jackie
Protocol
modernen
Kenny
vertreten
tierras
iTunes
tou
Archae
Inspe
Patric
Kamp
heading
steering
investigación
gelten
Solid
accent
##ológica
##reto
Lé
##kee
walked
Dy
projected
Bhut
Lun
Outstanding
##folio
publicity
##arez
meal
deceased
masses
Chapel
tumor
AFC
##ermann
kilometers
Informationen
##álisis
PN
Rie
defender
zunehmend
lago
protoc
realizó
##ámara
##ashes
darüber
flooding
Ausdruck
condens
Happy
##änn
##si
Strecke
Albania
##cements
tract
remn
MIT
Negro
cellular
ceremonial
Match
commanders
Weather
siete
unver
Conrad
Gesund
nearest
##isers
deployment
relegated
enthusias
##ów
editing
Boulevard
hermano
##körper
##stage
Therm
##aram
supers
freight
##deutschen
##ítulos
temperatura
Troy
referendum
Conservation
bezeichn
electrón
1838
activation
ramp
##merk
##ierta
Dew
mistaken
Baltic
Dent
Mine
Own
##nut
1833
autonomy
Powers
Did
mobil
blanco
noche
consort
Oliv
##brities
IL
identifying
##úl
Cardinal
Stro
##ucional
Duncan
##ushes
##organisation
jugador
Assistant
Brom
Airbus
lb
ár
##ividad
enabling
##afel
eröffnet
mittels
accomplish
Andrés
resurre
suscept
1843
hazard
erlaub
privat
realizes
Astur
Investig
Kw
chicken
Unic
##ichtete
Adelaide
Sist
##pera
überwiegend
Store
Heute
##uchi
inev
vegetables
##fürst
speaks
integ
diseño
Cros
Host
Voy
Kathol
strange
wiederum
nobility
##tesis
Arabs
makers
reads
broader
lenguas
##íncipe
realm
frei
Raja
disabled
Nah
pitched
##gere
Jake
asserted
Heraus
Jurist
objeto
Yemen
ore
Scientific
pistol
##dan
##uine
##antom
absorb
Pfer
##EF
intact
Woods
Ordens
##join
##cib
Lau
##how
Flora
Andre
gemäß
ET
trainer
Estas
Dach
unified
##harm
##anlage
tram
resemble
masc
roster
##ibe
##fle
Isle
destinations
Wirkung
Clear
headquartered
##icz
esqu
mixing
mexicano
##legung
holder
Jamie
PT
intest
floors
Publik
##IX
Curtis
villa
rookie
##renz
##altet
##oder
##gehör
##isiones
sustainable
grammar
##ao
reconna
spielt
rpm
Ellen
chapel
auft
UV
##alore
RP
protective
Karen
englischer
plata
Truth
Made
considerado
grandmother
switching
Ace
Champ
cycles
email
Fisch
Study
harass
Factory
Ereignisse
chorus
##culos
##ocrá
Zwei
mall
##cill
Sherman
Karte
literatura
lover
wäre
Reb
forec
##iód
Presidente
Astronom
Zam
##amic
##eps
##rios
brachte
punt
##mez
Recording
constituency
##urred
##alions
##inding
##aldo
##roduction
##abulary
Gates
Fighting
bishops
##icción
regiones
albeit
210
##ande
preservation
##länder
##usc
Gó
rays
##olor
Jas
indoor
##auft
linking
excluded
Eink
##cios
Isab
Reading
damages
mistake
Dynast
Lub
demost
##reated
Umgebung
größere
exhibited
furniture
cathedral
wished
##eign
##olan
##geladen
fond
horas
careers
Prussian
Sugar
wages
cob
##nas
firearms
Jagu
existencia
reconnaissance
Cable
##onge
anerk
Reiches
##flu
vect
indígen
Bundesrepublik
##rana
independencia
spezi
Verhältnis
cumpl
##gült
fraction
contracted
Porter
##stätte
industria
Julie
##him
Parlament
##eback
Twenty
controller
##angered
considera
##ipel
Dram
##zeugt
##itat
DF
notation
Brisbane
pp
##atedral
shadow
Artist
detr
armas
helicopters
RCA
##flow
Liberation
1839
ganó
Verfassung
##agt
René
challenging
embry
Álv
mold
##ebo
Demon
Hipp
Hafen
Ling
Kang
##irs
persön
Tourism
##esión
##iday
precision
Stück
##uyen
geboren
Belf
##oko
EN
##ieden
warrant
Academic
Frag
transactions
silk
Grundlage
fragments
Constitución
esposa
##schau
anxiety
folkl
sacrific
celeb
Hispanic
##arb
medios
siglos
Betty
irre
Ches
tonnes
functioning
##igel
prevalent
html
unde
##linge
lacking
nm
Working
atac
##aturas
lengu
reper
Kod
##uson
Soviets
GC
hob
trap
dän
publicó
wrestler
##aille
systematic
ordin
Cowboys
Gaza
liturg
falle
nördlich
shed
##stanbul
Erw
Schweden
Utt
Bandera
SG
Notre
Declaration
Thorn
humanos
##amanca
bietet
Nicaragua
puerto
sustit
##anken
rotating
recommendations
flagship
Tac
servers
logró
Nahr
gemacht
Martínez
container
Eugene
ware
##arina
##asters
intake
Palacio
##legt
unmittel
notorious
insufficient
Rusia
##rir
explaining
heaven
Doug
pneum
evitar
domains
##holder
gere
catalog
Wool
campaña
thirds
oriental
descended
Luf
##ürk
##ashtra
posthum
surrendered
longtime
Donau
Hellen
jurisdictions
Cinema
Autobahn
advers
USS
Derby
maternal
decom
affecting
Multip
Richardson
francesa
duplic
Survey
oxide
Soccer
cats
Distribution
rapper
Besatz
Romeo
emphasized
maritime
Dim
pix
Boris
África
Beding
assumption
circuits
liked
Manfred
hija
Trinidad
Kot
##anter
Stahl
locales
##ilien
Religious
Reynolds
urged
Annual
Bott
Derek
##ánicos
##sprache
joy
##erness
1813
Mainz
##rypt
Niel
##66
founders
crowned
volunteer
Kane
multiplic
Chop
Month
Mode
ense
Transit
##ítico
Publishing
Alleg
significa
##pend
reflex
screening
##yas
##market
climbing
departamento
división
strongest
Dubai
Umb
modification
convince
compromise
##cks
galt
##ournals
##ädagoge
dib
##klenburg
Female
Ports
##programm
conoce
Laws
emergence
contempl
sufficiently
expend
sexually
Herkunft
##klus
##ayana
Barack
trips
##yt
parece
Tyr
infinite
Juegos
asym
1831
baja
##hears
##nitz
betray
crí
Neo
genannten
surgical
Cul
timber
##abs
Öl
##ulg
##spring
##estock
Jeremy
vegetation
searching
gebaut
repeat
endorsed
tiny
seating
crear
drawings
Ebene
consegu
zeigen
Malaysian
##ellation
280
Allan
Schneider
##ław
##ogram
Burns
vine
##sula
##bung
oscill
Javier
choosing
##ählung
Doppel
Nab
##ilio
Springs
ähnlich
##hesis
ruins
Brien
##ccion
Sof
promising
##card
Produc
entries
themed
hell
Bildh
gifts
representa
cand
expenses
CO2
sketch
lenses
##Ar
##ataka
Gw
ng
pudo
nombrado
Lynch
quar
Gardens
vinyl
Floyd
Czechosl
Luna
fuente
unten
crashed
Aufbau
Lik
Riv
##hil
Vorg
creature
Chiefs
##betrieb
##iamente
Hort
pav
lease
shortened
##eltas
##ätter
institute
##ielo
Zeitpunkt
Branch
##print
##mehr
decidió
##iban
##HO
Philippe
##uropa
widow
##elage
inserted
cuest
Bibl
Ramón
Eul
Aster
preliminary
##list
Cés
##struct
##äher
##liefer
resolve
castell
AK
thres
orbital
diving
fever
ally
pequeña
lunar
##uelas
batting
Fland
lac
Schumacher
shipped
depicting
defens
##uestas
hurt
blamed
damaligen
zuf
##kultur
##orsche
secretly
presumably
fibers
imaging
urb
canceled
anun
functionality
cambios
##inee
##hoch
##stieg
Spiegel
crosses
dominance
##erapeut
tear
##gebäude
Cornwall
##heid
##atische
pursuit
Ergebnis
bip
artifacts
marriages
escribió
Hels
Aufgaben
Escuela
motivated
Zoo
aided
verbal
##hrte
Quant
##iae
airfield
1841
planted
Quin
Carne
##ango
südlich
Heavyweight
volcano
Nieders
Konstantin
magical
Zeitschrift
Trat
##íz
Philosophy
zusätzlich
volcanic
##rices
Cloud
##amerika
##funktion
neurons
estación
branded
imped
governance
##dles
grat
militares
Ethiopia
veröffentlichte
Search
##ulado
exempt
matching
tats
##onés
stance
mejores
chess
##igent
acer
revista
Nit
políticos
beein
lawyers
Übersetzung
qué
##lete
##hnt
Griechen
counterparts
Craw
honey
averaged
##ovina
Trotz
mim
ét
crews
Mickey
##pic
##leiter
technically
lifted
hiding
mano
Faculty
Kosten
Diagn
Gael
Monroe
tran
Städten
##mith
outcomes
orchest
Ruf
Hack
guaranteed
##folk
ecl
##opy
filos
tooth
Calder
stepped
coordinate
elegido
##legio
conventions
Pius
detective
uncomm
photographer
##sover
##ovsky
##unnels
deer
ministro
Göttingen
Rathaus
##avía
atrib
Joel
##heads
Zimmer
crack
##mate
parque
sociales
atmospheric
##agle
Jupiter
Verlauf
##hibition
1825
Bac
CI
dinos
tribut
enlisted
fulfill
1834
Underground
##world
Emily
##lav
##pal
recall
trends
entrada
digest
##mpos
deity
intra
Nürnberg
##phe
Reyes
##obic
Very
Extra
Stunden
##azón
##prised
Salzburg
##jes
##uca
alguna
Borough
##iese
indefin
onset
demás
Rip
##förm
asist
regiments
##gehen
Marina
Types
##ledon
Wednesday
rushing
sid
Salamanca
optimal
aluminum
##otas
ningún
EL
##ietz
Herrscher
summar
algorithms
Sexual
Signal
##ieran
traders
distintos
halt
Alonso
dicha
Sales
pocket
Neuen
mast
##chaft
remake
reconcil
whenever
dried
seiz
libros
Hyder
##iestas
1824
Caucas
FDA
##ocide
compart
1803
Zuk
Warsaw
verlie
realize
complications
adverse
offen
voz
Dise
Site
sued
coordinates
insect
Albrecht
Wick
##idores
##ilde
Dawn
ermögl
kern
Mio
gaming
CG
obtuvo
##riebe
Chevro
Hous
OR
mando
sear
Hawk
Chir
directing
motors
graduates
Folk
sax
socio
diez
Marcos
listening
fortune
Theodore
Slavic
lleva
histórico
Tunnel
wik
Studenten
Herzeg
Holly
conceptual
allocated
erklärt
ink
Mohammed
deficit
Bj
típ
attitudes
##alous
Cover
##cidos
##lation
##kern
incap
Suff
##atsu
celebrities
Change
accurately
pedest
thinks
##fera
Chrysler
Cic
Cairo
##agas
verz
tief
cabeza
Cod
##ercis
menudo
dargestellt
Eigen
##öd
genera
physi
funciones
oppress
##holz
Rally
##kien
##orff
sealed
Russians
literacy
NE
##ombe
Regisseur
Wär
bike
manos
##RO
Luftwaffe
Völker
##rador
fluor
Concert
Música
AFL
ED
Ihre
monetary
##rennfahrer
Telugu
inquiry
##ießen
regards
vorher
Fürsten
550
Shield
TH
##raf
Bagh
hunt
##ripts
Burke
celebrations
Frü
herr
problema
leben
##ringen
Maxwell
weiß
Sloven
attractions
##kirchen
Herbst
Lope
filling
borrowed
Dong
Poet
Choice
stran
Ambassador
Different
invested
sensitivity
Warriors
integrity
Dag
Gam
Grupo
counted
##chemical
Spre
Randy
vermutlich
hielt
counterpart
Scholars
Sowjetunion
bicycle
Mys
ace
##chnet
Bruns
Estadio
tiempos
RO
##75
lieutenant
##icherung
obtaining
Pant
Bengali
adel
defendant
Förder
niños
locomotive
accompanying
Hull
##elas
##blick
threshold
Neust
memorable
germ
##gens
Spitz
Lí
relay
Drew
Alto
CNN
aluminium
Pries
##anan
##ocrac
verses
gasoline
Analysis
ethics
##lassen
implied
##alli
##enne
assim
teatro
patch
fanden
César
Sunn
reflecting
MVP
fried
Notting
Bohem
quedó
loosely
##igm
Alk
##idamente
Unabhängigkeit
Cir
MI
algún
Learning
Tiere
##adequ
surveillance
surname
Aten
gez
Mega
idioma
Raiders
Freiburg
tuber
Newman
Mete
##rechnung
Adri
Success
reliability
líneas
penalties
cleaning
obstante
reag
##ínsula
##árez
##ductor
##untamiento
##fasste
##elong
Monster
Barth
Zhang
##ahan
slower
robust
begründ
breakdown
Tennis
presenter
##aeus
Athletics
Teilen
Rig
resembles
Autoren
abnormal
ward
##rauch
Michelle
320
Barr
unrest
Object
veterans
##elos
subc
Caroline
Ruhr
ignor
##books
Architekt
##ei
Etymology
foundations
nevertheless
expressions
VC
Handel
##ulent
palm
wildlife
recycl
combinations
Criticism
Autonom
figura
hochgeladen
wonder
revealing
encounters
Zimbabwe
Rex
substr
símbol
##opath
Yan
bold
##racted
##atoria
trophy
##yon
teamed
disciplines
arab
##arkt
##ichtlich
##linien
downlo
##lance
##ultural
busy
Cardiff
machinery
screenplay
pertene
##rade
revision
manuscripts
Braunsch
arque
1818
##stud
Ri
##ocene
slee
suggestion
nobles
Faust
arom
screw
##geschwindigkeit
größeren
Leslie
tensions
Jh
trunk
selben
Lithuania
Marin
Chevrolet
Beta
##andra
forbidden
Sara
relied
aquí
rigid
rituals
Sonic
lev
Yuan
Certain
Agent
uprising
admit
uncommon
##ercises
traces
##konom
beschäft
unconscious
Lakes
Rules
saint
##name
##chin
Brock
Title
zerstört
Wid
##ibal
Document
Make
Muk
atra
verfüg
Willie
##atisch
Virgen
angles
Istanbul
##orten
presente
deber
genet
selective
hometown
hurricane
Cay
Tonight
tradición
confined
Libya
Española
Fed
Brut
precisely
aten
##rama
Veröffentlich
Tip
mock
reino
GE
##finder
sulfur
Dil
##ups
Hank
##wurf
Verteid
##ámica
comunicación
Jessica
inscription
gefunden
##wör
Grass
sigue
tät
pressed
Outside
Task
##jen
##astrop
translations
Crom
##atcher
##iances
Allah
executives
Belt
##izan
surprised
lith
##ír
API
depicts
##found
Sacr
##onien
prophe
jointly
abgele
Parteien
Canter
Hintergrund
Formation
EE
drift
##idan
realistic
##riffen
pressures
echo
##ienda
hic
1789
##44
anticipated
healing
smug
DO
##áz
Quint
reflection
nodes
verano
##ziehen
##ication
Thür
ballet
assignment
combustion
##ikk
##ismar
Eva
thesis
##ieger
Ära
fears
Tages
##istenz
Nicolas
Mozart
sap
Basin
ergibt
##thood
Claire
lectures
screens
Tap
Acts
Cany
será
Kok
Sharon
Secondary
nacionales
behaviors
persuaded
dances
alk
Sophie
gust
Elvis
Irland
Hale
ciencia
boarding
##leton
deeper
collectively
Andrews
weakened
HR
##200
Thema
profound
##bezirk
numerosos
##ienne
Thursday
Ary
Nú
mussten
differently
Lutheran
##uably
Veränder
organize
##ängt
cran
rankings
gravit
Letter
Eduard
##wau
placement
employs
limiting
spricht
Hed
##irche
##endra
Bezirks
Wave
##bad
acres
minerals
##ässer
Ägyp
pá
##kau
processed
extraordinary
barg
naturaleza
##neos
coloc
journalism
Berufs
##industrie
slide
Mön
financing
rounded
Botan
abbreviated
USB
empresas
entsteht
bachelor
reop
Bruss
privacy
ende
negro
##cheidet
Ejército
Wings
Silva
Guru
neun
pointing
películas
gente
##igungen
Belie
gerade
Zer
##atile
áreas
Impro
triangle
Flughafen
decisive
1816
spotted
wreck
initiatives
##ibus
hanging
Wesley
geführt
hoping
römisch
Constantine
##CI
brigade
##erin
Structure
Ausbildung
Commodore
walks
Have
Stiftung
Wimb
specifications
##psons
Hopkins
Fresh
Gymnasium
Butter
continuity
Nissan
##amentos
##ikanischen
tissues
komp
module
Luk
Vide
ga
##ariat
nationalism
portug
##athetic
staying
verloren
Herstellung
Straf
corresponds
golpe
secund
proporcion
Rama
fres
sided
brass
autores
observe
realiza
constituted
ethical
CL
advocates
##olini
Internationale
fonts
Honduras
violations
consequently
Bombay
loves
suele
Compar
camino
Verg
##season
Windsor
lamp
Schö
gehen
pag
##word
Spin
displacement
##riere
attain
halls
270
Statistics
compliance
##ilion
##imi
##ools
##ahrt
teenage
könnte
falta
einfach
Poké
pioneer
Dolph
Matthias
dancers
##ophon
Hers
##irch
authored
escuela
Joey
Castillo
Olímp
fitness
purchasing
teammate
Shak
##idian
breakthrough
Milwau
##afi
descriptions
Canon
Heer
Particip
heutige
##bons
comeback
emission
##ipur
transporte
##ölf
1819
lucha
trag
maj
##bibli
servants
##ähler
##55
ataque
stomach
lent
corrupt
supervis
Treasury
Zusamm
##essing
Stadtgebiet
##anor
Evil
##ellular
pleasure
Porsche
cass
Clara
##uales
Objekt
##vić
Dominican
preceded
Dieter
discour
superh
Auswahl
sailing
##dish
Hert
##ride
inadequ
distintas
mouse
entweder
##ausgabe
Chester
Cash
##americana
##opotam
Sequ
##adoras
260
weiterer
Springfield
uk
Neuro
dauer
sonst
##jährigen
Sister
haul
##ünft
climb
##astics
abundant
Gav
Paper
publicado
tenían
conferences
Volkswagen
Ordnung
Fert
toy
unpre
geograph
Products
Richt
westlichen
anthem
concepto
##ptions
trailer
purple
jefe
Worth
##letz
exhibits
advertisements
parade
##itaria
##gestell
masters
##38
spark
suffix
premium
##ynt
likes
##bürger
Slam
overhead
##inski
##owship
treas
kingdoms
Birth
Usually
Satan
unterscheiden
Paramount
##stedt
##atics
##ichert
##itty
dreams
##club
Milwaukee
dome
tender
Teresa
theaters
Provincia
##oning
Idol
sailed
Bünd
remarked
Seoul
##anzler
dispon
Bailey
Eber
chocolate
##ongo
##ometric
##oved
##clav
internationalen
bottle
englischen
protesters
accepting
gebildet
1970er
Dro
occupy
sanction
null
##rators
ROM
imágenes
lean
eins
##iously
crust
rises
##alles
##plus
Weltmeister
kilometres
comfortable
Connor
AI
Niedersch
inequ
sprach
##handlungen
Madh
spatial
todavía
Casey
##ioso
##rice
HBO
periód
Adventure
##ocate
##obia
Wimbledon
pyram
Mog
joins
obtener
##ithe
interim
Brain
beans
##seudo
Cao
Leices
treating
##ène
Lig
NL
macht
launching
##rando
Annie
immigrant
##drück
composite
Nickel
Henderson
página
##itely
beef
Führung
##aktor
##reras
Mord
lyric
lesbian
Nie
kor
##zhou
##cieron
Architektur
Latino
Carroll
observers
##ólares
Sob
##airy
##arians
##ooter
unterschiedlichen
owing
subjected
planta
1829
##100
##GBT
Look
calend
inability
sect
enfermedad
WS
drunk
Arbeiten
Gibral
##inu
battlefield
Carey
cemetery
guy
##QL
##PC
accidents
Turm
cros
restos
Actualmente
Sammlung
submarines
Workers
Patriarch
prone
allgemein
jewel
##ès
wholly
shaft
methyl
interactive
práctica
concess
Forbes
setzt
##kor
##oyle
kleiner
polynom
licence
conquist
licensing
##izados
Leicht
efectos
clima
##ratic
lanes
Karnataka
rectangular
adquir
wives
##antastic
corte
terren
predators
riots
sits
exempl
diagram
Beeth
1700
papa
pharmaceutical
chord
##xi
outs
Simpsons
Gebur
airlines
verhind
Suf
pine
##ortal
Hitch
##ewell
facial
paths
sponsorship
##idung
Obers
Laz
blacks
metro
occidental
rebounds
harbour
Fay
complained
Gerichts
übertragen
##entliche
abolition
portable
##ithm
##verhält
Motion
mediados
anteriores
inmedi
Carbon
ries
inventor
Overall
cultivation
terminus
dors
Carm
handful
##werks
Berm
Adult
Praxis
##auff
seguridad
Schriftstellerin
intersection
##ographed
##ieht
Unix
stip
##ferenz
##retion
Denis
pública
##itches
##station
##reform
mosque
ros
calib
wart
unterschiedliche
Things
betrieben
##wissenschaften
Android
swept
mothers
Marketing
Jans
Emergency
Candid
cables
Shell
##häuser
##atisf
airports
journals
##rabe
cov
crystall
##iética
acceso
femen
Ero
##ieben
##imus
Rivera
exercises
Zuf
##emption
verstär
##fielder
nu
Insurance
decree
employers
Bord
Tell
##tenham
##ountain
Mons
##vertrag
##gefähr
##ulen
desapar
absorption
lav
##bage
prolifer
Budap
dragon
drops
runners
Rhy
balanced
brilliant
Janeiro
übr
matched
Daneben
Heroes
Fres
Garten
Lebanese
225
Urspr
Hew
relev
spreading
Angela
cruise
deposit
Cly
##ashing
Espe
##36
rég
##kamp
distancia
estados
worlds
##arbeitung
##uelo
embarked
Verbreitung
kar
thickness
##chant
profund
mars
##egal
constraints
##neur
distress
inflic
Maharashtra
##edes
Spezial
stopping
rendering
triumph
4000
##alm
##gau
##ieri
Tul
Haiti
altogether
Brid
mortgage
fase
geist
Perhaps
essence
Barber
princes
hatch
savings
Amph
voyage
Starr
Sicily
HM
apert
flowing
##eppe
Frieden
Boss
fake
Brent
museums
attachment
dienen
lion
appealed
Regard
MGM
Monate
architects
Religions
##ounted
specimens
Wen
riot
##kampf
##utados
bestät
Königin
Perm
##raz
Gog
Hä
lengthy
Poss
cic
monster
Cultura
Dayton
jährlich
unofficial
prefect
Murder
maker
##cester
advancing
BB
aging
Bee
##tags
##Ps
Obwohl
eingeb
Provincial
##zburg
##anía
schl
##olves
##wärts
disrupt
Desc
statute
academy
Fram
1990er
1980er
Railways
encouraging
##itations
SI
##uria
selección
precursor
Huss
deben
helmet
supervision
Beschreibung
Rhine
kiló
flor
livestock
Trab
##ppers
drinks
##blatt
jugadores
Marien
##ucci
Bé
Role
altar
Moor
Georgian
objetos
warriors
##pflicht
USC
##züge
subspecies
Griffin
##xid
conect
jede
mice
resultados
acceleration
recreational
Wellington
VA
##bil
##einanders
Leonardo
trafficking
Brussels
liability
##athlet
Termin
infilt
völl
##rh
Whitney
Ravens
unidad
tolerance
Mughal
GR
##UR
Grecia
paz
##isco
virtue
##stands
Account
missionaries
demonstrations
cure
eingesch
Estonia
Innov
##anya
postp
struggling
##aby
pled
buena
flee
Francesco
##halts
volvió
1817
##iría
Entstehung
Gius
Hors
ensuing
Hydro
Piper
Jahrzehn
Wi
##ößen
suprem
Folgen
Hayes
pupils
Kör
benz
Marshal
beneficial
McCl
enforce
UT
relates
dozens
ferry
thriller
bleibt
Face
coached
oath
underm
Tö
contiene
Schach
Winston
ceiling
guarantee
##furter
Gert
Dul
##onne
Nordrhein
Stir
Coalition
vie
successes
##cripción
nichts
reside
trump
observer
prevention
1801
prevents
##aic
grace
interpretations
frontier
Canyon
disin
criter
Misch
##gets
spät
correspondence
Bollywood
rescued
##iht
razón
ocho
Ronn
salud
Massen
approaching
##zus
practitioners
destruct
arbeitete
Kram
portfolio
Clan
migrated
##odynamic
Canterbury
ram
Abgeordn
##ätigkeit
##ospace
Darmstadt
Amar
##otta
inicio
##asted
Berry
Playing
reasoning
greet
Asim
Eisenh
##irchen
##ueba
##byter
Artists
Sängerin
entlang
##ikaner
spray
##ethal
Extens
summon
##atical
ungar
Juvent
##atoren
televised
sleeping
turt
loses
finest
##metro
convenient
##amkeit
nombres
##des
brake
Lüb
compass
emerge
battalions
Kanal
puls
Schen
NASCAR
Pole
dock
Adler
modules
naturales
pa
##sätz
burden
invitation
artes
prominently
##ränkt
Lynn
Samb
recl
Linien
Ferguson
spelled
ensemble
Monarch
##otti
pretty
internacionales
Griffith
BT
##34
##entz
Persia
Regionen
amphib
percussion
##óp
neo
Erste
minorities
##uary
##vana
##isible
infring
microscop
Stop
Duck
reempl
vorhanden
dólares
##rared
##ovic
overtime
Singer
1828
premises
Vega
muert
Europäischen
USAF
tomar
matrimonio
zugleich
##zeich
1822
Nutzung
garnered
##ecker
alike
##acha
devote
viaje
discrimin
##rellas
LGBT
##achers
exported
zählen
entfernt
Edwin
##kinson
##icanos
Menge
Luxemburg
##otherapy
Beautiful
Gibraltar
##esium
ancestor
Mecklenburg
geben
rider
durchgeführt
concentrate
Rodrig
entstehen
Bres
Ji
##itism
##enzie
ali
mezcl
Hak
##tical
engaging
Hardy
Wake
luc
##SI
Pokémon
Sask
memoria
pathway
Southwest
Gottfried
dynamics
referee
Pitt
lady
Busch
struggles
##UT
gebracht
barely
utilizado
Iz
Lakers
Sons
innocent
Kult
regulate
inception
##yled
belieb
Heide
punish
Honey
collision
Hess
Braunschweig
fuentes
##osters
especí
besides
incorporating
incluyen
Pto
Schon
núcleo
##ruz
Relief
narrator
##iedlung
scal
Clement
F1
scripts
alert
accepts
Dorothy
Nok
1808
Flu
GNU
Hour
Rag
Budapest
Aufnahme
cultivated
hammer
Than
amend
permits
Plato
physicians
Aden
##utet
cheaper
decreases
derivatives
Rid
##nissen
Herren
Wolver
Liebe
Sicherheits
abdu
##sprachigen
naked
Hochschule
##gemeinschaft
Díaz
MiG
implications
Malayalam
Tats
Indien
##utory
##romos
Anwend
modeled
Goethe
Drake
progressed
Südwest
avoiding
schn
Representative
##ounded
Steelers
Tues
##erto
adjusted
angular
Guillermo
Sop
ambitious
sensors
Roc
territorios
irrit
Tropical
##vie
Akk
doubled
Virtual
estates
Altstadt
enzymes
vergleich
arbitrary
Colt
Augen
##arbeitet
Gómez
##ugel
wool
##woman
genuine
##stritten
##owing
anges
##olla
cooked
consecuencia
besie
##gestion
parameter
seas
standardized
Au
provincias
benutzt
##rennt
Bam
##KA
retaining
##keys
idol
cinemat
Pfar
##assium
packages
Barnes
Approxim
harder
safely
##rified
##oids
##ibel
##etzten
Burgund
Maximilian
maneuver
Demographics
Vikings
Ausnahme
pronunciation
Fällen
ME
proud
seasonal
Posterior
1960er
aesthetic
unh
Unternehmer
Sonne
Yak
##rían
Cambodia
##usen
Kazakh
riders
Pfe
Albanian
Kaw
Eltern
accredited
Competition
Fellow
formar
Agust
gobernador
Belarus
##rolog
Ved
Physics
shrine
eighteen
yields
##arthy
H2
Nun
historische
beaches
commentator
Uganda
Gig
bandera
Minuten
capturing
Miranda
Escrit
precipitation
torpedo
##iom
Notas
Principal
Präsidenten
##rucht
##ophy
Associated
Dee
##atorium
merchand
Aristotle
negotiated
##ingt
Abk
unmittelbar
Giant
Maus
##tschaft
Waters
Ethn
gestellt
pent
Coff
Depending
antenna
Noah
networking
Kaisers
rhet
chim
##iatus
OC
duet
discussing
Traditionally
turbine
Kai
Pend
##statt
Priest
Krieges
Jab
ecu
nursing
Mientras
##idium
Patent
llegada
Mull
##isure
investigating
oficiales
hydraulic
Tau
biod
##hoff
Gesell
##lis
envelop
produjo
Bildhauer
graves
tut
##iehen
Beast
Neck
Qa
XL
##lehre
Ums
formations
Handball
steadily
sint
##ffer
inert
angesehen
alloy
##etze
denominations
Sonnen
Controversy
Vishn
suite
Rechte
amaz
Shank
Perth
FDP
##fels
Marion
declaring
1826
litre
Gund
rushed
##imon
##plaz
121
##stat
Charg
literal
sauce
##iov
##oxide
inherent
geeign
petroleum
##kmale
Sas
##chende
250px
XVII
Asoci
GPS
läng
Kingston
1823
frozen
##üder
curs
applicable
Omar
Abt
##esó
persecution
dismin
imagery
Pied
##esehen
Baldwin
viable
cruz
##igration
##cz
##fold
offshore
propiedad
letzt
##stituted
Loch
administración
Monter
Angaben
ensuring
adventures
Giuseppe
Mā
aka
Christine
Grav
sodass
##ophys
brakes
Lines
##konstru
##erbe
Galaxy
Hindus
##asting
Reid
##archiv
##rott
starter
Achie
Henn
Bend
Erik
Ply
XP
##ritic
viral
Sankt
jam
##ioned
descon
Sally
fauna
##olit
Gloria
Carnegie
Estud
cartoons
Idaho
Dé
Calg
Dynastie
##sequent
Caball
feudal
Miche
satur
resides
stattf
ambas
Schnitt
comienza
Pray
##äne
burst
Teams
Colleges
cómo
Himal
rejoin
llama
Luego
Fry
bic
Resources
##atche
failures
Headqu
slic
##version
Andhra
subscrib
endgült
producto
browser
pension
Strauss
políticas
##abi
Nassau
reef
Tracy
determines
##igem
Nonetheless
abrupt
crafts
Uz
negoci
similarity
Internal
inzwischen
Brücke
tornado
pocos
Audi
erk
submit
##elty
Interview
pintor
Ferm
Ms
offset
structured
Titans
publishers
Rous
##ícil
Abschnitt
Establ
Dortmund
highlighted
slope
##izza
attained
##stop
##77
ja
verde
Rede
coloured
armoured
skept
200px
##lette
Directors
Colonial
##aub
##enario
spy
Monica
##aldi
eigenständ
##ernen
servant
Tempel
Schulen
Carson
Border
lord
remarks
Verle
Artes
votos
pursuing
Tribunal
fingers
##cr
##reta
organizing
WM
##ónico
aguas
zählt
##nation
Marriage
genome
mantener
Beethoven
snake
Tud
Männ
Shan
wesentlich
Thomson
Toul
compare
##ollen
buen
marched
sonido
RAM
Cron
rope
##awi
inscriptions
Funktionen
Mats
spare
Congressional
Bist
Abbas
breathing
Suzuki
##erty
breach
iter
usa
Franc
yo
complaint
wickets
hp
##oton
agenda
Quinn
Kuwait
expertise
speculated
islam
besitzen
globe
statues
unabhängig
piv
knapp
ballot
Features
números
Hussein
Montenegro
Brunswick
Phi
Cola
wenigen
relegation
##inness
tritt
dependen
Irving
chances
##ñez
ingles
drown
glucose
Agr
Weil
##lieben
difícil
enseñ
##umble
verste
figur
Zivil
nurse
Gabri
frecuencia
proprietary
##85
gradual
councils
Targ
pushing
economically
levant
Norton
wahrscheinlich
bride
holders
##will
melody
Ced
perf
combines
Norfolk
lenguaje
##dis
Rebell
##weite
legends
occurrence
nada
Dietrich
Lehrer
Calgary
criminals
whites
Colts
##versammlung
Neal
geworden
Magnus
##39
sufic
forman
Orb
##width
##ständen
Tribune
##ügen
Está
KC
Zus
Daher
mentor
pulse
dental
gambling
länger
##65
##lord
theft
##lege
Automobil
##kok
Webb
1809
Pag
##yg
##ácil
Heights
identifies
healthcare
ecological
EMI
bastante
Konstru
answers
embarrass
obwohl
recursos
##gende
FF
cri
pep
situado
Tah
breeds
perspect
Gitar
Rovers
Wah
interrupted
##ómen
##ológicos
wounds
pride
esf
##ienste
##ciales
campuses
Falcon
übernommen
Marqu
generals
Diesel
lowered
Mehrheit
stets
##érd
Dust
JP
inici
##urd
Stones
collar
##ográfico
competitor
facult
ganze
Grade
Nut
##oise
marble
podía
delegates
tackles
Cancer
productive
Speaker
Schwarzen
correlation
Mafia
Rash
Sidd
##iversity
necessity
Höhen
peso
Muj
rehears
##ogo
##grenze
terrestrial
Uttar
witch
stap
digits
trabajos
Yosh
rab
erbaut
##otechn
obligations
gam
Clif
TM
zinc
##orfen
bedeutend
##unted
leak
Essex
currents
donations
Euras
##uni
##inct
percept
##rennung
económico
numerosas
angel
wolf
##deckt
beats
Brady
Shop
Specific
unanimous
socially
participación
vicinity
gira
Thing
railways
bolt
Vogel
estre
homeless
squadrons
Bosn
##fähigkeit
Hyderabad
##asth
comprised
joke
tron
weld
acus
Medina
strips
##bahnhof
##enc
instructed
##asile
peaking
Arabian
Darüber
harmony
##iani
trauma
HTML
crest
lengths
Ashley
Lambert
Fraser
Blind
##werte
Glad
productivity
Synt
Pek
gele
automated
términos
locals
Hunting
Wissenschaften
Laufe
Kerry
subtle
##teau
accounted
feminist
##toire
distrito
Physik
pequeños
##soon
comparing
Amateur
mapping
##stals
genommen
caste
Cornell
Luxembourg
##ridges
Milli
Beziehungen
FL
##olom
amid
offspring
solved
slogan
##ordshire
assuming
vio
##ugged
taxi
mansion
##olt
Pseud
Strategic
Egip
anonymous
apprent
##hematic
spielen
Constitutional
Truman
factions
Meteor
Berger
jedem
Somers
Hahn
Schu
periodic
##orrow
Bess
stems
adaptations
##brook
electromagnetic
##icho
##lieb
displaced
##ocken
Springer
##neath
##lay
##igma
cubic
inaugurated
enclosed
alarm
Brow
##function
vowels
nächsten
Eich
##ipse
monuments
Pfarr
organizational
Begriffs
##lee
entgegen
municipios
psy
Firma
Tos
projection
Therap
##inae
pasado
##umba
Grenzen
contestants
Ruby
##uste
extr
Bem
erosion
Cristo
Strike
Sabb
##acen
Reis
Arzt
Isla
##geln
BAS
ridge
hergestellt
verk
geography
Archiv
Stories
122
Wörter
incomplete
##pi
trägt
##umbent
editors
Unternehm
Divine
commentators
HA
pagan
Resolution
##ismos
capita
Chess
motivation
unaware
##ofía
Too
racism
Mormon
Azerbaijan
##enko
clusters
unrelated
augment
##iode
Antoine
##rein
Europ
intervals
##questa
testified
slip
Nothing
1793
diabetes
libertad
Kast
##entry
##lica
Strip
Wildlife
##frau
triggered
Belfast
plag
Spiele
keyboards
##onomic
##brahim
Venet
Raz
Vu
presión
arguably
conocimiento
Pilot
##ifikation
myst
toil
contacted
mobility
automot
strengthened
Yes
Nachbar
impacts
Tres
declare
Gewalt
##adia
referenced
Sigma
ellip
##arya
hook
##amblea
inspection
Bih
RB
Interest
Begründ
israel
generator
barrio
Format
Rhode
##ída
rejection
Johns
futuro
MacD
Dwight
Brab
pró
##schen
##afa
Erster
reduz
perfectly
Drehbuch
excluding
wines
##zuge
enterprises
Empf
Galicia
1798
welcher
extinction
plum
Via
conception
##fangen
Savage
Prague
committees
careful
Horst
Yugoslav
Pine
supreme
Barbar
debates
fácil
countryside
Root
prostitution
delays
Need
Brahm
cocaine
EF
Glob
eliminating
antiguos
##punkte
max
##adays
hacen
Cataluña
##ecido
##ichnam
Imag
Phantom
jedes
reproduction
spokesman
##imme
##ausen
declining
1811
##ventions
Probleme
associates
toma
##schild
bekannte
cosas
usar
WB
Themen
PV
##iefer
##sehen
##took
Aboriginal
Flächen
Highland
banner
ears
armored
Debido
gesehen
##inians
##anstaltungen
dijo
##nete
eman
Texte
##iell
Universitäts
Build
##wirkung
##iking
Katz
economies
Zamb
Medieval
halten
##lé
Bismar
scenario
regelmäßig
##comed
técnica
unstable
berühm
pend
##inqu
shocked
amar
##venes
Explorer
##kräfte
##stab
polym
prescribed
addressing
zo
Grove
Lon
Want
##gard
Moll
##cientes
Supporting
Gaelic
##orient
stack
juegos
zuletzt
passages
##otrop
Sams
Flugzeug
Taj
pic
endangered
330
Gujarat
##acios
1792
badge
dop
vuelta
overd
Preston
##ücksicht
Straß
masa
aquellos
Metz
liberation
Leitung
wander
##abis
regained
afirm
##inia
incon
debris
twins
FR
##uke
##pora
Versuch
Zustand
Zarago
Mühl
##rota
##unge
basically
Spät
##afrika
magist
PD
##änz
hate
reiss
exter
reminis
##teilen
##vre
solving
Lithuanian
metre
holidays
kilómetros
Planning
Drum
physic
Zepp
philosophers
Mayer
sponsors
führten
satellites
älteste
dealer
Sever
##ertation
crude
soldados
mutations
Dictionary
##indest
cortex
colloqu
##bard
therapeut
amended
##herzog
extraction
asp
##rite
definiert
Güter
Stellung
Eden
Leng
stint
Teh
comercio
HMS
##eches
teenager
Norse
extensions
exceptional
##ightenment
uncertainty
Hochschullehrer
Jain
bust
Trom
cone
likel
induction
aseg
creó
charted
Zahn
##liter
posed
spear
flavor
Dadurch
Riley
##lein
Weap
sailors
GL
Sisters
inheritance
Lopez
SB
tunnels
beziehungs
colores
Tüb
stripped
McCarthy
Sociedad
diente
friction
##foot
meanings
Rabbi
Tschech
unne
basement
gehörten
exploitation
vía
Communication
Kontakt
850
offs
concludes
1790
DD
darf
nehmen
Bücher
##raction
##ermen
Shane
invari
gehalten
validity
lod
Monaco
##rastruktur
pequeñas
Estate
Auseinanders
Graduate
Hulk
##gado
positioned
HC
Ihr
##anie
Mineral
ninguna
##afe
##atischen
existieren
irrigation
sank
añad
##prozess
DP
ib
updates
Humb
neural
##ulse
obsole
flexibility
Zaragoza
vivo
confisc
física
grip
##rath
delta
erfüll
examine
feas
##tecimientos
tackle
DL
pianist
##HP
emblem
sheets
sexuality
beziehungsweise
Auck
##cover
##brand
cuent
Empress
Friedhof
dy
##ekte
novelist
Asturias
##tre
Schild
Grafen
homosexuality
##anal
##alid
Bub
exce
Chronicle
código
ses
##amon
##frage
##eterm
Bien
##ellas
Schr
Chemie
expressing
barriers
Vorbild
Crew
Ciencias
##kont
Schreib
indication
shoots
processors
Edmon
blocking
Panam
erscheint
focal
Nem
Pill
paradox
Zusammenarbeit
IRA
##KO
ads
##ecu
incorporates
Ultra
fuselage
sacked
devised
accusations
Dry
Mist
##asm
estadounidenses
insult
Campo
umfang
conjug
azul
Mesopotam
Contest
folklore
Lange
##hle
Ull
##andi
Ingr
##iziert
##iploma
Joyce
##otal
kernel
Plymouth
Catholicism
Okt
steal
freshman
Gör
##clair
sober
Browns
##indet
besondere
compulsory
dejó
Auckland
discrete
Attack
südlichen
Away
RM
compil
##hnern
tox
Peterson
kommun
Mathematiker
Vaugh
##rät
utilize
welcomed
Korn
doble
##ívar
agr
Robertson
Wehrmacht
##gal
Doom
Hawaiian
##schiff
RE
Sett
##baden
Touch
256
Museums
Eyes
Koll
Niederlande
##weile
Johnston
affection
documentation
Cities
##ulous
cercan
Atlético
symmetry
Kupfer
simulation
Qué
bare
##iras
Sail
hood
submission
einger
Jesu
Fak
choir
sperm
differing
ambul
talented
aquel
Homo
rats
antisem
estat
bekannten
Rotten
mercen
protector
grado
##ädagog
Kardinal
desirable
incidence
pilgrim
Herzegovina
superhero
reluctant
Zell
##88
langen
directamente
yearly
promises
neighborhoods
früheren
japones
Companies
Egipto
Eind
gründete
Shuttle
Biblical
estánd
lever
deciding
Telegraph
consultant
Tie
Gemäld
transfers
##limited
##esc
enforced
Vermont
betrachtet
Til
Alpen
geschrieben
Initial
STS
##wir
##standen
##asco
stuck
##ündung
Fon
##okee
##gerichts
##istischer
Oslo
scout
mandate
circa
Wagen
Lehre
Geheim
Castell
wartime
##race
asent
counting
extensión
Tolkien
Aston
reporters
Gear
##houses
begrenz
##fection
##anton
formado
Luz
privileges
Chef
Copenhagen
verfügt
##messer
negotiate
pipeline
bowling
XML
DT
advisor
Eisenhower
Países
Partner
developmental
tremend
##hey
1804
Officers
heirat
Expans
##aques
incred
sensory
charging
Sega
##onomy
Soundtrack
Hé
intentions
##algam
Acting
Absol
##óvenes
Engineers
letzter
Mari
enlarged
acquiring
phrases
##ohner
Lum
Erkennt
paired
Janet
Species
pharmac
##code
##Ds
throat
Alumn
insight
LT
##lamento
##ān
stiff
provisional
132
lineage
Quelle
aligned
Edmonton
Finalmente
peasants
##ueva
Corona
UTC
relieve
tragedy
Jude
Wegen
Verbindungen
##uden
Orch
Vocal
Regen
##ologisch
personalities
packaging
macro
contenido
ineff
Seth
dissolution
brutal
1805
lamps
scrat
refusal
profitable
motto
pérd
##itian
Batter
Doch
hollow
oak
Mayo
coment
Joshua
relate
acerca
AW
##mand
plains
Anh
warming
##achts
Micha
Ai
explod
Presbyter
supernatural
früh
Frost
exagger
weib
peers
originating
Taliban
Gau
sings
Md
Rs
Witch
Junction
Borg
garage
##illi
Plains
antibiot
thy
##inki
Forever
Priester
##osaurus
bee
Juliet
rolled
Nec
costumes
##appropri
hardcore
kidney
Posteriormente
likelihood
Essen
ego
monopoly
penal
##lov
Oswald
forum
##zeigt
península
lecture
##NC
deities
satisfy
operative
oversee
escrito
##leistung
##bibliothek
inning
##uzeit
Untersuchungen
Fórmula
lined
##uliar
capitalism
Bangalore
polyg
unchang
##izen
##meer
Turbo
##37
##iern
courage
comprise
prayers
sink
##ismen
1807
behavioral
switches
Geburts
laps
Letters
neighbourhood
##GS
troop
Magnet
##trans
Spekt
Arbeiter
Paradise
remind
##ström
Nom
##losen
Factor
valves
rept
Suprem
jealous
reunion
relies
Manning
##47
quiz
superv
kidnapped
LL
##ochond
Magdal
Brew
sieht
Elector
Cerv
##opa
Zeiten
##rove
##ophil
lacks
Leicester
RFC
##page
alcoholic
##ärt
missionary
Ägypten
herald
Prinz
##cedented
representations
Entscheidung
reina
Zeus
Osman
toys
pottery
Biblioteca
Oc
lots
versuchte
hora
Ard
##ección
Europas
Nordwest
Victory
licenses
PE
##beat
prolonged
1776
Jenny
##zel
##reif
##rays
delivering
katholische
annexed
Konzept
verwand
trilogy
Myan
alignment
fenómen
##intosh
Antike
affiliation
iconic
progression
Ulster
Equip
hiatus
método
Hes
Pig
Sadd
desem
desemb
avanz
humanitarian
Entwicklungs
mys
Numerous
gospel
##isierten
Insp
Hits
##pielt
##say
##mán
grouped
##idding
inadequate
unnecess
Minder
##ongs
treaties
##iggins
fierce
Xavier
exceeded
contexts
##biet
ordering
hätte
protocols
änd
##itación
Strait
##iak
skate
Progressive
mín
comand
famously
erschienen
unterscheidet
centros
securities
OH
##amorph
Physiker
Methode
campeón
commanding
answered
preparations
Guards
Odys
redevelop
Bash
muc
##anus
##itivo
##erta
##menes
Federico
vitamin
##óso
theological
##etto
##onserv
Atari
prosperity
Trieb
##95
faithful
necesario
wears
springs
rush
popularly
Pierce
Pist
##anze
terminology
##chung
Andere
debated
406
Abdullah
OP
deform
##phoon
Augsburg
specialty
Angola
reciproc
##xx
Ante
Beam
Ned
##uenca
Pompe
Elliott
preg
##rosse
Polar
turret
prolific
##izont
cardiac
eccles
Lal
productor
gras
Leistung
##ausend
Baud
Bangkok
unterstützt
suits
Otras
LED
##ported
Filme
dahin
Dorn
##gewicht
Pip
##namen
##ardon
patents
gesellschaft
Tomb
Britt
llevar
unprecedented
Fashion
##HD
Ministerpräsident
Biografía
##glesias
##DAP
##steuer
surplus
refriger
titular
Broncos
Sergeant
slopes
Bergen
Ish
Links
granting
Kend
##inely
pare
Devon
##mor
clasific
NI
1827
adject
defenders
Arr
Variante
engag
destin
Ranger
simplified
##uti
warrior
striker
utilizar
dritten
neb
##öse
Stellen
underwater
Mitarbeiter
delegation
wrapped
##netz
Swift
Timothy
feat
Verhalten
##ilität
offerings
geschlossen
medication
cooled
Laden
Bolshev
wod
Leh
Leaf
highways
redesign
##ilingual
##elic
##ronom
Carpent
Counter
##últ
unidades
exhibitions
Citizens
Tuesday
Parade
quer
IGN
Mald
Ov
humana
Occup
Pots
##46
zwölf
respiratory
Bian
Cave
Nerv
chambers
máqu
Wurz
erweit
Aval
##iol
Southampton
Lodge
Rover
goles
##istán
##stätten
neighbors
Yuk
highlights
Mate
luck
defensa
pasar
##hte
spinal
natives
Sandy
##logos
Previously
##ATA
##aser
##glomer
##stown
einst
portal
essays
rumors
simpler
sixty
introduces
Tact
Kak
Els
Gardner
UCLA
venez
Christie
Gattung
opted
oppose
bacterial
keen
1795
Approximately
##icias
gram
##wärt
obsolete
retains
Epic
Jules
folded
wodurch
shirts
Presley
Nationalsozialismus
satisfied
SH
Erweiter
Madras
##inguished
##oplas
Consult
CDs
verbs
einzelne
Cannes
cál
Chak
ammon
Winchester
Crazy
Ibrahim
Thron
##iped
adhes
erforder
##ologic
stressed
Ricky
refined
terminó
Wide
Xen
hire
##chehen
geometric
máximo
decreasing
##irvana
Ansp
complexes
hubo
jumping
judged
Skl
cerebral
wisdom
spectacular
Kannada
Inspector
##uana
empirical
Hinduism
##hurst
Erfahr
Extrem
Lockheed
considerations
kicked
##últip
##esto
shorts
Aufgabe
Urdu
dominate
stocks
auxiliary
Algeria
syndicated
brack
Apache
radioactive
filters
Helena
wanting
##hebung
imports
terrible
issuing
klassischen
Pens
Spy
Versa
Bryant
##ahon
Junta
comply
25th
##raid
##ahme
Landwirtschaft
convierte
automotive
Thank
Konf
harmful
##kol
österreichische
inmates
##begriff
Tiene
collector
elemento
bleiben
variedad
##atio
aggression
##ilda
transcription
##kei
Winters
unterschiedlich
##roffen
##verlag
periodista
aktiv
ríos
underneath
checks
Giul
chloride
redesigned
transparent
artistas
neglig
silence
PK
Farben
millennium
japonés
Beverly
##kul
##heart
Geschwindigkeit
##unternehmen
Creative
Kick
loads
##oxic
spectators
##umberland
dominio
mutation
contestant
Wit
Stick
Churches
##xter
Compos
##phen
1802
tric
charitable
fitting
##dessen
##anen
##urers
131
damaging
landsc
##continental
Viking
crítica
addiction
Öffentlichkeit
##etus
anschließend
Britann
alternatives
admits
daytime
régimen
verka
infrared
confronted
##gae
estrella
programas
Marxist
##iveles
llega
Chapman
##verkehrs
kW
Bibel
sculptures
muest
##vae
##arity
Methodist
Cran
Sug
securing
Sympt
Nokia
desktop
Minne
biblical
mascot
Vikt
Shore
Bildungs
pelig
Myanmar
carreter
##erschaft
##seit
Spot
Gram
Sacramento
reformed
shareholders
Tian
hu
Coleman
##ARC
##wach
forever
205
##estation
mathematic
Banco
##astía
talents
lider
umstritten
Bier
daraufhin
Brett
besser
somewhere
Kry
##igate
spor
Freiheit
rip
tschech
distribución
##matic
Sper
cierto
Frankfurter
##fal
verkehr
Resist
nördlichen
Kalk
Provis
sicher
Archä
##asaki
preoc
innovations
Valentine
fuert
##mates
##onía
diagnostic
encoding
##walk
1300
Hamburger
Hannah
Torn
wax
Später
##ossa
Packers
##ibia
salida
ilust
designing
respuesta
vectors
nad
##urso
artery
##awks
1794
##litz
expuls
affirm
##íes
##imson
Jeffrey
Simm
##irma
bandwidth
##uebas
princess
griechischen
##ionale
musul
materiales
CET
tatto
##technik
violated
dining
##osos
refuse
Product
renewable
goalkeeper
Harald
##änen
##31
blend
Regular
individually
shifting
calm
Headquarters
flesh
##lichem
ascend
indie
Corporate
Mö
Tate
Zusch
semicon
Nile
escudo
hipp
##gg
##kunden
Angeb
##atched
Sham
possibilities
illumin
frontal
Sebastián
UF
##jug
rojo
Manual
metaphor
##ariamente
assumptions
transmitter
minutos
beds
expired
##ísticos
guerrilla
Oracle
Logan
Dante
Asc
##preußen
Knox
1799
Fron
colonists
instituted
wand
conditioning
Metern
Events
clasificación
storms
Confederation
##apo
Colony
Willis
beeinfl
##phase
##anzig
Premios
##ziehung
Bett
##enter
Greene
Cherokee
Kro
Zoll
##pta
midnight
Thous
Lancaster
curved
potassium
befand
dependence
abgesch
incumbent
Zhou
##jin
Portsmouth
##amped
Bismarck
##isans
Klima
Beweg
escort
Educación
Lösung
peculiar
Vishnu
Chilean
##awk
Warwick
##etzer
##sam
##yar
##zin
overwhelming
tratamiento
Bradford
analyst
ancestral
##smith
Amin
männ
Technologies
Investment
Rheinland
overturn
Likewise
NM
Tucker
accelerated
##leta
fluores
madera
Dancing
Abschluss
temp
Afro
athlete
##aste
##chern
dirigida
Existen
escapes
Einwohnern
##bewerb
##aso
Famous
lebte
##aner
Script
komplex
##uity
##okal
Leiter
##österreich
Naples
Invasion
dia
rows
##aktoren
Pirates
Baut
Canadá
##orias
tecnología
Requ
ideals
habla
##iación
##osas
continually
valleys
Haut
Oder
##orfer
regain
numerical
Nielsen
Philharm
Nottingham
Sond
Vuelta
##isieren
peaks
recommendation
empezó
Nurs
unn
Phon
Regent
Active
targeting
Laurent
técnicas
##ologen
Klavier
aparición
Appeals
##elyn
##attet
caliber
detention
wagon
shark
Scotia
tätig
##gica
strat
Methoden
carga
Fels
Pix
broadly
##area
engra
nuest
völlig
Wade
##ça
##ailable
murió
vigor
Burm
abger
Ministers
researcher
habitats
Lieb
coordination
semana
Kommunal
edificios
##rower
##amoto
Dart
Ion
Proto
Grä
##bef
Preuß
restriction
Krak
Ähn
restruct
taxation
Somalia
Rek
##holt
throws
##odied
numer
Systeme
resemblance
Antioch
Ronnie
Till
##ocus
Ank
##änglich
prints
Ballet
##comp
##anzas
Ole
##eur
passport
##cro
Konzent
Laus
southeastern
##erma
quot
financially
Lieder
ámb
##esy
Fields
##ículo
renovation
ko
unders
arsen
Comunidad
Patricia
extant
cavity
susceptible
Coming
torneo
oxidation
Said
flame
##ogenesis
unsuccessfully
evacuated
Landschafts
experiencing
Dimens
Mundo
aport
sometime
Kolk
Experiment
##omfort
poisoning
Becker
laying
Fuk
Hok
athe
##omencl
existiert
Patrol
UM
flies
representación
##quista
retiring
valores
Boliv
deny
stereo
absolutely
##aue
assumes
surpassed
Walsh
comport
constitu
Jaime
versiones
bug
Hearts
retros
Tiber
##pruch
lact
Stör
piedra
Jeh
Malt
##layer
Sto
demise
vocabulary
Zach
frontera
Chamberlain
overthrow
Tup
Panthers
##uarios
##itana
Aless
Millennium
Kost
fi
limestone
viewer
elephant
teils
##look
Humph
myself
##ench
parall
##izards
Anhalt
##ischö
Auflösung
Wiesbaden
conden
Uno
##esos
Porto
conclusions
##notes
##umper
prose
tragen
##then
##UP
offiziell
Cotton
Wester
##emar
Percy
firmly
##nesty
Chil
abhäng
Unternehmens
##idation
grape
Cine
ubicado
Persönlichkeiten
Nou
Vince
bloque
##wery
Werte
happiness
Territor
censorship
clip
honest
garant
northeastern
pear
Abend
integer
fortified
Bhag
Mongolia
jóvenes
##utas
Newport
Temper
##staben
alles
triun
Masse
realizado
órgan
Rin
demographic
Übertrag
arquitectura
##ruhe
receivers
##aparte
análisis
##oken
##bourne
Rahman
Pride
resistencia
##isträger
##quel
jetzt
##tures
##halle
##eli
hierarch
MLB
##ést
theolog
creado
multic
Bauer
KM
ms
Geographie
Asociación
##äub
traum
Herod
stammen
contrario
##hot
cheer
höchste
radial
Danach
Dodge
clouds
##sitz
showc
##raten
homeland
jeden
Vorder
awa
##otá
Willy
pulling
Mussolini
##onga
continuation
TF
gamma
possessions
##essenger
Revolución
drainage
Rebellion
##reditation
locate
popularized
##ständnis
suelen
Shepherd
Senators
inventory
consiguió
aumento
##ifiziert
reproductive
Bavaria
Wellen
derive
##itsu
financed
Bard
##argas
implementing
colomb
Salem
veto
##lements
##plätze
##ántico
Gedenkt
foster
##duct
Laos
accessed
calculations
sín
signaling
moisture
##abar
##schuss
Geschichts
Leadership
Rita
shifts
accommodation
CW
ruso
##ocar
galax
gesprochen
Fasc
mosa
##leading
metallic
##reb
subset
calculation
##atron
##kriegs
747
evaluated
Duff
Lily
##ré
scorer
gesetz
Garcia
verschiedener
##genöss
##cole
Aftermath
remnants
Font
Erinner
justified
fertig
##ocracia
sar
##isle
##icants
terminated
##actory
Shannon
Parish
Mathematik
##inging
Editorial
Boh
torno
manch
costly
Mohammad
haciendo
Sehens
##orthy
suspects
##mut
##UI
##ocas
Esper
infants
situada
Hundred
Daim
undergoing
honours
Mannschaft
cuarto
##thag
suelo
152
della
Sheikh
Flores
abundance
coefficient
oste
erlang
Below
Prefect
englische
Sporting
narrowly
Crawford
##yu
independiente
consolidated
corriente
predecessors
Mystery
Dör
Mt
efic
Incre
Picas
abstra
##enza
##oblación
hue
músico
arcade
fox
telecommunications
Romantic
Hig
neurolog
##oglob
Gouver
liberty
Hubert
##omotive
psychiatric
##ipelago
suic
Welles
##indeut
##ogeneous
bark
blo
expresión
pipes
piston
##erauf
Siegfried
Donna
Foss
niveles
esos
tej
orphan
##ecía
redund
##straßen
Jüd
##iende
Avengers
múltip
speeches
Khmer
habría
advertisement
Pascal
Fiat
entdeckt
Places
textile
Bulls
##sätzlich
Guns
Kiel
Elena
Sergio
sé
##upe
##67
completo
Geoffrey
Strange
Behör
Parallel
mismos
Hog
##ku
offence
rotor
Gebieten
rupt
##feit
##quist
Kens
debts
Perfect
Produkt
entscheid
indirectly
Trevor
##bourg
postal
Virg
sympathetic
##SE
##onese
Literary
##ziplin
Qaeda
Duk
##reise
scroll
##arger
Región
##iseries
Tsch
Royce
stain
Universities
depiction
confrontation
Beide
Manit
Axis
pigment
Vand
inició
sicht
portraits
##aras
Peak
##boro
texture
Downtown
Cada
##ivial
Middles
Canadians
##yó
##entric
##leo
arises
Grim
distribute
hormone
##otec
defeats
größer
Bolívar
nickel
shuttle
Reaktion
infamous
##klasse
##wirkungen
Ae
caves
##idió
##estruct
802
possesses
Null
appeals
Volunte
Mater
posibilidad
235
panc
##erry
##ifiable
Holden
Ehem
##onaut
##elian
Naturschutz
erf
Gedenk
decorative
rehabilitation
Zeppelin
##shine
Antigua
tallest
Sistema
Dana
otorg
viruses
Gründen
nasal
Minneapolis
ethanol
Classification
troubles
nuevamente
probablemente
Pose
##ogly
Neigh
promotes
Cyber
scholarly
Raven
Schott
aprove
jüdischen
bezeichnete
Wille
soy
afterward
flora
Casino
calculate
Niedersachsen
Alianza
##halte
pioneered
Jal
Alte
feast
minimize
crowds
Gos
Kiev
persistent
##EEE
insignia
defunct
Bowie
VHS
compuesto
employing
Baghdad
Tuc
guion
grá
angl
internationale
gefähr
PBS
##jiang
pruebas
marker
Harbour
embassy
ond
larga
indicator
refusing
Quick
Leichtathlet
##olución
pept
crushed
##writers
##quil
Kell
##itiv
commemorate
Parliamentary
kne
##ciple
Corinth
BN
##thel
verantwort
seguir
Dix
##andt
##aines
sparked
Duc
tuvieron
uph
chase
##umbers
Kohlen
Wrest
leyes
classroom
earnings
Soviética
Prepar
crystals
##elfth
Kongress
consulting
odds
Stab
Stran
Verfassungs
polls
nació
Tübingen
mite
##ribe
wherein
PhD
1791
Bronx
confeder
##hnte
volver
Hast
rück
foul
##orkommen
curv
##human
mittelalter
PSOE
positively
östlich
versucht
Coca
##opard
werde
Deal
blame
recognizes
Prophet
escult
conocidos
Parsons
constra
Poles
Siemens
Trav
Sina
##wear
##cturn
Uniform
russischer
vere
##endi
Coul
Sass
aé
jersey
philanthrop
##loo
Evening
Wyoming
pour
Kassel
##esía
##laga
Gespr
enrollment
Ding
WN
monk
plante
Gore
##opular
motivo
##ráneo
starke
Helsinki
Panamá
rud
##ayas
beside
romana
pornography
Pione
##chwitz
cannon
Ez
hunter
Vorauss
Robot
##läuft
Writers
Mood
literar
Durham
Constru
Better
Matrix
Sussex
Yas
##igon
##odon
eviden
Election
sangre
encoded
##49
Châ
##geno
Emerson
utter
##üne
derrota
socialism
Kand
adorn
Infrastruktur
##zieht
niederländischer
##gern
217
Portal
Pianist
announcing
Erober
Cork
Noch
terminals
Jesuit
Bibliothek
watches
Macedonian
Shirley
Dass
##oció
curves
latín
##manship
##cery
picks
congressional
beteiligt
unchanged
incoming
Produktions
corners
emigrated
##iciary
Guerrero
belegt
contras
ausger
guilt
pulmon
Brighton
acciones
rockets
Summit
consonant
##adian
teaches
Platt
pressing
Belgrade
consume
schle
##zeption
##chess
Mell
Nay
busc
Anlage
starken
Guinness
##ährung
seated
1400
surveys
incarnation
##orro
##ivated
plots
outlined
Neill
Cherry
WT
Verwand
##medio
##ocytes
dorsal
succ
##amboo
resembling
Prü
decoration
settling
verliehen
Bä
##maker
380
McMahon
tires
bags
##garten
##erat
cadena
Diskussion
exchanges
Aachen
fare
saves
chaos
unbekannt
indígenas
##ako
Example
sampling
Chu
hicieron
blanc
Reihen
Housing
Theres
foreigners
stimulus
Roch
collectors
pasa
Ruiz
##rophic
Dänemark
Somerset
Mamm
coral
##enga
contacto
Purple
nahezu
tenor
urine
Lamp
Nim
pact
Aside
fraternity
deten
##odus
unm
heroin
Torah
likewise
Kurfürst
defects
Söhne
cif
exotic
takeover
Consumer
diminished
Alexandra
miners
##aktiv
instructor
Balkan
Qatar
##olk
##oler
##ocon
amigo
Romance
##ART
evolución
80s
roller
Bolog
kl
athletics
Mud
Keynes
empower
tratado
próxim
ICC
mills
##gor
##mill
atop
tech
Steiner
Founded
crossover
drought
meditation
Hallow
russischen
Dell
sights
plaint
quarterf
Australians
Hoffmann
spawned
substrate
coher
evaluate
##uencias
Picasso
semifinal
Lect
breakfast
tuning
Gatt
styled
Subsequent
Kön
##isations
minds
pepper
Bolton
Bonaparte
Anniversary
melting
Brag
Wan
##GP
##ensic
Ausstellung
##wahlen
Burmese
##iedelt
backs
additions
Mathematics
overlap
##acters
reactors
##adin
##ogens
##ählte
peripheral
Dund
estrellas
##uddin
##frame
A1
WR
##omina
##actor
soils
Symb
50th
##bücher
erinn
knight
discs
##icha
Python
##oeste
converting
Pyram
Ultimately
colleague
juice
Rodriguez
Fass
tert
##cible
Shiv
##ilated
Manif
justify
sentiment
##eis
insurg
averaging
##uya
##krieges
uplo
##abh
etabl
religión
Latein
##ainted
humili
Valenci
Besonders
Cheng
Dragons
Tou
enam
mush
methodology
farmer
encontraba
nationality
##mitglied
Kanton
Sidney
betre
Uses
kits
##aceous
Interesse
##kopf
##uega
erkennen
Gov
##artige
Marse
Multi
vendors
##wana
proto
blieben
##fight
combate
##alog
Schall
Geschle
##gebracht
1797
angegeben
chromosome
##umbre
Holiday
excited
Clinical
##SS
##cliffe
##knü
Tran
##erns
Islas
##werken
contradict
destructive
installations
reminiscent
repairs
Investigation
packed
Northeast
rack
Verde
##demokrat
Holdings
sne
##nar
##UM
##roller
Fahrzeug
destacan
eject
##enser
##keeping
miscon
Leistungs
Kav
nennt
evacuation
##deutsche
Pure
##DL
##uxe
fertile
fondo
Seventh
##stellungs
Insgesamt
##amina
standen
Miz
Schä
Tests
rall
tir
None
##uce
Standort
prohibition
shout
Nikolaus
Flet
Poin
coh
##42
generales
##mites
practically
Gestalt
Ignacio
Joaquín
Cors
##chens
Nept
compressed
Czechoslovakia
ON
würden
Liqu
##ónoma
Chiang
Plut
archive
##68
##esta
crus
zeigte
alias
Australien
##ihad
Administrative
disposal
Rouge
##athi
statutory
Sust
Christi
analyzed
##DM
prejud
Sarg
##CO
Known
Gould
IEEE
##arsity
analogous
Course
RBI
##olation
Informations
entrepreneur
surgeon
conquer
necesidad
Concord
señor
Schaff
humorous
Irak
Römer
Diane
pending
##aret
zumindest
cancellation
LLC
Tick
dawn
Gond
##tos
##atore
##roff
unfair
öffentliche
Deportivo
Tina
##unts
Lein
##linger
escala
clearing
Bogotá
Kolkata
AE
broker
Characters
Logo
Gob
Tottenham
Isabella
Cavalry
Elite
Monaster
IB
participant
Argument
Führer
Naw
rou
##wel
probe
defenses
##izop
lex
menu
##culosis
##aktionen
Jenk
obligation
asegur
Dual
eruption
städ
papal
Escritores
##uchar
overnight
Siege
##schlä
Frühjahr
##ococ
##obiles
approximate
erklärte
Gilm
dye
##anguard
SK
widen
darker
Anthrop
retailers
##wara
##pop
problematic
Everything
Rez
15px
ultra
volleyball
Kapital
seller
##skins
Rust
##XX
##idenz
##ounce
Lisbon
interfaces
Ther
##acey
attach
conflicto
Temp
weist
recibe
Advisory
Gunn
##In
Sonny
unnecessary
feathers
morality
480
Katal
Daniels
kB
forts
##iense
deficiency
Nicole
##amarca
##ajas
##ährt
histórica
Tub
conquista
Maßnahmen
Hersteller
establec
Gegenwart
Tratado
Bände
##aer
arth
discusión
ausgeb
340
catches
##zeichnen
##ripp
Memory
Beauty
mari
##reit
ausgew
Hirsch
Kramer
vgl
Italians
ratified
Politikerin
Dür
definitive
woods
##ümer
gepl
Bernstein
Murcia
Nicolás
Gemeinschaft
Málaga
anders
Amanda
proteg
grains
Transform
psic
Util
Prob
Chemistry
upright
Neustadt
##izadas
fehl
welcome
procesos
coordinated
##class
propios
Moreno
católica
hap
inputs
##leen
Adapt
maximal
talked
telescop
Hogan
antip
seventeen
Blüten
Circus
##accur
Jard
##gut
extracted
##elegentlich
Kara
pam
##ewe
cooperative
##atu
Vasco
Ví
##phr
Neither
merit
gleichnam
Tito
##icion
Geografía
Hoover
Wilm
##points
broadcaster
plato
##ahi
hypot
EPA
Wheel
MK
sells
blades
extrac
descendant
Resultados
ermöglicht
fundra
suppressed
Gat
Sent
Uran
Ware
civic
unav
##ihu
Kanada
Blanco
lifelong
anatom
Jaguar
inverse
##offs
Konflikt
FP
Teles
##illac
##oldt
petrol
attribute
bubble
wors
stab
whis
Colegio
contributes
Kurs
repos
Detective
imagin
stealing
Marathon
##has
esclav
ältesten
Bedingungen
Journey
Maritime
profesor
##mung
norms
Rosario
Chandler
minus
durchschnitt
escribir
Uncle
funny
Ride
##aurs
##prach
Cyp
Tagen
##irie
##intendent
emphasize
Fundación
##órico
##57
##aiser
##uenta
silicon
##erten
finishes
besten
halted
Mengen
##ilee
bringen
Keller
Adress
Ura
##liner
##ockets
Freeman
esfuer
##vara
blown
Mouse
##bay
Existenz
Located
endemic
##aney
midfielder
verdict
gravitational
Māori
Dang
mam
sedan
afor
##zado
Rebe
Credit
##spre
Oblast
feminine
flaw
##brates
pseudo
Monitor
engineered
árabe
simul
Brandon
Landschaft
Rett
##dig
##aun
##äb
asum
usado
carriage
lightning
squares
latitude
bildete
Sunni
##riot
pert
##annter
##gerald
Boat
refurb
##AA
##qui
meals
copied
Goa
Panther
columnist
convincing
materia
tense
##avour
shoe
improvis
##RL
inappropri
genocide
RN
##utung
eigentlich
##rev
meta
specimen
merchandise
Ik
##thernet
Beziehung
incompat
gingen
##ruf
suppression
Farbe
Normandy
##reu
##afte
benach
advocacy
FO
stew
Trier
induce
##obern
explot
Rapid
Fitzgerald
Gior
##igü
plaque
##pendicular
Poor
Words
zuerst
Europea
Evidence
conocer
utilizan
Películas
atención
hechos
Shoot
Andes
mantuvo
verurs
drilling
freeway
correspondent
sharply
tapes
1100
##intage
contributor
##hea
instantly
Bri
Tum
##ifts
captive
renovated
Barrett
umfass
occupying
bounded
vegetable
##hone
forget
Think
flux
favoured
devastated
Vijay
Duchy
Ner
##lose
Wis
alternating
Ayuntamiento
Punkte
victorious
dinero
Arz
criticisms
Dunk
lethal
Rever
retreated
Elder
Rise
Sod
autop
höheren
##historic
paternal
Redskins
doses
Confuci
Einsch
companions
mentally
jokes
Anf
##alsa
##ólico
##agraph
Studium
##umpf
Rainbow
Vehicle
assessed
killings
Ministerio
##áce
##raged
##folgt
Educational
Easy
Trial
Xin
##omers
Paula
Eish
pork
##Vs
##alon
Newfound
Cliff
solchen
Barney
Saskatche
##tischen
diary
severity
hereditary
##nant
##chst
Corte
norweg
botan
Tort
Honours
##okument
Edel
##ministerium
físico
cán
##avo
sanctions
Yar
beb
Gefahr
aquella
Ebert
##irke
impose
Charts
##reo
fundación
1775
Lucky
Tend
Vig
##opf
Close
revelation
shortage
ejerc
Phillip
Excell
vault
dash
##terson
Amiga
preview
##uco
Elektro
dejar
##rosis
Creation
Einrichtungen
inaccur
artista
picking
##kammer
##ginas
##yos
muscular
Dritt
Hutch
Haven
Strecken
coil
Afterwards
NW
dive
weder
##elig
gradient
Hassan
##armed
Seen
professors
potent
rápidamente
suspicion
degradation
Milliarden
Levi
Saskatchewan
Miy
Africans
devastating
Fou
##weiler
larvae
jaw
##estial
##agara
promulg
workshops
Else
Abel
Fortune
bottles
Gibbs
##orpor
Chambers
Eli
##isexual
Pacífico
Zun
##enes
fertility
ganzen
arrow
##hao
Animation
Gly
Baroque
eingestellt
Extreme
Cath
##rino
lluv
listeners
Emirates
Aragon
Leigh
##glass
Mikh
Save
adecu
knockout
interception
subordinate
TT
Magdeburg
Lahore
numbering
visa
lightweight
satisfaction
grossing
rides
##cats
marca
mountainous
fuels
aro
##ÓN
##undenen
spanning
##ajara
Edison
##mense
realism
constituent
dific
médico
Rout
##orman
darkness
accessories
británica
nacimiento
##gone
##ikum
sozialen
membran
Dodgers
##zier
conduc
##appers
westlich
1783
intentionally
Ismail
##ovenant
Newfoundland
Truck
efficacy
Colombian
Rican
stays
##heng
Psychology
##geordnet
eternal
interes
disability
sketches
beschreibt
eindeut
constitutes
##getragen
enjoys
Tl
generators
Plain
captivity
##rology
ratios
Zerstör
##stum
##adu
Beau
Spike
Mirror
Satellite
##haven
Sinclair
Vereins
türk
practicing
##liegen
Bernardo
unwilling
Departamento
Agricultural
Wine
##utin
ambiente
Hawks
1780
doctoral
unusually
rechaz
##ihung
Siedlung
teammates
sencillo
Jump
amalgam
poles
Madame
##music
##onent
Platinum
bush
Entdeck
anunció
boots
##feated
Sacred
münd
pumps
execute
bleeding
dismant
Dixon
Spar
öffentlich
Abkürz
Points
richt
wise
weig
hardly
Jerome
forgotten
##tail
Anj
judíos
deadly
##ämpfer
gentle
northwestern
cake
latt
##arquía
clave
##azas
Dirigent
entsprechenden
Olivier
Gele
##ighty
Multiple
Sv
intu
apparatus
##familie
luther
Sno
títulos
##etric
acre
campos
temperate
Fragen
obviously
mecan
aunt
##läuf
formulation
Buddhismus
Hitchcock
Bust
Toll
Weiss
merge
##polis
Nietz
saints
Polo
Nigerian
manipulation
Ptole
##unas
Alta
Luigi
Traffic
stretched
Dann
li
##scar
##lot
##marine
##ipa
usuario
integrad
##antino
Verband
außen
##building
undertook
Bernd
Neumann
Aid
Jen
##geren
Kontrolle
espacial
astronomy
Hagen
##eroy
Anmerk
modal
escena
##fangs
Lyd
##iral
generación
141
posteriores
Mast
##ífer
275
permitió
theatres
Mitsub
Katherine
##ignon
Hisp
pastor
sensation
Kandid
prompting
fossils
##ocl
quote
oficialmente
Encyclopedia
ERA
Pact
implicit
Glaubens
Ré
Webster
specify
fluctu
##ioxid
Marvin
stationary
Zweck
llegaron
mirrors
Würzburg
Glou
##oths
Bibliothe
##ämt
Taschen
Ethiopian
asserts
##licherweise
Buddy
Bant
##érico
##ashire
Einheiten
McA
Untersuchung
##ilateral
##insk
Polonia
Brooke
49ers
vorgesehen
1880s
southwestern
conclude
Dill
abz
racist
##rocarril
##rise
##marsch
imagination
presidencia
Idee
recreation
Surrey
Dauer
Abstand
operas
toc
implant
proposes
pays
Concept
investigators
Twelve
Horror
##öffnung
WCW
##reifen
Devi
2500
Quality
Lancashire
##girl
##ieck
Oster
ópera
##üter
##omore
##raban
Tourismus
accidental
dug
german
Shu
Adobe
packet
Pearson
máxima
christlichen
Versailles
##instrument
##rita
indica
treasure
upheld
jacket
##oped
Savoy
Olímpicos
Meso
clases
Mask
Greenland
buttons
drill
trades
fuego
Mandarin
accumulated
ACC
Dai
dwell
##ked
##vation
piezas
österreichischen
##glieder
Omega
gob
hiring
Laf
presentó
Rochester
##backer
Hyde
Mitsubishi
Är
recession
Guz
poetic
##eteiligung
Kond
Lus
repar
Christen
##gebirge
Emilio
Yard
Travis
Buchanan
höchsten
##orama
##uala
##sha
filóso
harbor
Rebecca
omitted
Resc
Studie
Papier
Rubin
stripes
WP
##ensystem
definite
##iatric
Lauren
Sicherheit
Günter
##ucle
Implement
Courts
Fletcher
##rigo
abort
Sieben
Tao
Electronics
respectivamente
737
privilege
##iería
helm
diá
##führte
illustrations
Pueblo
locks
Grac
##ánicas
pirates
Nuestra
fach
Dreams
predominant
advisory
asymmet
##apel
usw
prophet
Behind
##rale
investor
Expansion
vampire
##unami
backgrounds
##iastical
manchmal
coincide
inflammatory
billed
##schte
##lining
##iwill
Borde
immense
Chlor
1796
congregation
FE
Lance
outlaw
Spears
Sehenswürd
ric
contamination
##ointment
Linn
stamps
Alph
Caracas
##önt
reviewer
completamente
Ordn
Sahara
Wemb
lunch
poster
Macintosh
Application
Mint
caut
##acer
Everton
oce
oval
tenido
daraus
##kretär
budd
templo
Byron
##ächsischen
vaccine
Zukunft
Óscar
##geois
##rachte
nutrients
##omos
Publications
##izophren
Funkt
Sachs
gy
weiteres
CSU
elektron
Ofic
dunk
##wege
Alfredo
tomó
Berlín
##länge
##agus
Uns
substituted
##uera
castillo
Angelo
Sixth
dibuj
Cret
Christina
planeta
plateau
reinforcements
MV
##quito
chiefs
Cortes
Acon
swords
Organización
robots
dramas
Wart
prevalence
##kunst
##ounge
Asamblea
Triumph
Jacobs
##ilidades
Harlem
moderne
Bahrain
##mitteln
DI
plague
imply
polynomial
tremendous
Redu
coastline
##idio
minist
fog
##jew
Sturm
biom
##ützt
deposited
Mets
Morales
Bombard
erweitert
Mile
Dawson
semifinals
adopting
Tus
Taking
zoo
##itional
Heck
recovering
bullets
Dais
Gad
Jaw
fug
##achute
##auern
Glory
##forscher
ethnicity
##stheorie
Haf
##yang
remod
Rajasth
corridor
Guan
##ulative
prueba
denounced
##owners
musikal
Peuge
Midnight
Jacksonville
denominación
attracting
Kün
##iado
##iastic
queda
approximation
elastic
tuned
Rundfunk
Eucl
1788
##IAA
##elegte
exchanged
elf
Palma
Formel
exclusion
therapeutic
beet
##önen
##bye
##elda
mounting
##fabrik
##cers
visibility
Distrito
instituciones
ecc
mortal
nic
snakes
##kong
##Script
Augustine
customary
castellano
Achievement
eagle
##amar
archives
Unicode
Veget
##avers
leased
Judy
##zustellen
remed
Hampton
robbery
Crosby
##raut
Stol
##riba
carcin
Simple
420
trom
##idy
Leone
Talmud
##ämpfen
übrigen
Making
Mae
Tener
bege
Doyle
Fix
Rising
Wong
##komp
Vera
Englisch
ganar
lava
Shock
##bedingungen
rim
##endung
Alternatively
unpopular
impart
Oriente
trabajar
Barker
Plans
ballad
Aviv
Saddam
NET
##azin
presumed
Immedi
habits
##itzen
nonetheless
Produzent
##schulen
Atmosph
Gelände
hätten
Rolf
monit
ecology
stärker
Ethernet
Nigel
regret
calor
Beste
Greenwich
triangular
##with
Malik
Cage
##ovia
##steine
universally
Rocket
exercised
Navarra
Dru
upl
Ars
generates
afraid
##oncest
206
Schwester
vacant
oposición
subjective
Gründer
##ígenes
rust
##tle
reint
sworn
fällt
255
Artem
Clyde
AU
##ído
##aryn
##rescent
Moderne
collaborative
Kolonial
maturity
1750
Erschein
Boch
UU
cites
wholes
scan
Landkreises
NSDAP
deliberate
culminated
drast
##rocess
verhe
Conan
miniseries
##marks
sanctuary
gymn
regener
brasile
unterschieden
encompasses
Bestandteil
repertoire
exiled
##phin
airborne
visitor
Rao
mercury
embro
integrate
displaying
##itado
##emin
painful
##ículos
möglichst
símbolo
V6
avent
stair
screened
##auftrag
OM
Pratt
Hercules
Konzert
omn
Gegner
Molly
Introduction
##anteil
##örde
glory
multin
strains
pageant
Gregor
##lessly
##tem
instability
juvenile
Mug
##fälle
intimate
142
chileno
sunlight
Sitio
##ländischen
Gilles
Shō
Arturo
Laguna
jungle
kanadischer
dificult
Suk
estableció
buffer
Lago
Wetter
lum
outlet
Europäische
ideological
devotion
Insbesondere
gemeinsamen
Wess
proton
##ilyn
##fries
Alumin
formulated
Moy
Slo
batch
cliff
Marty
##ürzt
Ella
##aneously
Samsung
namens
intrins
Orgel
Horizon
producir
denominado
##lässlich
Sí
##frist
basada
survives
Woody
happening
spiral
Algunas
obscure
apl
##BL
##ollah
invalid
Vaters
Shim
Volta
Bhar
culminating
Wembley
##ikos
Vida
dairy
wag
##chlor
perpendicular
spinning
consiste
Mou
##éano
calles
basal
prestige
republican
obstacles
angeboten
##sport
##cs
##space
Resident
##dominal
casino
bedroom
pond
exploring
Lightning
##das
Democracy
MAC
Johan
Presbyterian
Vort
Drac
hostage
subscribers
90s
BI
##lach
uniqu
Sophia
##anese
prototypes
distributions
Guadalajara
Aé
Dome
movimientos
##ombin
##ottage
MPs
lingü
Dolphins
calendario
virgin
ranged
##ológicas
Jill
##hoben
##chy
weights
1787
teenagers
##obacter
affinity
caud
##nicamente
freshwater
östlichen
denote
backwards
communal
discusses
ranch
Kapit
Peugeot
amt
presently
institutes
burnt
buyers
characterised
alemanes
Mendo
##irn
##iership
encourages
CBC
Paw
wells
populares
POW
##children
Manitoba
kreis
##cero
famine
solamente
geschaffen
diferente
dritte
##omit
Ree
##landes
marco
##igencia
Suite
Glück
puppet
elección
Graz
converts
##written
Sale
euros
assassinated
Regeln
Recre
umbrella
conseguir
Neuzeit
cocon
##udh
##oining
quotes
plantations
analysts
Icelandic
GHz
RPG
Presidency
Auschwitz
##führten
influx
compatibility
inevitable
Winkel
##ehmen
config
Griechenland
delight
discourse
Miemb
##piele
outright
Recogn
Budget
Deleg
Tut
##akk
könne
waist
Frontier
simultaneous
Animals
##oscop
215
Celebrity
Musikp
Kapoor
Rolls
Occidental
KP
utilizing
Fäh
Kris
##nick
dispatched
franceses
suspicious
Bajos
wrist
comunes
manned
##ädchen
exploit
Matthews
tire
##hams
##iale
Weib
##taining
Koal
alcanzar
Eus
stup
Slovakia
folgten
Lump
Sik
##ianas
sacerd
estadio
##ozy
##rek
6000
pioneering
##felder
propiedades
Mikhail
Offen
Ferry
OF
Tea
translates
reopened
##tische
chant
genius
everywhere
dwarf
agrup
Birds
Raph
##spe
##énd
ankle
##opus
allocation
Forst
Basque
Spani
üblich
Innenstadt
estándar
Fries
compartment
##engo
Hernández
Tisch
Beobacht
Whether
Titanic
EV
##inga
##itorium
Quadrat
Sauerstoff
heiratete
Cot
##itivos
Siberia
antiquity
backward
needle
Rockef
##annung
##änk
##laments
swim
culturales
##istin
disqual
Gewinn
Shelley
Zyklus
miteinander
Ries
fantas
liner
##ricanes
Serbs
Madagas
Blackburn
##ifel
modific
Yi
Thur
defle
dividing
weighed
bred
precious
modify
operaciones
prizes
paramilit
kleinere
##ört
staple
Witten
dando
##isal
##underst
monsters
void
discoveries
Pau
##bildungs
##uern
pon
##stick
interfere
Bills
Baja
Kip
similares
homage
römische
rav
##adder
##illera
neutron
acu
reply
daran
Entfern
consonants
donor
Haj
Sobre
duel
##pec
Nordic
stretching
##odor
Erwin
consuming
##hler
angels
1950er
recruiting
Zub
Brend
Señora
Madagascar
Sword
##ourself
coordinator
filmmaker
Mith
##igers
identities
principally
fortifications
Trip
##ósito
anarchist
440
übersetzt
Karten
Sé
Ét
##court
##89
HK
olig
betrug
[...]
