[PAD]
[UNK]
[CLS]
[SEP]
[MASK]
!
"
#
$
%
&
'
(
)
*
+
,
-
.
/
0
1
2
3
4
5
6
7
8
9
:
;
<
=
>
?
@
A
B
C
D
E
F
G
H
I
J
K
L
M
N
O
P
Q
R
S
T
U
V
W
X
Y
Z
\
^
_
`
a
b
c
d
e
f
g
h
i
j
k
l
m
n
o
p
q
r
s
t
u
v
w
x
y
z
{
|
}
~
¡
£
¥
§
¨
©
ª
«
¬
®
°
±
²
³
´
µ
·
¹
º
»
¼
½
¿
À
Á
Â
Ã
Ä
Å
Æ
Ç
È
É
Ê
Í
Î
Ð
Ñ
Ò
Ó
Ô
Ö
×
Ø
Ú
Ü
Þ
ß
à
á
â
ã
ä
å
æ
ç
è
é
ê
ë
ì
í
î
ï
ð
ñ
ò
ó
ô
õ
ö
÷
ø
ù
ú
û
ü
ý
þ
ÿ
Ā
ā
ă
ą
Ć
ć
Ĉ
ĉ
Č
č
Đ
đ
Ē
ē
Ĕ
ĕ
ė
ę
ě
ĝ
ğ
Ġ
ġ
ħ
ĩ
Ī
ī
ĭ
İ
ı
Ľ
ľ
Ł
ł
ń
ņ
Ň
ň
ŋ
Ō
ō
Ŏ
ŏ
ő
Œ
œ
ŕ
ř
Ś
ś
Ş
ş
Š
š
Ţ
ţ
ť
ũ
Ū
ū
ŭ
ů
Ŷ
ŷ
ź
Ż
ż
Ž
ž
ơ
ư
ǀ
ǎ
ǐ
ǒ
ǔ
ǧ
Ș
ș
ț
ȝ
Ȣ
ɐ
ɑ
ɒ
ɓ
ɔ
ɕ
ɖ
ɗ
ə
ɛ
ɜ
ɟ
ɡ
ɣ
ɦ
ɨ
ɪ
ɫ
ɬ
ɯ
ɲ
ɸ
ɹ
ɾ
ʁ
ʂ
ʃ
ʈ
ʊ
ʌ
ʎ
ʒ
ʔ
ʕ
ʝ
ʤ
ʦ
ʧ
ʰ
ʲ
ʷ
ʹ
ʻ
ʼ
ʾ
ʿ
ˁ
ˈ
ˌ
ː
ˑ
̀
́
̃
̄
̇
̈
̝
̞
̥
̩
̪
̯
̱
͡
Α
Β
Γ
Δ
Ε
Ζ
Η
Θ
Ι
Κ
Λ
Μ
Ν
Ο
Π
Ρ
Σ
Τ
Υ
Φ
Χ
Ψ
Ω
ά
έ
ή
ί
α
β
γ
δ
ε
ζ
η
θ
ι
κ
λ
μ
ν
ξ
ο
π
ρ
ς
σ
τ
υ
φ
χ
ψ
ω
ό
ύ
ώ
І
А
Б
В
Г
Д
Е
Ж
З
И
К
Л
М
Н
О
П
Р
С
Т
У
Ф
Х
Ц
Ч
Ш
Э
Я
а
б
в
г
д
е
ж
з
и
й
к
л
м
н
о
п
р
с
т
у
ф
х
ц
ч
ш
щ
ъ
ы
ь
э
ю
я
ё
і
ї
ј
њ
ћ
ў
қ
ү
Ӏ
ә
ө
ա
ե
ի
մ
յ
ն
ո
ս
տ
ր
ւ
ְ
ִ
ֵ
ֶ
ַ
ָ
ֹ
ּ
ׁ
א
ב
ג
ד
ה
ו
ז
ח
ט
י
ך
כ
ל
ם
מ
ן
נ
ס
ע
ף
פ
צ
ק
ר
ש
ת
،
ء
آ
أ
إ
ئ
ا
ب
ة
ت
ث
ج
ح
خ
د
ذ
ر
ز
س
ش
ص
ض
ط
ظ
ع
غ
ف
ق
ك
ل
م
ن
ه
و
ى
ي
َ
ُ
ِ
ّ
ْ
٠
پ
ک
ۇ
ی
ە
क
त
न
प
भ
म
य
र
ल
व
स
ा
ि
ी
ु
े
्
গ
জ
য
়
া
্
க
ா
ி
ு
்
క
్
ก
ง
ด
ต
น
บ
พ
ม
ย
ร
ว
ส
ห
อ
ะ
ั
า
ิ
ี
ุ
เ
่
་
༌
ག
ད
བ
ས
ི
ུ
ོ
ྱ
ა
დ
ე
ვ
ი
ო
რ
ს
ፋ
Ꮝ
ᜒ
᜔
ḍ
ḏ
ḗ
Ḥ
ḥ
ḫ
ḷ
ṃ
ṅ
ṇ
ṛ
ṣ
ṭ
ṯ
ạ
ả
ẽ
ế
ệ
ọ
ố
ồ
ộ
ἀ
ἄ
Ἀ
ἐ
ἔ
Ἐ
ἡ
ἰ
ἱ
Ἰ
ὀ
ὁ
ὐ
ὰ
ὶ
ὸ
ῆ
ῖ
ῦ
ῶ
‑
–
—
―
‖
‘
’
‚
“
”
„
†
‡
•
…
‰
′
″
‹
›
⁄
₡
€
℃
№
ℝ
™
ℤ
←
↑
→
↔
⇒
∈
−
√
∞
≈
≠
≡
≤
≥
⋅
⋮
─
│
■
▲
▼
○
●
☆
☉
♠
♣
♥
♦
♭
♯
✉
⟨
⟩
、
。
「
」
〜
あ
い
う
え
お
か
が
き
ぎ
く
ぐ
け
げ
こ
ご
さ
ざ
し
じ
す
ず
せ
そ
た
だ
ち
っ
つ
て
で
と
ど
な
に
ぬ
ね
の
は
ば
ひ
び
ふ
ぶ
へ
ほ
ま
み
む
め
も
ゃ
や
ゅ
ゆ
ょ
よ
ら
り
る
れ
ろ
わ
を
ん
ァ
ア
ィ
イ
ゥ
ウ
ェ
エ
ォ
オ
カ
ガ
キ
ギ
ク
グ
ケ
ゲ
コ
ゴ
サ
ザ
シ
ジ
ス
ズ
セ
ゼ
ソ
タ
ダ
チ
ッ
ツ
テ
デ
ト
ド
ナ
ニ
ネ
ノ
ハ
バ
パ
ヒ
ビ
ピ
フ
ブ
プ
ベ
ホ
ボ
ポ
マ
ミ
ム
メ
モ
ャ
ヤ
ュ
ユ
ョ
ヨ
ラ
リ
ル
レ
ロ
ワ
ン
ヴ
・
ー
一
三
上
世
中
九
二
五
京
人
仁
代
会
偵
元
光
八
公
六
出
前
劉
化
北
区
十
南
原
县
口
台
合
名
和
四
国
國
園
地
城
士
大
天
太
女
子
字
学
安
宗
家
寺
小
山
島
川
州
市
帝
平
年
後
德
愛
戏
成
戸
手
探
文
新
族
日
明
星
春
木
本
村
東
林
正
武
民
水
江
河
治
法
流
海
淋
湖
漢
火
物
王
生
田
白
的
皇
県
石
社
神
福
立
級
自
花
華
術
西
語
路
進
道
郎
都
野
金
長
阳
雷
青
音
風
馬
高
도
！
（
）
，
－
～
￼
##0
##H
##K
##4
##7
##1
##8
##2
##e
##l
##r
##o
##a
##m
##b
##í
##w
##y
##j
##k
##s
##q
##u
##n
##f
##i
##d
##t
##ł
##g
##p
##ó
##c
##v
##U
##L
##B
##I
##E
##z
##צ
##ה
##é
##R
##D
##h
##9
##3
##6
##υ
##ν
##α
##ι
##ρ
##ε
##ῖ
##ñ
##η
##š
##č
##C
##5
##S
##G
##ä
##V
##á
##ვ
##ე
##ი
##x
##и
##к
##о
##л
##а
##е
##в
##с
##ั
##น
##อ
##า
##ิ
##ต
##ย
##è
##ü
##O
##N
##T
##ï
##A
##Q
##н
##т
##р
##ь
##π
##τ
##σ
##κ
##ή
##ο
##Á
##Z
##°
##æ
##M
##P
##ゅ
##う
##б
##д
##ы
##ö
##J
##ú
##X
##Y
##F
##φ
##ɛ
##ə
##ְ
##פ
##ַ
##נ
##י
##à
##ゲ
##チ
##ッ
##ク
##º
##λ
##δ
##μ
##́
##п
##≥
##ë
##ę
##έ
##ω
##ō
##W
##ɑ
##ě
##ù
##ς
##け
##ч
##ʃ
##ˈ
##ß
##×
##−
##ū
##ʲ
##̞
##ʈ
##͡
##ʂ
##̪
##ǎ
##ț
##い
##ɡ
##ф
##Ó
##ā
##ェ
##û
##´
##ラ
##バ
##ー
##х
##ò
##ʝ
##م
##ا
##ة
##Ε
##Π
##Τ
##Α
##ṇ
##ø
##ý
##і
##É
##¹
##ŋ
##ɪ
##ャ
##リ
##テ
##ン
##ʌ
##ά
##ل
##د
##ئ
##ر
##や
##あ
##ま
##ね
##し
##よ
##と
##お
##ひ
##さ
##ָ
##ר
##ד
##ĭ
##ו
##א
##ת
##س
##ت
##ن
##خ
##و
##ك
##ř
##ć
##ī
##ῆ
##ē
##め
##つ
##ל
##ֶ
##ף
##ô
##з
##я
##χ
##ό
##ί
##ṭ
##く
##ğ
##ı
##ʰ
##ه
##ḷ
##ì
##ʾ
##ḫ
##ç
##る
##ї
##І
##Л
##ب
##ي
##ж
##ş
##キ
##ら
##た
##ṣ
##ḥ
##ː
##â
##ケ
##ト
##モ
##ス
##タ
##～
##ð
##ュ
##ネ
##ミ
##ツ
##の
##ã
##ồ
##ᜒ
##᜔
##ž
##ň
##ɗ
##у
##Ľ
##す
##й
##ʁ
##ウ
##г
##ш
##ю
##å
##ּ
##ֹ
##ֵ
##î
##ц
##®
##ォ
##ъ
##̯
##ă
##ァ
##ɔ
##み
##だ
##サ
##ナ
##ύ
##С
##Р
##Б
##θ
##ח
##ק
##ן
##マ
##ῦ
##ľ
##ざ
##コ
##ǔ
##シ
##్
##オ
##ש
##ִ
##ׁ
##ם
##õ
##ん
##か
##じ
##は
##ょ
##ろ
##ª
##こ
##ê
##ћ
##Ñ
##γ
##ζ
##ɾ
##न
##ु
##ा
##स
##ि
##क
##²
##わ
##ョ
##ɬ
##ὰ
##⁄
##Ç
##Ã
##ŷ
##ུ
##У
##ʧ
##ح
##̀
##ʒ
##て
##ɖ
##び
##ư
##ů
##्
##Æ
##ώ
##ṯ
##ј
##ˁ
##ʊ
##ǐ
##ә
##м
##ȝ
##ʷ
##÷
##ワ
##ロ
##ア
##ム
##¬
##ル
##ノ
##٠
##●
##え
##ز
##ס
##ע
##ʦ
##ʼ
##إ
##ِ
##ف
##イ
##כ
##ط
##̥
##±
##ى
##♭
##ɐ
##ɕ
##̃
##デ
##ィ
##グ
##ベ
##Í
##ג
##ṛ
##β
##đ
##ʕ
##ɒ
##ʔ
##り
##¨
##̱
##ʿ
##ق
##ص
##ṃ
##œ
##ジ
##ა
##ს
##ǧ
##ŏ
##ń
##½
##ո
##ի
##ゥ
##ţ
##ぐ
##ど
##ピ
##ő
##ŕ
##ず
##€
##ξ
##ی
##ک
##ħ
##њ
##な
##त
##र
##ブ
##ḏ
##ご
##³
##ĕ
##ɜ
##ी
##ع
##ś
##Ü
##ド
##ą
##そ
##ギ
##へ
##⇒
##ὸ
##れ
##ぎ
##レ
##ハ
##ポ
##メ
##ゆ
##Ā
##ė
##♯
##ี
##ง
##ร
##ɓ
##À
##რ
##ო
##ج
##Ȣ
##ө
##ż
##ズ
##→
##Г
##ۇ
##غ
##म
##þ
##Λ
##µ
##ش
##ĉ
##ŭ
##ば
##ḗ
##─
##ǀ
##に
##ボ
##フ
##מ
##ả
##き
##ْ
##ʹ
##ダ
##Ä
##ะ
##ǒ
##َ
##Ō
##ῶ
##ș
##ビ
##っ
##ி
##ơ
##К
##̝
##ọ
##ก
##ด
##э
##أ
##ɨ
##Ú
##ّ
##ག
##ས
##ź
##Ē
##ザ
##ὐ
##ு
##ゴ
##ņ
##ב
##ա
##ˑ
##ɹ
##む
##パ
##य
##ガ
##ヤ
##Μ
##Η
##Ρ
##Ο
##Σ
##ὶ
##♥
##ё
##も
##プ
##도
##க
##்
##で
##ُ
##ր
##ү
##մ
##ぬ
##ث
##ט
##บ
##ุ
##ི
##ち
##≠
##ɣ
##Ö
##щ
##カ
##ʤ
##ך
##ÿ
##ʎ
##ĝ
##ў
##げ
##ส
##☆
##Ω
##Ν
##ւ
##ế
##ɫ
##ť
##が
##დ
##ˌ
##่
##ե
##♦
##া
##ニ
##ĩ
##Ŏ
##ظ
##™
##È
##ゼ
##व
##ོ
##セ
##≤
##Ū
##ẽ
##տ
##̇
##Υ
##Β
##エ
##े
##ն
##ソ
##̈
##ɦ
##ṅ
##յ
##پ
##ʻ
##Ι
##ġ
##ἰ
##Ž
##ɲ
##ད
##О
##И
##ா
##↑
##พ
##เ
##￼
##ψ
##ἱ
##ḍ
##▼
##Я
##Č
##М
##Т
##ぶ
##Ð
##Þ
##Œ
##ذ
##ە
##Ĕ
##≡
##ว
##ս
##ạ
##ม
##ء
##ố
##♣
##ộ
##ほ
##̩
##£
##В
##せ
##ホ
##प
##ɟ
##∞
##ז
##ふ
##ض
##Θ
##Ḥ
##Î
##▲
##ヨ
##̄
##Å
##Ζ
##ゃ
##♠
##བ
##Ī
##Κ
##গ
##А
##З
##Δ
##Ψ
##भ
##қ
##ɯ
##©
##Н
##Д
##Š
##্
##য
##়
##ヴ
##Е
##ヒ
##క
##√
##ệ
##Ł
##ल
##ユ
##ɸ
##Ф
##Ӏ
##Ň
##≈
##ห
##Ô
##⋅
##П
##☉
##İ
##ྱ
##ũ
##℃
##Ч
##¥
##¼
##آ
##ὁ
##Ц
##Ø
##জ
##Χ
##Ş
##∈
##Γ
##Φ
##Ò
##Х
##ℤ
##ἄ
##Ꮝ
##Э
##を
##Ţ
##Ê
##ἀ
##ℝ
##ἐ
##Ġ
##ὀ
##ἔ
##ፋ
##Ш
##Â
##←
de
##er
##os
##en
##on
##es
##ar
##as
##an
##ci
##or
##ad
##al
la
en
##ue
##st
el
##ic
##in
##ent
##ón
##om
##id
##re
con
##ra
un
##ro
que
##te
##ri
##ol
##ti
se
##am
del
##ción
##un
los
su
##to
##ta
##le
##ía
##is
es
re
##do
in
##la
##ado
com
19
##io
##il
est
##ente
por
##ia
##tu
##ch
al
par
##ist
##ab
##em
##el
las
##ter
##ica
##ul
##ran
##de
##cion
una
##di
##ec
20
##res
##ig
##it
##ada
pro
##cia
##lo
##im
##iv
##pa
##us
como
##at
En
##ed
##ico
para
El
##ales
des
##ás
##ac
##um
##uer
##bi
##ur
##ación
##idad
##tr
La
##tor
per
##bre
##iz
##oc
##go
no
ex
##ien
##ados
##ir
##ido
cu
##qu
ac
##án
##era
##ici
##od
##ient
##ciones
##tiv
an
##ión
##mp
##gu
##orm
##ay
##ud
##uc
##ando
200
más
##ier
##et
##que
##ate
##ant
##se
##aj
di
##ras
##ero
##mo
##po
##én
##cu
##da
##pe
##ador
##tos
##rim
##ano
##ib
##eg
##oría
##és
Est
lo
##tre
fue
##co
ar
18
##mente
##ios
##encia
##ez
Un
so
Al
##ina
##ru
##ers
Ar
##ateg
ser
añ
##ap
##pañ
##tra
##bl
Es
##ces
##and
##ategoría
In
##ten
##ambi
##ino
Re
##ida
pr
sus
##amente
##ante
201
Categoría
##pu
##ma
##ones
##ca
mu
##ana
##iento
##fer
##ie
res
prim
##ista
hab
##ce
##adas
##00
##icos
##par
##per
##lu
##ern
199
entre
sig
as
##ín
##ambién
An
##las
me
##if
ob
##itu
##gen
##ob
car
Mar
le
##ort
Con
##almente
##gun
##icas
##tura
tra
San
Ch
##con
##av
##aron
##tro
##og
cons
##za
son
##ens
##ug
esc
##emp
ha
##ich
##den
pue
pres
##los
form
##ís
##les
##uev
dis
##cional
##pos
##ut
##ér
##ot
##oci
Los
Se
##entes
también
imp
##iud
Par
##ario
##ismo
##idos
##tes
inter
##iudad
##ing
may
##cias
##ener
##ores
198
##ento
pre
##ona
##mb
##na
##cip
##duc
##til
##he
##vi
mar
##lan
##aliz
cas
sobre
##ag
ab
##ba
pos
##ill
##jo
##cul
##br
##ún
col
##end
##aba
##antes
fuer
##eros
pu
##ust
ter
na
##lam
##tas
##fici
##ias
##asta
este
##man
##tica
años
gran
pa
##tros
Car
ad
##uran
fin
ciudad
cor
##ov
dos
De
lle
##op
te
inc
sol
comp
or
##son
##min
##und
197
##ton
##urante
qu
##enta
pol
ti
ap
##gra
esta
cre
##ga
15
##ral
##ivers
pero
##cho
parte
##uel
Com
##ivo
##teri
##ían
##ion
ca
##so
##tar
##eo
hasta
reg
##incip
cam
##qui
man
17
Su
##cha
mun
tod
##onde
desde
##lación
##ares
##tico
deb
##odo
var
##embre
##dos
princip
##gos
ej
##pañol
##tivo
##istor
nom
##ara
sin
nuev
inf
10
const
tien
##pres
##alidad
año
##ip
Las
Fran
##ena
##rec
##ño
emp
##ías
oc
##ard
prop
si
Le
##ora
##gr
196
donde
den
Arch
##cio
##cial
##all
##unto
Na
##adores
estado
##dad
##px
am
##able
##anos
##iones
##ajo
##erv
pas
##orte
##paña
16
##ea
##zo
##ición
##rig
Archivo
##vo
##ber
prov
##uro
español
au
##ord
durante
##rad
##endo
##du
##ió
12
era
##ine
##ros
##óm
##ema
ya
##isión
##ala
##rans
##amiento
conv
men
##rist
##ble
ver
##entos
pod
siglo
##pués
##bol
##ge
gener
##car
##iendo
##edad
##II
##tin
of
##ve
cual
##gan
der
##itar
##rib
##ular
espe
##arro
##ruc
algun
##argo
##omin
##tir
##éc
##pec
##tal
país
llam
hac
España
##ita
está
##ase
##gua
dist
forma
polí
##encias
11
##tado
##ura
puede
person
Por
195
min
##arse
##ll
inv
##ío
##olog
primer
##tras
##ja
##úbl
mon
Gu
otros
##ik
##des
##mas
##tiva
14
194
##je
##ús
Des
##istas
##íst
contra
##pon
##anz
cent
##ritor
##lti
##ña
##no
##eron
dest
Ju
cer
##ima
part
##nos
##istoria
##icación
sal
actu
##mos
##anto
emb
ma
##ron
##ren
Pro
193
medi
cuando
produc
##idades
##ito
primera
med
##pl
muy
us
##ór
Bar
##uerra
##unque
##erno
##obi
##eci
Col
13
import
rec
##fía
trans
Cas
As
##mi
Mon
encu
##tion
Ma
The
tras
##miento
lib
Am
##lar
##illa
conoci
gru
había
##iden
después
Co
lug
ten
Cu
##eces
mismo
Pa
##chos
cap
realiz
##omb
mayor
##tiliz
uno
##alle
ch
tiene
nombre
##oma
##fec
temp
vez
##esta
Jos
##aban
pe
##ícul
##ril
can
##tores
##idas
apar
encuent
especi
##úm
##ne
fueron
##atal
cul
##icip
sist
super
mil
así
192
po
##stitu
tu
ind
utiliz
##ientos
trab
##emás
Te
Per
he
##obierno
anti
últi
##esti
##ología
##ell
##ider
lleg
fran
Man
##oy
##cis
Ad
Ac
##ris
##va
##ert
##oca
##udi
difer
reci
##aje
desarro
tres
Or
Lu
##ile
fe
Me
##form
her
hi
edi
##der
todo
ev
Estados
##ental
##iano
##empo
##che
25
##uego
Cam
##rá
cos
direc
mod
sigu
elec
##atro
exist
##olu
gra
segun
##ian
han
comun
loc
##óg
##arios
Jo
Univers
pob
##uso
##eb
repres
ing
fam
fun
inclu
def
##tivos
##ult
cab
lugar
bar
##aria
##tec
estadoun
000
No
##inas
Unidos
##umb
##ven
Juan
##tur
##tación
##jor
vol
##gent
191
##idente
##ancia
pel
##adr
##endi
sec
##ital
Gran
cl
cal
sim
tiempo
Sal
is
##rem
aunque
provin
solo
##pi
mi
##por
##esto
##est
embargo
quien
Ale
##cos
##ific
##edia
sur
rela
publ
co
##rom
##rit
##cep
Sin
cada
Mé
mis
Mun
##quier
sido
##ang
núm
##ial
##th
##ieron
##ior
##pg
dec
##ver
##ene
jpg
##ños
##tural
pla
2005
consider
Is
##iente
##cid
ale
##inos
pes
trad
bas
José
Inter
exter
cant
municip
##lec
##az
seg
fund
##cri
##idense
todos
##cel
equi
otras
##ice
##íf
##cer
##ól
Euro
##ferencias
Cor
gu
##ticos
##eta
tanto
estadounidense
##pti
##ientras
##ama
ofici
muer
##bo
pl
ori
##cil
##ible
Nacional
##ilo
población
Seg
sub
ejemp
##fr
##xico
hum
##tera
sistema
comple
deci
mo
jun
##ración
art
contin
##acter
pueden
##ria
ne
30
##ierra
##laces
##ulio
th
conf
bajo
##enz
##cula
##ológ
##ribu
Ex
##ah
##ticas
##ública
val
gobierno
##lub
escri
hacia
li
general
rev
##ep
##ung
vida
##osa
hay
##erg
##érica
##be
##ies
plan
##tó
mundo
##eno
div
##ció
inici
22
México
##icamente
##yec
##elo
llev
##rí
econ
##ganiz
##au
encon
Can
##eder
Val
at
##me
grupo
##xim
inst
rom
externos
Sh
und
Este
##ya
##duci
##oco
##tis
##ula
gan
ni
op
##jos
##erc
##anda
están
número
##eza
21
Enlaces
Si
algunos
##dose
##uela
##lio
##grafía
##imiento
##dial
ese
dem
historia
af
apro
conc
##terior
tor
##ría
rey
##ece
bien
estable
##yo
##ác
Pe
##atos
24
##uerto
lu
##adrid
thumb
##erio
##ban
23
siendo
##ám
##chas
##ide
##gles
Para
##rea
famil
situ
dere
##pre
proces
av
Cal
##lig
Referencias
##ues
nuevo
##mit
También
estos
Madrid
##cionales
Ne
mús
Universidad
prof
##ál
##este
##land
##gar
serv
mejor
mus
##ilidad
190
##hn
Esta
antes
mientras
provincia
junto
Nuev
dici
##adre
the
alc
##ele
##jer
ins
parti
##tonces
##má
##icado
día
##oso
Cent
##ecu
##turas
poder
##ítu
clas
##eric
ref
otro
##ola
destac
pal
2004
len
territor
Qu
norte
##cimiento
##llo
##tubre
da
Lo
##ond
cin
##nacional
##ff
##rigin
él
ejemplo
et
peque
recon
mayo
final
##ptiembre
obra
##ft
##adio
Francia
##tam
and
And
So
inform
##ong
mill
represent
incluy
##rag
Santa
fil
##ería
##lev
estudi
guerra
##dep
##riz
##ícula
##0px
##brero
##dió
II
encuentra
##ques
pi
entr
##emas
neces
debido
caracter
ún
##cas
##lor
##aría
julio
##ke
diciembre
##él
##tió
##lés
ép
tar
octubre
entonces
vers
Pol
enero
trabaj
marzo
jug
septiembre
##ólo
die
##aciones
nacional
además
##fo
##tamente
##minist
mes
##ple
##sa
Pla
Bo
##rop
km
##ivel
presidente
##ár
##ts
##gosto
tipo
ro
junio
exp
##bió
hom
tot
Di
##ical
Part
Prem
tom
Tor
##rado
varios
100
##mán
##ual
tex
personas
Mus
distin
origin
doc
comenz
menos
mit
##ator
inte
##tist
grandes
##ite
present
vis
Sch
##ientes
según
##olo
27
##omía
trav
26
##ng
Ge
agosto
##viembre
##rió
viv
tér
2000
er
Her
##uen
##pública
zona
28
189
cuenta
fu
inglés
ven
##glesia
##ciales
abril
serie
autor
pop
comer
equipo
##gentina
##ry
orden
activ
nivel
##ole
organiz
##ritán
2007
##bio
##emb
Carlos
caso
##icar
##gres
mom
##izo
Th
noviembre
cuatro
Ab
Luis
lí
divers
tempor
contro
2006
neg
Guerra
XV
Historia
principal
##onia
##das
través
partir
##eras
época
hacer
María
estaba
río
importante
mov
progra
mas
##quel
Prim
centro
##ím
2010
Mor
Una
Ro
Sa
##rio
millones
Estado
##lin
Gar
##istór
hace
sí
Ret
##guas
otra
febrero
efec
##cito
##lí
##ira
mayoría
unos
Pres
medio
##bier
dirig
##tivas
Durante
caus
Ra
ide
continu
capa
muchos
##icio
##éase
lín
dentro
Mo
uso
Francis
##dor
##blo
señ
ante
ellos
Chile
encontr
tienen
##tbol
Res
##ex
eran
ay
##olución
##iel
##fica
político
##iblio
2011
habit
película
##rera
##irm
2008
dep
muerte
##ajes
República
dej
minia
tuvo
constru
##icia
2003
Ped
##lb
##útbol
##jas
artícul
29
##cés
constitu
##zas
fr
pat
int
##rucción
mé
Ver
Europa
pin
##untos
sign
cuer
188
##ruz
permi
##reg
britán
##ph
proyec
##iedad
##ág
##ein
amb
##ormente
Reg
región
##abor
capital
estas
vo
públ
ocu
##iana
##ev
qued
##ok
hecho
manera
aut
ley
##udio
política
##ire
ag
sue
##tan
##ak
Anton
Ter
empres
31
Fern
Au
amp
tal
##ional
económ
cele
##ef
##usión
##tín
##cal
2009
Fue
##uda
mujer
banda
##utbol
Imp
leg
diferentes
Copa
defin
##urs
denomin
##itos
dich
##posición
##onas
gol
CE
##ivil
Mu
XX
Tra
apo
punto
Partido
John
obje
##ht
##rez
##écn
##ick
países
##serv
color
von
##teriormente
Nueva
##tel
##ign
##tio
prom
natural
sent
##lbum
Véase
##ítulo
algunas
##ann
conj
momento
cier
partido
##cios
influ
##ército
relig
##ck
ata
segunda
##iga
##anas
segu
##are
Argentina
##mientos
largo
##ans
met
espec
##icó
##bra
Además
Mundial
compu
##tia
origen
agua
francés
##illo
perio
escritor
todas
dif
##tados
poco
##20
cir
##ictor
igu
Francisco
##bros
##ari
Min
misma
##anza
familia
cambi
##umento
##áp
anim
gri
segundo
Ciudad
##alla
exten
luego
Lib
Rob
espa
Esc
Po
pers
187
varias
desarrollo
ub
esp
trabajo
##imo
##ifica
2001
desc
Ca
obras
música
les
termin
##cido
esto
##fa
aquel
desarroll
##ándose
déc
Pr
em
siguiente
id
días
Entre
2002
nueva
Mi
##riv
50
veces
##li
gen
domin
##oro
refer
##zar
##ñas
Pedro
comb
ge
antigu
histór
convir
##cl
##endencia
haber
indep
Tras
último
##chen
Premio
##vid
Real
má
##omas
##ética
##ument
Be
Er
##aja
elem
proble
Soci
mediante
##orn
descu
lanz
indust
térm
mat
##lic
oficial
principales
##obern
##ós
ra
incl
toda
##gas
##fon
##cidad
XI
##uerdo
40
municipio
Perú
2012
ital
tri
inm
Gener
Fer
##ka
Barcel
##esa
indi
habitantes
Ital
cuales
##men
militar
##mania
hizo
álbum
186
fre
##embros
ur
##onio
conoc
##ha
##enci
llamado
##una
##unda
actual
Gra
Pal
social
num
Ha
##igu
##ork
Pos
##xic
Sol
##port
estre
##ización
Barcelona
##ificación
conocido
Ber
América
administ
exper
##ye
casi
##ísticas
##ock
tan
##uras
##bles
##ho
##ilar
IS
Antonio
primeros
Die
total
ein
palab
act
##arias
1999
##ub
Desde
ella
##ger
expres
Fin
sino
logr
pap
##rán
##uegos
tener
Cab
##arca
pues
hu
estruc
tenía
tarde
##via
nav
Har
dise
##ment
##ulo
respec
resul
conserv
At
derro
profes
fal
ah
crist
norm
##atalla
Ho
##ígen
##iencia
proceso
##leo
univers
Club
isla
via
##ensa
##iva
red
##gon
expl
##rac
debe
##íos
##hi
Gal
1990
Como
territorio
##antas
##one
importantes
##tiene
popular
tradi
actor
##emos
temporada
im
frecu
decir
Bol
##bur
Sur
##ki
Ser
técn
##tivamente
Biblio
##eas
##mar
##III
Alemania
Edi
base
##enas
interpre
##ística
##orge
porque
perten
##adora
disc
2015
deter
##var
hijo
vi
##quitec
Ven
pueblo
##itor
blan
comien
éx
##ró
Ben
futbol
##empre
mant
##mana
común
##icada
compañ
compar
frente
##zos
investi
1998
española
##eda
término
##ículas
club
mal
##RE
Ros
##rede
##icios
To
2013
##bas
Reino
##tada
ju
Div
Pat
##uri
incluso
producción
cuar
ir
##adamente
pose
crí
##ogra
hor
##ler
##ST
Italia
185
##zquier
Internacional
Manuel
##mon
control
cat
obten
ba
##iza
##avor
Castil
##iles
pesar
acuerdo
35
##emor
##bir
2014
ocas
alcanz
Unión
##tud
esa
Will
##partam
##ves
Ap
St
##ultura
igual
##vin
##DI
grupos
##inado
##etro
ve
histor
Aust
lim
pg
mucho
183
##ardo
real
línea
condi
##agn
observ
posible
etc
Dav
Ram
##ind
##onor
ded
Iglesia
Hu
versión
materi
gén
cinco
##cin
sab
ep
cerca
##her
Cap
##ale
##crip
siempre
##itud
##ánd
##igo
1995
merc
mor
##tiago
##teriores
##grá
##unt
##ei
có
##bor
Cos
1996
Pas
euro
habían
fac
##vió
##ix
Santiago
cualquier
Mig
padre
##yó
Ol
##entemente
Ind
##iso
##BN
1997
Rod
título
reconoci
ren
##ack
bus
##levisión
finales
184
Vir
##ulares
determin
corres
futbolista
##icaciones
##ega
atra
##pan
década
fuera
fís
muchas
Ste
construcción
favor
on
fa
ISBN
Pu
lado
He
##pación
gobern
45
##omo
##rito
alemán
##rón
ast
disco
##ombres
actriz
Crist
civil
##tic
##amp
##quí
##aco
##ced
##apar
##enn
datos
alrede
##cimientos
bu
Ed
casa
sea
miembros
Rec
1994
##tuvo
prote
III
energ
relación
##guay
superfici
Med
01
##tran
1991
##dez
declar
pen
32
##iene
cambio
Rom
conjunto
##iam
for
##íc
##americ
estudio
Cuando
##tero
1992
##tien
##porte
papel
Gre
##tiz
##oles
Norte
numeros
##iment
ello
eleg
separ
Fil
##istro
ases
encuentran
1980
enfer
##ila
##enso
Imperio
Dis
tec
Miguel
perman
##tt
localidad
ciudades
propio
frances
33
Bel
##etas
Según
Ba
fig
##andera
produci
prác
##ür
soci
181
az
##oto
especies
##ulas
dispu
Martín
Je
mexic
##ientíf
##uls
##ender
##lich
llamada
Mil
##ará
RE
extra
##bal
Después
##sch
ident
Institu
2016
vuel
##dico
principalmente
##udo
emple
agr
edifici
##ere
libro
##arra
hoy
partici
izquier
rep
ima
##aran
##íodo
sex
comenzó
to
##erop
Ej
sería
May
182
Mas
##ner
Wik
encar
##nas
Centro
result
Campe
sac
ejército
prem
##hu
Mal
movimiento
fon
dio
nombr
##turales
conten
León
##reas
éxito
enc
París
Super
estilo
##lia
conta
##lad
inten
san
##ético
Esto
información
Algun
estu
aún
Primera
2019
##íp
liber
europe
religios
acep
Ob
puesto
aproxim
Rev
##greso
educ
Son
Feder
relacion
##ance
##ham
campo
##puesta
director
1993
##emia
##tista
York
rad
Li
Oc
2017
llegó
2018
##rum
Mich
##hr
Colomb
arte
36
##rimonio
Sus
##urso
Del
##icular
Ing
##pas
General
##can
gas
##onato
modo
##ess
área
última
Museo
##ight
cine
fer
ambos
##inación
apl
CEST
cuerpo
##fico
Ru
especialmente
prob
##laz
significa
Bal
Nav
##estiv
obl
electr
arquitec
mol
cantante
sen
##gust
Rey
Segunda
sólo
valor
Aunque
institu
60
Gobierno
elecciones
público
Comun
trop
##alo
##ictoria
ór
argent
##alización
artículo
##idencia
##ables
##lla
batalla
resto
##ric
##gue
Roma
##rique
principios
consecu
Fu
##cía
Pan
aband
convirtió
##vieron
ráp
##ini
fútbol
anterior
##REC
miniatura
00
Ta
##entales
Dem
alrededor
Jap
##uenos
Bras
regres
puntos
hombres
Colombia
##ity
campe
cantidad
vir
estudios
Ast
##ém
División
científ
##ecer
##rar
carrera
raz
proyecto
##ires
juego
mad
auto
##amos
##ducción
##iro
##ley
##iciones
cont
##ografía
1970
##tá
Ori
##DIREC
Fernando
original
##gación
siguientes
New
##tus
concep
modern
enfr
XIX
REDIREC
menor
80
edición
##eles
central
pens
pág
##ore
##iere
##gado
dic
tur
##medad
##ecen
##culo
##lav
selec
Fel
##partamento
##ines
##illas
suf
Cat
vel
1989
##eropuerto
cargo
energía
##ónica
William
Ay
Tierra
trata
##segu
Don
Río
dar
compos
programa
du
meses
cultura
##quer
ru
primero
pon
Rus
China
tempera
Mag
libre
País
funcion
algo
conqu
##estra
británico
alta
##ins
lengua
representa
elementos
##unta
intro
televisión
edad
##ístico
mos
distribu
estar
antiguo
zonas
jap
##ides
##vela
monta
eta
Sant
Ph
Alber
##ly
período
Catal
##cidos
ambi
conocida
38
Pero
Mc
único
##etos
##tif
internacional
##itas
bor
grab
##teratura
contr
##iar
34
Char
lar
##erador
conte
##vers
partidos
cum
37
superficie
##terra
metros
extre
equ
Ger
tierra
superior
fi
##we
##irse
ocur
capacidad
##ást
posib
##pera
Cruz
hombre
respon
mujeres
italiano
Lond
1986
abandon
resultado
alto
##aca
sociedad
##éndose
##sen
Bas
##tell
fron
reun
luz
colon
cabo
300
Mat
Os
##lado
posición
función
Jes
##uales
Así
género
especial
##leg
Go
bal
izquierda
aus
Nic
##iste
individ
unas
##wa
espacio
##taciones
abs
##eció
Español
##dujo
David
Mejor
##onz
##bel
##éctr
oblig
##ceso
1987
Acad
Fre
alter
fuerzas
ellas
anun
interna
##vent
industri
##ram
interior
1988
usu
##endiente
casos
84
Do
particip
##ipedia
97
Buenos
##ciación
##forma
modelo
propor
Pre
propiedad
actividad
Brasil
##teca
Lin
honor
fuerte
Aires
##titud
sie
viol
escu
##ime
argentino
Constitu
Tur
41
idi
##alacio
##unca
##sejo
##ome
##ológico
##dif
empez
##bu
##ror
terc
from
enfermedad
##ws
##ille
Anti
vent
enfrent
##uridad
Bur
##50
cad
##ald
70
1960
Hay
García
dispon
1985
recu
##rada
Villa
##ianos
ho
Domin
##cto
clás
desp
Japón
nov
existen
correspon
##jar
Gru
##laterra
##tró
situación
##úc
##bres
Pel
fecha
##cidental
Inglaterra
##mac
Día
Ford
problemas
causa
local
os
1982
##tagon
1983
particular
Vol
seis
colec
mencion
sistemas
Bor
cop
Unido
servicio
Cl
sede
39
Dios
Trans
##elos
elim
##net
##ánica
paso
aparece
##berg
sa
derecho
##isp
afec
media
Bern
##ég
##ólica
##elas
##ática
Municip
##bido
##ker
##ches
secre
##otas
va
persona
creación
##uf
mec
existe
Em
1981
Venez
Sim
##idera
##ego
oper
estructura
##ipe
imagen
acom
##úa
teoría
##iencias
Sec
verdad
##rade
oeste
##andida
##oven
##cidente
diferencia
##frica
##table
Pue
42
##isis
Bra
finalmente
Castilla
conci
##uelo
periodo
derecha
##ko
Air
antigua
##ianza
prue
Orden
opera
Medi
##dap
##odos
##erto
presencia
Hum
propia
##ciendo
1979
##int
Pers
esper
##ace
tama
pron
Tom
quím
Ur
ado
hid
##ocidad
##ps
##ania
##istencia
Provin
suces
##yn
primeras
##tón
fundam
últimos
ahora
##blos
##genes
Yo
fá
##genier
grande
baj
posteriormente
##guna
##ese
fuerza
asc
principio
##onda
##tistas
1984
##mano
500
Gonz
Sp
dirección
mej
partes
##cepción
tecn
diversos
tropas
web
provoc
Cer
sir
servicios
tema
cel
##neo
##ández
Instituto
##mer
##amientos
Ja
##ware
mul
descub
Bibliografía
nuevos
180
llegar
estaban
actualmente
##uros
nunca
gracias
90
##ursos
Ev
##rup
regist
44
Fe
arm
novela
##etra
cuyo
43
permite
voc
##ive
Puerto
##gip
Br
Fo
descri
poc
Tu
##rados
##tante
sem
Pab
ayud
##gal
##iado
Liga
Dan
##rir
48
##ierras
influencia
incor
empresa
##10
##adura
##rich
##len
arch
##sta
puer
cic
señal
sos
##asa
##rios
oro
US
Estos
espos
Venezuela
palabra
##laciones
##cher
marc
din
clar
Áng
madre
importancia
reac
##lez
varia
##atemá
milit
Cla
méto
IV
Rich
Hol
alg
sust
medida
##ácter
##gran
Que
Ti
apoyo
das
canción
lig
consum
nuevas
Dist
ps
velocidad
presenta
##iss
actualidad
##ático
Ley
mic
##eses
##ximo
On
reco
Pop
Jer
##fe
##efe
##aya
##tim
dice
Bu
aproximadamente
##gel
##turo
carácter
Vuel
##ideo
##ivos
Emp
respecto
##tino
mundial
##ategor
Fútbol
tamaño
##ival
obst
##uración
celebr
##ames
##tom
dicho
##edes
adop
incluyendo
adap
##embro
jud
##lust
##xto
personaje
encontra
##bierto
##ame
características
ocup
mens
##andro
priv
cerc
##puesto
cuya
intent
##ated
##lores
tab
##ks
##bar
artículos
##cripción
Bio
van
##ificado
Enrique
sentido
##estival
Casa
desapar
prepar
texto
titu
Paul
##ruguay
formas
material
iglesia
Mac
conven
sitio
firm
##anca
##óv
fab
chil
crecimiento
Londres
1978
mitad
Congreso
diversas
miniatu
75
protagon
##ono
núc
formación
##gn
podría
##imagen
##ortes
magn
Jorge
46
##quía
##emen
ta
1976
just
##nd
##ancias
colabor
do
interés
líder
manif
##límp
simple
##ertad
##quia
miniaturade
miniaturadeimagen
##pez
Costa
##edra
##onés
consigu
##inar
##enses
radio
costa
extens
islas
eléctr
pasó
liter
Jesús
Az
muestra
##estión
##tando
179
amor
##isa
47
##américa
##órm
##wn
flu
##irma
##tual
##uestra
Fuer
tales
##ucle
referencia
1977
concent
long
Plan
emperador
depor
##osp
##ultad
##dieron
##alidades
aten
##óst
##art
musical
##uña
urb
tipos
hijos
##fonso
retir
##ológica
##cina
##eos
Robert
Pi
##lán
realizar
##icción
##umentos
fra
Pablo
Bro
pobl
##ismos
vig
##alista
divid
comunidad
##adal
Du
##enda
##ky
economía
Mur
text
1973
##ticamente
estuvo
##ato
Academia
nin
##amb
sector
Ban
recibió
##aro
Año
##ade
organización
etapa
bo
##isto
corri
51
Wikipedia
##dica
##amil
Jean
##anci
españoles
foto
memor
PS
##ys
##ense
compon
quin
##ablemente
Cre
Consejo
##digo
dur
Más
1974
pri
##olucion
##ífico
##dir
##itz
elev
Salv
Jul
1950
1975
aspec
Elec
Señ
extran
derechos
griego
Europe
Leg
##usa
Vo
Algunos
Andr
aument
##ulos
acab
##ragón
##peti
cri
productos
canciones
Sil
Felipe
##ure
objetivo
##jetos
##ella
Flor
única
52
Const
##arlo
Actu
pan
especie
recuper
##itan
condiciones
ocasiones
entren
personajes
kil
##itario
##ander
Parque
Alej
##ward
be
##ise
similar
conform
Cons
##chi
Central
integr
ingres
plantas
premio
decis
realidad
mercado
Bat
Gol
vista
##TA
sustitu
##onte
acción
##ensión
##ash
acompañ
ejer
idea
Luc
lista
till
##isiones
cuanto
##sula
matemá
##guez
##ux
bomb
actividades
pueblos
Da
nego
##abilidad
aire
53
Ag
sencil
##tz
ofre
edificio
##pues
Portu
romano
histori
Just
Otros
##its
efecto
mez
utiliza
Sud
instal
##ír
##col
##isten
auf
Austral
##dios
##iller
Aeropuerto
##mite
Mús
##torno
##ld
dia
##oble
guitar
##torial
Alfonso
Temp
##pes
dado
##tería
cél
##rael
ayuda
animales
##icales
Monte
Hen
Blan
equipos
##manes
49
ejecu
Arm
Valle
Vic
proc
km²
guer
vas
descon
joven
period
178
refle
02
##énd
manten
##ish
infer
cultural
gal
55
Sam
##órmula
relaciones
mer
##fos
##terrán
conflic
incluye
calle
posee
esf
permit
produce
palabras
REDIRECT
##publ
traslad
dig
Lor
Lat
considera
lugares
##ela
Ló
aprob
Kar
compositor
mater
##rismo
##enes
variedad
##sh
altura
64
aust
generalmente
Vi
temas
##ende
##CI
##imientos
Lima
##ischen
Christ
##óc
##igos
victoria
miembro
##ográ
bás
ár
categoría
diseñ
llevó
##tional
compañía
pequeño
##ezas
1968
allí
Edad
dios
quienes
##undo
ens
mayores
##ónimo
1972
Valencia
clase
fen
##culos
##ferencia
Wil
##esión
##manas
conce
##ges
##ingü
Met
##ciente
contribu
54
##cular
##tismo
López
demos
económica
blo
##risis
##jes
##ayo
##tesis
calidad
##ribe
##mágenes
##ith
pag
ent
Fr
pred
##tía
##ste
##ólogo
##ortal
células
tercera
envi
Bre
educación
tierras
##iados
lev
poeta
investigación
##yen
##eso
estra
Econ
##ibles
##dados
##val
##onomía
realizó
##diendo
##álisis
##ertir
##tig
56
##ael
temperatura
##isla
figura
##olas
Sen
recha
hermano
Men
cruz
##ítulos
siete
jugador
Peter
destru
otor
labor
##ierte
deriv
##dición
diseño
##ster
minu
lenguas
Direc
org
objeto
JP
##ique
Win
##fil
repar
##idor
Estas
considerado
asoci
Jav
##ilio
Pin
1930
nos
tradicional
rock
mexicano
03
##gin
literatura
noche
existencia
##tividad
regiones
##itado
plata
blanco
independencia
##itivo
2020
##empos
transform
industria
horas
##anía
ganó
1971
Ir
Oro
##fre
##onel
Ga
##ónico
##ámara
04
traduc
cla
Mod
1969
armas
esposa
medios
siglos
##avía
indígen
fru
Mos
publicó
##orld
##ural
##ionales
lengu
catal
logró
candida
humanos
Vill
##ingún
Nov
respons
##reto
Mer
##ath
campaña
20px
enci
##ispo
58
##umen
##tadas
Rusia
zu
conduc
Sig
francesa
tercer
ára
cuad
##quis
administra
organ
falle
división
departamento
hija
Wal
conoce
personal
Constitución
reduci
parece
Santo
África
crear
##atorio
##omé
consegu
We
##bil
Juegos
baja
##iales
nombrado
evitar
fuente
Plaza
pudo
encontrar
longitud
##torio
sh
##cán
##reno
decidió
wur
cumpl
Minist
1945
##ze
##cipe
pequeña
Fa
##dida
##teras
cambios
incorpor
lin
##viv
##uma
escribió
municipal
Hab
finaliz
##rin
Pl
##pir
estación
mejores
##ney
##RA
elabor
impres
políticos
James
militares
azul
surg
comercial
##edio
##señ
revista
##idores
für
##tario
elegido
acer
Mel
veci
parque
XVI
Boliv
06
##gó
##có
ministro
alguna
Campeonato
atribu
arg
demás
entrada
##ocrá
ningún
distintos
Gonzá
Polí
dicha
Indep
mando
##ars
Michael
VI
##public
65
##rey
Jun
obtuvo
falta
1967
Presidente
lleva
extranj
eso
57
##up
bos
##xima
convertir
diez
sociales
libros
cabeza
funciones
Bandera
##atem
problema
menudo
band
Sev
##itán
Merc
ban
mano
mantener
Riv
histórico
Hel
voz
##estr
manos
qué
##wer
##ombre
típ
Len
González
Pé
##ben
puerto
tiempos
humano
##íncipe
1940
arque
Mol
Inf
quedó
##vas
niños
XVIII
algún
##tamiento
##vis
Sta
##wo
##use
##imen
líneas
obstante
Sub
idioma
portu
##ológicos
Fund
teatro
don
##olit
##idamente
símb
Salvador
##FA
05
##ínsula
proporcion
07
##amento
##aug
tradición
presente
aquí
obtener
##nes
##ics
comunicación
##orr
reino
##atedral
dim
nucle
sigue
##taron
59
##abel
##iación
##rocar
increm
Dar
##untamiento
##iestas
##30
Portugal
##gia
contemp
##ámica
##tillo
Tri
Red
numerosos
Aragón
verano
nacionales
ciencia
Clas
posterior
peru
##endientes
sín
##AS
será
naturaleza
dra
Jan
empresas
##omina
Calif
suel
##aga
Popular
películas
Rodrí
áreas
Ecu
##ican
quer
Rodríguez
realiza
09
toc
resta
##ftware
##ull
##su
suele
autores
golpe
##tina
clima
Rafa
Gab
circ
escuela
##olos
ist
##dado
Fernández
##minos
transporte
camino
distintas
ataque
##don
apoy
coloc
Escuela
##adoras
Edu
publicado
tenían
conec
Op
secu
concepto
##íz
Diego
##mann
##rend
##uss
protec
Doc
##cida
Virgen
jefe
Música
planta
Bos
bis
dan
imágenes
bi
Sist
Tar
Pac
todavía
##cent
##trás
perió
##ington
##olid
1920
Sab
1962
página
##cla
##ólares
sens
1966
Salam
##uelas
papa
autom
restos
Actualmente
Der
##rista
##fi
pun
práctica
libertad
Ejército
efectos
##teros
##ium
68
Alberto
design
George
1964
inicia
##bierta
bio
bel
Australia
mediados
inmedia
Wh
177
pintor
anteriores
modif
##amble
##alizado
seguridad
World
##viética
aj
Olímp
pública
##ánico
asum
femen
##dea
Sierra
lucha
acceso
enem
##char
solu
##lie
Jac
##diz
gira
distancia
habla
##izado
perteneci
Sue
##lag
crisis
76
agu
bot
estados
##inal
Mit
##icados
Richard
Loc
##ples
fase
##óme
66
Dere
Lou
Palacio
hici
##yas
##NE
secund
dibu
selección
jugadores
##11
corte
Ya
objetos
deben
400
wik
resultados
poten
##bia
unidad
añad
llama
cómo
##taba
volvió
financi
reemp
##ómetros
Form
trib
Cá
##odio
adel
contiene
1936
CD
##rano
buena
Provincia
##minu
Ara
Alex
Media
##ombi
carb
Mad
inicio
08
Jim
##icultura
Grecia
##ierno
razón
salud
62
dólares
internacionales
nombres
°C
habitu
Def
Española
99
##ificar
naturales
Rafael
Cór
1965
bre
utilizado
Torre
buen
##égimen
ecu
viaje
matrimonio
##tienen
incluyen
77
núcleo
fuentes
##orme
Sy
##rían
pró
##ford
##enario
##ices
##AR
Serv
pris
Festival
territorios
##áticos
##terio
Pérez
Californ
consecuencia
##llas
##toria
Radio
Cul
Nuevo
individu
Guadal
ocho
##esía
Arte
##cht
sum
formar
##imismo
##cede
Alejandro
provincias
##iores
72
74
Notas
gente
glo
##ua
llegada
produjo
oficiales
locales
##rill
##lamento
portugu
bandera
gobernador
Mientras
bol
Ferr
##ius
Educ
celebra
Av
tre
castell
disminu
administración
1963
afirm
##12
arro
ec
als
##egio
comienza
plaza
67
Luego
1958
pot
políticas
producto
ambas
pul
##unci
Cultura
occidental
98
pocos
Mov
##abil
Sevilla
##ócra
##pol
California
Uruguay
Dec
##bes
Salamanca
sonido
JPG
pad
repro
Ep
convirti
aguas
vac
Ni
bene
números
##gada
Julio
##ife
frecuencia
Asia
difí
cub
hip
##eth
votos
##gráfica
memoria
lenguaje
Gas
Pon
enseñ
forman
##eca
tend
estim
sufici
ingenier
##últi
##stein
##ersión
artes
Frank
bastante
##izar
recursos
##ód
Bon
Charles
situado
78
supon
Dos
##vención
ingles
##illos
usa
trabajos
Está
podía
numerosas
Star
August
sup
##putados
económico
participación
##endario
96
dé
términos
73
##yos
Aut
##idenses
pequeños
mm
excep
vari
negro
sich
Pier
nada
150
##clo
conquist
Egip
distrito
Nor
amar
##ER
proced
##ropolit
lec
Vas
Guatem
Teatro
hier
##ómica
pasado
##eae
Má
toma
##ilares
Organiz
video
For
presión
ras
Sar
conocimiento
sang
Eduardo
##antino
85
Jack
##tiles
Canad
##enos
Grupo
Josep
antiguos
alterna
hacen
Phil
##tora
Gan
cort
##olf
som
municipios
Estudi
##osofía
Nob
Debido
##ecido
##itación
usar
Americ
Córdo
pér
Depor
##cam
dijo
invas
acus
árbol
##ospital
##chez
técnica
##ortun
maes
Civil
Cataluña
##ída
inaug
aquellos
ol
Estadio
visit
Bolivia
lic
cosas
India
Sem
juegos
##tern
kilómetros
63
flor
vuelta
##amblea
protes
##hib
##imos
soldados
precis
creó
comercio
yo
##reo
aliment
TV
1961
doble
##ör
95
veg
Falle
Ál
pequeñas
vie
##AN
específ
##tum
tro
##entado
##rieron
ninguna
física
vía
##bit
colores
carre
futuro
CO
##zado
##eral
Rica
##tle
##hal
88
##mento
##burgo
código
metal
##way
##icía
estadounidenses
mand
Baj
##mentos
Tour
##dar
rebel
dejó
amplia
##americana
##manos
tem
Art
perd
##dicos
Guatemala
exterior
##bita
directamente
##anes
##questa
japones
eine
Egipto
mag
Fac
paz
Tro
americ
1956
Andrés
extensión
##identes
##itiva
masa
formado
##ocra
##erse
##cionalmente
ang
canal
grado
1939
tron
250px
Países
opin
compet
##venes
Finalmente
AD
sil
##amas
Rena
##ast
adi
##ij
contenido
##ello
Jah
##óvenes
69
Ein
##uth
acerca
Mic
reserv
Neg
##enca
Posteriormente
Tal
expe
##ficos
ampli
península
constante
ran
Ciencias
escrito
##itaria
##sidad
Paz
##oll
flo
PP
Fórmula
##tions
##quez
profund
##toral
##ivamente
1948
##bert
fenóm
##iloto
avanz
método
dispos
1959
Sán
##inc
Mayor
##izada
Martin
llevar
##cop
campeón
reina
##rana
necesario
Ramón
##mina
biblio
Gro
asist
Córdoba
##urado
Otras
##éro
Bla
Biografía
##ultados
crea
utilizar
##uno
barrio
circu
Vicente
##yendo
hel
cál
unidades
ib
estrella
Ke
goles
máqu
comand
alcal
mín
##eto
##logo
##clus
defensa
##antil
promo
##día
1957
##óso
##anzas
facil
competi
##iera
terminó
máximo
##inta
##éticos
hubo
Fl
DN
##inato
##bilidad
##venida
convierte
978
elemento
ox
periodista
Escritor
japonés
ríos
##19
##com
artistas
Aso
desemb
tomar
War
dominio
programas
valle
##igen
crítica
##imentos
Sánchez
##ponde
régimen
llega
Ten
coment
pelig
Tiene
##han
nega
##icht
hora
##dan
pant
distribución
preten
cierto
##edi
wurde
##orán
sor
program
##inastía
##ieren
ed
imper
solici
My
respuesta
feder
asent
salida
humana
materiales
volver
proclam
Hern
Tod
acu
Tre
fácil
acad
inferior
right
Amb
vein
##by
ilust
clasificación
82
Inv
minutos
Existen
##ungen
##ísticos
Granada
musul
1946
176
proto
vio
tratamiento
dirigida
profesional
madera
Indi
1955
rojo
Domingo
##orado
Ángel
Canadá
tecnología
prev
##cidas
Ecuador
empezó
##amá
técnicas
aparición
Carta
carga
interes
86
Esp
Isabel
murió
Sociedad
edificios
cur
circun
pasar
semana
reconoc
left
almac
##landés
fines
nues
##ículo
79
explo
señor
200px
##ecut
valores
Álvar
bra
representación
##ayos
Aten
Mario
versiones
amena
##uz
torneo
frontera
Ib
XVII
##pac
ubicado
fus
bloque
##OS
Sebas
1952
realizado
ase
órg
análisis
##ardia
87
jue
##af
benefici
resistencia
jóvenes
creado
centros
arquitectura
escudo
##gica
fis
piedra
triun
Bill
##fric
Israel
suelen
consiguió
aumento
contrario
ruso
##úl
naveg
Van
fol
##orth
1954
dese
##ficas
dict
sv
##ata
torno
93
Cuba
situada
Ima
##18
cuarto
Ren
industrial
haciendo
celeb
independiente
##entro
Martínez
enten
salv
1944
pasa
grá
músico
Comunidad
Tot
1953
cé
suelo
expresión
corriente
##bito
niveles
múlti
esos
habl
Trad
##15
habría
Vall
carta
aso
Premios
Educación
89
##14
##geno
1947
mismos
completo
##rue
Artes
inició
##ota
##16
##ield
rob
Internet
Tim
##oras
posibilidad
##nam
##lín
Publ
probablemente
correc
nuevamente
aprove
##rero
##ecía
recom
caball
##ass
guion
FI
pruebas
Plata
##alizada
abund
1949
compuesto
##tn
participar
larga
##OE
tuvieron
Conf
Soviética
Agu
leyes
escala
175
nació
##tiendo
Bot
env
Ant
conocidos
il
##hen
ideas
ger
Bri
##ami
Sebasti
1931
seguir
apre
Hi
motivo
Cristo
svg
derrota
denomina
deten
Nobel
##ae
##ocas
detec
##fera
latín
geográ
##egas
Fri
Ham
##ológicas
##hl
acciones
Thomas
bras
##ité
92
Secre
##idió
##osos
##eck
##arc
escribir
Person
##win
hicieron
Joa
##terráneo
contacto
meta
Austria
cadena
##trop
Revolución
ejecut
##imas
levant
Ang
evolución
Biblioteca
tratado
##trar
Espe
Ig
Af
indígenas
1941
Cop
##deo
##rimiento
exclus
tej
aé
ade
estrellas
prac
##entación
Región
sangre
perfec
##itivos
##icidad
##riel
##ulación
encontraba
cif
religión
amigo
convert
##oroeste
combate
destacan
experiment
producir
##40
##rando
romana
##ische
##ínea
##tilla
vin
reform
##ardi
##uta
Ana
##ivas
##ün
software
##pla
necesidad
fondo
##istán
##age
##ibilidad
##yeron
alum
##eres
##zi
##ty
bur
generales
Asociación
##tri
Ern
verde
establecer
##ré
160
instrum
##rales
##utas
##áb
conflicto
impl
##fes
recibe
##íl
colombi
Escritores
Guiller
discusión
Administ
Gil
procesos
propios
histórica
católica
Panamá
##íti
##orada
Pob
lago
Javier
ago
##ates
Resultados
Cant
Zara
conquista
##ocracia
gust
##tios
cm
##uró
mascul
Norm
##itales
##ift
##igh
peso
##amo
Asturi
ries
Geografía
Tratado
##anc
Les
oriental
villa
##zan
esfuer
Alcal
##erdo
conclu
Cada
##ek
árabe
conocer
##uk
usado
##eración
rod
expans
absolu
cán
##lex
utilizan
pros
mantuvo
Películas
atención
gl
##ence
##pt
hechos
presiden
fabr
difícil
##acas
proteg
Sistema
adecu
##reras
##isodio
comport
##fel
físico
##gü
republic
dinero
fundación
##13
aquella
PC
83
Ze
##pro
##estos
noti
##ólico
Famil
viaj
llu
rápidamente
##inados
ampl
Europea
conden
rode
##ush
estren
##riba
##etz
artista
colum
Vuelta
##anismo
VII
##ird
subs
##entas
##ave
##ioso
nacimiento
##ficial
neu
británica
##eja
##ueva
conseguir
profesor
Guillermo
ll
marca
médico
Ayuntamiento
Cés
EE
##ey
1938
##ÓN
war
600
tren
##ters
conde
##acción
anunció
ambiente
Pap
##stru
sencillo
Fra
##din
1934
pie
Castillo
judíos
1951
equival
Wo
1929
##ige
Ministerio
Tec
títulos
##icadas
usuario
##burg
##bus
consul
##ague
##icardo
escena
1933
permitió
campos
1910
oficialmente
Bea
sat
llegaron
generación
posteriores
multi
##taña
##ído
coin
alf
##ñez
##arquía
##portes
dific
##ön
presidencia
ópera
##old
máxima
##denes
halla
Olímpicos
##pus
clases
Alianza
Clar
terres
1942
presentó
##onces
expuls
Pacífico
##quín
filóso
piezas
materia
correspondi
respectivamente
Bl
Góm
exc
tradu
cuadr
Guer
Alfre
Vie
##ibe
comerci
##ement
desem
Geor
##ors
Cin
Isla
terror
##ómico
completamente
##misión
hered
cabal
tenido
vend
tomó
Era
##íes
##rilla
plante
templo
planeta
Princip
##ónoma
Andal
##dio
Tex
Fundación
##oración
castillo
fuego
##ritos
1932
##áce
escal
##17
Islas
micro
1943
Berlín
prueba
proteín
queda
denominación
Pod
##bla
##regor
instituciones
ganar
##mática
Williams
1900
ais
##iamente
distingu
##ister
##ualmente
ped
##clop
trabajar
Pen
castellano
##icion
clasific
veh
oposición
Bil
Lan
Organización
##NA
##cesa
##ritu
##ígenes
atrac
símbolo
Ty
Leon
PSOE
##quil
##angel
##esis
estableció
##my
chileno
Asamblea
1928
Mundo
##ungs
##ugh
inspir
denominado
indica
basada
Hun
Algunas
##ección
Gómez
dispar
consiste
escul
brasile
Caball
##puestas
##éano
Uno
movimientos
##rocarril
Ricardo
Tole
productor
calendario
##ículos
Fon
Franco
alemanes
Din
calles
Victoria
solar
diferente
##tol
lingü
##ude
elección
solamente
##érico
##lá
##mites
##áticas
Campo
marco
##ony
franceses
alcanzar
ciclo
##tua
estadio
propiedades
estándar
motor
by
Toledo
Bajos
progres
800
##hm
culturales
Atl
Rock
Pri
comunes
enter
operaciones
Sitio
##22
##pertura
Sobre
dando
similares
Daniel
auch
tel
exac
Den
construir
proven
##goza
Departamento
estad
empa
populares
adqui
aparecen
##ings
pregun
Saint
venta
##exo
Ka
destaca
pier
capaz
comerciales
##CIÓN
pudi
##árez
##glesias
##onal
1935
##riendo
##iense
Hit
completa
basado
extremo
visto
obispo
César
piano
##alizar
Economía
ci
textos
trá
1925
94
##osas
sug
Zaragoza
1937
europeos
Histor
##tantes
##yecto
##ícti
##amarca
dipl
rem
Grande
coci
Distrito
##kin
##oph
continuación
impuls
Carl
autoridades
##ses
relev
Junta
nach
##landia
décadas
##ósito
##raciones
presentan
##úr
caída
1914
Santos
ace
##lace
##mith
Vil
##tría
##uca
príncipe
sé
##rante
actuales
##anidad
tele
avent
contemporán
requier
##itada
protección
Kategor
##endió
torre
adelante
##ture
Inform
##rende
Fis
##inada
colección
Votos
Far
bienes
##än
##lement
Sor
##aliza
hermanos
Dr
romanos
esclav
confirm
##lada
##ju
Reyes
##jales
##gaciones
testi
ofrec
##rato
comput
Tol
participó
moderna
familias
construido
##cieron
Ko
agricultura
Nap
composición
##oya
pintura
Roberto
nerv
rendi
agríc
frag
misión
defens
##alaciones
Asturias
##uts
##idal
##umental
##azón
interpretación
Joseph
##endiendo
Díaz
pérdida
##unal
poner
aspecto
escuelas
Inc
debía
Ferrari
153
sovi
##estruc
regular
Louis
consumo
Trab
##BC
##lección
sind
Fuente
simplemente
Interna
grad
htt
1922
figuras
##omba
llamados
comenzaron
cob
dejar
dinastía
##rillo
plano
##80
teor
sacerdo
Hasta
##egos
##mal
##tarse
##olor
Cir
musicales
busc
##roso
##CA
comprom
acto
publicación
Mik
Nicol
Federal
aplicación
inicial
Windo
Naciones
##gráfico
latino
Pág
dev
##ianas
tradicionales
conm
Il
mac
adul
##ólicos
##NU
Todos
Wash
científico
Stu
Roy
##chada
avi
casas
refiere
Otro
Kategorie
##grafo
menores
urban
reconocimiento
Castro
experiencia
nar
nie
##iet
##ienda
intelec
intento
comienzo
Apar
lanzamiento
páginas
##atas
oportun
West
demas
##ili
usuarios
historiador
paral
medidas
abog
haya
capitán
considerada
declaró
desempe
Alto
XIII
##mita
ges
##scar
notable
Press
expansión
cierta
Total
invierno
Asimismo
1927
##graf
Lov
entrenador
altas
destino
alemana
##quista
sober
1918
académ
Ges
dial
##chaft
##eria
nota
modelos
Polonia
##bos
##aceae
##zada
Web
##remo
##ites
##ultado
debut
##atoria
Editorial
alcanzó
decisión
eventos
eléctrica
##oper
áng
##direc
Bajo
##pen
1924
##iti
prensa
##wood
jul
terreno
Colegio
proyectos
##emente
nueve
encuentro
##uge
Murcia
156
totalmente
unión
##ision
##dato
fas
##25
##urí
normalmente
Kir
##ensiones
Agust
##mbito
factores
Población
municipales
Óscar
##idge
retra
15px
1919
desplaz
muertos
##eran
luch
Batalla
palacio
Gust
sección
Sebastián
reinado
ocupa
bandas
##gría
extin
filosofía
##tiende
##zón
##urar
poblaciones
##cran
griega
##pora
##cientes
Rog
Tab
Conce
Washington
##alismo
fiestas
Cel
inn
hisp
##unción
padres
##zó
##ajeros
##ócrata
puente
ADN
##estran
Sí
claro
REDIRECCIÓN
clave
Có
Socialista
##enzo
cruc
UU
##ducir
##lament
Canal
múltiples
##ize
Suiza
vícti
##urt
orquesta
Fal
top
Var
Windows
fundada
##quiera
ronda
##olver
incon
Gen
##ny
##adt
Im
complejo
temperaturas
##úsque
volumen
traducción
##rantes
##ciar
Alm
1923
arist
mexicana
Oriente
1926
157
Escu
Sco
argentina
Equi
fortal
comarca
Mark
##rucciones
fiesta
##augu
anal
funda
química
aplic
formato
diario
disf
amigos
ámbito
##arte
Hor
1917
##exión
aspectos
recorr
escas
##ling
impos
##jado
##uch
sean
Cro
candidato
##bios
##fé
descar
##icha
urbano
psic
Sac
gig
AR
##ane
corre
##avera
Joh
calor
100px
##ted
ubicada
límite
Suecia
puso
fracas
mediev
Independencia
susp
cara
corresponde
Ese
##ologías
famoso
hon
##erna
##cedi
visión
letras
usando
Otra
Pierre
##isco
1912
Futbol
Nuestra
fundador
decl
Vel
promedio
molé
##illera
estructuras
Bah
Blo
##rógeno
##ficaciones
parro
cree
almacen
crom
Trib
convoc
ahí
hog
mucha
vivo
##IB
propias
##iner
Esco
reemplaz
Serie
Obras
##ívar
Federación
inca
Luna
##tumb
pais
anual
sola
##tán
##piración
enfermedades
empi
últimas
1921
##orden
vuelo
propuesta
Señora
orto
Zam
##tales
1000
ses
##rigo
hojas
trono
##jeron
159
cristianos
videoj
entorno
##teles
desarrolló
Sc
antiguas
tabla
semanas
pac
##ords
Movimiento
detal
PG
Indust
Nicolás
##nav
miles
Rio
155
##ndice
##mes
##pacto
shift
##taría
png
##edo
CET
aseg
policía
mensaje
destacar
##ani
episodio
estudiantes
Joaquín
##hol
arti
Municipal
##alu
compuesta
##yer
diferencias
entrev
encima
document
venez
firma
condición
Acon
##gre
##ucía
categor
##encial
##ilidades
actos
Primer
pronto
##sk
riesgo
##itmo
Frente
Tres
bases
sexual
##ramient
Gobern
##etes
##ropolitana
##erson
continuó
hacía
American
estaciones
Banco
##izó
inmig
Vueltas
cay
mantiene
Patrimonio
Vista
llegando
##americano
potencia
esas
premios
bombar
##ernos
Anexo
##pet
alber
Rico
##nia
##fac
go
sosten
##pal
##éla
##ordin
Cerv
directo
arquitecto
Derecho
búsque
apareció
Pra
120
piloto
comunidades
flores
Alb
consist
curso
venezol
##radas
##gl
Rub
149
perdió
##vel
jard
##eco
##éticas
invasión
##21
##antos
##itaciones
expedición
City
lóg
autoridad
##hibi
##elli
Literatura
Land
##ronce
Medio
##urg
All
definición
Ak
instalaciones
disp
ganado
##ertos
Alc
Igna
institución
hubi
líqu
##ciaciones
Andalucía
noroeste
debajo
lider
170
concre
escrita
##ão
coron
revolución
ataques
Mis
perteneciente
##aden
sabe
relacionados
##udos
Auto
contaba
##udas
referirse
públicos
aeropuerto
mig
##pati
cru
identidad
tasa
Deportivo
anteriormente
únicamente
Motor
##dal
Carmen
ciudadanos
Regional
##ipi
clásico
fundamental
vot
deber
recibir
aves
límites
##ñón
prácticamente
abierto
signific
sobreviv
instrumentos
##ball
ofrece
Social
Port
reales
##uera
órdenes
renov
Ángeles
##ary
##oda
##tive
contrato
mel
wer
##aras
métodos
legisla
Nin
##ji
##edas
precip
marcha
identific
amist
raíz
aconte
##over
##duce
invol
Dra
diplom
##pia
intelig
Federico
Bau
beb
letra
lanzó
##ív
vuelve
siguió
King
apenas
captur
sectores
##uco
fenómeno
desarrollado
##ajas
establece
ficción
gar
ros
##orro
prol
XXI
Bay
judi
tr
##entan
encab
durch
nad
ruta
Glo
##cle
##ventud
ácido
cerem
Smith
mam
victor
corazón
gestión
combust
guitarra
Fab
realizada
niño
##trado
ciertos
cambiar
reacción
Ele
Lista
##ni
deja
Atlán
dificultad
Bob
##itó
##emato
Página
montaña
Nombre
allá
##heim
visita
Bolívar
religioso
investig
Black
154
revolucion
VIII
alcalde
##ons
##uelos
aplicaciones
Oliv
Libert
detrás
##oth
agru
##presión
University
educa
Max
Muchos
AT
##iten
National
##ited
XII
Ingenier
##ku
Eu
##ii
formó
##är
vecinos
##inger
Lim
##ñar
Wa
satél
publicada
campeonato
Corte
avión
fundó
saber
bajas
##ienen
Tru
Tok
##grama
mur
##aren
##uncia
sit
##rador
ciertas
operación
Ul
##citos
Antigua
cámara
coinci
zur
Torres
aprovech
bei
mandato
utilizando
Bogo
drama
##SS
Boy
##güedad
##rupción
##cado
Bretaña
componentes
##ilos
##entar
comportamiento
teniendo
restr
dejando
einer
##bro
Corona
Fried
museo
religiosa
Antigu
##alición
formada
denominada
Unidas
normal
##culas
##titu
##landa
##enaje
podían
duque
##lines
Hal
##ete
instr
Agustín
expon
##asterio
desconoci
Dal
imperio
cord
Valenci
característica
##urus
Dic
Nar
trabajadores
fib
noble
invers
resulta
Bél
directa
públicas
Gr
busca
##igue
genera
cicl
UE
universidad
demasiado
##23
##olfo
##úan
##onso
##ume
poesía
comienzos
pec
166
documentos
científicos
cáncer
RA
##uero
manifesta
Siglo
##ades
exig
significado
escritura
absor
carretera
opinión
##íb
hidro
fabric
line
especiales
redes
##crito
##enden
##elt
pueda
escritos
##laga
Justicia
relativamente
##arla
chino
Us
Han
moderno
##arían
altitud
##ocu
maestro
##DE
Antes
afirma
audi
McL
oscu
Parlamento
poderos
explos
filósofo
tum
Ah
herramient
montañas
Henry
Ignacio
##ítico
enf
continente
werden
búsqueda
Aus
pasajeros
convertirse
recep
colaboración
mezcla
bin
encontrado
resid
regional
Hoy
##éis
concentración
hermana
nuclear
turismo
encontró
##ken
Viv
vino
egip
reclam
##IC
Iv
1913
##elle
Bélgica
podemos
record
civiles
oder
Miembros
##óvil
164
174
nave
##tecimientos
##ecieron
nación
Comisión
demo
pasando
##iedo
Bogotá
neutr
regreso
Airlines
##ótesis
originalmente
##render
DV
encabez
bomba
##lot
Metro
##TV
FC
##nal
organismos
barro
Alonso
##ristas
inicialmente
Gabriel
entra
discos
Lorenzo
Rosa
animal
clásica
700
contexto
integran
Política
discip
Terc
permitir
hierro
Lam
##guien
##ariamente
##iras
iba
##ceder
már
Johann
Kon
Atenas
Som
blanca
##inales
##ién
tard
##álogo
acum
Catedral
perder
über
##24
##clopedia
##ifa
Camp
Tomás
densidad
fo
diferenci
ocurre
Acontecimientos
##itores
Mexic
1911
##iena
Ala
Desarro
##usk
territorial
cuyos
Maria
Años
##cif
constituye
pensamiento
ejemplos
##uerta
Supre
lograr
lun
##ífer
##ule
##erte
actuación
evento
enlace
##till
##unk
##lanos
Sala
ésta
Paraguay
seres
##ficio
históricos
ascenso
##íritu
posibles
Administración
describe
británicos
Cámara
Hill
Cortes
##ólogos
Rel
ocul
rum
##copa
piel
convertido
61
asign
Ejemp
Quin
suficiente
##gén
Dom
Rem
##iesta
##encio
##quin
críticas
far
Hospital
fuertes
Señor
nacido
Lar
Tr
Ins
italiana
Rum
##ips
factor
##ampoco
##hel
##olar
refug
Irlanda
##SA
alimentos
espacial
intención
##yd
Málaga
integra
eje
Tele
##oleón
Cort
océano
fábr
peruano
reforma
ancho
conciertos
##isch
##tadores
Vida
formando
##avo
250
Futbolistas
config
narra
##rand
consideran
Navarra
catedral
##iría
mismas
sp
##ianismo
##hard
duración
##field
Caribe
sing
##well
Stra
Atlético
apren
periódico
##MA
excepción
cultivo
Vasco
producen
Corea
##idro
estrate
##cus
produ
##opol
##fas
##ilib
terremo
mane
producido
You
permiten
hem
descubrimiento
predomin
##ái
creada
frecuentemente
Estudios
aviones
##alia
Nik
fras
##untar
Rad
sufrió
concierto
1916
##gio
redirec
procedi
hablar
##cismo
Occidental
Puente
DE
pocas
Mill
elimin
dura
um
Torneo
cuarta
##oni
##umenta
Mont
Conc
horiz
Arquitec
Selección
Ruiz
Resultado
dieron
##onía
##leos
Concepción
##raestruc
##BA
##anti
utilizada
Rib
Sag
##manda
buscar
71
##gro
##erales
dialec
podrían
involuc
##bern
##imento
Grupos
sala
vías
vice
##nen
##zco
exposición
##lares
1908
##tieron
Hans
Línea
Za
##ioneros
llamadas
conocidas
##isodios
horm
idiomas
##icul
##redi
magnitud
##sten
necesita
arriba
##mitir
##IA
esque
jurí
bord
dictadura
##aragua
deporte
Ps
sól
Mapa
Blanco
Ray
##SC
entró
ocasión
europeo
##iros
organizaciones
corta
hall
Kenn
158
recog
sch
##ON
Teresa
Tecn
ocupar
emo
habitual
##ski
##tier
rango
##icante
Inst
bau
##tida
usan
funcionamiento
Karl
corona
DC
suma
invent
pobre
##ova
cosa
1915
ul
Galicia
neer
razones
vul
163
dioses
afric
##anta
##endas
explor
##usal
Cha
revel
Democrá
Histór
##ómicas
dirigido
inglesa
máquina
programación
PR
héro
ojos
abre
poderes
conserva
inaugu
##reste
fel
1905
entidad
pp
balonces
solución
flota
##cionario
##ígeno
##iendas
Comp
catalán
##27
requer
proviene
Libro
##uerdos
bru
##jero
Nicaragua
liga
remo
##tuario
pareja
Chica
divide
portugués
hipótesis
##ánicos
##cedió
1906
muerto
Sport
##amentos
##lados
referencias
##ámetro
implement
Marcos
##gados
##atl
prove
Oriental
seleccion
##zgo
zum
##vila
logra
responsable
Gregor
##cen
Cy
##imno
##puestos
teat
##piel
Agr
emit
##urr
Jaime
Ku
##26
viene
##dr
Park
1909
compuestos
recién
censo
##ville
##ísica
##yente
Lis
##jó
##oland
entrar
Libre
##nado
later
##ped
corto
mejorar
leyenda
gobi
fich
##óbal
Estación
protagonista
réc
Top
##biendo
resist
biz
File
escenario
transmisión
##eng
carreras
tran
ant
##otó
167
173
ediciones
##uck
##oreste
Defensa
comuna
##azz
##tróleo
Cine
Todo
##pul
llamó
realizan
vivir
construyó
Music
culto
desarrollar
hues
quiz
Jord
localidades
Filip
sel
Ari
enorme
##right
Bet
##urgo
doce
lanzado
alfab
Parti
cuerpos
##DA
Texto
austral
Atlántico
partículas
##mel
##amor
##bieron
Hugo
géneros
viento
rápida
Bul
##stem
Cristóbal
##ww
##tiro
##let
reyes
pertenece
equilib
global
Comité
##óviles
130
griegos
United
##óf
alguien
Comer
rápido
McLaren
##ónicos
espi
precio
168
SE
esca
##ísmo
165
presentes
Lee
det
decide
Escudo
##ñana
representan
extranjeros
##uega
XIV
europea
##ieran
transc
precios
Das
dul
discu
plazo
presid
constitución
Constantino
ms
##28
cuestión
Caracas
impacto
puerta
Liv
ce
aer
ví
desarrolla
digital
Edward
sobr
##tens
Profes
##tag
##trica
muestran
Spe
propósito
reconocido
tall
electoral
##usto
##itarios
colonial
proteínas
##Ret
discipl
cuán
cultiv
##iforme
Investi
Flores
##áz
económicas
##OR
Adri
Sk
Hitler
Gén
patr
Memor
categorías
remon
cuenca
Alta
memb
Vin
Tercera
##ances
Caracter
secretario
##ciano
##andid
##putación
medicina
mensajes
unter
cere
archivos
colonia
##vita
##alax
depende
bat
estima
##apor
consolid
www
Vallad
Mosc
##rell
excel
##énez
ocupación
Jerusal
##dam
Castell
asesinato
Dia
Stre
carne
decreto
poseen
fl
##tipo
1904
##dores
##ild
individuos
nor
##riva
veget
popularidad
##ett
norma
ferrocarril
terrestre
rein
une
##itados
mitología
dedicado
Mes
DVD
Dentro
Jug
fusión
campes
canad
camp
guerras
##vía
doctor
satis
breve
##acu
Jud
Repres
##ois
posiciones
octa
##adero
titulado
vál
doctr
serían
motivos
Zel
##cy
fundado
##dem
Cultural
##áv
Carol
Vega
matemático
##die
##jan
##xa
objetivos
rap
50px
##ierto
##rillas
homenaje
ordenó
##idez
DNQ
familiar
espacios
cielo
##ison
125
cambió
Batman
Ante
##lem
##americanos
excepto
huel
rique
##yectoria
distritos
Honor
##imia
accidente
Arro
##pin
##cies
Clima
His
cartas
##ímica
Andre
br
##tilidad
técnico
cens
teór
brill
carbono
##áceas
Solo
tratar
intervención
salir
ejecución
##tuales
particularmente
##reros
esco
##key
Ox
sitios
wird
volunt
IX
altos
puertas
http
##itivamente
Oper
crit
##dido
define
provocó
jugar
contar
incluido
Sw
reglas
##biertos
sirve
ayudar
arco
1903
Latino
##tecas
##enio
Inte
recib
Berg
##smo
democrá
emig
llegado
Moscú
Allí
prestig
variable
deriva
nicht
suje
Jacques
##xi
Philip
Familia
salió
Canarias
Latina
Stan
Diputados
astron
Desarrollo
regresó
científica
árboles
legal
reunión
##jada
quiere
81
FM
##ute
realmente
Jar
contam
##ieta
normas
cron
jorn
amplio
##metros
Cuer
guitarrista
órgano
riv
Pir
##úcar
llevado
Sel
Tam
##ech
universo
Napoleón
Emb
Vis
episodios
AP
Carrera
bosque
Álvarez
equivalente
Marco
libres
Valladolid
Poco
gla
comúnmente
Viena
acel
Estad
obtiene
medieval
caracteriza
##írculo
Zona
ausencia
constitucional
ejerci
licencia
Bus
abajo
Tener
fres
##erías
##log
voto
Ross
##ián
opon
##iri
Gor
femenino
Fig
Suc
Fron
ciencias
diputados
##uga
guard
económicos
##ástico
termina
humor
Avenida
Quer
Sum
alco
##edor
##tab
clubes
Dinamarca
##viamente
Cuar
Dol
petróleo
##ats
##etnam
##chester
##iy
##visión
Hom
Mediterráneo
Senado
potencial
étn
##pira
borde
##LA
##neos
urbana
Ciencia
demanda
Entr
##ajara
##cialmente
requiere
##incesa
discurso
Hungría
##rial
##une
Facultad
PIB
##ándolo
Zamora
##ilotos
comandante
pies
##29
destacados
##ormes
Marcel
Ediciones
radiación
Hernández
##tillas
Barb
Rosario
##ést
##icana
##egen
League
recibido
reducir
##mis
colombiano
declara
Dur
##colo
conoció
Sie
##ceae
Colón
organismo
pele
pieza
fonts
##maz
Nacidos
Legisla
crim
superiores
construida
japonesa
fontsize
comba
caud
canta
negra
condado
novelas
duda
##vos
juris
##amen
Final
brasileño
ben
grados
uruguay
coronel
representantes
temporadas
Chicago
110
embaj
presidencial
considerar
sucede
Clasificación
veinte
caza
##posiciones
public
Disco
Tan
documento
error
atac
Lug
Víc
##cón
##onatos
trasladó
Gir
Ron
Got
##endido
fir
##chn
universal
##ándole
ingeniero
Calle
Gracias
Hy
cóm
##wick
##onos
Perio
privada
correspondiente
##denal
Elecciones
propiet
llan
ofer
##vio
vor
169
historias
Dor
canales
propa
International
resultó
##ear
Frances
há
copias
Dre
Allen
Guadalajara
Aé
alt
activo
map
volcán
##terna
Burgos
Jahr
abogado
IP
##dito
crítico
##alizados
Schw
Víctor
Católica
##quilla
##ótico
Patri
##izan
Pam
##izados
##centaje
Televisión
Mujer
Pic
##IN
##iosa
Superior
Ira
##ulado
parlament
nuestra
Arturo
expor
FIFA
Ple
Video
acog
consag
##SP
Jones
##det
##usos
publica
##íferos
monte
religiosas
Localidades
reciente
Militar
Sand
asesinado
##entalmente
peti
comenzado
Margar
adaptación
tendencia
##olia
pacientes
Aqu
Ann
tribu
cereb
Harry
Mall
gole
##cción
vid
registro
etapas
Lic
extiende
##ederación
moneda
Mercedes
dirigió
##inete
Mir
kg
presu
##élago
Franç
triunfo
culturas
Ly
competición
##kov
casó
##iversario
##esas
desen
##udia
1907
competencia
Wat
series
Termin
cromos
Serg
bosques
##romo
basa
##iología
celebración
Jerusalén
acces
Ministro
Cerro
Negro
intereses
Medalla
imperial
##gadas
AC
Trin
Él
envió
suminist
Augusto
Demografía
extrem
siguen
enemigo
Dig
haci
hiper
trabajó
Band
aun
##Hz
##grafías
Oeste
data
bacter
seguido
Pala
##haus
Gio
1890
proteger
Cádiz
Tribunal
##xido
acord
sínt
Bru
147
guar
Hip
##iares
evolucion
clín
nuestro
Log
##yentes
atm
##ditos
religiosos
300px
listas
##fal
##cing
Fuerza
peligro
##qués
grav
cercano
cuadro
supone
##roeste
tampoco
zw
departam
##trando
tráfico
enlaces
sul
quedando
##tronomía
Reina
##sel
##quir
atrás
##uto
##iger
estudiar
Equipo
entrega
Mach
ampliamente
aliados
##lula
intentó
1901
juicio
Beat
Albert
##rome
reparto
plas
compañías
treinta
Concejales
Muer
Auf
Cur
Ec
Fiestas
Gem
Sun
Mariano
momentos
##tég
##zob
Compañ
Rojo
llevan
##ultán
musulmanes
profesionales
judicial
instrumento
cristiana
lanza
caracteres
posiblemente
##campe
récord
##ogle
Hond
partid
##feo
##cionar
##ette
totalidad
##orta
##utsch
famosa
1902
##oros
##idel
White
rol
utilizados
permanente
##rores
electrónico
violencia
democracia
inicios
dolor
Características
Gall
##60
siguiendo
Puebla
##eban
fabricación
sueño
minist
##renos
agreg
due
asi
Natural
determinar
atraves
91
##ijo
Bib
##ensis
asociación
##king
##nm
Blanca
lad
sag
terremoto
##stas
barrios
escritora
Records
Green
merid
Hig
cabec
escritores
Tenerife
conexión
barcos
cinemato
victorias
Mendo
Deportes
órbita
nadie
debería
provincial
perdido
##eamente
##ástica
quinto
Guin
McC
##ázquez
barco
residencia
##naval
Mira
deleg
##yl
capilla
Hein
One
esqu
espectá
ocasion
Love
vincul
ileg
##tm
Alexander
húm
Victor
rural
recientes
##TE
somet
##putado
Sci
frecuente
gobiernos
otom
Seguridad
grabación
INE
determinado
ingresos
votación
Todas
##viera
##iéndose
relacionadas
disponible
pis
Comunista
tensión
garan
pista
##ósfera
efici
iglesias
españolas
bah
hos
sucesor
##erva
combinación
Grandes
establecido
Hacia
investigaciones
enemigos
Mul
fues
Renault
galle
##tres
antic
circunst
##ets
aumentar
sierra
infraestruc
hielo
Medicina
##AC
transición
federal
jer
##vert
cuyas
ala
prefer
Proyecto
celular
Long
intens
##vias
Eugen
##cat
##randa
pinturas
Flora
bud
Director
víctimas
israel
Friedrich
##cesión
originales
moral
destacado
teorías
##pr
mañana
secuencia
Fallecimientos
cantidades
definitivamente
##ück
end
inde
##tador
##xo
inmediatamente
convirtiéndose
separación
##tique
utilizó
Ce
Ry
##ism
##egr
oxígeno
Esteban
Virgin
recientemente
llevaron
Bernardo
vigor
##edy
primavera
Conde
##diales
##ásico
##iernes
polém
##óstico
##000
Espa
mecánica
redirect
Rodrigo
Personajes
##rovi
bronce
Peña
1898
Argent
Foot
ajust
prisión
festiv
##zen
núcleos
dada
mir
##dón
##amin
cuid
Joan
verdadero
Cic
costumb
moléculas
tonel
##arcas
Alicante
transport
##amba
Ens
##edido
aquellas
anunci
She
modernos
líderes
margen
dedicada
dispositivos
descripción
Príncipe
posesión
salvo
universidades
Are
##garo
puestos
flujo
##sburgo
##riles
Patr
individuo
Cle
pone
destrucción
existentes
##OM
interv
telev
conflictos
CF
##eramente
interac
recorrido
Ata
##inte
apertura
efica
frac
partida
comparación
contras
##ury
ventas
república
escenas
coalición
1895
Mendoza
105
editorial
##rosoft
Marina
Adam
Bien
fós
##osó
Compan
horizon
Hall
Núm
administrativa
SI
incluir
Salud
Turquía
entender
Mary
difusión
vest
##iego
148
enseñanza
índice
##obo
orígenes
##venir
##lichen
rue
evidencia
ves
descubierto
##polis
##bón
Chi
editor
##rie
##paciones
##cidentales
Honduras
enz
efectu
##ety
soporte
gr
##ühr
grave
planes
Sto
Jon
poemas
Microsoft
fácilmente
Arquitectura
Mate
Técn
esté
##phy
Tiempo
arreg
empleo
hin
##mático
vivió
##AL
##terios
##timología
##har
ost
##raron
perspec
terminar
Bell
Ran
reducción
##tuvieron
##ika
introduci
clim
quería
Ofici
##íces
aparecer
Michel
Alfredo
reh
Comple
Royal
Time
debió
##orca
convers
secundaria
msnm
óp
Traduc
Últi
presentación
Recon
Vers
Wolf
##uelta
increment
dimensiones
##aves
explica
electrones
abandonar
Empres
contienen
##ulada
Orch
esclavos
empieza
cumplir
Antiguo
Monumento
profundidad
Ci
##vileg
infantil
motores
antigüedad
##íneas
Capital
##eiro
noticias
onda
Roger
Gib
Arth
maríti
canadiense
Award
##trico
##icano
Turismo
##ori
indic
##iber
aport
Arist
Reci
##taban
Segu
Guz
patrón
einem
molec
americano
##ementerio
deuda
estatal
Emilio
ibérica
##itando
##alt
##boa
noreste
éste
##tornos
##idae
llegan
##ller
avance
UEFA
##icciones
rendimiento
Str
##dicas
##octur
##pula
personalidad
pese
##usiones
##iff
Opera
Fun
presentar
espíritu
individual
desemboc
Cervantes
##dy
Guti
alianza
Robin
##igna
Moreno
USA
jurisd
atmósfera
Fort
Tay
##iculares
cubierta
personales
Produc
Santander
circuito
quién
vehículos
Deb
Municipios
##andidatos
Vene
Palma
cr
crón
ín
practic
NC
músicos
cristianismo
Britán
vapor
##allan
##usieron
independientes
Película
Magn
abierta
sufr
introducción
astero
reformas
lados
representar
extranjero
seme
##icismo
##feld
##ualidad
creo
Lucas
Fuentes
##presidente
##olesc
Jiménez
mito
nit
##arre
comedia
cargos
árabes
##érrez
continental
cercana
Amp
Territor
descenso
MI
Sir
##MS
dies
##pulación
Segundo
dependiendo
síntomas
Cuenta
historiadores
Valenciana
bits
##xis
estratég
Descripción
Pueblo
sustancias
literaria
Walter
Ilust
hí
##alizadas
Tel
cero
alar
cola
firmó
poblado
##itt
##bach
fama
corrientes
caballo
Ov
cil
##line
##alizó
nombra
reca
consigue
cobre
ganad
pantalla
hún
with
Gram
Mayo
deseo
descubrió
mínimo
Filipinas
Hisp
Ríos
Ub
##unció
##gena
controlar
##tinos
##íg
suici
comida
Christian
fiel
emerg
fotografía
Texas
decre
sorp
Gutiérrez
##berto
alcanza
hacerse
hidrógeno
Wood
Compañía
seguidores
Linux
atle
1899
declarado
Igu
hat
casco
##hem
abst
Mancha
necesidades
sexo
cineasta
sitúa
voluntad
activa
aux
ubicación
abandonó
##copio
##etti
costas
Noruega
oportunidad
Grand
críticos
vec
domingo
electrónica
justicia
Sho
##biertas
Ot
hospital
##ee
##lov
morir
##omun
químico
creciente
autónoma
##ocal
logran
Existe
encontraban
usada
##áng
Live
menciona
Ingeniería
hacerlo
##hibición
##ómicos
agrícola
semej
Baja
rama
##ombr
cuentan
##onesa
constituyen
cristal
Escocia
Ucran
Google
fondos
hogar
mud
Alum
##dula
145
célula
Ath
##igas
##íso
fic
set
##fin
##osex
resolución
Información
valenci
Partidos
prohib
respe
Candida
hubiera
vit
explotación
##rob
estatu
compañeros
titular
Spa
relie
##AT
##amina
ganador
109
acabó
Fél
viven
álbumes
conservación
tradiciones
Evangel
Pom
Wes
prede
errores
Transporte
exclusivamente
##ipiélago
Estre
Paris
128
aceite
BM
millón
desempeñ
rutas
film
privileg
Audi
##ocol
impues
140
toneladas
But
Oscar
reempla
##ísimo
##ionero
fechas
artística
causas
Tin
##ína
Contin
consta
esfuerzos
puedan
sale
batería
Gh
Tes
diámetro
emis
##liche
Brown
ater
##zu
##itis
Unidad
##ont
redac
Milán
Área
culmin
1880
observar
indígena
Junto
##eau
PD
representante
1897
mecanismo
##icto
Juana
fachada
vert
##tización
cerebro
sho
alma
manga
cercan
señales
innov
##ugos
iniciativa
Cav
hipo
variedades
esfuerzo
regionales
incluía
Isa
##ércitos
comprende
ubica
permaneció
relacionado
Jard
##para
leer
##utri
##mond
##the
##ometría
rayos
##éfon
Simón
rasgos
viajes
justo
Kn
riqueza
consideraba
establecimiento
secreto
Sing
símbolos
2ª
Foto
huev
Gold
Bes
festival
Desta
empresario
##vada
poema
##ílica
fantas
some
107
##ítica
##edores
absoluta
estric
##usia
propuso
Extre
semif
##edras
Lotus
Relig
mort
##lava
##guno
Guzmán
##icarse
aflu
vocal
amarillo
filosó
ocurr
chilena
##rif
ret
##tone
invad
informe
A3
Cra
Raúl
finalizar
recor
##ámico
eliminar
##emin
Sede
maíz
1870
##bao
##zel
##áfrica
porcentaje
##fen
claramente
Gustavo
ram
##elia
leche
Mah
satélite
##gram
industriales
matemáticas
disfru
##deos
liberal
march
tera
##ueve
##estiones
continuar
##dis
##ázar
##estas
##ilas
Puntos
Anna
Stadt
órganos
##cada
conceptos
##rik
probable
##bridge
lectura
Sudáfrica
##món
##cir
##deas
asuntos
alcance
jugó
estall
promul
simbol
##CD
equilibrio
Hier
dom
##chel
##urada
##ruecos
##cuenta
Anto
##imental
capítulo
venezolano
##acer
primaria
raíces
har
econom
Imagen
acontecimientos
Sergio
##oli
naciones
igualmente
preocu
roja
rusa
##reich
Campeón
Evolución
Chap
éxitos
combustible
sospe
##tizar
##amar
Pad
dat
##espe
##ecían
Boe
espera
Félix
Cord
IN
reper
definitiva
dro
prácticas
cifra
Corn
1889
recomend
Lev
ofens
blancos
ilum
poca
Sici
##upe
asal
máquinas
mues
mantenimiento
cabecera
escribe
Day
Pros
##erado
##endio
céle
Herrera
Open
Bruc
recin
Occidente
Viejo
##enco
eléctrico
biblioteca
star
Conserv
patrimonio
electro
olímp
adolesc
Andes
evalu
1887
Nie
infec
prolong
Jr
##jano
frío
multitud
fórmula
Carre
frecuentes
entrevista
franco
ritmo
deportivo
hard
mala
##cidentes
Venus
River
##fecto
Pot
##ára
mecan
implica
##loj
Gonzalo
continúa
Racing
Álvaro
televis
##sis
Compos
##ology
sureste
limita
##allas
aficion
ferrovi
Vietnam
cayó
ejemplares
##FC
##cambio
sacerdote
Bund
cón
aniversario
autonomía
François
Ucrania
test
funcional
recuperar
Gam
corr
infan
artístico
metales
##cripciones
##tron
##teced
1896
monumento
##iko
capaces
boca
sep
neerlandés
##mirante
promoción
Ken
pidió
Unter
Arthur
gras
##toño
Campeones
Flag
dedicó
intelectual
##itudes
Marruecos
prec
insec
rival
##anth
##érida
113
viviendas
legis
negocios
monasterio
ejecutivo
Ernesto
estrategia
tes
disposición
opción
reta
simultán
reconstru
##icho
106
recuer
Álbum
preced
##ät
acerc
café
homosex
Magdal
##mat
alm
comprend
liberación
rebelión
##undir
Cabo
Gi
Tak
Florida
fortaleza
desn
##yac
metál
colonias
debate
##tomos
falleció
juntos
Scott
Stor
##kt
pronunci
fotos
900
Ve
noctur
emisión
lejos
System
hispano
##PE
##lao
defender
viejo
lluvia
CH
bil
zar
##edonia
diosa
##culares
ortodo
Pes
útil
##teor
##anni
Film
vive
atacar
delante
interno
hebre
daños
Doctor
fall
Incl
retirada
Image
Ávila
##sey
artic
ideal
##gui
irreg
suced
montaños
wikipedia
##dium
puertos
plataforma
tribus
##etación
##urre
mapa
1891
emplea
Bilbao
gana
necesaria
Kra
neuro
surgió
dispositivo
acceder
ocurrió
Puede
líquido
entidades
sépti
ple
ramas
##esu
##odia
103
masculino
Jal
resolver
March
##pacidad
Alf
Steph
Kim
Labor
desarrol
metropolitana
Big
pena
##iada
Play
impresion
North
Prado
##nar
tercero
incremento
Fuerzas
##ísima
Libertad
naves
oferta
##ñones
Paulo
Columb
disputa
herramientas
cabe
Confederación
CA
ciento
román
##osotros
Edición
arma
cincuenta
##van
formal
incom
Nacimientos
Series
aeron
##cesis
Lew
clara
descendientes
cav
rib
##óp
##urales
Republic
minerales
##gs
##zados
##inaciones
Autor
tejido
sonora
inclin
empleados
Ball
##esper
1888
estrenó
Ll
luc
##mitió
realización
Muse
Haw
Autónoma
##imal
##dela
Net
despe
##órica
encargado
wid
Ok
Arg
ingleses
Guerrero
##umas
humanidad
espectadores
ventaja
Holly
azúcar
Tokio
Rh
aumenta
##work
##idi
##atz
Laguna
##izaciones
##ray
tiro
Guardia
Disney
##iero
##úmenes
columna
Poder
cú
monarquía
metro
Interior
corpor
Pach
##omést
sujeto
Tuc
##ónima
ficti
archivo
##onios
Bartol
graves
##drome
Lago
Morales
Temporada
Alan
Anth
paciente
link
##bernam
Mora
##éut
##antar
virus
Código
Fiesta
raza
extraordin
acompañado
rocas
##úst
reinos
146
costumbres
Gri
Honda
Izquier
lum
desf
##acos
infin
nombró
pagar
princesa
terrenos
deportes
indios
Templo
ign
##oraciones
centrales
concl
diversidad
grabado
##eño
##ondo
##agü
infancia
127
documental
privado
##fol
compra
pira
procedentes
amenaza
suble
regu
notas
actores
Colonia
motiv
visig
influencias
Suárez
realizaron
playa
multipl
frase
estr
masas
terminal
Ruta
agres
cár
##si
##cusión
exca
##ichte
arras
##fonía
ingeniería
unió
compañero
##SI
sello
cliente
exit
##tificación
detalles
Viz
##iesto
supuesto
realizadas
segundos
argument
Romano
##fia
##ótica
##orra
liberales
apod
diseñado
Id
cré
hec
intenta
juventud
aber
amistad
aprendiz
Guinea
ido
##leza
Barrio
1894
God
##onimia
previamente
desapareci
115
##atrocin
comunicaciones
pic
##iw
Fox
##logía
dot
continua
Semana
Kal
plane
tol
Gregorio
##éricas
variables
átomos
preh
dispone
ocupó
boliv
##írez
Nación
incluyó
Alfred
consejo
perci
##quias
ceremonia
It
lógica
departamentos
Boeing
##BS
suroeste
correg
tenemos
1892
fábrica
desierto
once
hosp
##entada
portada
adquir
servidor
utilización
##ometra
##érpre
London
individuales
##adrón
Muchas
129
europeas
descrito
supuso
conse
##urce
paque
manus
Observ
ga
##mand
Chris
Camino
Universal
neur
##abe
mix
pesca
bahía
Of
parecer
##edera
temporal
primo
familiares
Society
católicos
##for
##rison
Yu
##worth
##ipo
implic
enviado
alternativa
Dun
##sche
morf
integrado
Oh
##mod
##apia
fundamentalmente
suger
tarea
intensidad
Gl
Jefe
nu
##tido
retro
pago
##tea
##cionado
##zobispo
abol
pasaron
Amer
tenga
juven
##ásticos
clásicos
##gráficas
regresar
impuestos
##zz
##jillo
Via
cuel
cerv
estilos
exilio
cualquiera
novel
##enciado
##ée
Verde
NAS
##onado
usos
dificultades
Héc
Sm
cog
coord
Dominicana
fruto
imposible
PN
##esar
sueco
aventuras
rin
##allis
Cuenca
##ther
vencer
operativo
##raba
sirvió
fér
ng
##EL
ayuntamiento
galard
natal
Finlandia
manifestaciones
##ñado
##pel
##ónimos
##rat
provoca
postu
mamíferos
##tricidad
##pañas
varía
inmigrantes
cable
fueran
Teoría
voluntar
value
situaciones
agente
tocar
Va
jam
ov
impon
Fecha
audio
intercambio
1893
dividido
curva
Física
UN
##sas
##grado
espada
##ósitos
Steve
Humanidad
gradu
flam
alguno
Idi
flex
nace
petro
transmit
South
##tificado
##quial
saque
Let
UR
gab
punta
##lesi
##endía
existía
Ramírez
duró
fuese
Venecia
einen
##ueras
mostró
Armada
columnas
cambia
1879
Comercio
##ting
##oba
Virginia
Pese
##edrez
Ella
convento
Servicio
japoneses
ejércitos
monarca
cerro
Magdalena
1860
fauna
ejercicio
modi
reserva
pertenecen
debían
1881
llamar
naval
transformación
elaboración
Independiente
compati
escultor
Crí
Origin
##iscal
Nu
Obra
Contra
Cuatro
largos
dichos
católico
Russ
sta
anillo
bacterias
Biblia
cientos
lograron
verdadera
videojuegos
##enarios
abrió
rup
##helm
uruguayo
refor
psico
##dig
inversión
definir
##quisición
Caballeros
pudiera
##ocl
Benito
pertenecientes
##peras
especif
independi
pir
representado
##atorios
encontraron
socialista
##entados
soberanía
IB
##lege
##logos
tareas
##rump
disponibles
argumento
típico
síntesis
gigante
##MI
##omen
fundamentales
Giov
complejos
##gráficos
GP
mód
Maj
vegetación
Trabajo
inci
mono
considerados
explicar
participantes
Azul
Flo
santo
##jec
##ceres
Dirección
##tano
Juárez
Ciudades
marcó
geográfica
trayectoria
House
##86
##ymp
superviv
##gi
##ximos
decisiones
emble
investigadores
##aná
Playa
Relaciones
gratu
agrad
Brab
héroe
signo
##ñoz
intentos
Imper
Company
vesti
Qué
##loria
consecuencias
literario
parroquia
estreno
117
existente
muere
Nú
sein
Alba
Nach
complement
quedan
conocen
##petir
Adolfo
1868
FA
##dencia
torneos
Emil
Trujillo
véase
occidentales
celebró
Blas
Cand
Angel
trabajando
dieci
Reich
disputó
elevado
doctrina
Lenguas
afirmó
Trabaj
hectá
bes
##ère
##isc
##éndez
Shak
obligado
ensayo
ultra
##eller
reproduc
artificial
mág
##taria
sucesión
Emperador
instalación
Ambos
Mallorca
derrotado
Nel
jef
actitud
arres
Bud
Tem
polaco
alej
Capitán
vídeo
##undi
Parro
relatos
astrón
##estro
135
asumió
Oxford
##TS
alumnos
Antio
divisiones
declaración
Antár
Lie
avenida
##jeros
italianos
##gnóstico
dió
dibujos
galax
Cooper
exces
notables
Tanto
Parte
137
teniente
vertical
Título
##hum
cuentos
conocimientos
soviético
Mike
##socia
Contro
Montes
##porta
recuperación
##vado
##entista
##rión
##isen
genes
Lab
##ser
diputado
fronteras
singular
euros
otoño
##laje
apell
isl
escultura
##ager
abor
human
obtenido
mejora
designado
Scho
Marie
Asunción
reconoce
Gras
ONU
##MP
##aso
##lash
fuertemente
conciencia
##schaft
##iert
Bomb
Nick
introdujo
cadenas
tendría
cita
Saj
##didas
cinta
aceptó
André
aérea
width
Muñoz
##etta
Satur
asociado
Schuma
dass
Lad
sobres
##ahl
1830
enviar
Pino
cien
enfo
1833
Ejecu
registros
colegio
equip
confianza
concurso
Rojas
agentes
Hispan
osc
Cartagena
Schumacher
vuelos
Escri
Life
##bec
Intro
polar
caer
119
relato
consideró
fracaso
Dam
##jud
suerte
104
pasos
25px
considerable
externa
Már
mostrar
alo
incluidos
gubernam
Jeff
brillante
##iland
patri
Claudio
abr
Papa
osci
Zo
gris
Acción
Públ
##iev
Junior
Kennedy
cáp
juz
turístico
paisaje
Lit
negros
históricas
anuales
cardenal
Sara
124
Medina
Romero
belleza
Entonces
desac
Sep
médicos
conservan
ecuator
alberga
Cortés
##ax
acero
123
Fru
signos
interf
Henri
construc
oscuro
Zelanda
##rico
pudieron
Héctor
mente
volúmenes
facultad
variantes
tradicionalmente
##eiter
adultos
creando
quedaron
##video
aceptar
sustancia
Rivera
femenina
Tony
erig
##strucción
Esper
negativa
Ri
ham
pian
renuncia
Revista
Football
Aer
arag
zo
##acruz
archipiélago
responsabilidad
post
Siria
autón
derrotar
Galería
Bellas
Samuel
apreci
1500
incluida
servir
Alejand
Guadalupe
celebran
##lues
##ross
Renacimiento
asegu
##tte
##alda
##iser
hemb
asesin
##quera
exclu
Catalina
aprobó
##urrec
antrop
##contin
Cambridge
Aérea
Cron
Villan
serán
teléfon
agre
1821
fos
##lamiento
fla
##ierten
hecha
elector
dulce
petición
By
Fantas
Gim
Kan
1884
Tipo
##mir
publicaciones
Cabe
Champ
sinte
revis
perspectiva
escon
1885
Doug
Bautista
circunstancias
domést
arena
120px
##board
1886
Germán
acon
Monter
##atallas
rig
##igi
minor
cerámica
estrecho
Bernard
Wilhelm
##ester
Ill
contó
##lle
nativos
pleno
recinto
Giovanni
Apertura
pien
Associa
corresponden
candidatura
jesu
##áut
##ciles
trataba
Bond
monedas
ligeramente
aprobación
Alcalá
Pens
trama
Proto
empezaron
list
##chan
placa
Octa
cumple
retiró
visitantes
Clo
Irán
Simon
Wilson
gem
##iter
core
coro
usó
Hollywood
interc
activos
sonidos
##oks
presidenciales
143
cuartos
Pascu
equiv
porta
##ffy
deportiva
procedimiento
Dick
pico
apariencia
privadas
EP
Hard
Roll
##wig
##ME
##org
peligros
Lud
##fónica
compl
usados
Jackson
cen
##bs
fenómenos
Caballero
baloncesto
elig
##iac
fusion
Bruce
Etimología
químicos
Padre
Cup
##into
bailar
Eg
##urch
##ning
disciplina
Bab
compr
caminos
actuar
persecu
inaugurado
Center
##sto
##eben
computadora
inteligencia
##omor
dramatur
##cista
Montevideo
##kins
Indias
Inici
china
coste
simples
plantilla
Amaz
##loss
ecuación
Datos
Nig
Situ
##LE
escrib
construcciones
Cañ
jornada
Cár
##mun
##ellón
##ámaras
civilización
agrícolas
Lewis
Energ
recol
presentado
estuvieron
seguro
Silva
pierde
Fol
abas
espiri
Pública
##unas
medias
1882
combin
Aquí
Sá
##atra
Arque
tramo
Mans
Molina
asentamiento
##ló
##guila
verse
Brun
piedras
Municipio
Java
noticia
aerol
jurisdicción
Mars
controvers
producida
casti
144
##landesa
informa
##árqu
observa
provenientes
matar
interpretado
algor
guionista
Sicilia
##entri
nobles
relativa
gluc
Ky
perm
Quito
##áñez
campañas
College
penal
elegir
membrana
Latinoamérica
Hur
SP
##ilación
1876
bater
Apolo
Ras
Stal
desh
Law
anex
soport
134
cho
componente
##usura
Sancho
revistas
acudi
repet
etn
tomado
box
variante
fom
##cano
reún
##iew
118
Políticos
Cham
Gun
Night
##idación
Barran
superar
Llo
círculo
##pto
Franz
genética
Apple
integración
##vir
##ánicas
preserv
terra
reducido
Vent
somb
pareci
escol
largas
Piz
sar
Salón
Florencia
derivados
jardín
Carolina
rurales
##arqu
##teo
##umbo
##ptim
Policía
mostr
abstrac
##kistán
Johnson
##curio
##ficios
capas
Mún
Marx
caz
108
valles
inferiores
hectáreas
variaciones
vacío
juega
videojuego
Dy
Rud
##pista
creador
estudió
Miranda
1848
Vargas
##jal
##sul
##tendo
habilidad
nucleares
infraestructura
##év
##tain
retras
generar
Miss
pares
##itmos
##irre
cristiano
quinta
Jordan
##ídos
##abal
refleja
Ever
##sin
ángulo
Cad
lit
electrom
sociedades
cocina
och
Marte
Deutsch
simpl
habitualmente
##ónicas
precisamente
LA
Mid
pensar
Libertadores
Bak
##cor
##icias
1857
##ocar
anot
Maxim
empleado
tecnologías
convirtieron
##atorias
representaciones
3000
Derechos
uniforme
patrocin
##äs
##ueves
nazi
##inosa
gases
##enza
Alfa
Feria
Fallecidos
Múnich
Personas
parques
Roque
cuerdas
##buses
cuadrados
Gard
##estion
alrededores
austri
Nintendo
Num
lan
quince
SA
##omos
pared
actuaciones
cultivos
submar
eclesi
##idalgo
lá
mí
Enter
##uertos
Estruc
##ions
codif
ganando
##ordenadas
Brabham
bro
asimismo
Reserva
específico
anime
determinada
arquitectón
nuestros
##ML
Izquierda
Kong
Test
##icando
concreto
vivos
aterriz
##govia
patron
1873
tún
##dencias
Amar
Abd
industrias
Histórico
duro
regla
Armen
Joe
ingreso
peruana
Democrática
Meso
om
##torias
1883
Bir
##ómetro
##itarias
##ellín
orientación
ofreció
##TC
buenas
tejidos
Rin
Valent
negó
án
##kel
disputado
proporciona
##éricos
##mentación
realizados
acabar
Conn
##utz
estatus
aparato
##weise
Zeit
relieve
conjuntos
procedente
Puerta
Ár
danza
##esen
Ref
Calder
señala
1877
1872
Human
##ots
advers
intentar
##cimo
Expl
Ministros
precisión
lluvias
Náp
tác
150px
expan
circular
Tos
##ßen
##adra
##atón
judío
Rioja
Hues
##tit
dispers
Taylor
Stone
wie
##inio
Chil
##ichi
Ent
icon
ritu
artill
126
Química
1ª
himno
##gor
##lova
autén
descubre
copia
wurden
olvid
alfabeto
Varios
logrado
aristócrata
parcialmente
tumba
##UR
##lavia
dichas
1865
cuarenta
tir
##laba
interm
estatua
evidente
posibilidades
Way
##vol
Coruña
Software
voces
cálculo
reflex
Cum
dividida
escoc
integrantes
Hidalgo
Veracruz
adicional
AU
nutri
##NT
##ificada
##canes
Song
Vat
aparte
Campos
contenidos
radical
Brian
Sat
mult
torm
##dias
emper
dependen
modernas
reacciones
comentarios
cordillera
Carlo
Sha
reconocida
Blue
lingüística
ara
##ody
Team
cantón
extremos
René
Nápoles
cau
1850
##ábado
nieve
Pales
lab
desper
periódicos
cárcel
##cita
Berlin
##itoral
inauguró
tomando
recopi
##comun
MHz
ces
##tral
##part
decía
Entren
##eich
##idar
existir
Liberal
Viol
dorm
133
bordo
Bis
euc
vender
prisioneros
##ertura
procede
##ahr
visible
judía
básicos
##ptentri
depos
retorno
##ils
enfrentó
reconocer
##uelto
decidieron
arroz
border
pse
##guar
expedi
Gord
vag
##izadas
##rys
bautiz
Alumnado
##pat
139
manifest
brazo
sof
abarca
minas
basados
45px
alcohol
Bush
SS
##ogén
escapar
Coch
Iglesias
vieron
##core
sucedió
disolución
preparación
alimentación
hábita
Kle
##ied
##orio
116
carreteras
Mateo
Villanueva
orillas
habita
puesta
establecieron
Atlan
ninguno
Bartolomé
contrad
pract
Leonardo
pobreza
Irak
Hem
##onga
Argel
Monta
edif
baile
mencionado
Marc
##cilio
Cantab
USD
disminución
Museum
cortes
fan
wiki
circulación
ARN
muestras
aldea
comienzan
Sudamérica
inmediato
##ret
cuestiones
tax
Gesch
Bahía
Mexicana
compone
##quita
evangel
francesas
reservas
##aten
heridos
aprendizaje
parecen
evolu
ermita
belga
beneficios
Sah
##baciones
verti
indican
republicano
##chu
##ándola
Europeo
molecular
CI
buques
conforman
Kom
tono
vide
##gando
medir
Bran
Lac
siguieron
representada
esperanza
##tumbre
quem
##elar
interacción
sistem
comunista
Benj
##bral
incendio
NASA
CP
publicar
Ner
##ctos
asunto
1812
Lengua
##onial
##aduras
Peru
atravi
etique
##sky
##iosos
reclu
##ximas
proporción
Provincial
Cantabria
GNU
habiendo
##tara
114
próximo
vicepresidente
3ª
IE
##rarse
requis
naz
##grafos
1871
##quero
Inclu
Nelson
##ident
##reinato
##ione
##turón
Island
observación
titulada
Lisboa
contraste
Lang
costo
dejado
desaparición
Manz
##icaba
136
correspondientes
Oficial
za
impul
aplica
Drag
Pío
Rap
micros
Supremo
fort
##nis
Habana
ciclista
embara
plena
encontrarse
protocolo
Hand
mural
llevaba
Capilla
abundante
##far
##gebra
visitar
Decreto
Gobernador
Digital
espiritual
latina
Origen
Georg
Trinidad
NE
##emora
Incluso
Vor
##cienda
##atales
##ganda
electricidad
Canaria
negociaciones
seco
repos
parecido
famosos
cercanos
daba
renunci
##ns
##fag
creencias
Galle
apa
##ildo
Che
épocas
1875
ofrecer
logrando
1820
Accidente
Tla
tesis
##organiz
secciones
físicas
UP
##eciendo
Actores
auton
glob
Alcalde
Ejemplos
Mam
##estre
parcial
ensayos
##campeón
partidarios
inex
costumbre
1874
Navidad
finalizó
##entó
persa
habilidades
elegidos
##lim
separa
vientos
##temp
Deporte
solitario
Abra
elevada
Game
diciendo
Número
neo
##ciso
islam
afro
marcado
##tega
Investigación
Sajonia
HD
Vlad
##wie
semi
anf
1861
funciona
Cho
Universitario
Hotel
Olymp
##bon
##cilla
Filosofía
Hil
##bury
nobleza
Tib
##ejas
retor
##usse
reproducción
Pav
##wen
apropi
##ijote
##ston
##guardia
inmun
explosión
Fred
##olítico
mesa
iguales
adquirió
Oviedo
GB
Anat
##eme
trató
##órico
Toro
Olim
pianista
##ificó
Distribu
asociados
poblada
Cartago
absoluto
##ket
##bord
101
torres
1867
saga
ton
##ób
##leto
##ecos
Margarita
Vera
naran
##rov
herencia
350
participa
Rol
Sav
##ach
##enciales
comisión
necesarios
navegación
Um
##nie
propuestas
##lob
intérpre
Secretario
DD
Sob
##critos
##zy
##arlos
paredes
desm
daño
Enfer
##iang
Urb
Ober
encuentros
esencial
estancia
persegu
chinos
Lux
Quijote
irre
sangu
inaugura
Lind
Madre
##hund
##ordi
particulares
##ífica
Canción
heredero
##uv
pura
tío
##ésimo
marido
transferencia
Casas
Jaén
ocupado
Lec
São
##isfer
mínima
mecanismos
Nomin
lidera
Guan
gro
##oria
Espar
##iebre
restauración
Base
hermanas
colonos
propuesto
comenzar
Dies
herb
Vald
presupuesto
##onesia
Cr
##ispos
Guy
romp
##éndole
Cala
vín
creencia
Exteriores
Medellín
describir
horizontal
irregular
cot
peregr
organizado
Macedonia
Operación
cuello
2º
meteor
misiones
demand
sexto
sexuales
BR
socio
provis
aplicar
describió
AM
Punta
suizo
Congo
posi
Extrem
Kos
##bis
visual
PE
138
destacando
1869
Artículo
##jera
##arle
asume
precipitaciones
audiencia
Tas
ber
extensa
bueno
enfrentamiento
punk
recaud
Pul
Pho
Tig
roca
humedad
Kre
Amor
NO
##desa
Jour
pobres
Thom
discíp
cifras
Obrero
peces
##els
costos
Columbia
##esco
Secretaría
llen
hacían
Hacienda
permitía
luna
##gins
Josef
hermos
##tecedentes
ESP
Arn
tratados
tomaron
mezcl
fragmentos
prestigio
enfoque
Días
##unde
arran
correo
Ganadores
##vil
estando
impu
Oce
##chs
haberse
sugiere
detall
##rica
##anal
##tela
##quet
##aven
destinado
Isidro
IBM
##ieg
Luz
caja
tó
clientes
cercanas
##mus
##utor
depresión
##inter
camis
Francesa
mencionar
débil
Boca
Cru
Kaz
Py
cementerio
##äng
cond
negocio
carbón
respeto
tib
perdiendo
abrir
oficinas
racional
relacionada
arqueológicos
vehículo
recuerda
jazz
vital
espon
##ally
específicamente
ojo
rar
##bras
##íodos
##icaron
Mess
apos
##aldo
marx
##lecomun
Eurocopa
Diario
Tax
Suprema
Brig
##ejo
pará
causó
distinguir
##cara
##33
decid
##teto
bajos
firmado
típica
vom
##cub
simb
prior
Metropolitana
caballos
bizantino
candidatos
intes
##pot
cooper
pesos
cae
Johnny
semillas
destruir
estabilidad
reciben
entrenamiento
gigantes
escog
ropa
exactamente
Gian
##lando
##ring
##pson
respet
pregunta
##terial
1878
dibujo
Supercopa
##wski
semifinales
productores
Andrea
ejercer
sorpres
cuidado
incurs
Presidencia
izquierdo
asegurar
Muerte
Douglas
iniciar
inspiración
Lucía
laboratorio
##sterdam
Diccionario
huesos
quizás
holand
coleg
atómica
meridional
Ebro
extendió
Claude
aéreo
ofensiva
1º
##ember
##torios
##gues
formaron
distinción
interpretar
adicionales
Kam
revela
Ortiz
1810
##fort
##reza
##atán
basadas
diagnóstico
botánico
##adel
Ali
cortos
empu
cierre
##ificaciones
dibuj
Hispano
##tod
teatral
Lanz
Pilar
##entadas
solista
creía
indicar
surge
organizó
brazos
sesenta
cámaras
vér
corrupción
humanas
instrucciones
golfo
Jerónimo
minuto
satisfac
Vigo
batallas
##asas
##eléctr
distinto
configuración
playas
otorgó
móvil
##vial
peor
divor
organiza
destin
básica
gráfica
nervioso
hue
Segovia
turistas
religiones
encontramos
caballería
Constantinopla
BMW
comet
ances
Carnaval
paralelo
##astre
positivo
crearon
mantienen
organizar
hablantes
diplomático
inesta
Expres
expresa
Industrial
miedo
##fri
comunistas
únicos
variación
##athan
burgu
Kat
##ép
##ratos
abd
##bau
hotel
Cora
1866
interpreta
receptor
Pampl
piso
##ónde
##ipú
##ológicamente
triáng
Period
Nep
Off
##uos
marina
Ric
inac
##breg
añadir
fases
nosotros
##erta
Elena
ecos
promov
separado
tabl
Símb
Monterrey
1800
Janeiro
History
##90
##CC
acuerdos
ander
Bach
terrestres
seno
up
temprana
idén
usualmente
deportivos
Imperial
Ker
iban
Inca
virtud
campesinos
Hong
Enci
residentes
marcas
Primeros
espectro
vocab
auge
##tidos
arzobispo
dosis
restring
##oce
verdes
demostrado
##gang
templos
##jeras
##keit
Hart
Edificio
protagonizada
vigil
reduc
##sea
inflam
toros
Fir
Piloto
sint
mercados
Eusk
cro
##rama
perpe
períodos
escasa
Orquesta
profunda
característico
Not
##ery
probabilidad
asentamientos
Isaac
prefi
Cristina
Ear
Eng
##uevas
Stand
1840
viajó
vidrio
##ike
promover
##arán
Conv
Conferencia
eliminación
espectáculo
dramaturgo
##gral
ruinas
Young
celebrado
sam
##rieg
##olis
monumentos
captura
dominante
##itoria
Kun
filo
ph
propon
Plantas
Servicios
computadoras
modificaciones
sedi
center
1823
facilitar
desembar
##VI
escap
Romeo
Ahora
Tac
bon
alb
despo
Sex
event
panor
Roc
##leich
cuestion
protegidas
Ace
Lyn
Nord
##cro
alimento
##terapia
##acán
tercio
amino
medic
placas
##dorf
encom
ofrecen
Yugos
ali
Extremadura
Meg
##undos
Revolucion
virrey
Tipos
administrativo
##reos
estudia
profundo
permitiendo
experimentos
compromiso
Jardín
sublev
School
Cis
buenos
asistencia
##ficiente
dirige
imagin
sufrag
trenes
Calderón
Bad
##kín
rotación
potencias
conmemor
extinción
##ometraje
##ájar
Programa
adoptó
matemática
Oficina
Segura
Yuc
Guay
IU
Ost
incendi
Mauri
Milit
soviéticos
juliano
célebre
Bert
Zu
##tración
blancas
beneficio
##caya
##inidad
reloj
Lav
##quist
Alma
académico
canto
ajedrez
##ingen
pref
Cuad
divis
Buc
Dion
High
##tricas
trasc
indio
considerarse
Pet
rica
##chus
afil
gusto
altar
arbit
salvar
Julián
criterios
alas
plazas
fusil
participaron
desarrollan
Gand
oce
sop
cotid
poetas
##reb
##tation
##fato
Plu
##iki
publicados
1824
vegetales
##teil
Soto
explicación
Gales
Vía
##TO
mundiales
##rendió
rebeldes
Beato
Lig
Portal
Sín
tim
##war
##áver
Período
Miami
concepción
bla
##ivind
restable
abad
moda
ondas
cuadros
intelectuales
gravedad
Vé
##izos
Juventud
barra
1859
##psis
Cob
delan
##try
Chip
Nevada
entero
##cionamiento
Letras
Thor
delim
informática
Norteamérica
duc
ine
aline
altamente
salas
Prin
Món
ingen
##ólicas
Power
demostró
interesante
Hijo
##oradas
derrotó
Otto
##sol
Cáceres
Cuerpo
diecis
##adi
##rita
perro
##fectura
1854
limitada
constantes
##olution
funcionarios
aumentó
Jas
ucran
##ße
##ciende
desaf
sinónimo
utilizadas
discre
identificar
Leo
##of
acos
pudiendo
##ovil
israelí
persecución
##ógrafo
poseía
esperar
ATP
Hon
rumbo
calcul
permanecer
cubano
interfaz
##vard
##tible
1864
Pamplona
Mr
embal
Colorado
Eul
bere
pilotos
##ox
##etario
Presidentes
Paso
fronter
deportivas
##ropolitano
##low
Aless
Condado
Diputación
linf
insectos
permiso
Caja
##kar
##paz
competiciones
##titudes
Ejemplo
##urrección
AN
##84
unirse
extremadamente
filme
1814
aficionados
Huel
Atlas
sencillos
Huesca
dientes
ment
##viendo
Herz
1862
Date
##mol
conste
ampliación
juez
siglas
iniciales
conjun
impresión
Goles
##ih
##ienta
Reforma
cuerda
tripulación
polémica
cá
lagos
hablan
##genos
Protec
aparecieron
1863
epid
fiscal
##laza
murieron
Mónaco
sinc
acepta
excelente
jamás
sesión
##sor
Alas
rescat
completar
Ermita
grabar
almacenamiento
Resta
##vaciones
Ortega
represión
##menes
quizá
##sos
asturi
##ufac
Mujeres
ganadería
##lovaquia
Sky
Tún
ef
teles
Marta
segura
pasan
darle
urbanos
Jacob
ministros
Idioma
Prom
ape
fij
básico
Times
lineal
##hí
llaman
oriente
estudiante
barroco
Vizcaya
restantes
Olímpico
##jidad
modos
indirec
igualdad
Out
bió
##cate
##tena
coche
dirigir
Hora
nur
heter
existían
refuer
hoja
##pio
##zca
criol
empate
Dado
intr
cuento
Judi
papeles
##acete
Traducción
continuo
geomé
Davis
demostrar
trom
##úo
compens
animación
Ferrocarril
##tiza
oral
técnicos
encarcel
contaminación
enga
##ulosa
##izas
planetas
altern
cadáver
extranjera
caballero
Good
ruptura
##CE
Libros
sacri
pecul
Buen
septentri
marino
mineral
identificación
remonta
gim
##lave
##tamientos
Armenia
Compu
recur
##verde
luchar
construyeron
pobladores
bici
repi
##heit
ordin
Posición
##fl
##abo
Valpara
Disc
rechazó
tendrá
Lí
ácidos
Laure
##enson
Polit
definido
alcanzado
Mass
Pit
Ts
##ciona
anat
prést
Pleuro
Nº
póst
##asia
aprobado
ree
admi
atribuye
Patrick
Bust
Leopol
distinta
prosper
Aran
Toy
tap
parecía
##abeth
##ahu
##viación
conseguido
adecuado
proteína
esquema
electromagn
dirigentes
ideología
sustan
Tyr
Heinrich
##isferio
Beck
fle
##iba
Contr
interpretó
irlandés
obteniendo
retrato
Exper
corteza
Cómo
Tito
cima
##rol
finalidad
hijas
1856
bombas
enciclopedia
dictador
aventura
farmac
America
artillería
bac
mesti
##gh
##ortaciones
endo
##chor
conson
armada
Leopoldo
##eman
asim
direcciones
neum
suficientemente
##éisbol
Dolores
optim
##áculo
##amante
##ischer
parlamento
adquier
precurs
Oph
proxim
##quim
##gramas
tubo
abundantes
laterales
Ronda
##umi
##quím
##TP
##aman
Howard
trece
suprim
##ject
Núñez
Estructura
##wart
virtu
Jahrhund
jefes
##sión
##greg
perf
filas
borrado
fár
sú
##stadt
##rile
Julia
conducta
Bundes
impulso
Nag
##quen
Alvar
##puest
##hua
buscando
conclusión
##hren
orientales
expresiones
Christop
Jam
Ám
progreso
podido
##idencial
desaparecido
soluciones
protestas
Valparaíso
Wel
##inn
##trices
actúa
apellido
##edades
cerrado
Zac
##ifer
##isource
encargó
reunió
Avi
desenc
##esiones
Ash
##allet
##piter
agrup
borrar
anuncia
deterior
##itadas
##ump
##fectos
Eric
trigo
frutos
Cele
aque
##ory
explí
##dera
reivind
Chan
##gración
Stephen
Bi
##aurus
##sp
##etal
limitado
contemporánea
Bav
##tones
##alos
##gros
pedir
##vestre
Pur
##junto
##cientos
##termin
End
##ocup
Mari
denominados
sucesos
permitido
Modern
opiniones
cuadrado
##tet
marav
rechazo
típicos
Bag
##xt
##rimientos
Herbert
movil
Pleuroth
##äch
hero
##ibo
Alban
mención
desarrollada
##hou
##ódromo
Hispania
Little
##wan
estética
volvieron
significativa
revolucionario
Yugoslavia
Hombre
##ähr
##üs
1825
fija
concejales
conmemora
víctima
predominante
fósiles
Agua
marqués
considerablemente
1815
puntu
##ink
hablado
carro
Nazar
Teod
mejoras
Galile
Delta
AL
gam
aviación
ordenador
reconoció
Massa
Navarro
razon
automóviles
específicos
##gers
##umo
propone
##allen
111
tropical
responsables
varones
cinturón
trabaja
Stef
LP
pistas
conocía
Sr
##ficiencia
##plica
observaciones
físicos
secundario
##lecomunicaciones
##dó
respira
conversión
bombard
Mort
roc
##öl
##usas
destitu
atentado
maestros
##utsche
Duc
MTV
gótico
##irió
reduce
come
Fondo
continuidad
##shire
apoyar
Iber
##gico
##allo
mehr
Chin
polvo
romper
Tercer
Apóst
##ashi
##tricos
exteriores
medalla
Techn
##rueba
##ávez
Vázquez
##entamente
Chia
##ganza
limpi
Aristó
##ockey
##ogía
regul
##risto
Tradi
Ámsterdam
Kur
ja
pide
##äl
##icon
##ids
Comand
##box
pale
##aki
Eth
bando
plu
vib
##lung
##olvió
##acre
previa
transfer
Athle
Banda
Jú
manio
reconstrucción
1842
Mercado
específica
relevancia
llanura
Hierro
hebreo
Ejecutivo
Jahrhundert
arcos
360
Videoj
Álbumes
SD
Soc
dama
##uez
Asc
composiciones
ocupada
vigente
integrada
Street
Pleurothallis
ste
##iche
Guitar
fotografías
opos
##ede
##VA
##rias
desarrollaron
campeonatos
Clemente
Goya
Iron
Laur
transmitir
Show
sabor
buque
Aristóteles
coordenadas
##terránea
bancos
creció
##taro
Mata
necesariamente
1851
declarada
electorales
Convención
Jose
Gastronomía
manejo
Partici
Tw
##chado
ans
podrá
masiva
descritas
secundarios
produjeron
Brit
Biel
##ensor
recurso
Muy
mexicanos
102
insta
dinámica
facilidad
goleador
Bang
acaba
##tarios
británicas
seguía
caudal
##pó
##ficiales
dañ
Voz
juvenil
exposiciones
Exposición
privados
##mund
##camp
1836
1835
detener
intercambi
tantos
proveniente
drogas
##stand
Chávez
formados
##inosau
versos
dejaron
##ways
Clark
Sau
destacó
Aure
1845
pacto
Dio
derrib
eines
componen
embajador
##gata
Hub
Roland
financiero
conferencia
##tigu
##urb
diarios
Borbón
publicidad
descan
Boston
Einstein
Science
móviles
yacimientos
llevada
Mérida
##zadas
##CO
##inario
plen
escritas
homónima
Old
Ceci
rico
viernes
##yu
##iona
##sted
##eppe
entradas
descubrir
##usco
Conse
Prof
nacionalidad
Arabia
Deportiva
flora
Legislatura
##mm
##monio
logo
centr
##atorce
Naval
cruces
Rubén
##jetas
##áticamente
eng
trag
milenio
urbe
1822
vendido
positiva
matriz
Georgia
jardines
novelista
unen
##eden
France
Candidato
Gius
mide
congreso
Rab
##menta
##uelve
niña
procesión
vivienda
introducir
##rocarriles
adquirir
Lara
colap
Maur
moder
Centroamérica
sustituido
Ludwig
Mana
comedi
Duque
URSS
Back
##éjar
##onn
soviética
impar
##ráter
toman
veter
Aun
Vegas
puentes
Perten
##jör
##nio
##osta
##range
médica
ayudó
instaló
colombiana
republicanos
Clin
##kh
##alizan
##ducido
imag
Awards
MA
Nació
pelo
separados
Aj
Fres
##SD
##ulk
internas
##uston
tomada
Edgar
concedió
rusos
tú
##acia
iné
revuelta
pintores
ochenta
Ves
##éi
##itariamente
publici
instancia
Sher
Retrato
periodos
5000
gráfico
sorprend
dud
##ímetros
Guad
necesarias
estrecha
conecta
Trofeo
Cri
##otes
monstru
sostiene
Association
Roca
##eña
##frad
##ábr
##ienses
Palmas
ingresó
Gemein
##iosas
##andra
entreten
propiamente
esposo
bloques
litoral
##70
##éf
##dita
##tella
Roman
Metal
hal
ná
##ça
postura
llevando
##máticas
causar
Justo
Ernst
Dream
Gibral
asteroides
Verg
Retiro
cancel
permanece
sacar
ambiental
coc
reemplazado
OS
it
sábado
##UN
anualmente
##cesor
describ
ecuaciones
legislación
Himno
Estatu
referente
Ramos
enfrentamientos
PA
back
##blin
continuaron
Graham
molécula
Pizarro
ecosist
ABC
unido
alternativo
Democrático
astrónomo
Eti
##elio
##patía
aparentemente
##angular
legales
##OL
rell
comprar
creen
realizando
compleja
Georges
dialecto
Bale
Nich
compuso
mediterráneo
básicamente
Bulg
hardware
##euro
##rona
supre
##imar
pastor
Universo
turb
manteniendo
##irman
verte
opciones
geografía
determina
marcador
pérdidas
lateral
##cra
Eliz
Esa
resal
##jeta
obligó
celebrar
wh
##BI
##stra
retom
exil
ornam
franja
significativo
biografía
Vaticano
caliente
Golfo
psicología
gama
mental
intra
##ovo
##pecto
pesc
modificar
adecuada
Anthony
ignor
Mec
##ladas
##pina
grabó
Clausura
otorgado
Caj
bóv
##gg
##ezo
##gencias
##ionado
Bou
quedar
1844
Jugador
Tyrrell
##egal
recibieron
electo
Newton
Declar
confirmó
##km
##tense
Posee
Gy
Tara
##gara
##unciación
siquiera
##ráns
diseños
síndrome
Duran
fotó
incidente
reuniones
sufrido
Ilustración
soldado
##mosf
sirven
guerrill
petrol
Beg
besti
fores
##rix
cura
Colo
decoración
cursos
pist
##kes
sev
indo
##umer
arb
Monumentos
##turb
elaborado
Ola
Vice
sufre
colonización
conforme
Territorio
infantería
mister
##hab
##onto
##igan
oficina
planos
Grab
expresidente
vocales
sólido
sintetiz
gre
##clas
##igma
subdi
##élico
aceptación
laboral
##vania
##uru
##rong
Monasterio
Electr
##éndolo
asociada
Bosque
Sistemas
contemporáneos
WW
cria
destinos
afecta
cobertura
séptimo
##ilandia
Athletic
Spi
##zano
##teria
##itch
tiendas
Mix
regresa
Palestina
Abraham
Marsh
Paseo
esculturas
Aguas
cañones
##ecimiento
necesitan
desplazamiento
melod
censura
Fle
Natal
muros
##tures
armon
soy
##bren
polin
portuguesa
Principales
eusk
##áez
##terno
intensa
santa
Broad
otorga
dialectos
Control
controversia
##ote
##íbl
##5px
protagonistas
fallecido
combatir
otomano
Bulgaria
Tag
marinos
##huatl
asociaciones
herramienta
Apl
Kor
##plas
##tik
##emi
Neu
argumentos
inspirado
##stone
##abora
hayan
avances
##emburgo
Basílica
gestion
Ribera
Argentino
clor
establecida
renombr
##petición
we
gobernante
automovil
receptores
Sap
Ára
adh
antis
##ondas
Brus
gallego
Best
HT
##óto
elog
abuelo
emplaz
decad
Higgins
armen
##endor
platos
expertos
Jimmy
Iván
muro
hechas
Exp
Plate
eliminado
magist
valenciano
Alejandría
pala
nobel
impac
cercanías
Rot
Índice
##asis
Petr
lanzar
1852
gastos
sesiones
inmigración
votar
poderoso
setenta
Giuseppe
Censo
Wind
##tem
Armas
formalmente
##iped
Mej
##bús
estaría
1837
clasificó
##digos
##odes
externo
Lour
cambiado
fallecimiento
danés
Yucatán
Pilotos
##onales
##lage
debil
Salinas
retirarse
próxima
Journal
##estres
aproximada
start
Adi
Nadal
##hre
##GA
##chet
##uló
Program
dedica
condenado
sacerdotes
desconocido
Júpiter
orilla
adoptado
Circu
Lagos
orb
Luffy
ocupan
legado
nº
st
degr
apun
##elly
revisión
atmosf
1831
concluyó
australiano
huelga
Lleg
pales
##gli
##GB
##PA
interme
##allón
Vélez
Inm
presa
Amist
##exiones
mostrando
acusado
disfra
propietario
pseudo
##ingue
vivían
quedado
protector
Spiel
dónde
flan
estoy
aclar
vende
##puestamente
pur
seman
perif
Gordon
Crim
eru
determinados
Zeus
requieren
Aguilar
húngaro
Científ
Kin
##wald
##tarric
Piedra
incorporación
convertiría
dimensión
Mauricio
NA
catorce
##uar
##ulla
##etaria
regulares
experiencias
Modelo
Darwin
Zapa
Brad
Hes
##inista
parad
impe
Magallan
competencias
Enfermedad
Miller
##idencias
##ugby
Teruel
provocar
Ton
je
vendió
##45
##icus
reti
##ress
cauc
Islandia
constituido
Harvard
proporcionar
negativo
terrorista
Frontera
##isos
internos
Coronel
Taiw
esfera
Especial
satélites
Tecnología
Gig
ámb
##ater
##tend
salto
tuber
situados
vivía
Serrano
participan
sobresal
naranja
viud
castel
realista
##tusias
provocando
pantal
expulsión
Nam
crán
##uci
conservador
##ócratas
Cambi
##stell
##etano
capitales
Corpora
export
##hof
1855
Stad
modificación
Estadística
Videojuegos
Magallanes
Homo
tin
pobla
1858
derivado
ester
##edida
##ovia
compil
Pun
##íbal
##oman
simil
1853
Inglés
vulner
show
Cay
Sé
espor
proyección
experimental
institucional
abandonado
musulmana
##eira
##TI
##ención
##ásica
##denas
distancias
Aguirre
bombarde
lunes
Lil
dudas
índ
##orum
##omeo
suelos
fibras
cuántica
##dia
##iscos
Unesco
##brada
ISO
renac
https
consistía
##ránsito
Yos
##yan
##ös
##dujeron
Diana
negras
previo
aceler
vs
##irá
ano
Cass
mayoritariamente
térmica
recoge
portugueses
Albacete
Gibraltar
Lé
usadas
Barrios
trastornos
catalog
gráficos
generaciones
dueño
ion
habitación
ador
manufac
demuestra
Wer
tam
dominios
viajar
senador
oportunidades
Gü
MS
##istía
perfil
Ambi
##éndum
procedimientos
Igualmente
Fueron
ejecutar
zwischen
devo
noch
tenor
Pekín
Provincias
Niño
relevantes
bizant
toler
Lle
ax
##zaba
##élica
Cabrera
específicas
Stalin
Sib
Velas
ball
##ermo
acúst
Producción
Atlanta
traslado
Rodolfo
Forma
visitó
Russell
##garon
polic
##ándalo
químicas
baloncestista
SM
Sid
entusias
sindica
##tionen
capítulos
calcio
complejidad
1839
mostra
##ásticas
Menor
banco
Especies
atracción
urbanas
manifestación
Bac
gato
subir
Orígenes
sentencia
Benet
renunció
surgieron
Antioquia
UA
##weg
mariscal
criterio
beis
detalle
Vit
##orde
##antado
viva
Queens
castellana
Oax
##tah
1200
Hernán
fibra
guarn
##tí
##OC
220
##enny
atraviesa
##wich
cubre
guía
espaciales
Dark
Ophrys
##europe
asamblea
copy
Clase
exportación
huevos
Lord
Zú
Theod
consideradas
convencional
concejo
incorporó
vidas
ende
alemanas
fundadores
##encialmente
Down
peculiar
Hugh
cráter
##RI
deform
exhib
##tillos
##formas
##bour
extender
alcanzando
Stewart
##ennes
sensación
##éroes
demográfica
sombra
nub
##bí
Colección
financiera
metabol
##now
insu
##gono
Class
Johannes
##hy
240
dependiente
extendido
terminado
Wikisource
básicas
correcto
Península
Almería
inauguración
Hot
UNE
##gy
##entino
dieta
escenarios
##opera
inflación
##ordia
reconocidos
##queros
citado
##dney
##35
##mberg
amante
Pakistán
localización
Constitucional
agrupación
Duero
Ral
Sas
lien
Int
carl
Dep
patria
emplean
Balonces
madrile
lenguajes
Up
##renta
##tti
##atar
escar
quiso
##ógico
informó
Construc
Ques
colo
recta
##oluciones
depósitos
Formación
Publish
cooperación
80px
##uo
##vieran
##stos
estatales
##érm
##inga
abord
maneras
contenía
electrónicos
sustitución
##cleta
patrones
weiter
##coles
percepción
##agan
poética
futu
Astron
temática
acuñ
Luxemburgo
Oaxaca
Rela
Callao
nombrar
cumbre
colecciones
Philippe
Shakespe
##ilu
##igual
##ocos
cose
descom
combates
Lugar
provisional
3D
curs
vist
##vre
repo
1849
Kev
Od
##atriz
Bened
1829
extrema
Airbus
Billboard
##ej
aprender
tengan
confundir
##ítm
legend
##bili
biología
difíciles
fábricas
simultáneamente
Flam
Iz
cito
##rane
junta
Andrew
espl
##ants
tendencias
romanas
dicen
1808
Jalisco
Argelia
Picas
ira
rosa
propici
verb
trastorno
char
Bravo
señalar
notablemente
escolar
Comien
Ass
Valdi
establecidas
Eddie
digitales
constantemente
germán
brind
gabinete
Militares
##ols
mata
##ámicas
popularmente
compositores
restauran
Baviera
CIA
ecl
##ango
##lavo
##tosí
Arc
internet
Poesía
1846
Great
vasco
Gel
##imens
invitado
tenis
produciendo
impuesto
FRA
##emann
Comenz
constituyó
mantenido
##ijón
ocurrido
Hat
UC
##famil
##RC
Laura
conviv
iniciado
definitivo
retablo
Shakespeare
##cionista
solares
producciones
Crón
EL
gregor
##ídas
Comics
Porto
Act
servidores
conservadores
Lorca
Croacia
hábitat
guardi
##tish
1843
abandono
protesta
americanos
Energía
Well
##usam
Estatal
Corri
Hermann
dependencia
determinadas
Estrella
Kas
PJ
ke
##pico
contes
##edos
muertes
inscripción
clasificar
Luisa
autóc
legíti
separadas
científicas
aluminio
Arequi
Ptol
##ciencia
##brados
cuartel
1847
##tipos
##unden
cargas
Group
##cidium
asedio
##graph
coh
encarga
austría
Agricultura
parámetros
Mün
##hin
Common
Universitaria
Francesco
##EN
##ès
entran
##loven
##idados
venció
1834
sufrir
magia
envía
muralla
Parroquia
eros
oración
##64
##iers
cañón
Meta
organizada
autobuses
Björ
fren
##tomo
##esor
##anías
##rang
transpar
extenso
pretende
GF
tasas
##hor
##chua
Escul
aprobada
peg
Compar
grabaciones
##ificados
##quesa
socialistas
Queen
Von
femin
##pers
sud
paraguay
geometría
Indonesia
1813
Audiencia
##ui
Chac
Mozar
enfrentarse
velocidades
inventor
cápita
impedir
Velasco
##Data
sonda
documentación
Rumania
Tucum
utilidad
##99
##32
carn
infección
estrech
Enciclopedia
3º
lema
Aníbal
impuso
off
Sofía
sentimientos
Fire
supuestamente
posicion
embar
realistas
450
contener
Eugenio
Map
##toci
pase
##vey
tablas
Ibáñez
abundancia
Guerras
crimen
Religión
sucedido
Gav
ri
localizado
##cinas
##eropuertos
materias
óptica
economista
pár
##ití
comprender
minoría
bajista
pudieran
dinosau
Anim
cha
Berm
Armadas
bibliotecas
Arias
Allende
liderazgo
Taiwán
mist
##DO
##chy
traje
preval
orquí
tiende
##ámide
Dicho
Pis
##als
suple
recepción
estand
Unida
admit
comprob
montes
localiza
##umbres
definida
Café
exploración
Bello
Tuvo
Mand
Zar
##onias
habrían
francos
conflu
Democracia
funcionar
cubrir
correcta
socios
Manchester
1838
asumir
rivales
Christopher
opuesto
##dares
Propi
##estad
nazis
Plot
##uti
condujo
añade
Escal
##inge
Generalidad
Serbia
colaboradores
literalmente
##tedra
Eva
Versión
blues
##asi
##umbre
expresar
escaños
vegetal
sorpresa
Bene
SO
pé
##gt
porción
##uld
cerrada
Abril
Post
##marés
contribuyó
exportaciones
##plan
##cioso
machos
ventajas
Sudamericana
contribuciones
silencio
Picasso
##istente
franqu
##lore
perfecto
clan
dúo
frí
##yes
##nah
Guaya
30px
##americanas
enterrado
Girl
Hop
bíbl
tub
Estudiantes
Industria
Water
Empresas
Distribución
Om
vistas
##cidencia
meseta
Liberación
superficies
estrenada
Chipre
Títulos
blas
##lamo
estándares
literarias
Marcelo
Corazón
Tum
curios
##egel
Intel
occidente
##ógica
homónimo
Premier
integral
presentaron
Abu
1811
Petersburgo
circuitos
sobrino
éstas
repl
reorganiz
entregar
caña
Aleks
nacionalista
intenso
registrado
marcada
Gabri
legislativo
Limita
trist
##zaron
##hat
##unya
arrib
Perse
Adolf
experimento
compara
Clara
residuos
eficaz
crónica
aminoá
ida
vector
Tama
enam
unif
unidos
clasificado
héroes
cerebral
Flu
Hä
##cino
acredi
Nota
agro
Máximo
lleno
Hero
##zando
protestantes
eligió
euskera
Soy
dol
prohi
informes
Oncidium
Litu
Rand
Scal
espar
compró
crecer
1600
especta
Virreinato
gastronomía
contando
##abilidades
##önig
black
bombarderos
Matemá
Noroeste
Wars
##zig
latitud
##ocitos
espir
santuario
armadas
Det
##38
##ader
Shang
leyendas
desembocadura
AG
Dicha
ETA
Fos
Hau
##cales
almirante
##urbios
mini
Alemán
procesamiento
explorador
ele
andal
venced
Milan
capacidades
operativos
State
Cé
Kent
blin
##66
deton
##pool
habil
entregó
recuerdo
aparatos
##máticos
respondió
##hausen
Túnez
AS
Bron
Bronce
Gine
ricos
poseer
obtención
##aparte
priva
detectar
Mozart
MB
puls
##álogos
##opía
##racción
ruido
Símbolos
soprano
Abierto
Viernes
##unales
inund
Concilio
casado
Coro
descrita
Legión
testimon
##mandad
Acu
Stud
metod
ingredi
Shin
efectivo
lunar
Grammy
Grad
dign
giro
##udí
Anderson
virtual
Católicos
Discografía
cinematográfica
fortuna
Priv
citar
seca
apres
divul
##arela
triángulo
Kevin
##üd
Carter
paseo
museos
financieros
##asser
Vitoria
##todo
##vić
invern
relativo
plural
verso
Watson
Guayaquil
Bada
Bár
Fro
Vars
pid
##ries
Maestro
##tha
iniciaron
destacadas
Toronto
profesores
Apro
Freder
psi
Agencia
vieja
disciplinas
condens
Bruselas
Rick
##nik
##gias
##FE
##idia
imprim
admir
##ionista
Villar
apreciar
enfoc
selva
transcurso
Shar
proclamó
Afgan
##cab
acent
##uther
Mann
extracción
magnético
concretamente
rostro
oscura
egipcio
Arequipa
##nung
##ulta
Estudio
##ínguez
##ércoles
Comb
Ort
cortas
Casta
##red
##top
##ierung
Alpes
Ark
efectiva
históricamente
Octubre
dobles
amarilla
jurídica
DI
Nos
fia
##strong
##bahn
denunci
llamaba
Mérito
1841
Warner
caballeros
instrumental
Tucumán
Hidro
##emy
obreros
patio
cosm
normales
75px
comerciantes
teorema
hemisferio
##garse
##vina
##hue
Church
tengo
Free
##astas
Económica
datan
##ieder
##GC
cubierto
abar
tienden
copa
nitrógeno
Afganistán
gent
pene
encer
plomo
##ándolos
Esperanza
conferencias
##ises
##itter
adyac
orques
Nacionales
esclavitud
tragedia
gregoriano
m²
##san
##gaba
##cionistas
##quillo
Potosí
tripul
Armstrong
AB
Kant
##hne
##ène
##chin
Teil
independ
violín
empezar
incorpora
pretendía
BA
dam
##75
inhib
Primero
comparten
Soria
##té
##gol
conexiones
puro
queso
creados
Asuntos
##ritz
prome
celebrada
poblados
conductor
aerolínea
Testamento
ITA
report
##obos
##head
Maz
210
Tratados
emisiones
tribunal
Profesional
Taxonomía
Pep
Ór
##34
errón
historieta
rodeado
Cinco
relevante
emergencia
Antoine
preocupación
Giro
ME
dre
kann
tos
##ranas
contribución
asocia
llena
comité
sowie
responde
##ingos
marcar
##landeses
##hamm
migración
murallas
Valdés
reson
solía
Coment
mantuvieron
favorable
##acao
Municipalidad
esperaba
Holanda
Bonaparte
Bull
Ency
desinte
prosa
prima
##iblemente
Peque
representaba
km2
seguida
pertenecía
correspondencia
solicitó
previsto
Kirch
zapa
Hend
Mez
Usu
##bara
##pent
##gunas
mani
varían
##lins
Grass
hembras
##rä
interven
gravita
obtenidos
elegida
encargada
comentario
septentrional
fot
##onder
Berna
Pacto
Convento
Ful
éstos
##radores
concesión
Marvel
americana
Crisis
Misiones
Nad
let
##uche
comunica
reducida
Maurice
retiro
obispos
salón
Houston
Siete
##cencia
##erba
denominan
referéndum
vuelto
Jahre
implementación
Corporation
Tren
cueva
nap
exitos
maya
techo
editado
Género
garantizar
medicamentos
Jordi
##guer
suyo
producidos
Técnica
Cordillera
heridas
pelota
##amilton
frutas
catalana
feste
##tez
##imenta
Arena
1819
Bruno
brev
firme
húmedo
descanso
Varsovia
ole
ordena
estructural
facto
deberían
CS
Gijón
emitió
cuentas
consigo
culp
millas
utilizaba
gew
extranjeras
Copas
iluminación
EC
Fla
Letra
Ópera
##atre
obs
##ebe
dirigidos
Océano
ventana
Fuerte
Creo
administrativas
masculina
##ancías
Lourdes
viuda
Emi
East
MON
Pant
fant
seit
Solar
aceptado
Catalunya
secuencias
bloqueo
Alvarado
KV
Mü
Tall
##dov
confusión
230
Pale
autobio
sencilla
Benetton
Dinastía
Kiev
Rat
Arti
ciudadano
Org
costera
astro
1826
adoptar
atractivo
bebida
Toponimia
budismo
comprensión
Express
bille
inyec
##cionó
Carm
##ueltas
llamarse
cabezas
desarrollados
frecuencias
argentinos
Esparta
Petro
##del
##ecas
disputar
Micro
Oliver
cómics
##alizaciones
##rence
sabía
Demócrata
eléctricos
suficientes
haría
##organ
##etts
originario
lanzada
Ferdin
estrena
Inicialmente
austriaco
requisitos
Jama
##pton
noches
##turación
##jetivo
##inoso
situadas
identifica
Praga
Adams
facultades
Bros
che
átomo
##ali
verbo
rect
representando
construidos
señaló
Network
Incluye
constelación
pand
ray
##kre
##emo
promin
artísticas
apoyó
cristianas
Román
Borgo
Estadísticas
decadencia
##bell
esencia
exceso
recurr
255
ejerció
Ocu
vener
condita
Institute
aumentando
avanzada
perfectamente
Dip
darse
##fu
Valde
futura
descubiertos
Generalmente
vocalista
Juniors
##fran
##LP
##iens
herido
Eurovisión
Roos
universitario
Litera
1789
Darío
Pron
##uría
algodón
armado
British
Drama
Jonathan
Etiopía
restaurantes
Cov
Dá
Must
lento
té
##100
##cules
corpora
Garden
##icóp
ensay
conduce
pelea
nombramiento
Estatuto
Cán
##cionada
consenso
interiores
adjud
personalidades
##rillos
Patria
campamento
##enh
proclama
Salazar
Dul
ventanas
consiguiendo
##ambigu
compromet
incons
##lina
##mado
suave
##queta
Casi
basándose
lector
ibn
Domínguez
Space
Cres
Et
Neb
costarric
Masters
federales
Arroyo
Eus
Sólo
##day
Chel
##uelle
Luigi
evacu
banderas
rodaje
renovación
guarda
Beatles
Chiapas
##joz
Abad
dirigente
encontrados
crímenes
identificado
topo
Malasia
escuchar
metaf
CAN
Pent
diálogo
##ulaciones
Andy
turísticos
habituales
próximos
recomp
artificiales
camiseta
Alaska
##andina
caras
maquin
Extra
##ímetro
tango
Malta
debutó
Rolling
Ginebra
##ensas
evidencias
##ffen
griegas
Americana
Cantantes
cúpula
Arag
cated
##rones
##uve
##cie
##aderos
della
Contemp
casarse
Guía
canon
##piente
##mont
Diseño
Link
Golden
académicos
Velázquez
independientemente
Antártida
Maximil
##ms
##uan
presidentes
##pone
modalidad
Moore
golpes
Metropolitano
gir
arra
partícula
medallas
Actor
Creación
cilind
exitosa
fiebre
##isario
Santuario
Generales
Harris
mercancías
vecino
detenido
supervivencia
##ícl
##erner
sobrepas
calcular
##teraciones
##rópolis
cumplimiento
##alto
Rose
Mens
rean
##peta
trajo
supervis
herman
##rául
Pear
mitos
traducido
rara
santos
tránsito
##jón
##gnos
##ßer
##imb
1828
alternativas
profundamente
Aur
Xav
fría
##íamos
trazado
Comae
Morelos
firmar
Gaspar
testimonio
suspensión
BBC
Yama
boda
##mor
##witz
lobo
campus
espejo
memorias
destruida
Liver
cromosomas
semejante
##asen
reten
plato
activista
cantautor
FE
Ficha
Sigu
##ds
##énico
##poración
cantar
##andes
aparente
persas
designar
Periodo
abiertos
bef
ceb
##ommen
##aju
Montre
misiles
sentimiento
Antigüedad
##TAN
establecerse
garant
asalto
##ederaciones
escocés
Fall
##tung
Eso
distingue
Organ
##riota
turco
Magno
aislamiento
enzimas
módulo
agra
glu
##oa
##gru
##rible
tienda
tenista
considerando
Puesto
manifiesto
escasez
##trans
##quila
new
comenzando
Electoral
paisajes
precipitación
patrona
competir
novia
##erso
Polo
Sony
consiguiente
##gesch
colocar
hueso
Evangelio
Crítica
##indo
perros
incluidas
barrera
interpretada
##ograph
Sacro
mártir
Uso
interrump
preocup
empe
cantantes
1832
terroristas
Alain
corporal
eco
rot
Encu
muñ
cardía
Marzo
logros
turística
Carretera
##campista
nubes
Llam
Tú
##ving
Francés
##carse
##führ
Proble
afueras
destacada
Roja
viola
Ivan
terap
labores
Ye
amo
enrique
##chten
parejas
etnia
caracterizado
Terra
restricciones
Elizabeth
320
##lis
##ongo
enormes
pata
polo
radicales
Jane
apoyado
helio
levantamiento
brasileña
migra
rehabil
desencaden
Ax
Line
##PQ
laguna
perdieron
examen
##antán
Interés
lesiones
Harrison
discrim
##agner
preparar
baterista
reúne
IA
renta
##éra
##quina
únicas
ordenadores
Franklin
Badajoz
Squ
sodio
##vor
##ost
##ineros
reputación
inoc
##ität
crean
consideración
inclusión
redacción
Armando
egipcios
Particip
pisos
Hunt
Ian
util
león
##ionistas
generó
Telev
colectivo
guerreros
traducciones
Sabb
sensibilidad
paquetes
Entrenadores
##LI
triple
Math
Indiana
Huelva
##iernos
territoriales
tarjetas
News
cónsul
##gregación
Ariz
Ép
##emn
##emias
##pura
coloca
##verg
instrucción
caracterizan
compartir
Humanos
descubrimientos
consiguieron
##ingüe
Billy
esquina
Wy
##gido
##qué
arca
centen
Perón
rojas
causando
Respecto
socialismo
presentaciones
Terminal
40px
Huerta
Kol
supl
##dimiento
##andía
leones
invención
establecimientos
Prusia
huir
recuperó
traducir
Stanley
espontán
CN
Pok
unir
pasión
Abel
larg
participado
clásicas
Ferrer
jurídico
Hog
Tul
pájar
##Ar
##teco
##tov
despre
##avy
##cisión
herál
ciclos
Vieja
contemporáneo
educativo
Dim
N°
Pico
tensiones
##gem
##unes
##divers
##acía
112
decidir
asesinados
chilenos
BRM
descrip
centra
directores
##landes
Ganador
4º
Lenn
Mesa
Spec
Álava
estabil
insign
270
frust
Negra
espectáculos
SN
##more
enteros
##olicismo
##ilvania
##igra
##izaron
orbit
presentarse
##imentación
sexta
Distin
ruedas
recolec
Femen
Utiliz
clav
joy
estén
##mografía
Carn
masivo
Clubes
montaje
Urban
ocasionalmente
Cueva
Nan
Walla
##77
##ideae
desambigu
expec
##irk
Arco
Progreso
enferm
dupl
propietarios
Wolfgang
Ptolomeo
AF
Eisen
Kap
gegen
##lom
##edro
##gonal
regulación
Deutschland
wo
habido
usaba
visitas
Volta
arqueológico
secuestr
iones
##nan
ciudadanía
Cuzco
##ímenes
quedaba
dispuesto
##macos
destruido
asistir
geográfico
soberano
declaraciones
Cry
Titan
estím
anillos
abra
##turalmente
Dave
Sonora
Delgado
Villal
refugio
cráneo
CC
Home
emite
hist
desemp
feud
Minardi
conservado
registra
circuns
Vul
##200
##kan
##guerra
##36
##cianos
delitos
##ineos
##carlo
##annt
##cinto
##ennis
consistente
eficiente
teléfono
##usammen
Vig
##anco
##ortación
presiones
Mau
fallo
republicana
Libertador
híbr
desempeñó
GER
Pia
prohibición
guardia
Road
Milton
escuch
mármol
cómic
Británica
Lawrence
##cionismo
desple
Als
resumen
adv
francis
planificación
Musik
públicamente
defensores
Británico
cúm
##opa
##itim
##guard
Verdi
##tienden
consulta
Llu
resp
complejas
señores
waren
nieto
clínica
Vern
##bot
##teos
Alam
utilizaron
ejecutado
##comunidad
Valdivia
Gloria
Nix
##zgos
##arial
##química
nacida
##cript
trasladado
Junio
fieles
jura
kön
##kl
##zer
##ules
temprano
talento
bebidas
piratas
piensa
AI
Sign
hemos
Bow
denominadas
africanos
Cronología
BEL
##rina
inus
##ays
Acto
permitieron
interpretaciones
reunir
Dallas
##tónica
##ES
aliado
accidentes
##ductor
hex
calcula
Verlag
automóvil
gubernamentales
##cima
estelar
siente
inser
tarjeta
denominaciones
absorción
narrativa
enzima
algoritmo
fes
##ulados
Sound
zwei
Guev
Has
##bida
##gios
##idea
Pardo
responder
Airways
Planeta
orgánica
condena
Nilo
Tales
fec
##inf
##umbas
filip
dirigidas
prepara
Cárdenas
sudes
clasifica
significó
Representación
válv
Prost
DS
König
marciales
afirman
computación
Libia
##nación
teología
compres
traspas
influenci
aceptada
##colos
mandó
triunf
alcoh
##uter
esencialmente
Informa
primario
camar
dato
##ansas
eds
GBR
ES
##lass
formaban
fragmento
hongos
manuscrito
Scha
##ezeich
nacionalistas
patas
XXX
penins
aproximación
mantenía
diseñada
cálculos
taller
eficiencia
Potter
crédito
Llan
Sop
útiles
##ai
##ciller
polici
antepas
alcanzan
poniendo
parroquial
batida
huevo
##CH
##cizo
estil
##eland
2021
log
Leip
usarse
aparecido
##rático
trabajaba
Regres
feria
literarios
africano
Pompe
Áreas
##cipiente
Coalición
Campus
filial
Clay
4000
lectores
Globo
asteroide
Dió
Hue
##yr
delta
##ezan
carnaval
defien
derivada
deberá
desigual
Carrillo
dividen
rueda
Saturno
Hamilton
Ponte
sales
én
##cke
##ezca
Artistas
margin
##uracán
dedicados
inmediata
exclusiva
sulf
introducido
atleta
orbital
ave
net
##oz
lac
##idio
unieron
Alt
Anne
nacidos
surre
constituida
Gray
1816
Mot
SF
hallan
##ipse
humil
representó
##burn
Fair
capturado
ilegal
Dé
##ubio
##ámb
laure
##egro
coches
decenas
afición
denominó
DNPQ
Iberia
Fen
##loa
##atlán
##lanca
actuó
Febrero
Reconoci
reemplazar
Ferdinand
Dif
##uebles
##ellan
Sea
Siempre
##áctico
sanguín
Apo
calif
Peñar
##liga
jugando
Palencia
derrotas
secreta
Online
adquiere
Bun
MP
##cadas
delito
##ullo
##igü
prólogo
amer
asegur
coordinación
Público
Fantasy
dob
##44
##étaro
Marino
turcos
afluentes
Introducción
intérprete
entretenimiento
Guevara
sudeste
Flash
Work
vand
##RO
esbo
Estocol
##illy
adquisición
chi
lesión
Global
mapas
Argumento
Hispanoamérica
Comandante
Lem
recrea
##ámicos
campeones
ascendencia
anglos
Represent
Estocolmo
tric
##idimens
Repar
Saludos
toro
genético
manifiesta
concentra
##bourne
beg
pig
pez
##ften
##áculos
estam
206
##cipes
##ffe
Rosas
visitante
corredor
Ohio
Liverpool
Odon
Teo
vil
##dían
consideraban
Malv
dobl
preguntas
Querétaro
Revolucionario
Bielorr
Gom
Zh
##orros
##ugía
partió
controvert
Miembro
civilizaciones
Delan
Autom
Mexicano
reveló
Deutsche
medición
Salas
discográfica
materna
musulmán
aconse
750
##blación
inj
##udónimo
Barry
demol
ideales
honoris
eléctricas
##incón
Sucre
fara
##CP
Salom
venganza
Moon
Moderna
Alexand
helicóp
consulado
sugieren
Líb
Sad
Tir
dors
his
Inn
autos
destruc
luchas
Moz
##tienda
Richter
biológica
Pontif
académica
festividad
Zamb
fri
nec
##taje
##anova
famosas
Cali
Steven
tropicales
inversiones
frases
Judicial
Biz
##ube
##idón
##oleta
redujo
##apur
puedes
manz
productora
Quint
talla
conservar
sitúan
publicaron
repertorio
Época
Gene
manual
superado
relata
marítimo
cerveza
diócesis
OTAN
##gil
transvers
horario
adaptado
demostr
Aparte
octavo
dedos
entiende
supera
##egem
coros
segmento
antiguamente
1817
Donald
estadísticas
Hitch
eficacia
Pascual
vertiente
##tidas
##entistas
##sex
respal
invitados
guaran
controla
teclado
##fasis
terapia
Dragon
Bry
Lum
Minas
UNA
##hand
Septiembre
Guar
Lucio
##iani
elevación
correctamente
Explor
Massachus
Umb
emitir
##esos
##omi
adorn
Orle
decor
armados
comentó
Normalmente
##anticismo
talleres
estratégica
##nó
##lock
Coun
calent
Bank
Lady
Marshall
Tang
##gung
Prote
recibiendo
misa
códigos
##coln
Jamaica
Imágenes
Vidal
##pica
apóst
##ducidas
minería
respectivos
##ícola
##utschen
Ultra
someter
créditos
aterrizaje
Ist
##iu
##alles
##tac
aplas
comparte
Cosworth
resultante
grabados
desapareció
dividir
azules
##76
##mid
arre
continentes
inspec
noventa
operador
Habsburgo
galaxia
Massachusetts
Jay
Lomb
Wim
##ivir
##ayor
Estu
Alrede
Marqués
Capítulo
1827
ocupando
asistió
voluntarios
Joy
Nas
ihr
complic
##úblicas
##senal
Lincoln
##zcoa
dieser
Pacheco
exitoso
Manzan
poblacional
Eri
bic
Paraná
Danubio
Silver
claves
colocó
étnicos
Wallace
Lot
##quete
##ibt
mex
tratan
##minas
funer
conformado
veinti
Gustav
sufragio
bacteri
wieder
##cierto
##cistas
enlaz
salen
atómico
mover
superficial
contactos
Hamburgo
Studi
garantiz
Cív
Mom
Tob
##wal
Ans
##entaciones
maestra
Interpre
causado
##evelt
Jesuc
Pueden
Bueno
fluido
democrático
renacentista
Dodo
Geo
Siendo
Tajo
Gerardo
sustituir
dramática
añadió
adulto
acostumb
Líbano
##izando
##tivismo
Card
recre
##ellen
agujero
riesgos
luchador
paquete
Jesucristo
Fuego
##cock
##omag
##tie
##lea
Elías
##ésped
interro
veía
asesino
registrada
pulmon
recordar
reemplazo
beisbol
Wagner
rítm
##boy
##ures
formaba
salsa
pecho
fundaron
espalda
plataformas
peruanos
inteligente
Declaración
desambiguación
Scar
##ος
##undido
##endieron
rivalidad
##pp
##adelo
##iler
desastre
##cond
destinada
cham
Constituyente
Festiv
##iscop
##ecería
Alco
Arica
Chu
plástico
ejemplar
asociadas
Mitología
disminuir
cubana
Gobernación
diplomáticas
vulgar
dibujante
Baleares
Rig
Sz
giras
##55
##rieb
##ocó
Rein
habrá
Antón
Análisis
##oga
consciente
Project
##iese
Murió
descendencia
##undaciones
catálogo
Belgran
Académ
retratos
medievales
Círculo
Hola
Voy
##78
Manual
Salta
music
enviados
astronomía
Clinton
Run
pendiente
##ranio
prefectura
##endente
##ionismo
##ahn
emplear
matemáticos
##írculos
Roosevelt
énfasis
CV
Cid
Ocho
##Station
##istió
respuestas
sobrevivir
Hér
Welt
bit
##íticos
##geo
##39
##cico
##see
Unidades
Carras
estudiosos
ambientales
afectado
##ográfica
Schwar
jerarquía
Belgrano
Dance
lentamente
##inero
tratando
haga
ejerc
tuviera
disminuye
##poli
Fray
mortalidad
EU
Pf
Sul
Conven
##zaña
meso
1818
Justin
Oceanía
Boc
##ligencia
Stev
hoteles
hidrául
exacta
espiritu
erupción
##our
132
insul
extraño
Afro
Baloncesto
Varia
##cana
##olla
2022
impro
convierten
pescado
##atorial
proporcional
1809
negativos
##tensión
crónicas
túnel
filogen
Cesar
##ange
##rest
llevaban
ubicados
Pirineos
Jenn
gala
vinos
##punk
Noche
adopción
enseñanzas
Indian
protegido
Castellón
##ázaro
Mortadelo
Ach
EN
IC
##ness
Advent
##pred
consecutivos
Subcampeón
ampliar
Ibero
Bild
umb
##toras
perdida
##ibu
genoma
encargo
anuncio
Turín
ligero
Principado
Ronald
Tomo
nóm
##plo
suc
Comarca
caci
formaciones
Guipú
Asi
alcanzaron
ingenieros
testigo
colegios
Dub
preciso
quir
crece
comunas
roman
Cerca
reflej
venezolana
aprovechando
##ólar
##äter
##úes
##esh
cuch
destinados
publicadas
Morgan
construye
desarrollando
gimnas
Guipúzcoa
Galax
pusieron
esenciales
##ulario
puedo
##ipro
Dirig
Heredia
Trayectoria
gasto
celulares
celebraciones
hallaba
propaganda
suministro
galaxias
hambre
fotógrafo
Nixon
beisbolista
Hann
Méndez
ré
##DL
conces
aprueba
usaban
provinciales
élite
##tamen
rodea
dominación
Consider
##ugeot
fabricante
estrechamente
Alrededor
Flandes
##zamiento
inmo
lej
presas
##vitación
colinas
##tinas
localizada
mostrado
colaborar
##ship
distinguen
cruce
cuál
significativamente
típicamente
coincide
hacienda
correr
Cau
##cánica
##atina
Elim
cartel
Peugeot
habitan
dejan
##house
actúan
observador
##inois
ads
centenario
cerdo
Noti
Calvo
jugado
venía
universitaria
observado
potente
PRI
teórico
##ocolate
Candel
Lituania
Trop
bl
##sar
##pf
##inaria
quechua
sed
##anteón
vertic
Peñ
terminales
colaboró
Legend
filósofos
Grim
Trist
##GI
desea
desesper
##torrique
Alicia
##ebo
catolicismo
vuelven
Catar
anglosaj
Kh
jueves
##48
sujetos
alturas
##dex
notar
rescate
##ionar
Estatua
roj
Sak
##rary
amplitud
Albania
##allos
180px
escándalo
neocl
temporalmente
penet
bancar
Brand
mosa
##got
franquista
Wild
declive
Patricio
Trabajadores
Mala
##grim
entera
confec
##tepec
porn
##ather
##ocación
Color
##íficos
animada
enfrentar
Investigaciones
auxil
evaluación
Ident
flamenco
AA
Fama
Tun
##glich
##oces
Conoci
Proces
Islam
Hoff
Hubo
pensaba
honorarios
Sector
Doctores
fabricantes
Liceo
marchó
Cayo
Luer
nacer
trin
##etto
Main
superando
Manif
Andorra
Pró
probar
boliviano
Light
RN
Wall
##2O
estamos
##acen
##quio
Under
##feras
disca
##ficit
libras
Pela
260
instituto
selecciones
ambientes
acusaciones
escaso
albergar
Compostela
aloj
Pil
sá
##isse
portá
Checa
##ingham
embarc
##icaragü
asesor
McG
concentraciones
Botan
Naruto
aragonés
Lola
Ní
##guera
##ividad
256
Palermo
balance
afectar
afectados
mercurio
Novelas
cálido
sindical
buscaba
discípulo
Borgoña
SU
##furt
Death
salvaje
cereales
Benjamin
dinosaurios
Bod
gall
##vido
##chim
##chura
contrajo
sime
visu
limitaciones
consecutivas
rodeada
nervios
investigador
##altad
Lennon
Leipzig
Syn
bea
mueve
tus
121
gobernantes
Superman
mencionada
conveniente
Louvre
décimo
excepciones
##etzt
Memoria
castigo
fríos
Lázaro
ama
ríg
trig
reen
asigna
##jería
Schl
dedicadas
protestante
Podemos
escasos
liderado
acontecimiento
Árbol
Hércules
Cit
Gál
##row
Paral
Leonor
Paula
músculos
##fono
Stein
resultaron
coloniales
historietas
festivales
vínculo
aman
cis
duelo
ál
##ciana
cubiertas
inversa
feliz
ortodoxa
Apóstol
tig
##íticas
seiner
paro
generado
Montaña
##arcaciones
vestido
Nominado
ética
##46
##lantes
Estra
Estonia
##rác
##uestro
Mois
razas
Sección
conformada
descarga
bombardeo
Bielorrusia
Orleans
Dum
##íncipes
Grant
##crita
autorización
obligación
acompañada
diseñador
Climax
Canto
villas
##erón
##orno
##doeste
alfa
editar
##ífero
fals
introduce
Ernest
bienestar
Lugares
Comenzó
Godo
##itaron
##anten
Alge
Indo
##iete
##endida
280
matrim
Benav
virgen
precisa
hatte
First
DOS
Pip
emi
##ciado
##rium
Chal
provienen
chica
##piro
naturalista
##anny
Invierno
suicidio
dióxido
choque
Cien
beta
tru
noción
premi
aporte
completas
romance
músculo
patente
jueces
cercanía
devas
condados
##ibol
obtienen
construidas
##udaísmo
##cinco
afectada
Medios
Defin
conquistar
##ueroa
Geschichte
ámbitos
costarricense
respald
Did
Fidel
gloria
kar
nas
##ych
##urez
##pado
##zio
##hö
desl
##mato
posesiones
creer
ejes
225
entraron
crucero
Cicl
tesoro
Horacio
fármacos
##rs
##inda
##rigen
##uden
Raim
apoder
adquirido
Ligier
Barro
##chte
obtuvieron
isóto
Corporación
procesador
Pose
compartido
mencionados
Figueroa
##tainment
renunciar
Aven
##pil
##zbe
transm
##ándulas
prisionero
extingu
Cano
Ey
sedes
##cionados
prevenir
marinas
##ople
muscular
##pha
Whit
Toda
masculinos
desaparecidos
##áutica
Pie
díg
##ank
cometa
Ende
apariciones
feb
mueren
tortu
Boh
##huac
hierba
progresivamente
jesuitas
5º
Dici
Kul
círculos
##01
##fall
##ampe
cualidades
##alela
convencer
1790
privilegios
Observatorio
TA
##dría
algas
##lamos
variar
incluían
máximas
liberado
galería
alumno
Aparece
Antofag
Ces
Ide
Omar
##foro
##ierta
##énica
mutu
##utsu
##ages
propuls
##tische
epí
Tailandia
ejerce
Destaca
##ütz
alu
primos
10px
##lifer
profesión
falso
determinación
orgánicos
Espacial
equivale
expediciones
aver
bron
daría
##pri
##laves
##bie
anotó
transcripción
Lugo
Shado
establecen
Platón
apodo
Poetas
enfrenta
escuadra
pronunciación
Lenin
tocó
Wayne
Aga
SC
ballet
fug
##entimiento
##olv
anar
analizar
Carab
polim
##ologie
Progres
1792
señorío
Politécn
Paco
águila
##éticamente
pasaba
##ptiles
Valverde
derivadas
topónimo
Illinois
arquitectónico
Hin
UD
ópti
##wi
##lah
compro
Montal
templado
Gary
Sociales
Town
abandona
obligados
desaparecer
hubiese
650
Punto
hegem
ola
##lus
##viales
terci
pacif
separada
senadores
##issens
Ponce
Amazonas
emperatriz
Enero
despl
Bosnia
Ambas
demográfico
acumulación
Pinochet
Barranquilla
Bür
Hid
##jet
##orrom
##inetes
alusión
##eli
telecomunicaciones
Expe
trabajan
agricul
tox
Nicolas
finaliza
circund
Tarrag
femeninas
viejos
tronco
Trek
microorgan
poderosa
Guanaju
Kil
##érg
inters
positivos
depender
conjunta
ubicadas
Walker
legislatura
##heimer
Raymond
hospitales
Entertainment
Scale
Antofagasta
EA
Gon
cría
lé
send
##hon
accid
Anal
coe
Pepe
proporciones
dividió
candidaturas
afirmar
Copenh
gradualmente
empiezan
##earch
PlayStation
lienzo
Benedicto
Agosto
Mack
jurado
##QL
##raft
notación
seria
Espec
textil
organizados
circul
Volks
##úrpura
Cambios
Aquel
Fase
##lagros
Cub
arquitectos
Originalmente
decidido
Diciembre
Copenhague
Uribe
##yne
##itivas
##EA
##amín
estro
cloro
pesados
complemento
220px
etwa
compuestas
armamento
hablando
hogares
Radical
hígado
ánimo
BRA
óperas
##kien
##teral
existió
comunismo
secos
guatem
relaciona
transformó
botánica
endém
orquídeas
Donde
##wing
##set
##nell
##fín
cono
##ulan
##alizador
yacimiento
##tiner
Mancomunidad
legitim
descendiente
atraer
Spin
Vincent
asegura
Guanajuato
Dak
Toma
Wit
##adeo
deseos
traición
Johan
Nou
##ritm
platino
conting
especialistas
inspiró
inclinación
Germánico
##hara
##37
##xos
lagunas
completó
##ímil
cambiando
malos
Susan
737
Arizona
Aún
Pris
##canos
##zt
##étera
##cepti
realismo
descont
helen
delegación
Joven
Über
##yy
##fra
##ieu
##obia
Book
Hermanos
Bey
Profesores
vitamina
tablero
##ipedistas
Dich
Ki
##velación
ratif
universitarios
Episodio
Psic
gubernamental
Björk
Vide
defecto
##olina
Alca
coral
tela
manip
Gua
especializada
sueños
enfermo
practicar
conjuntamente
##fradía
Queensland
guatemal
Mán
buc
eing
falla
repetir
##irus
##dure
Palmarés
cruzar
acordó
Champion
describen
ze
##ateur
directiva
terminaron
Haití
Your
Contemporán
UK
temor
##omer
##ambl
centímetros
apartado
operar
retirado
mantenerse
tributo
dieciséis
futuros
Quintana
Equ
Hulk
portal
Lake
Noviembre
fijo
coronado
Tecnológico
Arrows
Embaj
bella
##ätz
##enov
##user
acorde
##ormemente
Campeonatos
802
libreto
##ográfico
típicas
oxidación
detección
Norman
reflexión
autócton
Him
Ny
trato
##quito
##araz
Sonic
noruego
Circuito
DF
##tecimiento
desat
##blas
##gart
Japan
ilustres
Tabla
##idaridad
respaldo
PL
búl
litu
elef
##icom
##icum
##econ
Alice
##api
##mburgo
veranos
clero
##cillo
Books
Gerhard
Local
afirmación
Espíritu
Administra
cromosoma
Amistoso
##ulco
##ustro
##auf
Filmografía
permanentes
introduc
surgido
Influ
refugiados
Márquez
rituales
Datei
Restauración
Cier
Rid
Spar
##kas
##59
##icador
aca
aspi
Conquista
Barra
##eneuve
nacionalismo
investigar
Gerona
asistente
sugirió
Bloque
Boys
ínti
Apa
Tiro
Wol
##VS
paralela
##trac
Child
##under
nominal
utilizaban
##ID
minim
##ísta
presentaba
##bild
Había
##ights
encabezado
cogn
Rudolf
Moisés
Zen
##onmano
##icz
##inu
##tog
almo
monumental
Luci
330
electrón
gusta
telef
Fisiología
parlamentaria
Lyon
DJ
Fores
Geb
Vila
lás
##ensos
##ichen
Mak
visuales
Virtual
Micho
Ayala
1806
1794
necesitaba
guarnición
Hir
##xia
##encas
##rugada
colina
regente
Nigeria
cuevas
##tita
semin
##itora
##uscos
##less
barran
Charlie
Matthe
inaugurada
Zacate
Comentarios
##zán
##teza
desa
exhibición
##cura
mari
juntas
rojos
Diez
Teniente
##ophy
sagrado
##ents
inundaciones
##inae
serio
##andr
##nach
declin
Apol
Jerry
prostitu
prohibido
Singapur
desempleo
Divers
pav
voy
layer
definió
sucesivas
estadística
rumano
sólidos
Aero
Bap
Cón
Eta
##pend
esquí
##losa
##manuel
transforma
Cook
presentada
##kai
vueltas
artefac
Artículos
democrática
##ábrica
adición
fila
##omar
conspiración
miel
estableciendo
administrador
##éndola
pedido
Sauber
Born
Babil
Fas
##adilla
##tires
generan
inviernos
grueso
Cuentos
##ahua
elevadas
instalado
conquistadores
Tyler
Sídney
Gior
##20px
primarias
##cedieron
Mond
Herac
sentir
tabaco
Jacobo
Estudió
equivalentes
bombardea
##lossum
CBS
Ster
checo
libremente
provocado
desconocida
harina
Tran
##uke
##ucar
personalmente
Juven
fundar
navegador
capturar
ritmos
##ciosa
diese
Unos
Albor
Colombi
lujo
##cini
Planta
##ground
##continental
raramente
Gö
Kurt
eman
##eri
creciendo
Castel
Library
Cauca
reprim
multim
##rupciones
diagnos
modificado
##ternidad
Jason
70px
brig
vienen
##lante
##chov
##ablanca
acora
Ald
##ustos
rector
surgen
Abs
Hua
Filadel
encabezada
infantiles
Gay
Oj
háb
##uble
porte
##elado
Jerez
Jersey
tribunales
maced
Vari
Yam
##ógenos
##arm
##rift
seine
##ínica
formatos
superó
confron
trabajado
comprome
Rubens
neutral
##bordador
tóx
Malvinas
dx
neb
##ficamente
##XX
##ibil
Paolo
etcétera
nombrada
pensó
Mediante
Prieto
fantasía
agregar
##erie
##anés
##ranos
##ranza
designa
cerrar
##aku
mató
incorrec
militantes
Músicos
gratuita
Gla
Kiss
NBC
Régimen
##ciras
##ritus
aliv
Cardenal
escribiendo
##ufre
Buena
déficit
solicitud
recomienda
rumores
abrevi
Ubicación
farmacéut
Pontificia
Lt
Orange
##adera
##unidense
desci
interino
constancia
Mercurio
Jahren
folcl
convocó
##idelidad
oscuridad
indoeurope
simetría
Mend
Nunca
aeropuertos
pab
toca
##isca
##cota
característicos
Museos
matric
anglo
Larry
teléfonos
brevemente
From
Field
MD
Tienen
Inquisición
circula
resultar
Fuj
compatible
##49
##fus
##py
supo
suceso
##lazar
Elis
Lope
##itorio
proporcionan
suponía
experimentado
Tolkien
estrictamente
ficticios
recopila
colapso
Bü
Yel
bul
sepul
originó
tallo
atacó
falsa
intentaron
paname
revolucionarios
Berger
fresco
intervalo
recorre
Alessandro
Gemeinde
Hap
Osa
Yan
Concep
monopol
##renden
##álica
presentador
genérico
expresó
determinó
fluvial
astronómicos
cac
fuga
carece
monitor
controlada
radiac
tocando
sultán
náhuatl
##kir
##vista
despa
paula
contratos
embri
refieren
extendida
disfrutar
ferroviaria
Republicana
prehisp
expecta
Algeciras
Dir
GT
hol
##neros
##dt
##brado
enfrentaron
producidas
Pertenece
dilu
##iaceae
accede
##anato
##ariotas
Dev
##gela
Calatra
absol
Four
folc
espectacular
testimonios
If
##ystem
abarc
Monts
Camb
##turado
plumas
combinado
historio
vasos
arroyo
Levante
ucraniano
ScaleM
Horn
Kelly
aur
abiertas
dren
gene
hun
pil
rena
comarcas
Enc
Américas
Cambio
económicamente
desconoce
tumor
bóveda
Hud
##79
##EE
##FF
##ciares
##entina
reedi
##truc
aclam
creadas
Orlando
##oko
Division
1801
1803
480
sostienen
ligera
Ibn
defensor
fichas
Gott
hostil
Tarragona
Sug
##hid
##roc
##telo
Rebel
Comedia
1700
##ríquez
Equipos
Margaret
Últimos
tormenta
anfit
Tacna
lenta
óleo
##didos
##igón
Alterna
tratamientos
##quique
realizarse
volar
Nacionalista
Morrison
viaja
automáticamente
Cementerio
Jueves
has
##oceno
apartam
autopista
##zeit
sensible
ángulos
estatuas
comprobar
Án
##lal
##SL
teólogo
122
derrotados
Pueblos
rechazado
instrument
Espacio
opositores
Poké
Elo
Mina
Wien
oído
##uria
##inen
comando
gramática
cristales
Pass
Turing
TVE
aprovechar
Hiper
##iliares
luces
excavaciones
Toyota
können
ní
##rer
##cones
##umann
consola
inscripciones
Serena
Doña
##clatura
profundas
##SCO
##icel
unida
##tex
intu
Nak
Salto
sentidos
gobernó
Freud
glándulas
##lon
suya
exal
acop
##hein
comunicado
alcald
representados
respectivas
Villeneuve
##donado
expulsado
Escobar
encomend
Calatrava
Ler
Span
##diente
martes
masacre
sentía
Comunicación
##werk
Palacios
vigilancia
Maximiliano
Get
##nico
inal
##ulia
##deña
Checos
impide
Mai
Persia
Opus
judiciales
testamento
neuronas
Bris
Ví
crop
erec
nór
##cala
##entlich
##tudes
##atsu
escudos
##alizando
deciden
iniciada
##kehr
causada
Terry
liberar
vecina
agrupaciones
domici
limpieza
maquinaria
Salomón
Odis
rever
alteraciones
##trán
##gend
Chad
term
grano
##ecida
Activ
##rást
##garos
Torneos
Pascal
sufrieron
Temporadas
reproducir
Primo
octava
Beatriz
soportar
supremo
CM
Mog
STS
Veg
Varias
##äh
depred
antecedentes
##uevo
##illano
tira
cach
campan
Quinta
descans
##ventus
inspirada
prehistór
aminoácidos
##rumb
##ítro
##VE
##geb
Desc
Pais
##tischen
afectan
Creta
avanzar
salvador
dulces
conversaciones
Standard
Baz
Puc
Who
fum
descal
ganadores
235
viajeros
lógico
detona
Orchid
Eje
Ris
Wright
nicaragü
##tadora
##terres
primitiva
formadas
encuesta
insurg
depósito
definen
ocurrir
periodistas
Rivas
querían
Hurtado
automovilismo
##hattan
Caz
Hombres
IM
Nést
Tron
##tés
##pistas
##zh
##olio
##ampo
prer
medicin
obliga
estimada
PCE
incapaz
Multi
mudó
Hag
Jin
aren
aporta
relatividad
rota
temporales
señora
##oku
Superfici
celeste
designación
##ívoros
precedentes
Dylan
inestabilidad
armonía
Corrientes
##omagno
##HS
alberg
Encar
Prob
Pacif
atentados
ataca
Objetos
madrugada
ponen
Carlomagno
regularmente
Pascua
Babilonia
eb
mio
sap
##ieri
obede
Quil
urg
##versión
Borja
Syl
angular
fabricar
##clopé
PDF
UNI
bereber
Cross
Fitz
enm
##roll
##att
serpiente
adher
Buch
VIH
rompió
##fried
terapéut
##jol
##hual
tramos
mares
subterrán
Centenario
cintas
##ffa
influyentes
malas
Heart
##wagen
armadura
emitido
sometido
Eine
UTC
béisbol
ore
establecidos
##eley
Schwe
diccionario
Beach
macro
dispuso
frescos
Stock
Ore
distor
rab
##enne
##ulle
##ajor
##cardo
Guardi
##pler
llegaría
22px
tanques
Spider
puertorrique
surgimiento
protegida
piernas
Fischer
aseguró
anticuer
Soph
tumbas
##dicamente
##alth
aldeas
llegaba
coher
##ergencia
visibles
lanzaron
morales
##borg
Groen
##fricano
estimaciones
séptima
satisfacer
Néstor
Feb
##tigo
primitivo
##voz
mediano
especializado
2500
##anciación
segmentos
Puig
madurez
autobús
desempeño
Naturaleza
emblema
Contreras
rent
Anf
Seis
mayormente
Leb
basílica
rompe
norteamericana
275
paralel
acentu
mundos
sill
uranio
##liano
##ocidio
##obile
Saav
influyente
Frei
Linares
1791
diseñó
conquistó
##fricana
ritual
Computer
Enfermedades
LE
coca
##gento
##gula
tercios
mediterránea
pozo
tubos
ubican
frontal
registró
demostración
Reparto
Pich
Rang
Trum
iran
##mia
##emento
##tenberg
transmite
ganaron
Prue
estrell
limítro
380
amplias
Memorial
llanuras
Jefferson
prohibió
Kö
dragón
ove
potas
óxido
##sun
##face
##PS
##onada
##tinal
especializados
activamente
permiti
traductor
Educa
Cruc
Fría
sierras
vik
##adagas
Inoc
Anillo
##otti
ordenado
Jules
pulmón
upright
Saavedra
Damas
dorada
pent
pilares
##back
##vira
culpa
jurista
astrona
registrados
##halten
Troya
marítima
Fotografía
asesinatos
Iquique
reptiles
##potam
infante
Manhattan
Acuerdo
clé
reconcil
Cabeza
resultan
Simpson
Pintores
disparo
progresivo
Octavio
Cadena
embarazo
esplendor
ingredientes
Euseb
Candelaria
Ez
Hob
Ville
cres
deudas
##iduría
Unix
##ueven
extermin
erst
Hermandad
autoría
seguimiento
Bei
dedicarse
Pastor
Charlot
McCart
manuscritos
intermedio
telescopio
Villas
##kon
##tándose
percusión
##ajero
Inés
Inmac
##ava
Dead
verd
Proceso
usaron
131
motoci
atributos
jornadas
misterio
Michoacán
Filadelfia
Aviación
Krieg
Llanos
Slam
supuesta
##urados
##inata
residen
pasaje
graf
ferrocarriles
Última
Story
420
muc
##óma
alqu
##aye
oct
ambientadas
Helena
plantea
tardío
copyright
NT
Rincón
aven
sun
##baj
##°C
##atario
noven
##ingrado
macho
mira
palo
Nicola
violación
intentando
firmaron
ingresar
Pintura
telefonía
Grund
estrategias
emigración
Legislativo
luminos
##ährend
reanud
Call
Etn
Fit
UCI
aero
##pero
##esi
latinos
##amoto
##odas
precol
##minente
cama
capitan
##ilea
redonde
vanguardia
geográficos
aeronaves
intermedia
Arnold
Almagro
CR
dólar
##orial
enamor
##istentes
##eton
Arenas
decora
Registro
promet
##iguilla
sucesivamente
recoger
educativos
FAR
Sla
Werner
##UE
prolifer
mayas
dens
##óricos
costeras
Pete
Phill
Sarmiento
Destacan
excav
Lloyd
mostraba
Gos
##ipa
##LS
##hör
##ifas
##usta
cancha
vela
encaj
Rubio
interacciones
austríaco
##hammad
Ada
Audio
peda
##orios
conducción
desgra
##iele
manto
edificaciones
placer
oficio
artísticos
funcionan
1793
Menéndez
Nova
brillantes
##56
##tografía
##isio
##imir
presos
impidió
llamaron
cabello
pila
acompaña
testigos
liderada
seleccionado
Dog
all
Marín
##viese
opuso
##itel
Research
Doom
##producción
Complejo
visigodos
Bárbara
Tit
##fte
##ition
##icaban
##igne
Engl
salieron
realizaba
editores
gramat
acomod
Murray
vasca
glucosa
Xavier
Eusebio
Sent
Wu
brillo
##utiliz
##dle
conducir
##tientes
alquil
rese
solían
quitar
Collins
Moneda
caracterizó
avanzado
grasa
homosexualidad
##idu
diaria
Parrilla
##ove
Teor
cirugía
Borges
Principal
afluente
Mahoma
Republicano
EMI
Fritz
láp
##vie
##ieres
chocolate
##estell
apoya
permanencia
Madero
cortar
Einzel
federación
Special
recibida
homosexuales
islámica
##öff
semán
Antecedentes
monjes
hep
heredi
Verano
001
obligatorio
geográficas
plasma
Ryan
maniobra
plenamente
Lérida
Zor
reli
desvent
Alman
aprend
afron
##ansen
Brass
Matías
Pinto
añadiendo
galardonado
dependencias
F1
Geta
Núc
dir
ficha
olig
##say
##xe
##anum
##citamente
##omal
unificación
parada
granos
##pecu
Porfi
capitu
Perman
plana
norteamericano
cruzada
ranking
Nieves
Protección
asturiano
sacrificio
improvis
Candidatos
Misis
pionero
##tona
##roe
##ament
##igar
##quicia
monárqu
cerró
Acta
poderosos
croata
Galileo
Kara
Rue
tonos
##tiga
##emble
anchura
Chor
nativo
Dela
##oplas
pesada
efectivos
atacan
disputas
empleada
ocupaba
preparado
aguda
exclusivo
ocuparon
Inteligencia
Montreal
##adagascar
Rip
ene
##omy
quiero
coordin
orienta
##idepor
teclados
aéreas
lingüístico
rendición
Nept
foco
lap
subespe
##gresos
figuran
Comunicaciones
excepcional
Fiscal
ferroviario
ecuatoriano
McCartney
MO
htm
nat
##mones
sever
##alizas
abuso
Isma
quedarse
Haya
cumplen
Elementos
ciclismo
transportar
vestigios
Ama
Bird
Dura
Nivel
Over
drást
##ceno
##IP
##FS
##riga
##ditas
lealtad
##ámenes
##fonos
Belén
distribuidos
##tzal
conectar
desemboca
levantó
hallazgos
Misso
teatros
pict
Earth
bicicleta
Bin
Ech
Mí
##rus
incidencia
compac
acento
##oder
consorte
##ikan
influido
elaborar
aplicada
bilingüe
Crónica
Hitchcock
##mut
##vora
##reí
unidas
##amantes
Parece
152
debilidad
Proyec
cables
miércoles
niega
venido
buscó
penales
resultando
Obje
concede
manejar
Kunst
Bola
Déc
Ik
hop
##áns
##erati
imped
nomen
sintió
generando
Proc
sueca
terminando
incorporado
1492
Sporting
presidido
mitocond
Euler
Zúrich
Representantes
Jung
Pira
dorado
##ija
##entr
##rier
##íntesis
Mariana
monje
hech
demonio
disponen
entrevistas
incomple
estandar
550
Foro
Gestión
Kab
NBA
hará
ال
##42
##89
##lé
##índr
implan
Carac
varón
Cual
utilizarse
Campaña
seguros
##cillos
subord
adoptada
incrementar
hiciera
protocolos
recorrer
prioridad
Kath
List
rio
##US
congel
##texto
##chts
Esque
##ueltos
Cairo
integró
solicitar
entrevist
hindu
emperadores
hig
##band
##ark
##guin
apunta
invert
Record
Tenía
eventualmente
Héroes
##öm
sudoeste
inesper
empar
amiga
Descar
originaria
observó
enfermos
Astor
afectó
Dubl
##valos
teórica
ínte
Budap
erosión
kom
orig
##íritus
##asco
##idumbre
##remos
##iat
exige
##etín
caro
##icher
derrumb
vale
Garros
Filóso
edades
CON
aprecia
Filemón
Detalle
microorganismos
Grá
Io
mot
##camiento
seudónimo
inad
estan
quis
Cast
Quiz
That
intenciones
japonesas
##xx
##inst
anarqu
cartu
Juventus
obligaciones
operadores
Helsin
cruza
Nog
##bran
##uy
suaves
chip
Centros
Musical
##bieran
##cindi
Cerdeña
1805
criticado
Cecilia
metabolismo
Missouri
Age
Wis
##dom
##ógeno
##zal
contienda
##taño
infr
canciller
Mex
##forme
inclus
controlado
Filipo
convencionales
manifes
añadido
criminal
autónomas
Comienza
espiral
Kirchner
Checoslovaquia
Dante
Gur
Larra
púrpura
riego
##hái
##ree
curi
##íns
Guido
Master
turno
conquistador
ribera
desfile
hembra
##solini
embalse
Inmaculada
Budapest
infrarro
##facción
##iata
##chadas
##cionarios
reside
##aver
Adel
agencia
descubierta
sacrif
Panor
descubrieron
alcaldes
contamin
conversación
Sarah
nord
##gón
##historia
##ibio
Parques
##adrones
pesado
articul
buscan
Stadium
Plas
##UI
posguerra
comprim
alegría
##tisa
lírica
Harold
Humberto
1776
terrorismo
gentil
Misisipi
Eleg
##áf
##taxis
iner
##atel
inflores
Patag
gui
veneci
##annel
Transportes
convención
Piñ
decisiva
sustituyó
concluye
ceremonias
infecciones
##ppen
sumar
traer
##hete
##endían
##very
reconocidas
azufre
posibil
1787
ensambl
bolsa
déb
integrante
estalló
vencedor
Helsinki
Ahm
Obr
Ré
Zonas
ates
##zzo
##éu
##tificaciones
coma
Union
lep
Maldonado
##acaf
celebraron
6000
mágico
Tiberio
refuerzos
Shanghái
Mánchester
Truman
Sti
Yuri
ko
ora
##lä
##yp
##zw
elige
##iosfera
Martí
Montt
##hner
Mussolini
Herman
continuamente
McK
##psia
volvería
reconocen
experimentó
sincron
##ady
##huahua
colectiva
Secund
celtas
diges
##ließ
detenidos
Mika
cilíndr
Continental
Durango
Coc
Greg
PO
dona
veo
##óricas
franquicia
barras
Obispo
##versa
Quebec
Novela
prototipo
envío
rodean
patronales
criaturas
##gadores
##ulador
##itanos
##andos
asiento
Luciano
tomo
golf
Generación
futbolistas
ponerse
1804
Henares
proclamado
vendidos
asiático
Robinson
##äsident
ecosistemas
Béjar
##cill
##biet
nominaciones
Palmer
##herine
ascendió
integrados
Sebastian
Album
RAM
cruel
Compositores
Fly
Gren
enven
##terona
##gog
ancha
##macia
##illon
Last
encuadr
226
Quir
##tschaft
mecánico
extensiones
longitudes
fraude
Battle
##culosis
facilita
Hernando
previos
amplió
atracciones
Olivier
gravemente
sospechos
aquello
billetes
Juego
Say
gang
##alis
rele
cuidados
primarios
embarcaciones
secuela
jugue
discusiones
señalado
1783
inmediaciones
hallado
olímpicos
destinadas
potasio
Eche
jedo
##mu
##tober
Alde
Esloven
preferencia
nominado
denuncia
divina
vence
combina
separar
disposiciones
adolescente
##iegue
jedoch
Hell
pí
pra
##orf
Ello
Soledad
Turner
1795
sumerg
devolver
remode
Bec
Naran
Zw
##72
lav
##leta
Commun
##poner
Ases
niñas
310
pertenecer
Capit
Temple
Concacaf
adolescentes
Aerol
CPU
DDR
prosperidad
Literatur
hél
uva
##éanos
enve
##cess
Antrop
##ionó
Mong
Calendario
viviendo
cuero
bode
rechaza
burguesía
Jazz
bola
##eus
lazos
sell
entregado
Concierto
haz
Isid
basó
Box
favorables
permanecen
empleando
balón
magnética
##élagos
RAF
Stefan
ka
##años
##icen
reab
perpend
Chaco
variados
##alli
efectivamente
Gracia
Editores
significativos
McD
1797
Internacionales
educativa
atletismo
HTML
noveno
daban
gel
lana
rub
##tosa
trayecto
Chang
##denales
caos
##ombo
Bereng
absur
##ispado
combustión
innovación
imponer
Sahara
##diversidad
Hep
Vac
gor
##flores
##ficientes
centrado
diferencial
interpretando
disponer
componer
Philos
##iji
interesantes
folk
líquidos
embajada
Heinz
fantasma
Delantero
precolomb
Ble
Buck
Gaz
judaísmo
revelación
marrón
camin
142
macizo
Camilo
simpa
ganancias
servido
Schul
promesa
Spr
biológico
secundarias
mortales
Tlax
Utah
hilo
mina
mentales
##lum
reto
colabora
recuerdos
Quiro
estructurales
Emper
aumentado
guitarras
Richards
vacaciones
cuadrada
##tierro
olímpico
préstamos
proximidad
Siberia
Madagascar
PH
gros
##siones
##entenario
##lac
##thon
340
Founda
bek
1788
Bahn
nocturno
Ariel
Bál
Llor
pino
##rería
##iya
debida
##tinamente
climas
##azine
seguían
##cletas
expone
consolidación
rapidez
étnica
israelíes
Button
cavidad
Riccardo
Jak
Tap
soc
ense
estará
##tuoso
##odon
Competición
continúan
instantán
German
##áceos
Broadway
faraón
Hace
##öglich
Anteriormente
evitando
volcánica
influenciado
Sudán
you
hidroeléctr
Memorias
Letonia
flauta
Sáenz
divorcio
deterioro
Tradicionalmente
Sabbut
UDI
gase
meg
##nica
##fuer
##LC
##orre
##enten
##diera
##aton
Arsenal
Parker
prelim
1300
basan
palm
Hermos
aplicado
Data
atribuido
dimisión
pierna
egipcia
infraestructuras
emisoras
panorama
Ducado
##lora
##uni
regen
##quén
acre
Arts
Cartas
soll
manchas
escritorio
fertilidad
destruye
##filos
767
globo
impulsó
significaba
Edwards
PNV
jesuita
cómico
##fis
Selec
tip
reunieron
ayudante
próximas
CO2
mínimas
ángeles
binario
emocional
manifestó
sistemática
sindicatos
UNESCO
manipulación
##gemein
Dublín
Apos
ROM
Sed
Yah
azar
dados
lon
##tta
##aminas
Estable
Estrada
costes
Garci
Cristiano
sustrato
destruyó
traduce
recopilación
Urbano
Thompson
Adap
Vos
duras
gi
##gam
prohí
Santi
Cara
Naturales
Acap
capitalismo
Ramiro
Phys
Jaguar
Luca
administrativos
restaurante
variada
producirse
Norma
progresiva
paralelos
Prat
morfología
Arqueológico
arbitr
Árabe
compresión
Wimble
Cú
Frán
GC
Ibi
Iris
vic
Ín
##88
##96
##31
##ulli
##izadores
nodos
ange
caen
Monten
Prensa
baño
árbit
drei
Eras
##kers
carica
##ducto
cafe
##iley
califa
23px
Bolonia
toque
1798
Construcción
guerrero
Stutt
horizonte
Cuarto
consejos
Mesopotam
rectangular
Ltd
Superficie
Gris
Prec
Set
##fs
##get
##vez
peron
podrán
141
orientada
llevados
procesadores
empresarios
repúblicas
celta
##órmulas
Continu
resonancia
Chelsea
##74
##rido
##ences
##tay
regal
superh
Peral
atómicas
##lands
Anders
navío
contac
Agru
##írico
Walt
concluir
escalera
murci
oponente
caudillo
Kid
RFC
##mio
##his
##itre
cuan
##aguer
invis
monarcas
negociar
Papel
Penal
bordes
ladrillo
sugerido
envenen
Kla
Lore
Ming
##mó
##cfort
suceder
Están
cerros
heavy
editó
Once
Lengu
designó
interesado
neutrones
cedió
filosófica
Valentín
nutrientes
auxiliar
citada
duros
mg
##ábal
##time
##town
desap
carros
divino
atlán
ganadora
discursos
gobernar
vigencia
instalar
puntas
Gilbert
almacenar
dispersión
hormona
boxe
Kazaj
cotidiana
seguramente
cív
##fón
##ibre
##cados
##idis
conduci
##gulación
decimal
##here
diseñados
##filia
bandos
##úrg
enfri
Entrada
Recientemente
Cisneros
pantalón
fecund
Cip
Tá
gesta
##IS
##aboraciones
##aces
##eroides
imprenta
##ganta
locomo
valió
##aux
financieras
Bobby
hormonas
nube
débiles
Hos
did
Águila
##EC
##gens
Dele
##ikal
mixto
desarrolladas
Recep
##írica
Publicaciones
##tropical
lluv
indefin
minorías
Pensilvania
láser
Wimbledon
Jov
eri
ou
##yev
dedo
##arme
lat
##roquí
##tox
##trum
instancias
terminada
obtenida
##ándoles
encargados
Matt
Empire
mezquita
##ellow
inconven
octavos
Chihuahua
simpatiz
Send
##zor
##arch
Sean
defendió
combinaciones
Graf
favorito
370
Jacinto
Ontario
adelant
narración
Portada
moleculares
adolescencia
puntuación
confluencia
Pokémon
Melo
Sina
pól
##ariana
##idium
##isas
Engel
existiendo
torn
adaptaciones
Azteca
Quinto
sofist
despobl
##familia
Aurora
Mesopotamia
##itió
##ibus
logro
primor
océanos
salario
libera
Palab
How
Head
estuviera
Novel
sumamente
rebelde
perfecta
adquiriendo
Patricia
##erbaiy
Getafe
6º
Dens
Fuen
Ted
Wi
incidentes
##chaften
##renal
pesetas
Princesa
asesinar
Portugu
ejecuta
contribuir
comentar
##ancy
expulsados
glaciares
Montañas
Fráncfort
m³
##vet
desgas
Estaba
height
aleg
Caldas
Schmid
capaci
reunirse
industrialización
licencias
Leonard
Denis
später
Hawái
lámp
Laureados
precursor
adyacentes
abi
dándole
##acciones
disturbios
heute
directos
barb
Escena
inmensa
Berk
Cabildo
pertenecían
1799
tribut
breves
deseaba
felicidad
emitida
extraordinaria
regula
autónomo
Adela
Jen
Roth
cacao
##kom
##análisis
Sup
Collec
Universidades
People
provocaron
Senna
Weber
juegan
Angola
##omorf
baterías
Connec
Noticias
850
Dod
Misión
##maco
##inámica
##iguen
Manila
##tecn
volcanes
Corpus
Villena
##úrgica
##género
cúb
consejero
##idimensional
Baptist
##cient
Anillos
Chron
Parra
propósitos
##ellschaft
##anner
contaban
vecinas
acusó
levantar
defensas
##acucho
Terminología
recolección
préstamo
UNAM
fanes
tantas
Éx
##abamba
##diéndose
##itania
cubren
##ierro
##posa
##illado
##romos
ahor
fruta
clasifican
Rumanía
reúnen
parecida
incendios
Gradu
bala
##85
##uza
cust
angust
##guage
amantes
pasajes
contratado
gracia
##ambul
levanta
Falleció
1753
Beau
urbanización
##bítero
Aproxim
##iscopal
Sino
cierra
pH
##kos
##oniales
##anim
##chter
expuesto
##guilas
##cuencia
Eslovaquia
Cont
caído
definiciones
##iguió
##lagro
Mitgli
circunferencia
parroquias
pecado
asignado
Shadow
avenidas
Yang
dog
glor
odio
##oke
##born
##olin
recibi
computa
Frankfurt
Ambros
nuestras
##ílico
Cuartos
Empresa
Llegó
ego
##llev
##pta
##ähl
##rach
##riano
##istan
príncipes
nativa
Descub
##plex
Poe
trilogía
ISS
Rosal
extraterres
convocatoria
pirámide
ultramar
Públicas
WWE
Kazajistán
Cris
FP
konn
lú
##áis
movilidad
influyó
protagonizó
Mitch
presidenta
Jugadores
Dez
Función
NGC
##adir
##entrum
##raje
##ambre
reele
##ilor
prus
especializadas
April
Burg
comandos
Adriano
Igual
discapacidad
Mut
citas
contracción
superan
subida
optó
215
##ámina
bach
rápidos
superioridad
ocurren
estimado
artesanos
narrador
sólida
transcur
excelencia
castellan
Varela
hind
##mt
##icadores
##ilera
##davia
arcilla
estudiado
Schne
fermentación
representativo
sucesivos
Evans
archive
contempla
accesible
auténtico
discriminación
Stuttgart
Nab
lób
##zug
##hov
##book
instante
terminan
##oney
Ayacucho
periódica
Sabio
##ócrates
binaria
holandés
mero
nacen
vos
##arbe
##alus
lava
##talos
refrig
Row
declarar
copro
Directores
estadios
Barbara
culminó
célebres
romántico
listado
atmosférica
Blues
Cela
Mist
imit
##onna
ente
enfa
engran
208
##uertas
##ayas
habitaciones
##udita
funcionales
Rain
Resistencia
Editor
violenta
Juni
hablaba
curvas
amplios
Adicionalmente
orquestal
Pelayo
##toglossum
alcaldía
Cep
##arcal
##alan
align
205
##ifera
Condes
escen
actuando
Camar
peste
tomate
quedaban
##icks
Olga
Hew
1802
1780
Econom
linaje
arqueológicas
Histori
Kirche
Gimnas
submarino
catedrático
Cen
cuna
##vías
##icles
##uren
##ucci
##gene
prevención
castillos
admite
ersten
violon
Sagrada
Jordania
algoritmos
incursiones
Perseus
Acapulco
Jag
Sche
cov
##ishi
Elche
nodo
##teniente
certamen
misioneros
externas
Mija
bailes
Leyes
##sterreich
fisi
atractivos
Nigel
forestal
Alexandre
Filósofos
EUR
males
carpin
terrible
financiación
##plano
traslada
Cuau
##cribir
radar
Liter
Fuera
suponer
robo
disparos
##palos
Comercial
étnico
montañosa
corregir
sina
##gne
##éin
estables
##itantes
##trad
asciende
Mariscal
adver
empresarial
tour
##color
estallido
Cooperación
marxista
Yosh
Zacatecas
Glas
boc
extienden
Reed
tram
escud
formales
intervenir
17px
simé
concedido
señalan
European
metálico
aeronave
infinito
etnias
emplazamiento
Montenegro
Dama
enta
portero
alti
alle
Inicio
intern
polaca
conjug
Cantón
Campbell
graduó
cazadores
vínculos
cropped
Crit
Fom
Gond
Hö
Had
Ná
##toya
##imedia
##ásquez
Contiene
occi
##ombro
tomadas
significativas
habló
llano
honores
teatrales
Protocolo
aerolíneas
Herzego
Siguiendo
Odontoglossum
Dennis
picos
##éd
eslav
##mber
Debe
151
Sureste
1400
salarios
221
avis
futuras
italianas
administrar
nombrados
págs
Madison
traducida
acercamiento
abolición
intestino
cometido
Euskal
##tendente
Ida
hort
kle
##tto
##95
##esio
##ulf
carecen
##ionada
invest
mong
Barre
##tizado
funcionario
adopta
Normandía
coronación
Judd
Baker
Cura
my
raro
##rid
##zin
##hmen
##any
##izaba
Rep
quie
1100
Colec
chim
##ertamente
cabina
médula
Heil
Wiki
Pietro
integridad
proceder
variadas
coinciden
recogidos
estrés
islámico
aborígenes
herbáceas
antepasados
fina
llor
##eren
##tivista
lee
marcial
poly
Coleg
Salz
llevaría
incluyeron
Thé
discográfico
otorgar
Dionisio
Ambiente
Herzegovina
Bog
Fest
olor
##js
##zza
enormemente
anexión
##agle
##agrama
##dura
vols
calific
dominado
historial
alteración
esperando
tecnológico
reflejo
vinculado
sometidos
emisora
Laboratorio
Ado
Alo
Eas
Lun
RCA
##mers
##icu
##uces
##ferente
##minster
saldo
máximos
epic
participando
ascendido
intentan
automática
tradujo
Usos
1°
##jug
##riera
descripciones
cuencas
##guía
##cuta
cañ
Poly
apogeo
horror
sufren
reflejan
libertades
peligroso
##isionado
emociones
Selva
arreglos
boxeo
Mesoamérica
AUS
bautizado
monstruo
similitudes
paraguayo
descontento
Psicología
Lisa
kam
out
raras
spe
lagar
##entin
delin
serbio
Marav
Sanbec
incas
minera
monetaria
Colum
antibió
diecio
Bour
homogén
moverse
Rosen
Informe
doctorado
rapero
Gin
##bul
##tice
##gora
##aris
ents
reapar
Allan
adu
crecido
##turn
coopera
confirma
216
dependientes
##phon
Import
Ciudadanos
Galia
Virg
Helen
amenazas
consultar
Rogers
comprendido
Foundation
aci
##avia
Detec
libert
capit
legalmente
Recopa
fortif
permanecieron
Santísima
ligada
Gaudí
incorporar
Técnico
Shaw
delantero
Pronto
pulmonar
Jennifer
agricultores
##mn
##jados
leuc
certif
guan
experto
separó
modernización
pensamientos
convenciones
mezc
What
1778
paralelas
Autopista
teóricos
puramente
simbólico
tuberculosis
hábitos
ON
RP
ocio
##uestran
Univ
Relación
costado
confes
##áctica
Caldera
Logo
entrado
matando
Haus
Serra
descritos
claros
digit
rasgo
DNS
detención
adulta
Sports
Zelda
Aquiles
mostraron
microscopio
cauce
Lion
Rav
are
##orient
reiter
##lay
##ilis
##eln
##uman
Carranza
##élicos
##ósm
desaparece
bombardeos
barroca
fracción
demandas
##iproyecto
abiertamente
Aug
Gau
Tormes
evita
alza
##ethe
dila
Channel
casada
Nacimiento
Alemana
##ahren
refin
poseían
tamaños
Symp
##halb
salvajes
Botánica
romántica
##issenschaft
origina
Rama
##RS
##DS
##tigen
##tige
deliber
alien
##eze
Altos
Arbe
Composición
Archive
##itat
##osaurus
plantaciones
##ropro
energías
Atenea
telenov
remontan
Rah
Viva
##tana
##cé
parás
nacieron
infil
##tecario
validez
Placa
autora
aceptadas
fundamento
ligas
asistentes
explotar
múltiple
submarinos
reposo
Hamp
RC
##jin
##uh
##amt
cuá
verw
partidas
Protes
Monti
evang
demuestran
Morelia
determinante
proceden
silvestre
Concejo
revolucionaria
Nikola
normativa
Homero
discípulos
Aurelio
nicaragüense
Dial
Sosa
pún
rut
##tíf
##óticas
lament
ame
Caso
Theatre
libra
potable
Intercontinental
Morris
Beeth
radios
Basilea
semilla
decisivo
trasladar
pulgadas
Ganadora
sellos
Jet
ceder
olas
##43
##uris
seda
intim
##trato
##erne
##aviones
##ísticamente
Sindica
originarios
convenio
Brook
Toluca
lineales
retira
Danza
Hok
Ring
fórmulas
non
##fü
##olinos
Cama
##ólisis
Harald
325
Génova
Pictures
Pearl
Bug
TD
##hima
##cionan
Antillas
quim
transportes
Cure
subje
##ástro
Emerson
femeninos
Avellan
rendir
Bit
OC
Pag
algebra
cuantos
cuanti
162
llamaban
Willy
Recursos
disponibilidad
390
consumidores
1796
Viña
ilustraciones
soviéticas
Studios
Blood
##áramo
##bregón
índices
devoción
Churchill
CU
Promo
enmar
##roga
Conjunto
##vitable
##agi
Montero
humo
liqu
difieren
internacionalmente
Constru
Winter
firmas
ministerio
Celebra
Hack
Obregón
##lios
##utación
##adillo
##abei
##trina
Belice
dureza
bajar
diab
contribuye
elaborada
mandíb
profundos
Warren
nariz
recogida
plebis
láminas
Benjamín
sedimentos
adhesión
Propiedades
PlotData
Aerolíneas
Frag
ricas
##bers
##gate
##asterios
##lab
##ésel
haben
Marca
Lex
##renda
existido
##igua
Bolsa
limitar
compositora
Gerald
acabado
catalanes
##arcón
humorista
Ceuta
Small
Hughes
Cun
##picos
elíp
##rax
##ellos
##paje
exci
Uniforme
Alarcón
Inicia
Chico
saludo
surcore
presentando
Liber
gobernadores
atender
negociación
Latin
Peterson
condenados
escasas
repercusión
edificación
Laurent
Spielberg
Zapata
renacimiento
Páez
##IT
##oglob
codi
Volumen
diablo
##ingüística
Mittel
negativas
Antí
Bienes
nocturna
montañosas
ficticio
Pacific
Dibu
Für
aritm
danzas
207
##bias
Sey
minister
Tej
Sega
Claudia
Consiste
convirtiendo
aristocracia
firman
Machado
acondi
dignidad
anticuerpos
cajas
##AP
##urón
Design
##ístas
autent
discurre
##illerato
significados
bailarina
Groenlandia
Neptuno
Iren
Zag
Chem
marroquí
Dean
debemos
Barrich
cohete
1785
sangri
Factor
ángel
luchando
Guayana
orbitales
Definición
hegemonía
implantación
Beethoven
UCD
Was
rayo
viendo
##ou
##kal
semb
##issa
##ocausto
funeral
##turados
Neil
##calientes
abandonaron
Spring
colocado
zurück
francotir
perpetu
ducado
Participó
peninsular
Barrichello
Eif
Fan
bár
hockey
vís
##ejos
##led
##iae
desvi
susci
juicios
dispuestos
365
micró
ateniense
Infraestruc
discutir
Ensayo
televisiva
juveniles
Biología
Cot
Two
if
##jando
##sal
##mour
Reagan
Parma
Guide
238
representadas
constituir
explicó
adapta
Weblin
conectado
afirmando
arroyos
invasores
pantanos
coincidiendo
aprovechó
glaciar
Llano
admiración
Weblinks
Eug
Pist
##nistía
concil
##itung
##áscar
sobrev
aparecía
perteneció
epist
ligado
integrar
iniciativas
aislado
##änder
propagación
budista
Síndrome
Square
Alameda
doblaje
Lamb
Mónica
Mär
Pay
Prad
Sri
fidelidad
tiros
##kia
##fahr
alban
##abria
##izador
Alar
Escip
Parad
poli
productividad
Corán
romances
ciru
Toulo
colaborador
confirmado
hispana
aceleración
vestir
Versalles
inflamación
reelección
Aguascalientes
ensayista
Godoy
Cod
Fore
Ligas
##túa
parado
accedió
diamantes
##utamente
políticamente
Manolo
modalidades
subcon
dirigía
numeración
Infan
entendimiento
bebé
terremotos
explorar
australiana
escolares
Sober
Aja
Dres
Edo
tang
##stal
##olón
##itano
##odoro
Coel
poáceas
##ríamos
Calv
desarrolladores
contrar
Prepar
ayudado
atenienses
cumplió
ejecutados
sostener
concreta
esqueleto
laderas
humanista
Aplicaciones
Studio
Ef
Nuestro
Rim
Uzbe
bet
mortal
muebles
##nier
##inia
secular
relo
##tul
parientes
##eler
##atones
Amiga
radic
Ayer
cronista
Müller
inconsciente
Juvenil
Eslovenia
remodelación
Agn
##65
##irtschaft
resurg
##estina
segreg
plant
inician
Herb
##exuales
gobernación
esperado
1807
acercarse
##paldi
Ciclo
estratégico
simboliza
doméstico
taxon
sublevación
gamma
repoblación
inclusive
Kr
Kansas
Ledes
Pila
Zep
##rese
##imán
##eds
##quivir
##antic
##egan
obrero
Sanz
Camer
nev
definidos
denominar
anterioridad
transformaciones
nervio
##bregat
desintegración
hispan
verticales
60px
kan
was
##pino
Arre
trajes
nominación
home
docente
conocemos
Turk
mecánicos
trofeo
Alfaro
visigodo
fomentar
Vergara
Bian
Tér
##iega
desorden
much
resum
mayús
predi
contrató
salva
votaciones
Hoch
##buros
Maserati
Magazine
austro
sumó
##othy
Miraflores
rehabilitación
vandalismo
##ómago
##TR
##tipaldi
##ulando
##uraron
Algo
##ificador
Mind
numer
obligatoria
fray
reduciendo
1777
Gallegos
degrada
joyas
verduras
Fittipaldi
Ses
atre
epi
gibt
##fro
deidad
##onización
restante
##ernas
pasaría
verbal
Orn
afectadas
elevados
gráficas
Normal
Clarke
africana
cebol
Viaje
supervivientes
Réc
Tampoco
Wald
204
desuso
##ocado
Mara
mineros
servía
##hai
saxo
celda
1786
laborales
protegidos
auxiliares
Olimpia
intérpretes
apost
Buenav
comediante
Cívica
intersección
Vela
##mín
##uey
condes
##tecar
##gué
See
generalizada
indis
Acosta
subcampeón
Volcán
Transición
Senadores
Server
Ibarra
Recibió
peregrinos
Plutar
Tlaxcala
bem
##esca
quema
##trall
##guen
##ápolis
sabiduría
empleó
Infante
invasiones
##copios
documentado
acogida
Llobregat
preservar
apropiado
Nazaret
Sna
Vik
ua
##cre
##rive
##istes
##ulu
Conan
Chim
##rosa
##ómulo
relativos
##ólito
estudian
##ielos
habitada
Regimiento
Terror
genio
Orientales
secretos
Azerbaiy
Fauna
bottom
corrección
metab
Instrum
guardar
Phoen
recurrir
##üssel
desigualdad
Estuvo
Rugby
With
bares
suman
perjud
##ruro
Reun
importaciones
##uster
loco
Verw
Antoni
##ándalos
410
estimación
Keith
condec
innumer
tardía
Reconquista
etiqueta
hueco
policías
enseña
Sos
amaz
##äd
exam
##udencia
Cher
increí
orn
moderado
Andreas
mantend
bañ
abandonada
cripto
Triun
sombrero
practica
comercialización
Denomin
vestuario
positivas
almoh
Ledesma
Kane
brin
fur
##ła
##gb
##tila
##chloa
209
##urador
##trospec
Shō
##videncia
verdaderos
##lándula
periodismo
derivan
Alcor
patriotas
evolutiva
Frederick
Avellaneda
OR
beste
##mental
##gement
##ties
##chevi
play
249
Haro
Atle
##tizada
##halt
Informática
atravesar
Wesley
Thomson
tambor
Encyclopedia
Fior
Zur
##ming
##pidos
repeti
##igt
##quest
Maraca
##tono
172
transf
Raw
operan
##islao
Organizaciones
riquezas
Peruano
palacios
largometraje
950
Eze
Zah
foro
zusammen
##onados
##orcio
sequía
lobos
Porta
Monarquía
animados
agraria
potenciales
silv
educativas
huella
Quercus
fosf
cenizas
##titlán
Mongolia
Aeron
Lus
etr
gef
pendientes
rugby
##oo
##kte
##ping
##cine
##omet
leído
crecen
Proven
islo
representaban
difundir
protagonismo
agujeros
budistas
Números
Charlotte
Porfirio
Somo
gótica
roll
##mén
enunci
tratarse
caser
certeza
relativas
presentadora
expresado
laboratorios
Moldavia
##etzsche
abastecimiento
acudir
vocabulario
pabellón
V8
parén
##iformes
impid
destro
Saudita
continuas
espíritus
Michele
gastron
ayudan
Jackie
proclamación
Strauss
parlamentario
conmemoración
melodía
tolerancia
defiende
dorsal
Schweiz
Azerbaiyán
Maracaibo
ihre
vaca
Óperas
##FTA
##inismo
conllev
##tees
inú
Alh
##baum
chico
cosech
Neuro
Entrevista
##licher
Catálogo
dramático
Botánico
eliminó
hormigón
complicaciones
Publishing
empeor
Níger
Gog
Sard
itiner
##pur
##onis
##aderas
##chó
locura
controles
Estadounidense
290
##aka
fallos
representativos
ensan
cortometraje
tranqu
climático
despegue
oscila
guerrilleros
Plutarco
AV
##mil
##ínas
Seat
Lucha
##ampas
##itzer
pagos
enviada
Gaza
Merid
1770
Stuart
mirada
conclusiones
Baby
Montser
Década
Sn
Sera
dor
##ding
acta
##ieve
##baut
apareciendo
cosmo
Pozo
Edition
Ocampo
secreción
Consul
academia
Lancas
reemplazó
PRO
cumpleaños
calentamiento
Osaka
Bic
Béisbol
Judas
Uc
deba
suyos
##cape
compilación
caracterizada
seguidos
##orough
navíos
##rónimo
415
430
taur
Plantilla
Triple
exacto
luchó
Cuarta
cinematográfico
reforzar
anderen
degrad
München
Rómulo
##oi
##yi
##idora
selb
asientos
abuela
realizaban
Valera
218
trabajador
dejaba
##eval
referido
Grace
Domini
Bruguera
tormentas
encarcelado
Teodoro
franquismo
Gabriela
Bez
Gros
Swe
cesión
##iction
##titas
inminente
##chis
aportaciones
capillas
establecía
aviso
##ándolas
facs
disponía
imprescindi
hierbas
Angeles
Especi
resistente
doctrinas
agregado
evaluar
Kenia
multina
Diese
dual
sáns
##rick
##bitas
##culación
##anov
##cesores
carac
llegaban
diversa
##ímir
viñ
Dioses
##ispens
Melbourne
experimentales
tromb
presidida
Escribió
tácticas
Matthew
Berkeley
Lü
só
zorro
##LO
##zú
parto
paraje
Alg
##onata
granito
reglamento
Coll
Luft
completos
confia
Canta
andalu
Rachel
convencido
cifrado
vendidas
clasificados
Nikol
##echea
metálicos
efím
Vicepresidente
medicinales
Mino
Noreste
TO
bara
mán
ritos
tinta
zwe
##kis
##entaba
Animal
cardio
siti
##álico
Abog
Poaceae
doña
1781
Mercury
Ecuatorial
##kinson
Westminster
Profesor
Castellano
Guitarra
dígitos
Montserrat
Cerc
Liz
Pand
Tierras
##über
estómago
##ranía
llamas
Coult
Sailor
elemental
racial
##inski
Silvestre
biológicos
Localización
enseñó
enseñar
Gilles
subsp
##quilib
clínico
Último
expandir
AUT
inevitable
ansiedad
Job
eu
oso
padrón
íd
##spr
##ivar
Austin
Magic
Santana
contrarre
terceros
Urqu
intentado
Saboya
afirmaba
defensiva
neutralidad
Living
pétalos
Astorga
Horas
Oca
##DH
##dob
##acá
serp
india
tomos
Verdes
conservadora
Apocal
extraer
claras
recopil
retirar
JPN
Fausto
aprendió
jerárqu
Arqueología
Klein
comedias
Diócesis
Toulouse
Coulthard
Pio
trem
##yéndose
##krieg
##GP
mutaciones
##endra
advert
Valles
##árra
Harvey
vocación
beber
rechazar
Político
Históricamente
Logro
extraordinario
Situación
##stellung
transmisiones
##roproces
Avent
Bent
Blu
Games
Lip
MW
Wei
##uka
##ueta
conducido
##uladas
##ector
Lost
emprendió
245
pintado
Italiano
##monte
Municipales
extensas
1782
querido
asiáticos
Knight
almor
bestia
Báltico
Ries
aden
silla
##sson
##cipación
##iness
Ellos
##seg
Conten
##tarias
##berger
certificado
genocidio
##fons
penit
intend
elimina
semicon
claustro
Stark
fracasó
abrevia
atletas
filosófico
vocablo
diecisiete
anatomía
Mejía
Bier
Nico
Sra
Sena
Teles
kur
roble
##amer
aportes
regalo
##ómeros
basura
continentales
USS
##valu
777
troy
Griff
hermosa
proponer
Studies
amanecer
anarquista
BC
Ix
Porte
dop
##yama
##cible
comicios
Enron
finlandés
infierno
monos
##rone
Curios
consideraron
orientado
Terremo
tallos
espesor
406
333
Comunidades
Oslo
##ramento
ascender
Lorena
bytes
legislativas
Sucesión
litros
multimedia
Eur
etimología
óv
suav
protones
##ibal
quieren
andina
legendario
matanza
navales
Pabellón
##arote
Autonomía
perfección
incompati
Chilena
videocl
Densidad
Aire
Mega
Teno
Tau
Vocal
usted
suda
##cela
cors
incent
161
vivieron
dominar
descubr
renombre
Revolution
Emma
consume
arqueológica
décima
trío
Elef
márgenes
excelentes
Hudson
dieciocho
innumerables
Cuevas
HUN
Miles
Plin
##ktion
##fren
depres
##arto
desciende
##opold
monasterios
salidas
272
Gear
dominicano
##umentaria
Talca
liderados
cátedra
AE
Ceb
Drey
Gong
Krist
Pues
Sust
cósm
vaya
##bat
##bard
##pido
ani
##quetas
cari
adjetivo
podio
##keiten
1774
Epic
Auguste
Durch
dueños
Conservatorio
Gardel
desembarco
##éfalo
Escultura
Gue
Uru
gleich
jabal
lámina
##uten
##Cl
##tión
203
acantil
##trea
##parte
actualización
Maiden
subcampe
Valor
Six
papal
recupera
dinámico
Juli
recuperado
Renov
hallazgo
implementar
parlamentarias
flexible
Blad
Kel
Mia
führ
##zuela
##cediendo
Chic
precep
##illeras
quiera
##órtico
indispens
Pereira
franjas
229
214
cambian
catástro
directora
hidrocar
rechazada
Derek
resistentes
intervino
independentista
guaraní
Líneas
str
##GG
##ampa
##trales
respiración
Anastas
termod
apas
subterráneo
212
Nuevos
Robles
observan
molde
Ayr
acompañó
válido
estricto
keine
Bohemia
Virgilio
Centa
Owen
Rag
cemento
##zial
entornos
##ecre
##usan
##cono
supervisión
Corres
Nuevas
atacado
forzado
práctico
conquistas
guerrilla
Menem
##iserie
legítimo
injust
Aranda
hundi
opuestos
##wall
##ktor
##gie
##áus
##inho
##edora
máscara
residencial
##ernet
1750
tienes
emer
malo
distribuye
balne
Boris
enciclopé
istmo
acusados
escalas
cayendo
sospecha
vestimenta
Vladímir
Office
epidemia
Haupt
Usuario
autobiografía
custodia
Términos
Cusco
Moc
etim
##enc
##ded
##tosh
Alci
Esmer
finalización
encontrada
Palm
Romana
##uclear
Tempera
arqueología
pacífica
incrementó
módulos
expectativas
Isidoro
Escipión
##stil
##atología
volviendo
Cannes
piro
vivido
referentes
Soler
375
Davidse
pronuncia
hablada
##íferas
policial
íntegra
Erik
Gala
Neo
ic
##cun
##anol
##dete
arru
##ogue
Nacido
##ístola
clado
Médi
##tices
##lyn
mencionadas
divididos
trasladarse
restaurar
Nietzsche
cayeron
suministros
Septe
Yas
jar
tetra
##üh
debieron
Enseñ
Marcha
##otones
sintaxis
usual
Mexico
313
Huay
Capitan
ont
distribuidas
Academy
diferenciación
Miró
festividades
desnudo
samur
Aleksandr
##hualpa
Dro
Ita
Ánd
alba
##alizaron
Provis
aprobar
Presenta
constitucionales
descentr
turca
contex
Distancia
ortografía
Gregory
Géneros
anunciado
predecesor
homosexual
cúmulo
Quiroga
Bed
Hav
##óticos
##appen
Camus
informático
médicas
Cristiana
protege
Silvia
herederos
##ófilo
Atahualpa
vectores
Jrush
Dok
Nombres
drag
ehem
gentes
hito
oraciones
##ls
##íqu
##anista
##stän
##acár
traicion
Chav
creían
anticip
Centre
verschi
##etroit
##verso
encier
procedencia
fiscales
Priest
invadir
Marsella
acudió
Encuentro
Maurit
inmobili
Eiffel
CNT
Kill
##uli
Departam
##undin
##ardía
importar
Shel
erste
Linneo
mencionan
instalaron
proporcionó
convocado
resistir
Atac
grö
Nieto
reconstruir
especificar
Kosovo
flecha
Actriz
absolutamente
Crea
Hiros
Jur
Led
Penn
Qing
Tasa
##mundo
##bona
##ñán
supuestos
202
##pogon
##uste
Mons
aleda
demonios
239
##haw
Surtees
Edificios
separan
Panamericana
introdujeron
sucesores
marcados
gesch
Portland
capturados
Aquino
##ismus
Spain
grasos
pronunciado
fértil
entusiasmo
culpable
Antropología
Cero
Jess
OH
Serna
##ueble
##pay
##tru
prema
colegas
corn
corrió
orina
Montoya
chinas
Adán
erfol
papas
especialista
Irving
alimentan
Kirk
Pampa
pescadores
Khan
Moy
Mobile
Yemen
hob
##eamiento
##stre
##tilo
almas
parten
Congregación
##érf
intercon
termo
##opsis
Suroeste
amateur
especialidad
Corre
demócrata
difund
cambiaron
desarrollarse
##cángel
1775
incapacidad
Summer
bacteria
habitaban
reliquias
Dob
Fís
##dale
##enció
##esías
##tegui
232
266
265
definidas
persu
huyó
irlandesa
Institución
Fuji
trasladaron
burbu
##kinen
crucial
escape
Eugenia
indicando
acústica
pájaros
isótopos
##prise
Mijaíl
entabl
Jrushchov
Eis
Glad
RS
Stro
reple
##ily
##uliano
exista
Antic
Suzu
Nature
##mile
herida
213
profeta
kilómetro
##estría
ejercicios
corporación
retraso
alianzas
abadía
Ralph
Championship
Patagonia
Atar
Eran
Kub
mama
##ódo
##arda
invitación
##china
Arriba
Amigos
cantera
alegando
##cribió
refiri
Hermes
hubieran
extraña
acompañados
Hijos
combatientes
efectuar
##ópodos
Birmania
desmante
Titanic
bárbar
Pisa
Tanz
ratón
tró
exced
Altam
primas
abrup
Cola
Campan
##íficas
Verdad
Impres
Muhammad
bail
sexualidad
negoci
silicio
atacaron
marxismo
SMR
blasón
Schwarz
prohíbe
Fomento
Aar
Brem
Jara
Lock
lie
vern
##istar
##permas
nativas
polacos
##grund
##talo
Sinonimia
lieg
236
Wikiproyecto
tropa
Denver
##volta
englo
imaginación
Information
##ideportivo
7º
Categor
Flav
Pall
agar
bip
ful
tla
##igno
anónimo
Estambul
Almirante
##ambique
##oneses
##pert
Canciones
erh
Primavera
inmort
contabil
radial
440
arqueólogo
ecológico
configura
excesiva
esporá
enveje
Kit
Pér
##87
##roco
##chivo
##paci
Alcán
regimiento
##arest
##ological
Guill
Destino
##tionary
románico
Century
métrica
Rodas
poniente
USB
taquilla
donación
biodiversidad
modificada
mandar
provee
recibía
##wicklung
acoge
MIT
Ghana
codificación
repite
vertebrados
eleva
mánager
Ayrton
September
GE
Niza
Wur
##toc
##tables
##paces
Ene
Concha
consentimiento
##graphy
##ionera
Theater
240px
estudiantil
Respuesta
Escuelas
Gallo
horno
observatorio
##untain
aumentan
wikipedistas
Guadalquivir
Avil
anglic
robot
Joachim
aislados
combustibles
innovaciones
funcionalidad
electromagnética
árbitro
Sando
bate
velo
##eños
##pé
##vedra
defectos
##ontes
Chop
contrab
automa
315
##lustra
diseñar
estratos
incrementa
Document
perdón
comportamientos
oculta
estatuto
Abe
Huracán
Nancy
bill
##rota
Estilo
Chill
Carbon
finanzas
##árs
homici
##aredo
##clusión
Italiana
mercantil
reconocimientos
321
directorio
Michelle
Naveg
institutos
Weimar
somos
Argentinos
arreglo
Champions
palestinos
contrarres
Alcántara
8º
Glor
hib
kon
under
prole
##izante
##paron
##otl
basal
Herr
This
Hof
Liu
Astro
##ósticos
Julieta
paneles
impulsado
Debut
Oktober
Tigres
##nachweise
folclore
Ándalus
Buda
Fortal
MC
##física
##iciano
obses
Prov
eviden
fundadas
moz
concurr
311
radi
Infantil
8000
Ingenieros
Candidata
##100px
Yamaha
Inocencio
Gent
Oz
viz
##ópolis
##idura
parodia
prestar
intercep
##each
poe
destacaron
visitado
comparado
sociología
fluidos
November
surgir
carbon
americanas
Groß
fascin
despertar
explícitamente
inusual
##ezeichnet
Einzelnachweise
Aman
Benz
Flem
cumbres
##phe
##adona
##istos
##ités
##tropo
224
gehör
##buch
contribuido
bello
Alcázar
aprovechamiento
sobrena
Banderas
##oxid
virtudes
limítrofes
English
boxeador
##tecnología
plebiscito
Danny
Tian
Yale
##flu
##DP
elenco
##amuno
reestruc
minús
##anzer
alejado
223
Rousse
liberalismo
Bernal
esperanto
provocan
triunfos
Conflic
aéreos
Hunter
ofrecía
emitidos
SEAT
privilegio
aficionado
Original
recompensa
historiografía
orientation
Agrupación
Epi
Halle
Raven
Tet
jo
##In
##lagen
deser
##ajar
Aren
Marg
polígono
Colisión
##ógicas
305
veían
Augusta
promovió
filosóficas
promulgó
Major
cohetes
Uzbekistán
Detroit
Toba
bila
rgb
##atura
##omio
##lema
sonoras
muerta
Beis
Maya
encant
colectivos
Humbol
470
Cinemato
remod
Tolosa
criticó
semejantes
autonómicas
Quesada
transversal
Ibiza
Kl
Muro
Mendi
Quev
Wahl
cén
producía
Cobre
##doro
térmico
fijar
celebradas
convenció
imperiales
patriarca
eclesiástica
agropecu
Foster
rítmica
Phoenix
EX
Mile
Testi
##kra
##hil
iniciando
219
231
Hook
cuarteto
consecutiva
385
##nett
Service
Force
Vinci
impresionante
Theodor
2°
Wasser
nm
##niz
detuvo
##inus
##zaga
##dena
Dei
##ops
creadores
1640
Providencia
plantillas
partiendo
frías
Solid
recogen
Consecu
Senegal
reparación
Cátedra
fragment
precedente
Saturn
prefieren
Tumba
Barroco
Lebens
Ajax
Somoza
Plinio
Há
Pse
bendi
##uki
##gines
##èn
##MC
quebr
polares
monoc
mago
tortura
insurrección
sirvieron
acabaron
Metrop
sensibles
olvidar
gluten
Descartes
Bord
Mug
Nim
mante
##engo
##olph
exf
##apan
##ensores
##ductores
##agos
postal
encuentre
cantando
Aznar
sobren
delegados
semifinal
curvatura
domésticos
táctica
Bustamante
Lluís
Pontevedra
Carrasco
Dezember
Bs
Jef
Zum
basta
tamb
##kor
##PO
##údez
##riff
##rash
Marac
##bola
recto
Ord
211
248
talentos
Ferrol
Instituciones
dicta
responsabilidades
involucrados
Bermúdez
tubér
intervenciones
Afrodita
Berenguer
Loreto
Camerún
Blin
Baden
DA
Sonata
Vid
Wend
fruc
liv
##dice
alias
##terias
##bian
diálogos
##cau
reconquista
276
favorecer
violinista
preparados
460
Fachada
ilustrado
Personaje
clasificarse
Autovía
Licencia
Estrellas
rescatar
ecosistema
Manzanares
natalidad
Grado
Wander
fatal
titan
primitivos
##tilde
Deep
incert
soledad
debates
##ikk
##ógicos
planici
textiles
órbitas
conceptual
Basilio
Prehistoria
corresponder
tumores
montañoso
adquirida
##iewicz
fanáticos
Anatomía
Árabes
Probablemente
hélice
Jorn
Mob
Yun
cera
glándula
##loc
##pace
##edre
Esqu
##cona
##tsch
encontradas
espectador
Huáscar
Heim
Medall
Jedi
Clásico
Julian
Constant
conformación
tendrían
latinoamericanos
Autoridad
Gallego
Geoff
Giorgio
Seattle
Quevedo
Dop
Nec
Page
##chil
anteced
Estoy
metró
Chen
##ikov
calificó
sentimental
saca
anuncios
Linda
predomina
Suele
Movie
Personal
Sagrado
campanas
agregó
óptico
Lynch
Welles
exiliados
Cable
Lon
LGB
Made
PI
jac
mueven
viel
##ñal
##xidos
degen
##rigos
##ications
##patri
##quitos
usur
Sinfonía
304
241
mejorado
More
medioambi
ambul
explicaciones
331
dinam
vaso
agudo
Myth
comerciante
batallón
maravillos
ametrall
Hus
Já
LI
Non
Rä
##jana
##GT
##olares
##ajal
Chand
importa
##tese
Caro
solem
##sons
mansión
Pau
choc
##estia
activación
Sach
##ariales
gobernado
correspondía
mencionó
Políticas
membranas
recibidos
bizantina
párra
monopolio
nomenclatura
Esquema
720
Efectos
Zan
ábs
##itia
##ose
abusos
trasera
##ians
Correa
##light
Regiones
tanta
físicamente
turísticas
judías
vascos
experimentar
deberán
Millán
eliminando
crías
olímpica
Antioquía
##partid
etiquetas
cosecha
Justiniano
artefactos
Humboldt
Trí
dann
lente
conlle
##oling
comidas
estanc
##iman
antagon
1580
##ionen
recal
basaba
disputada
empezando
Ponfer
##play
pierden
aceites
vinculados
fósil
videos
GFDL
apartamento
Azaña
PAR
POR
SW
Vino
dime
mate
pasta
yugos
##ères
##osidad
reutiliz
anima
##parse
Casino
##óloga
metamor
espectros
Ferrocarriles
renal
Cerda
sustituye
Family
Prix
sostenido
Landes
single
Longitud
USAF
motivó
auténtica
Python
Expedición
cese
rid
##huela
##PC
##asuna
##ticidad
##letos
##ulip
ancianos
arom
mutación
Desierto
##fago
Bela
argentinas
Julius
Vallejo
1784
demostra
diferenciar
fosfato
castellanos
similitud
Commons
psiquia
contingente
nebulosa
nordeste
Eco
domina
##47
##yth
##ingo
prohibi
adentro
Sinfónica
confederación
Calles
##ágrim
huida
Ruf
Turístico
Agü
conquistada
exactitud
decretó
Introduc
Gandhi
cadáveres
paulatinamente
Hepburn
Hod
Largo
Nash
SV
jinetes
oír
enana
soció
##trait
Maríti
polis
##gew
contraata
Cour
chicas
divinidad
##reak
construyendo
respecta
observadores
distribuyen
galerías
querer
colocación
##fibios
preguntó
Bayona
proveer
arresto
Mecánica
madrileño
Constructor
Soyuz
sánscrito
Ae
Dorado
Punk
Sot
Wang
##fan
sumer
Infer
polím
Asís
268
Verb
Hechos
enclave
consumidor
Plus
automático
extremidades
Cumbre
intestinal
espirituales
GI
Rita
##arth
conforma
##rough
suiza
##chem
##icina
##ucos
Cuesta
##thers
atrajo
sufrimiento
guerrillas
##oníaco
Cicerón
Índico
Nada
##uit
##adino
##icándose
reporta
##imer
Elio
percep
Sanc
collar
##écdo
Sieg
Abajo
metano
espadas
obligada
Burton
fluye
Gaulle
##wohner
Confederaciones
Horiz
criminales
mapuche
peticiones
Tigre
Prince
álgebra
dadas
vera
##jun
##enia
##oler
recipiente
##avos
presbítero
barba
coex
##iestos
228
##bane
informal
habitado
indicios
distribuido
violento
espermato
Holocausto
adaptada
Homenaje
criatura
recurrente
helicóptero
Elimin
Politécnica
Cualquier
refiriéndose
Fren
dará
gif
##esia
##labas
##uroso
cubo
##ucaso
1520
171
10º
pasados
Guam
centrada
Orb
editada
301
Brigada
degradación
Urquiza
##ódoto
Meca
nano
ohne
pond
##frag
##pis
##hlen
##SE
##arde
postre
apénd
Bart
directas
decim
divert
217
denominarse
Edwin
disputados
concejal
Mitre
1768
paisaj
Antiguos
evolucionado
esquizo
climática
concesiones
Aproximadamente
Sindicato
BB
BAR
Due
cícl
##rino
##ñó
##aldas
acrónimo
mananti
##iku
cerradas
llevadas
insular
##itet
Verd
Causa
Virrey
fijó
Bernab
Leyenda
sombr
Lanka
enteramente
##táng
amistoso
Ingeniero
Adrián
circunstancia
practican
audiovis
portaaviones
agrav
Camboya
Denominación
Avilés
Gn
Stir
Toc
aper
ced
trí
zinc
##querra
##dern
##ск
##chio
paris
Invas
##anair
Parada
distanci
Acceso
Heródoto
aglu
mecánicas
##istoire
elaborados
requería
goleada
sagrada
hipot
arrestado
arquitectónicos
##rsg
Pisco
Sitz
geo
sand
wel
##anor
##idra
##iseo
##ioterapia
##dele
arteria
##blast
residente
escult
purif
pastores
Cole
Tebas
comunicarse
sube
revueltas
ganados
mediodía
grabada
claridad
adaptarse
Sudamericano
mantenían
Espinosa
válida
Gibson
hosped
implicados
incursión
Bagdad
erudito
blind
##estellt
Bás
Funk
Tub
##ation
##merc
##cc
alude
##queo
calificación
homo
mérito
Verein
experimenta
gastro
marcando
##ysis
Gallery
arranque
estereo
ihrer
penetración
píx
Fant
tí
##anga
Inten
Martha
Joel
clandes
306
masivas
pintó
318
legiones
microproces
obstáculos
impreso
mártires
Alaj
inventó
fluc
huellas
argumentando
Emilia
##évalo
##turbide
Pompeyo
geneal
Paisaje
Atacama
Fleming
Gug
Ica
Lines
Nun
Nat
##esp
parámetro
##pata
cubr
Inicios
leales
destacable
habitante
descender
350px
Stones
dedican
Crecimiento
ofreciendo
diagrama
desconoc
Semif
Treinta
psicológico
diplomática
prohibida
Emiliano
astrónomos
Kultur
IG
Iturbide
Saba
Secu
muelle
##sillo
##rap
proposición
Reta
lecho
finca
Leopold
salido
##ells
234
##ígenas
asesina
Antología
##úrgico
analítica
Fabio
exponente
predominio
campana
Próximo
reelegido
Bard
Genes
Stam
esferas
parciales
permita
soporta
1550
variado
##geh
montar
##tionale
##pié
reconquist
dominada
Pasión
Hear
Susp
Baltas
Junín
States
involucrado
viceversa
otomanos
Túpac
insignia
Ugar
##kkinen
retic
##ecraft
##atarios
##ibar
seriamente
##pard
preju
##itarismo
contraposición
pelos
afi
partitura
organizadas
##embra
##arius
Belgrado
##huacán
distribuida
Murphy
acompañamiento
Bayern
consolidó
transmitido
Participación
Hubble
índole
mexicas
Hed
Put
gn
##BO
##hos
##espa
rees
##íno
trataron
reglament
milen
##formance
revés
222
Sitios
Reserv
##oka
especula
405
fertiliz
Catalana
registradas
Brooks
Faust
bisiesto
##ediencia
Text
Language
Kaiser
bruto
Discovery
Producto
##anthus
guardias
curiosidad
triste
Jakob
paréntesis
subió
comod
##urgia
##main
Baréin
##ecidos
Teología
309
264
##ágono
administradores
mercenarios
345
ausp
Evolution
Bridge
concentran
instalada
argumenta
biológicas
botón
imposibilidad
sacrificios
subdiv
anotaciones
citoplas
estímulo
juramento
##jugador
cate
erupciones
use
##HA
##ján
##idios
##oleo
discul
regad
nominada
denota
##llar
vej
facciones
ocupados
##ambia
Golf
Pink
conectan
solucionar
suponen
ilustración
lingüísticas
##ipsis
relieves
Häkkinen
hermanadas
LGBT
Dada
Fib
Mona
Misa
Rally
ye
##yera
##gte
##alistas
##dientes
Laf
##teno
##illero
Carr
compas
Leandro
generada
##estiona
Patron
Bella
##wait
Duarte
bibliotecario
##éroe
Amberes
Espino
Aguilera
antár
Padilla
Flota
complicado
cautiv
Mauritania
Haz
Tus
##TU
##úd
##teado
##itsch
##iensis
Arce
##brales
##opones
##tini
mediciones
neol
clasificaciones
285
quedaría
323
Demet
Second
Braun
##colm
oliva
cálidos
impulsar
Velocidad
diferencian
húmedos
bizantinos
Hidrografía
prominente
sanguíneo
estambres
Cré
Fi
Ró
Zwe
ciego
prag
##sus
##olín
##ulina
##imi
##treo
Leonesa
##caras
Barros
Meyer
compañera
comparar
autovía
pensando
consumir
adaptar
Breve
Gabinete
acusación
crucif
votantes
Boyacá
fuesen
Tintín
##Archivo
Schmidt
Whe
dero
##reta
##champ
peri
cubiertos
Anime
Marin
##gae
Natur
##landesas
organizan
##tienne
Goethe
reactor
kilogra
planteó
Tabasco
Genera
Ninguno
Anatolia
linfocitos
coeficiente
Fá
llaves
wen
##elius
Marti
consisten
solid
reglam
Barca
258
252
##ificadas
Isl
227
palma
Malcolm
Legado
secuestro
aislada
vérte
Cajamarca
andaluz
BAFTA
Baptiste
Cif
Fras
bif
buro
##rente
##ítez
##fónico
##unter
##izarse
Invent
##material
granja
Franja
Leib
Colabor
construyen
Ferre
cómp
sacó
Charl
adoptaron
Piquet
beim
Batallón
sobrevivió
vectorial
Spirit
descriptiva
facsímil
Tenoch
Dame
Mano
Rural
Sl
Titu
Vinc
frá
##encer
##anales
##usoleo
Concer
pozos
cantos
distinciones
capitalista
Point
acompañar
##fosis
ecológica
Seminario
salvación
Historias
Reme
duramente
introducida
retórica
Lanzarote
consonante
predominantemente
inundación
conlleva
Hrsg
Nerv
Süd
vier
##mada
laber
##ueducto
conmo
##ritis
supresión
##isches
##uerda
Ars
disolver
implí
pureza
##llen
saliendo
indicado
aglom
triangular
Hojas
pertenencia
355
virreinato
pensado
transformar
##ortunadamente
##mals
Scala
identifican
Somos
hábito
compatibilidad
equipamiento
detallada
compensación
pidiendo
Explorer
Remedios
ED
Kō
Oak
Vich
fino
pleg
##átil
##ísm
colaboraciones
##tase
Carro
##tonio
cata
indicó
296
Reglamento
Autores
genéticos
irse
Batería
##itsu
##valdo
ecuador
interesados
adecuadamente
asignación
tranvía
Orchids
Gamarra
##ometrajes
Nicholas
convivencia
serpientes
Baltasar
Filar
Kay
##idina
##raca
##oceron
expuesta
##brick
1521
Canada
237
Romanticismo
332
escucha
despedida
Empez
retiraron
cubanos
inglesas
perdidos
Individ
Textos
diploma
exigencias
emiten
Marcelino
accesos
Territorios
juzgado
huecos
Electric
paradigma
cosechas
transparente
manzana
Etapa
9º
Gat
Spre
TI
Trade
sic
##HF
##KA
##eado
##nea
##inó
##rates
##tuando
anorm
cerrados
transbordador
Princ
contund
##ween
Samoa
Merced
bloqueó
cartagines
##faces
vídeos
horizontales
fértiles
compatibles
Damon
Bucarest
sorprendente
cirujano
Infantería
4ª
Sund
axi
saj
stell
table
##met
##triz
##tile
##tima
##trón
expuestos
impone
##tariado
mundi
Lep
251
clon
Extensión
informar
sabana
permanentemente
Católico
tapa
Cáucaso
ampliado
cocin
documentales
sobrevivientes
Domen
vestidos
agrega
inestable
Petronas
carlistas
nómadas
blue
Gálvez
diagnost
sobrenombre
Aves
LCD
agencias
reim
disolvió
aportación
Leones
centró
Maipú
luter
patentes
##cks
Bass
pobladas
tendrán
Americano
Timor
1758
Species
ajuste
Systems
articulación
promovido
iraquí
##grima
Goy
Narra
Sü
Yar
##tiana
##imov
##ucky
Parlament
##rosis
##rense
Monet
Cofradía
Politi
sentado
difun
Escala
profesora
autopistas
enfrentan
disminuyendo
eucariotas
IEEE
Léon
neoclásico
Pá
Samp
TE
roles
##SO
##uncias
desag
##odri
anciano
##ayan
##tosaurus
Alz
##ciplin
ciudadana
##iker
Saw
292
socialdem
aplicó
Balcanes
Quetzal
potentes
eliminatoria
Curtis
Hispánica
irregulares
Bruns
NED
logotipo
moderada
fotones
Paralel
Raimundo
Cóndor
Fur
Landa
fero
##tadoras
##GE
deidades
##inam
##chando
Arta
##ief
Anno
maxim
253
##enzuela
286
Benítez
##schied
Obtuvo
371
fluviales
COI
magne
ibérico
feudal
iraní
Graduados
Abre
Rhein
Sv
Til
Tribu
llave
opuesta
tía
##bamba
##kg
##enst
##icantes
##omon
##chigan
##edr
paraíso
Lauda
notor
sob
Arri
conver
Meteor
cabra
plá
242
262
Herodes
Luisiana
295
difiere
extendía
compartida
baños
determinan
energética
Greco
contraria
Matth
oscil
conectados
Busc
Mansell
veteranos
Dávila
Problemas
Míchigan
HMS
Mosa
Nol
Tíb
Yuk
eterno
hand
pioneros
sable
ty
##rás
##hä
##x100px
deca
##star
##genia
casta
Depresión
generalizado
racha
mercan
##émica
Agri
Bosch
Niños
confirmar
legislativa
Complu
Aquitania
partidario
perspectivas
oscuros
cápsula
repetidas
Nepal
arbustos
necrópolis
Bryan
Voyager
Sú
SER
Ull
brom
pilas
##fías
##AM
Eneas
##icista
Antena
naciente
##teriales
embrión
Adv
cláus
equipar
totales
estrechas
Cristal
sufijo
416
fragata
apoyada
pantallas
Gotham
alab
estatutos
retrans
Situado
adversario
trascend
Líder
pistola
Matemáticas
Crespo
válvula
Sakura
incertidumbre
Tíbet
Birm
RI
caliza
mítico
nula
sorte
##LM
##98
##quino
##genda
Comm
dester
Juz
316
lesbi
404
336
Santísimo
346
registrar
repartidos
##örper
##astres
fisiología
escapa
Figura
economías
Cornelio
seinen
insuficiencia
Ralf
befin
##ebook
Rousseau
Clev
Eb
Lob
Loy
MU
Nem
##SM
##Tube
detiene
##adia
##ueces
##tok
dirigen
prós
##ísimos
impre
##opla
creyó
##ominal
invitó
rectáng
##meister
espé
356
395
tecnológica
merece
1773
Jahres
germin
Psych
Kubrick
Rossini
Durán
agresión
Theodore
Femenino
recopilatorio
Hess
Kind
bov
##ème
##telio
sucedieron
comenta
exha
adent
polen
Común
manch
guiones
244
informáticos
causan
Orión
Tommy
ligeros
bolchevi
exponentes
involucra
antología
Adrian
sujeta
Oklah
ultravi
##arquías
abstracto
afiliados
mestizos
proliferación
Mitglied
Camacho
Jura
Tomas
gus
lentes
trim
##rument
deutsch
##citas
repetición
##urones
##ruch
natación
Barco
Orin
cabildo
Garay
conservó
Susana
Planet
enviaron
Melilla
##juana
Drake
transcurre
gallega
valenciana
Jardines
Fábrica
Hyd
tiras
##ñigo
##enter
ininter
##entecos
##illeros
nauf
infantes
Acer
Calvin
filtro
mercad
facción
##ampf
borra
ausente
kilotones
Moderno
Plano
avanzó
aplican
explosivos
permitiría
Kenneth
Fortuna
Wells
Aber
MAR
Nit
best
hap
rusas
während
##wana
##atic
perímetro
aspir
naturalmente
pollo
travesía
Moham
Beh
apoyan
gradual
embarazada
proximidades
súb
Windsor
Cáncer
Princeton
Bara
GN
Vuelo
##onne
trae
abren
tuvieran
Perry
barón
243
233
##élicas
jugaba
Epid
expulsar
escaleras
dialéc
amistosos
consagró
besch
Spinetta
domicilio
630
Ares
Fang
Hak
Panteón
##üng
##itana
##udor
Altas
posturas
##diós
distintivo
sílabas
401
Grau
Serge
gasolina
##esser
justificar
extensos
sustituto
Madame
remat
fascista
ciclistas
neerlandesa
ficheros
abastec
Refug
criollos
violaciones
liegt
Oklahoma
Sull
foc
gatos
##tancia
sets
redi
##istir
##iver
##usch
##etic
Now
misionero
##azu
273
Antonia
promueve
representativa
Osvaldo
eliminados
Simple
512
##írgenes
contribuyen
Económico
fallece
licenciado
Hamburg
buscaban
niebla
Misuri
alfabe
Business
haciendas
Western
##zeland
coreano
hábitats
Participaciones
Arana
Cleo
Gaugu
Konz
cielos
flag
##pados
##vé
##Ch
##chera
##pato
##antina
##ovar
camiones
Barth
litio
fallas
Actualidad
meramente
540
asistieron
disparar
Circun
Vivienda
Somalia
Machine
Floyd
forestales
Ismael
Eugène
##tecarios
Aro
Nay
Nace
penas
##judi
arreb
##ezcan
##iffe
##lose
densa
##ruck
Telecomunicaciones
280px
312
molinos
tecnológicos
pulmones
neutro
peleas
Hyper
Traductores
Tesoro
Conservador
legisl
pirata
escribía
asimil
ininterrump
Gauguin
Beth
Horm
Hizo
Woman
piz
##wil
##podos
##alter
##imon
nobili
diá
Arévalo
##ifo
Marques
Guard
escribi
llevarse
instala
##áctea
filólogo
Mode
##ágoras
radica
psíqu
destruidos
fabricado
consolidar
campesino
democráticas
apodado
vértices
sublevados
sustantivo
fármaco
##cracia
feminista
Peñarol
increíble
Clan
Ela
FBI
Ruth
gesto
##litz
##ful
##gador
##inson
##ilios
aliada
##abia
##ucto
carp
Sein
1540
gram
plur
Lozano
jugada
efectividad
Imprenta
Oliva
##ynes
Eduard
Documental
potencialmente
##idiócesis
Olivares
Diagrama
semejanza
sombras
Avianca
perpendicular
Irene
íntegramente
Tennes
##bacter
##ünd
##onario
conje
##aml
estancias
##terales
antena
diarias
Reproducción
cazas
##quiá
comenzaba
dependía
grito
ubicó
##mark
Spencer
Holmes
Tijuana
ensal
excurs
inneces
goza
satisfe
Lanzamiento
intermedi
intendente
Trag
ak
cena
ihm
##uches
##drá
##teur
##umin
Lavo
marea
##ombra
difunto
animado
##mons
Brasile
violentos
contribuyeron
##esota
747
robar
demográficos
YouTube
Hipólito
fronteriza
trompeta
sindicato
tripulantes
válvulas
Mitchell
Birmingham
##nel
entierro
concilio
##ambo
Rever
pato
170px
especialidades
Excel
filamentos
vencido
##lix
dominantes
declararon
Infancia
Ganó
Friend
##ünf
exigió
proveedores
haciéndose
##arreal
##anthera
fallido
constructores
bereits
Interpretación
BI
Gira
Icon
Raz
tun
##wers
##him
##inarias
##ocon
##icilina
anécdo
arterial
##caci
carecía
Martina
interrum
Leben
##gren
Caste
milicias
246
Estacional
Erich
encamin
extremas
Transmisión
Tomé
Valley
1767
Principios
galardón
intríns
resaltar
Fujim
Bres
Dil
Sens
césped
##sion
##gano
##ógrafos
inqu
aller
##terías
##toría
##guara
##pov
restitu
Ansel
consiguen
##nail
pastos
heteros
289
Roche
Rail
deport
tanque
vietnam
##urier
338
Key
cultivar
húngara
Morazán
gratuito
##keting
ingenio
geométrica
exitosos
cilindro
garantías
luminosidad
NH
Ulti
##fines
##gard
##cles
##zaban
##entando
rebau
anfibios
##énix
Arra
Aniversario
consol
formulación
implem
solos
Método
romería
Shir
necesitar
299
##clismo
derrotando
##difusión
Borg
viejas
1763
climáticas
aportar
neurol
Peruana
descomposición
Kentucky
Dort
Mick
Pack
bzw
coy
celos
nup
##fund
##omic
##tuarios
##emon
aná
anomal
obrera
advir
##ipes
generador
259
plásticos
Canter
Neer
constituyentes
Basil
copas
426
chilenas
Villarreal
maestre
olvido
1765
desempeña
Scout
Antiguamente
decretos
Ethernet
Voltaire
legitimidad
Terremoto
520
Kate
Zer
liguilla
vemos
vamos
wes
Ésta
ósea
##yar
##jaron
##Size
##inoc
##teau
requi
inher
##teración
actitudes
##ayette
##anden
Anima
inventado
Corinto
##iesen
Place
antecesor
Resolución
Catherine
distribuir
Prefectura
empezado
Buff
financiar
cruceros
Génesis
Engine
Discurso
Grabado
Natalia
Paleolítico
estímulos
densamente
caba
gov
##bin
##dings
allem
##quismo
arrend
Arzobispo
creyentes
Pere
secas
Alegre
mejoró
Party
284
288
Berry
extraños
Navas
rápidas
conductores
colocan
agrupan
sometida
lucro
ovario
eclesiástico
dormir
neumáticos
##nahme
##kreis
inalámb
Cuauht
Filarm
Tennessee
Kio
Lancia
Ria
Recu
Trig
villano
##uver
##ván
##zhou
##x25
elabora
eslov
importación
doscientos
distante
embos
Count
canario
localizan
subyac
Extran
Nego
Soul
ayun
significar
Aux
falsos
ferias
Distritos
##timore
680
1772
1779
Arauc
disminuyó
Alcaldes
aisladas
volcánico
especificación
Bernardino
parecidos
neozeland
cloruro
Convenio
##falls
brinda
Cang
mator
wa
##íd
##TF
##inor
retar
##tuosa
Chir
Challen
Monumental
mexicanas
despedido
Silvio
tregua
topónimos
Mediocampista
exploradores
##drico
Josefina
monstruos
Country
antibióticos
poetisa
Demetrio
damas
##och
##kistan
##itec
decep
##erez
##iscas
##uce
diur
##tenientes
Consta
##uelen
Mao
indemn
Joker
Isis
##ducida
Qui
Primaria
293
322
Wikimedia
noved
Pelopones
Jaume
sustituyendo
trasladados
clausura
danesa
artesanal
Talavera
ilusión
plantel
restricción
recordado
Francesc
vinculada
boliviana
patrocinio
socioecon
restablecer
maniobras
vistos
confundirse
inadecu
antecedente
lomb
Österreich
##sy
##card
##ñiga
##Form
desviación
diamante
resolvió
Chich
mach
electores
##álido
278
constituyente
patriota
##illot
expresan
compartió
numerosa
##seguida
ventr
novedad
concebido
candidata
sumando
avanzados
experimentación
Falcon
Kuwait
húngaros
emisor
Humanidades
England
enamorado
Carmelo
cacique
tigre
quiebra
NS
Sales
Wonder
nudo
sk
tac
##hún
##iaciones
##aben
carnes
Conquist
##alizarse
Carrión
Perl
venciendo
pintar
navide
catas
declarados
aproximado
fáciles
deportistas
nucleó
lecturas
inaugural
mandos
oxid
cartagin
suspendido
inteligentes
refugi
comprendía
delantera
Managua
aclarar
Children
prerrom
html
anarquistas
Apost
Brunswick
Peloponeso
Hut
Peso
Spor
Stern
Zap
Zoro
##73
##ān
procedió
##gura
##pardo
##ichts
Carav
emprender
recort
##estan
##iloé
subgru
confeder
concur
Moro
patrim
sentencias
huérf
Boletín
sanción
liberada
hidró
provocada
posterioridad
suprem
mínimos
lingüísticos
1536
Ulises
desconocidas
Remo
cuándo
cronología
Legislativa
Fruto
Vladimir
metafísica
franciscanos
Fus
Ruther
cómica
nun
sero
##sam
##tías
entrando
conno
##isi
##ocada
extras
esclavo
Naz
llegue
Valenzuela
situó
filmes
orgullo
Orozco
convertida
##zanne
Papas
agradable
excesivo
embarcó
cebada
Phillips
primordial
Collection
H2
Ich
Kak
MG
cep
vano
##rés
##mens
##Area
##timiento
##trich
Intendente
leve
aban
##allones
Boul
271
merced
Cristian
sexos
Pred
640
##zeich
crudo
Operaciones
Heming
flechas
relojes
##cacielos
Gill
Ród
hemor
##05
##bidos
##vana
##DC
labios
##entz
delgado
estás
##emaml
##ibel
Maradona
Chern
##zahl
presta
ofrend
Colima
cultos
100x100px
textura
314
especímenes
fundamentos
trasladada
##film
Bosco
modificó
##copia
fabricados
API
index
metálica
Yuan
Hera
Kop
Voc
year
##adis
##ropi
##acle
##uder
primitivas
asienta
caroling
Marian
Comuna
Matilde
chin
Quién
ordenamiento
organizaron
XXV
influir
terminaría
Heid
339
Baltimore
Cath
384
pronunció
flujos
botella
implant
desconocidos
Auditorio
Inmedia
puertorriqueño
desgaste
Hewitt
violonch
Dreyfus
Paralelamente
510
banca
mid
megal
##mara
##wä
##tanos
##Axis
##adar
##timos
inorg
cuota
##pea
marineros
abrieron
##ionaje
##fect
fundados
completado
cinética
ideológica
294
superficiales
sanitaria
Balles
prolon
TimeAxis
Euskadi
consonantes
festejos
Teoti
Progresista
Bürger
ScaleMajor
hidrocarburos
hundimiento
Hockey
Móst
Nó
Veci
Yak
ihn
##jadas
##kenn
##uil
##asaki
endos
##icaría
##chea
exámenes
##trecht
cargar
prej
compás
regalos
barí
##enze
ahog
baila
324
duquesa
McM
376
Plant
restaurado
Alexis
heredera
Atlantic
garganta
redirección
Concordia
ImageSize
portavoz
Ajedrez
antisem
Bowl
sáti
Brisbane
Lancaster
Flavio
Cleveland
Dí
Dj
Rö
him
tsun
##pie
##zarse
##ads
##ledo
##dit
Enrico
desér
perifer
##ienten
Esquerra
##fern
resuci
interrupción
precar
denot
303
afines
Abb
Mugen
terminación
335
modernista
acababa
Louise
Judíos
Ecemaml
Orchestra
multiplicación
desafío
razonamiento
PlotArea
centenar
curioso
imprescindible
Fortaleza
exfutbol
Mohamed
3°
Wak
##TH
##enko
##issen
##abar
##ely
acusa
Rei
Realizó
Chino
verbos
Mundiales
decap
cantones
thumbnail
avanza
refres
##fox
hombros
lípidos
Capacidad
sabio
ponía
balonmano
Burdeos
novena
cruzan
Severo
Tokyo
murales
Ronnie
deformación
Académicos
Botanical
hostilidades
Rutherford
1r
Cog
sah
##terdam
arries
##aval
##urando
##ioni
##lli
Mauro
##ólera
Sirac
insa
283
Tratamiento
##galpa
reflejar
Espejo
##ughton
convocar
ilegales
reconstruido
indirectamente
mosaico
portátiles
anfitrión
Hemingway
Tut
nulo
##UL
dels
Aliados
Reinado
##ichten
prevent
Porsche
##anger
Shu
norteamericanos
##ffi
291
metropolit
resultaba
preparó
permitían
##pacá
Claro
afirmaciones
Ryu
recuerdan
prefijo
renombrado
armenios
circunscripción
depredadores
afrontar
A1
IR
Noble
Otero
Wein
cí
hil
##bac
##sberg
##éter
##tete
sehr
##abi
##loga
##tenas
Converg
conspir
peores
electos
Nobles
voltaje
calibre
avist
282
##phia
##arium
Baños
Osorio
mensual
##zeug
Artem
1769
fortalezas
bené
parlamentarios
invadió
escriben
Entrenador
criollo
Sépti
##gogía
Echever
longe
Ayerbe
afianz
Fujimori
BT
Like
Name
Tah
Urano
ach
emin
kW
vg
##rd
##jord
##df
##cencias
##änd
comesti
estir
Ellio
Reales
lejano
tracción
Deci
regímenes
traspl
edita
gramos
##iance
comunicar
##estino
conced
Never
Diputado
277
combinar
imitación
energético
fortificaciones
contrase
añaden
folgen
ocultar
Integración
grasas
rigor
Carlota
Protector
Heracles
Móstoles
Faro
Lars
Oreg
Sit
aria
citados
Enríquez
Els
##ucas
Algor
##tileno
##ionarios
caminar
alegre
bastantes
Andrade
informado
estudiando
activas
sílaba
Restre
Auch
administrado
catar
liberados
sostuvo
adaptadas
Elección
finalizando
Infin
Frauen
válidos
Padua
mágica
Alejandra
Numeros
Cuadro
póstumo
Tarapacá
detonó
Nadie
Bizan
FO
Hale
Lol
Obl
XP
cedido
##kun
##vera
##vich
deutschen
##erios
##ering
enterra
##elada
##uradas
##mata
##cata
demócratas
Geograph
elementales
gobernada
328
Discusión
relacionan
##paso
valoración
madres
Mats
intentaba
impresa
atribuyen
dramáticas
alimentaria
almacenes
escalar
Fons
recogido
evolucionó
Padres
Toscana
Astronomía
damit
réplica
drenaje
Köppen
desgracia
sas
##tadura
##cad
##vá
##hir
comis
estrib
##tula
##chia
##ullos
##ásicos
nacimientos
adquis
1650
chor
canchas
Perió
humed
that
conceder
Diam
267
261
##rypton
Resumen
virre
Julie
adecuadas
Lane
hondure
Konst
accesorios
primogén
rindió
gemelos
Ártico
Plutón
destituido
##vergadura
Poseidón
Contemporánea
invisible
telenovela
Igua
hilos
##ić
##anna
suena
Estero
Espas
suscepti
cargado
leonés
amoníaco
257
##cosa
afili
fáb
frailes
560
Warwick
psicológica
líquida
Portales
Concurso
Sagan
escoger
##hemat
mixta
Barranco
escogido
biólogo
espontánea
digestivo
Lenguaje
Guillén
Ródano
Bizancio
Dmit
Euc
Giac
godos
rito
##ppe
parentes
Lau
anónima
diariamente
##ibia
##trag
##cea
##0000
Conrad
Barón
oficios
274
Geología
##urias
Beltrán
participaciones
Magos
montañ
Roberts
Golpe
cruzados
pulso
acuáticos
robots
escalada
##úrico
predominan
oscuras
Enterprise
Periodistas
Manifiesto
ovejas
Schneider
##frenia
Complutense
Orinoco
Beb
EM
Full
Hass
Mena
Siles
Tsu
moles
tóp
##gaban
##Te
##ção
##encos
##ticismo
desar
examin
caribe
intervalos
Material
##inastías
vole
calzada
##bey
niñez
##bank
##cash
dirigirse
católicas
Felix
representativas
Dow
fotovolta
transformado
Molino
planeado
antropología
requisito
empuje
prefiere
petrolera
armenio
abarcan
Forest
níquel
pólvora
Logroño
mozára
Kioto
Bh
Cana
Qa
Xbox
herv
sida
##linas
##beck
##úb
deficiencia
##entura
reaf
desas
arri
colisión
incum
Suite
Judea
autorizó
Presentación
Edmund
Balón
PSC
Syst
Facebook
Espada
corredores
sostenible
indetermin
desarrollos
desfavor
cardíaco
veinticinco
Hoffmann
Prueba
Atletismo
selbst
##ágrimas
Coca
Sis
Ullo
Yellow
##óvar
condesa
##rab
##egeben
##tonina
1740
transpor
Expo
concursos
cines
masac
Poemas
conocían
Review
funcionó
estarían
Planck
claus
Villarro
##inaldo
Nieder
inverso
Instalaciones
satisfacción
Alfaguara
sediment
Apóstoles
##straße
sanguíneos
Mozambique
Secundaria
Badal
Jab
Trá
Ward
sw
##gamos
##En
paras
Arca
##iela
Maril
prestaciones
Barber
transmis
encuestas
##mitas
##ciosas
Emmy
432
militante
##ancagua
Electron
tocado
PPD
FIA
estadístico
aventur
identificados
Embal
húmeda
Ensayos
Cielo
Kraft
rinoceron
statt
Cañete
Phoebe
metodología
Núcleo
gentilicio
Tip
bodas
bezeichnet
miden
##onería
##arta
##str
quejas
##acy
##ocles
##pugn
##ifolia
Marcus
miniserie
cantó
Three
##tanas
Minn
Sociología
numérica
399
registran
ligeras
Senador
alfar
lingüista
Valenciano
Hills
eliminatorias
Arquitectos
bautismo
##urrido
volcánicas
PNG
Constructores
Dulce
Celebraciones
Tanzania
C3
Raj
óse
##LN
##tein
##tium
##ivan
Arcos
##denburg
Seúl
previas
##endidos
1530
verificar
saltos
mayoritaria
302
Torrem
comparable
forzar
funcionando
381
##ission
cocido
clínicos
delegado
alineación
heterogén
pantalones
garantía
absurdo
Klaus
##tífice
Instrumentos
Enseñanza
prejuliano
cór
##luss
##aré
##alias
paridad
##andad
Reim
Chase
Noel
##turada
Petit
Thier
favoritos
Humano
Buñ
poblamiento
530
Melchor
968
gustaría
adecuados
##ácea
Koch
Lovecraft
Conservación
Idiomas
peligrosa
Cañada
invernadero
prometió
Emiratos
Ugarte
cartagineses
Siracusa
Tat
babil
##vag
##hire
##ов
sumo
##tivación
##tenango
Sangre
##ensen
invento
Guilla
Juicio
existieron
gray
barcel
Sinalo
Federer
Phy
aumentaron
Christoph
##vascular
designados
colombianos
##burgh
acordaron
estricta
flexibilidad
erigió
repobl
confrontación
Actividades
Filarmónica
exfutbolista
Brom
Cell
Sócrates
TC
bélico
##mate
##uard
##vine
delgada
Alí
consistor
espejos
Colin
chicos
Actividad
Correg
##iesa
Shan
Qua
##ímac
##efal
358
##ynam
##isation
panel
570
contemplar
bellas
Bonn
##génesis
saqueo
Kreuz
perpetua
flanque
ballenas
konnte
Chandler
Retablo
regadío
Ilí
Laredo
Mits
Ono
Tera
atro
sy
##west
##ótro
##ñe
confer
##amm
comisiones
Eléctr
acced
Seit
castig
##opas
apla
Porcentaje
Amal
##rissa
aleaciones
instru
Abas
controlados
##bels
hours
Bernhard
Melgar
sumado
abundan
psicólogo
Pirámide
Técnicas
ostenta
Funciones
droga
prolongada
comprendida
peligrosos
Bertrand
neumonía
adornos
patatas
bemol
Ulloa
BAS
Ciro
Kob
Orense
flash
iso
##jutsu
##gand
##picas
##ompié
quede
perme
solidaridad
##zoico
247
##mittel
lanzamientos
limitados
copiar
sustituida
elaboró
empates
latinoamericano
##navales
Ascenso
Benavente
Provisional
supremacía
Word
##ói
##UM
##orp
##tat
parar
##ceta
polos
polif
minero
Programas
defendía
calientes
308
Canales
aproxima
inscrito
venir
venían
Presidencial
refería
Fermín
estrechos
expresamente
Tower
Steiner
Cristianos
379
lecciones
adivin
remol
esquemas
polémico
anunciaron
Veh
##áutico
##químico
centenares
Febru
preliminar
Gogh
ultravioleta
Doble
Fiction
Kings
Our
bú
muda
##nab
##cente
congre
##chb
##istin
##court
Alfons
Arcángel
conventos
##tecos
pieles
263
continuos
irra
352
justificación
##endaciones
avanzadas
almacén
##arcación
##ilding
sagrados
fósforo
preservación
Cochrane
Crimea
Dependiendo
pájaro
Palabras
2n
610
but
##wes
##cm
##onera
##aray
##alí
conejo
##illes
estip
##erogl
poster
##quiel
Macin
##ertz
barreras
##ámides
Quien
##ulsión
Quedan
ingresa
ejercido
condenó
1648
7000
clínicas
ilegíti
diesem
respetar
movilización
protectorado
erróneamente
Eritrea
Dakota
bereberes
Capitanía
Pix
Vital
Vásquez
Weg
eres
Émile
##kina
##fur
##iadas
##NO
##anus
##teas
##abeto
Arno
Inu
Cond
##tasa
##vedo
milagro
Finanzas
##ixa
elegante
337
Bache
##schule
Brothers
acabaría
orgánico
JPL
Ponti
Stars
conquistado
competidores
Angelo
##önen
Illustra
1560
ceremonial
férrea
Guns
Nerón
recaudación
matrimonios
Volkswagen
campanario
Gimnasia
Páramo
Reno
goma
over
##ubert
##x20px
eligen
estriba
##ulin
##cionadas
##trados
anno
##queño
Retir
corros
Tegu
ordenados
derrocar
Alberti
414
Venezol
promocionar
prevista
Niki
voluntario
Kimi
modifica
seinem
abdomen
oceánico
Ochoa
cuantita
cebolla
barítono
Eich
Himal
pórtico
##lara
##lauf
##igración
##patra
##ínico
presum
Carv
maz
ordenada
negación
Harbor
Galindo
discur
Patrese
pensadores
velas
elevar
sueldo
pudiese
Scud
Maxwell
rehus
practicantes
reconstruida
SPD
patrono
Lindl
peregrinación
cometidos
Peñaranda
##punkt
Caba
Cód
Ejer
Nr
Pick
Visión
rond
vial
##hod
##ricidad
##lativo
porcent
diente
##peg
##rust
deren
Colors
João
románica
afuera
sabemos
entrenadores
sensor
artesanía
envol
##juy
Ilde
Bloom
##árate
Chinch
Soccer
girar
cilindros
léxico
Spanish
Coco
bob
gue
##túan
##69
latitudes
engl
exhibi
Arma
##heits
##opment
110px
Joey
307
patin
Graci
##gonales
historie
Españoles
verdaderas
obstáculo
diagonal
Mercos
Week
Todd
aprovecha
cánta
1660
prestigioso
Watch
ramal
percibir
eclesiásticos
##emitismo
fiabilidad
villanos
##oglobina
aglutin
Hoya
Taj
Ácido
##zzi
##DB
envergadura
##olito
Laut
##rass
Altar
##mash
Barrera
subtropical
escribieron
tomados
continuaba
Mountain
coloración
metáf
Liberia
453
Clásica
magnesio
criado
vinculación
Alcaldía
Gustave
prolongado
Pesca
misterios
carlista
Hendrix
videoclip
Espasa
Dino
##hip
##horn
##äß
##Al
labr
##ilde
profec
##ferentes
polit
contrac
Protagon
##ombe
##iane
Salva
##ifican
concord
faldas
penúlti
362
ascensión
##fred
incorporan
Bonifa
heladas
1766
deseado
Vallés
1755
consultas
hallar
Philipp
uruguaya
polémicas
grid
contradicción
heroína
semanal
Television
portátil
acorazado
mandíbula
Busto
Ji
cod
faro
galo
tern
##ódico
##amia
##abella
##tere
exclusión
Reform
##ceo
escandina
denunció
pasada
tutela
indul
##ritt
Corral
constituyendo
317
##cker
##hower
comparada
separarse
molino
ofrecieron
Christmas
comercialmente
lideró
coincidió
RAE
Chaplin
hambr
icono
Olimpo
Límites
eruditos
apóstoles
guatemalteco
tóxicos
abreviado
voleibol
Bren
Ehr
Tier
Xi
bamb
grec
lang
lance
##02
##egu
##lana
##rena
##huel
dei
##inadas
##rel
##rieben
alimenta
analiza
máscaras
cardenales
consistencia
##agor
nazar
cordob
##thul
municipalidad
plus
Shah
palos
##kee
fricción
Milagros
##chenko
descubren
obtenidas
Pasó
Rubi
consecutivo
virtuales
ofrecido
Einwohner
Copia
subsistencia
##íbulo
Ecología
desaparecida
revisar
Songs
Banglad
subdivid
melodías
##chtenstein
búlgaro
##icelulares
Ambrosio
occitano
Añ
Becer
Eros
Gato
Kno
Kris
KDE
Tell
##klin
##grup
##TM
##redo
##tiones
##elles
##igmas
progen
##berry
especifica
Médico
andro
##ciosos
redund
Rosales
episcopal
386
Electro
Actualizado
##visible
peruanas
navegar
heredó
contemporáneas
Socialistas
polarización
Chamber
idéntico
compilador
Distinciones
descifr
cocaína
exterminio
contrarrestar
Metropol
Domenico
Fahr
opuestas
##bet
##yug
##onen
##anie
##pago
exager
##erato
##ott
denso
Exc
##tólogo
Calcio
##mitte
##ericordia
refund
épica
Verona
Caballo
Recorr
aceptable
Bases
Cretá
ejecutiva
Doctrina
Autón
trozos
entendido
jurídicas
Comprom
indicadores
A320
visigoda
eventual
elefantes
Teorema
Dresde
Sandoval
Sinaloa
Macintosh
Mercosur
Aviv
ER
Emin
Know
Niel
Oruro
Tz
##falia
##pedes
##ój
unán
##istoceno
##ajos
Aldo
Paredes
calificado
milagros
319
##calo
##fondo
Posada
##urasia
Vengadores
limpia
418
Brid
otorgada
##fredo
Juntas
colocada
ecología
salvó
Comprende
Meseta
mirar
estallar
Giménez
Jahrhunderts
relleno
híbrido
decorados
Stevens
Dubái
Rebelión
trampa
periferia
Abo
Gate
Glen
Utrecht
digo
##pä
##has
##MO
unitario
##lope
##izi
cuidad
mula
1610
[...]
